#include <cstdint>

#include "./models/./models/model_int8_model_data.h"

alignas(16) const unsigned char g_model_int8_model_data[] = {0x20,0x0,0x0,0x0,0x54,0x46,0x4c,0x33,0x0,0x0,0x0,0x0,0x14,0x0,0x20,0x0,0x1c,0x0,0x18,0x0,0x14,0x0,0x10,0x0,0xc,0x0,0x0,0x0,0x8,0x0,0x4,0x0,0x14,0x0,0x0,0x0,0x1c,0x0,0x0,0x0,0x84,0x0,0x0,0x0,0xe0,0x0,0x0,0x0,0xd4,0x22,0x0,0x0,0xe4,0x22,0x0,0x0,0x68,0x35,0x0,0x0,0x3,0x0,0x0,0x0,0x1,0x0,0x0,0x0,0x4,0x0,0x0,0x0,0x6a,0xdb,0xff,0xff,0xc,0x0,0x0,0x0,0x1c,0x0,0x0,0x0,0x3c,0x0,0x0,0x0,0xf,0x0,0x0,0x0,0x73,0x65,0x72,0x76,0x69,0x6e,0x67,0x5f,0x64,0x65,0x66,0x61,0x75,0x6c,0x74,0x0,0x1,0x0,0x0,0x0,0x4,0x0,0x0,0x0,0x94,0xff,0xff,0xff,0x16,0x0,0x0,0x0,0x4,0x0,0x0,0x0,0x8,0x0,0x0,0x0,0x6f,0x75,0x74,0x70,0x75,0x74,0x5f,0x30,0x0,0x0,0x0,0x0,0x1,0x0,0x0,0x0,0x4,0x0,0x0,0x0,0x2a,0xdf,0xff,0xff,0x4,0x0,0x0,0x0,0x6,0x0,0x0,0x0,0x61,0x72,0x67,0x73,0x5f,0x30,0x0,0x0,0x2,0x0,0x0,0x0,0x38,0x0,0x0,0x0,0x4,0x0,0x0,0x0,0xd8,0xff,0xff,0xff,0xd,0x0,0x0,0x0,0x4,0x0,0x0,0x0,0x17,0x0,0x0,0x0,0x6b,0x65,0x65,0x70,0x5f,0x73,0x74,0x61,0x62,0x6c,0x65,0x68,0x6c,0x6f,0x5f,0x63,0x6f,0x6e,0x73,0x74,0x61,0x6e,0x74,0x0,0x8,0x0,0xc,0x0,0x8,0x0,0x4,0x0,0x8,0x0,0x0,0x0,0xc,0x0,0x0,0x0,0x4,0x0,0x0,0x0,0x13,0x0,0x0,0x0,0x6d,0x69,0x6e,0x5f,0x72,0x75,0x6e,0x74,0x69,0x6d,0x65,0x5f,0x76,0x65,0x72,0x73,0x69,0x6f,0x6e,0x0,0xe,0x0,0x0,0x0,0xf0,0x21,0x0,0x0,0x60,0x20,0x0,0x0,0x48,0x10,0x0,0x0,0xf8,0x1,0x0,0x0,0xe4,0x1,0x0,0x0,0xcc,0x1,0x0,0x0,0xbc,0x0,0x0,0x0,0xa8,0x0,0x0,0x0,0x88,0x0,0x0,0x0,0x6c,0x0,0x0,0x0,0x50,0x0,0x0,0x0,0x38,0x0,0x0,0x0,0x18,0x0,0x0,0x0,0x4,0x0,0x0,0x0,0xda,0xdf,0xff,0xff,0x4,0x0,0x0,0x0,0x4,0x0,0x0,0x0,0x74,0x72,0x75,0x65,0xea,0xdf,0xff,0xff,0x4,0x0,0x0,0x0,0x10,0x0,0x0,0x0,0x32,0x2e,0x30,0x2e,0x30,0x0,0x0,0x0,0x0,0x0,0x0,0x0,0x0,0x0,0x0,0x0,0x6,0xe0,0xff,0xff,0x4,0x0,0x0,0x0,0x8,0x0,0x0,0x0,0x3,0x0,0x0,0x0,0x2,0x0,0x0,0x0,0x1a,0xe0,0xff,0xff,0x4,0x0,0x0,0x0,0xc,0x0,0x0,0x0,0x1,0x0,0x0,0x0,0xa,0x0,0x0,0x0,0x40,0x0,0x0,0x0,0x32,0xe0,0xff,0xff,0x4,0x0,0x0,0x0,0xc,0x0,0x0,0x0,0x0,0x0,0x0,0x0,0x2,0x0,0x0,0x0,0x1,0x0,0x0,0x0,0x4a,0xe0,0xff,0xff,0x4,0x0,0x0,0x0,0x10,0x0,0x0,0x0,0x1,0x0,0x0,0x0,0x40,0x0,0x0,0x0,0x1,0x0,0x0,0x0,0xa,0x0,0x0,0x0,0x66,0xe0,0xff,0xff,0x4,0x0,0x0,0x0,0x4,0x0,0x0,0x0,0x40,0x0,0x0,0x0,0x76,0xe0,0xff,0xff,0x4,0x0,0x0,0x0,0x0,0x1,0x0,0x0,0x0,0x0,0x0,0x0,0x1,0x0,0x0,0x0,0x2,0x0,0x0,0x0,0x3,0x0,0x0,0x0,0x4,0x0,0x0,0x0,0x5,0x0,0x0,0x0,0x6,0x0,0x0,0x0,0x7,0x0,0x0,0x0,0x8,0x0,0x0,0x0,0x9,0x0,0x0,0x0,0xa,0x0,0x0,0x0,0xb,0x0,0x0,0x0,0xc,0x0,0x0,0x0,0xd,0x0,0x0,0x0,0xe,0x0,0x0,0x0,0xf,0x0,0x0,0x0,0x10,0x0,0x0,0x0,0x11,0x0,0x0,0x0,0x12,0x0,0x0,0x0,0x13,0x0,0x0,0x0,0x14,0x0,0x0,0x0,0x15,0x0,0x0,0x0,0x16,0x0,0x0,0x0,0x17,0x0,0x0,0x0,0x18,0x0,0x0,0x0,0x19,0x0,0x0,0x0,0x1a,0x0,0x0,0x0,0x1b,0x0,0x0,0x0,0x1c,0x0,0x0,0x0,0x1d,0x0,0x0,0x0,0x1e,0x0,0x0,0x0,0x1f,0x0,0x0,0x0,0x20,0x0,0x0,0x0,0x21,0x0,0x0,0x0,0x22,0x0,0x0,0x0,0x23,0x0,0x0,0x0,0x24,0x0,0x0,0x0,0x25,0x0,0x0,0x0,0x26,0x0,0x0,0x0,0x27,0x0,0x0,0x0,0x28,0x0,0x0,0x0,0x29,0x0,0x0,0x0,0x2a,0x0,0x0,0x0,0x2b,0x0,0x0,0x0,0x2c,0x0,0x0,0x0,0x2d,0x0,0x0,0x0,0x2e,0x0,0x0,0x0,0x2f,0x0,0x0,0x0,0x30,0x0,0x0,0x0,0x31,0x0,0x0,0x0,0x32,0x0,0x0,0x0,0x33,0x0,0x0,0x0,0x34,0x0,0x0,0x0,0x35,0x0,0x0,0x0,0x36,0x0,0x0,0x0,0x37,0x0,0x0,0x0,0x38,0x0,0x0,0x0,0x39,0x0,0x0,0x0,0x3a,0x0,0x0,0x0,0x3b,0x0,0x0,0x0,0x3c,0x0,0x0,0x0,0x3d,0x0,0x0,0x0,0x3e,0x0,0x0,0x0,0x3f,0x0,0x0,0x0,0x82,0xe1,0xff,0xff,0x4,0x0,0x0,0x0,0x8,0x0,0x0,0x0,0x1,0x0,0x0,0x0,0x40,0x0,0x0,0x0,0x96,0xe1,0xff,0xff,0x4,0x0,0x0,0x0,0x4,0x0,0x0,0x0,0xcd,0xcc,0xcc,0x3d,0xa6,0xe1,0xff,0xff,0x4,0x0,0x0,0x0,0x40,0xe,0x0,0x0,0xea,0x2,0x31,0xdc,0x3,0x28,0x17,0x3,0x0,0x14,0xc5,0x52,0xc5,0x36,0xf2,0xf5,0x32,0x46,0x39,0x2a,0xa,0xf1,0xee,0xe8,0xb,0xee,0x27,0xed,0x2e,0x56,0x47,0xbf,0x21,0x2f,0x41,0xe4,0xb4,0x5f,0xfa,0x2e,0x2a,0xb6,0xd5,0x24,0x44,0xc9,0x7f,0x7,0x69,0x18,0xac,0xe6,0xb,0x30,0xc1,0xf9,0xf0,0x3c,0x10,0xf9,0xed,0x97,0xdf,0x47,0xc7,0x4c,0xed,0x5,0xb5,0xd1,0x5c,0xfa,0x7f,0xe6,0x63,0xd6,0xed,0x1f,0x11,0xde,0x98,0x3,0xc4,0xb2,0x0,0xac,0xdc,0x29,0x46,0xa6,0xeb,0xc4,0xf9,0x37,0x7,0x5f,0xfa,0xc2,0x1f,0x30,0xc1,0xbb,0x75,0xc7,0xc5,0xaf,0x1c,0xc1,0xf7,0xed,0xa8,0xfa,0x34,0x9e,0x28,0x0,0xd4,0xcc,0x24,0xb,0xcc,0xfa,0x47,0x99,0x41,0x90,0x3a,0xe9,0x56,0xd,0xe7,0xa7,0xf1,0x29,0xa,0xcd,0x3b,0xfa,0xa7,0xc3,0x17,0x6e,0x49,0xb6,0xdb,0x2,0xd6,0xed,0x12,0x4a,0xcd,0x4,0x37,0x38,0x5b,0xe8,0xd6,0xa8,0x23,0xc9,0xcd,0x81,0xe8,0x51,0xf3,0x0,0x22,0xde,0xc,0xf7,0x51,0xd4,0xfd,0xee,0x1a,0x1c,0x2c,0xf,0x13,0xf0,0xbf,0x15,0xd1,0xe5,0xfe,0x49,0xda,0x38,0xf6,0xee,0xf7,0x37,0xe2,0x5,0x2,0xf2,0x26,0xce,0x19,0x20,0xd9,0x4,0x20,0xd0,0xfc,0xe6,0x23,0x1f,0x8,0x1b,0xf4,0x5b,0xe8,0xf1,0xf5,0xf1,0xa0,0xb7,0xe7,0xd1,0x26,0x44,0x1,0x20,0xe9,0xbf,0xf6,0x7f,0x0,0x29,0x0,0x27,0x22,0x35,0x14,0xa,0xe6,0xa0,0xfc,0x0,0x22,0x2f,0x15,0xf1,0x1a,0xe7,0xa,0xd5,0xee,0x1d,0xec,0xe1,0xd6,0xaf,0x2c,0x37,0xe0,0xfe,0xc6,0x3,0xd1,0xfb,0xc,0xfd,0xfe,0xe9,0x44,0x20,0x4,0xe7,0x25,0xce,0xd5,0xfe,0x81,0xd4,0xc8,0xec,0x2c,0xf3,0xaf,0xbe,0xd5,0x41,0xbe,0x22,0x2d,0xfd,0x1c,0xd1,0xf9,0xd0,0xe2,0xd6,0xcb,0xd0,0x96,0xd9,0xc3,0x5c,0xdd,0x1a,0x36,0x1c,0xd6,0x2e,0xca,0x13,0xd3,0xcc,0xb2,0xb4,0x1b,0x15,0xd,0xbe,0x48,0xdc,0x12,0x30,0x6b,0xf,0x39,0x59,0xd9,0x0,0x4e,0x3b,0xd,0xf7,0x6,0xb5,0xb2,0xcc,0xdf,0x49,0x3f,0x8b,0x47,0x25,0x57,0x81,0x4,0xff,0xc5,0xec,0x1e,0xfd,0x1e,0x2b,0x2b,0xe3,0x30,0x81,0xf7,0xba,0x10,0xb9,0xea,0xbb,0x13,0xf9,0xda,0x9e,0xf1,0x10,0x15,0xf4,0xc,0x38,0xf7,0x1b,0xd1,0x20,0xb2,0x26,0x21,0xff,0xe4,0xbe,0x26,0x1a,0xfe,0x1c,0xf2,0x21,0xda,0xae,0xe8,0x89,0xfe,0xf0,0x21,0x57,0x2b,0x21,0x5b,0xfb,0x46,0xf5,0xa8,0xfe,0x47,0x37,0xe7,0x17,0xf7,0xf5,0x2,0x49,0x23,0x28,0x34,0xb6,0xd1,0xe5,0xe1,0x1d,0x29,0x14,0x27,0xca,0xf7,0x26,0x52,0x46,0x22,0x33,0xe3,0x1,0x8,0x45,0x1f,0xd4,0xcf,0xfa,0x1b,0xb,0xf1,0x14,0xd8,0xd5,0xcf,0xe3,0xae,0xc,0xf9,0x2,0xb,0xcd,0xd6,0xfe,0xe6,0x20,0xf7,0x7f,0x5b,0x56,0xbe,0xb7,0xd,0x26,0xc8,0x7,0x1e,0xe4,0xd9,0xfb,0xd3,0x2e,0xfa,0x17,0x2,0xf7,0x4,0x3,0x7f,0x48,0xd3,0xf,0xfe,0xf7,0xd7,0x1a,0x10,0x1a,0x22,0x30,0xd6,0x3d,0x15,0x4d,0xdf,0x35,0xb,0x35,0x14,0xf,0x26,0xbb,0xce,0x9,0xc9,0xa9,0xbb,0x5,0x0,0x10,0x83,0x5,0xa6,0x61,0xa0,0xe4,0xbe,0x13,0x2b,0x1d,0xd5,0xc4,0xc1,0x2f,0xf9,0xe5,0x38,0x12,0x30,0xe0,0x14,0xcf,0xd9,0x5,0x19,0x2a,0xf,0x34,0x8,0x20,0xf9,0x29,0x1f,0xe8,0xa,0xc,0xe3,0xec,0x18,0x3a,0xe5,0xe7,0x17,0x34,0x26,0x19,0xd4,0x7,0x3,0xd,0xa3,0x18,0x31,0x11,0x29,0xe,0xb2,0x1a,0x83,0xc1,0xcf,0x7f,0x1a,0x4f,0x1,0xe8,0xc5,0x0,0xc3,0xa,0x1a,0xde,0xe9,0xb6,0x23,0x34,0x44,0x12,0xdd,0x19,0x40,0xf0,0xd,0x16,0x14,0xbf,0xbd,0xb8,0xda,0x21,0xd5,0xa,0xf6,0x3c,0xdb,0xdb,0x1a,0xfd,0x41,0xee,0x6f,0x2c,0x2e,0xdc,0x7,0xac,0xdb,0x7,0x8,0xd3,0x2b,0x9,0xeb,0xf2,0x81,0x8f,0xee,0x4f,0xd8,0xef,0x0,0x47,0x2a,0x28,0x8,0x27,0xba,0xad,0x42,0xc7,0x7d,0xd5,0xaf,0xdd,0xfe,0x3,0x29,0xd,0xf3,0x1f,0x2b,0x23,0xe0,0xfe,0x40,0xc,0xb8,0xea,0x1c,0xe5,0xe8,0x41,0x1b,0xdf,0xfa,0xa,0xdb,0xd1,0x2c,0xd1,0x0,0xe2,0x3d,0xd8,0x11,0x7a,0x7f,0x9,0xec,0xdf,0xd1,0x18,0x31,0x1e,0x1,0xe2,0x16,0xc9,0x47,0xf3,0xf2,0xef,0x34,0x9e,0xfb,0x63,0xb2,0x67,0x15,0x1d,0xf6,0x61,0xed,0x2,0xc4,0x31,0xf,0x21,0xc0,0x2d,0x42,0xcb,0x3d,0x81,0xc6,0x1e,0xd,0x4,0x1a,0xa8,0x1d,0xb1,0xd0,0xe5,0x97,0xc5,0x9e,0xe0,0x23,0x7,0x6,0x72,0x6e,0x7a,0x1b,0x11,0xca,0xca,0x17,0xf7,0x5,0xe4,0x5,0x27,0x29,0x2,0xfd,0x2e,0x18,0xce,0x1,0xf3,0x74,0xc1,0x6a,0x21,0xe2,0xe9,0x0,0x4,0xff,0x19,0x11,0x3a,0x38,0x7,0x16,0x19,0xf1,0x1f,0xb7,0x33,0x3a,0xf8,0xcd,0x63,0x28,0xf,0xcd,0x34,0xda,0xc2,0x1c,0xa4,0xca,0xe,0x64,0x2c,0x51,0x2b,0xa,0x1f,0xce,0x31,0xd,0xf,0x7f,0x47,0xc1,0xe7,0x1b,0x60,0xfd,0xe4,0xc5,0xf3,0x29,0xf6,0xbd,0x21,0xd1,0x1d,0xc,0xc4,0x1d,0x8,0x1f,0x7,0x1a,0x26,0x40,0x22,0x2a,0xf2,0xee,0xda,0xf7,0xf4,0xf9,0xfb,0xfa,0xe3,0x22,0x26,0x28,0xfb,0x40,0xe5,0xc0,0xcc,0xdc,0x20,0xf4,0xe,0xff,0x63,0xd3,0xc6,0x1f,0xdf,0xe9,0x1f,0xf3,0x1c,0x30,0x2f,0x81,0x22,0x1a,0xd7,0xd4,0xf1,0xd9,0x12,0x29,0xd0,0xee,0xc0,0xf2,0x6,0x6,0x37,0x33,0xa,0x4,0x2a,0x38,0x41,0x4d,0x13,0xbb,0x1d,0xfc,0xd3,0x3a,0xfc,0xd,0xbf,0xec,0xf7,0x1a,0xdb,0x4c,0xe9,0x54,0x30,0xee,0x9b,0x5b,0xf6,0x23,0x29,0x6e,0xea,0xc7,0x2f,0xc8,0xef,0x40,0x89,0x36,0xbc,0x19,0x81,0x18,0x5a,0xb8,0xf7,0xd,0xcf,0x18,0xf1,0xc7,0x2c,0xdb,0xad,0x2,0xec,0x62,0xc3,0x26,0x27,0xa,0x1f,0x12,0xb4,0x3,0x9,0x3,0x17,0xf7,0x17,0xe5,0x15,0xe2,0x1c,0xb0,0x41,0x1f,0xd,0xea,0xbc,0xd8,0xec,0xe7,0x72,0x2c,0xb9,0x36,0x2b,0x9f,0xec,0x10,0xe7,0x74,0x73,0xd3,0x7f,0x4c,0x16,0xc9,0xe,0x6,0xfc,0xff,0x10,0x33,0x32,0xe,0x3,0x2a,0xc8,0x68,0x7,0x18,0xf2,0x12,0x2e,0x3e,0x17,0xf2,0xff,0x19,0xd0,0xc4,0xe5,0xba,0x2,0xed,0x1a,0x1e,0x25,0xd7,0xf0,0x19,0xda,0xd9,0xa,0xf2,0xac,0xd6,0x91,0x33,0x9,0x29,0xdb,0x4b,0xe7,0x15,0x13,0xd7,0xed,0xf3,0x2,0x42,0x33,0xe3,0x81,0xfa,0xa2,0xf6,0x35,0x21,0xd9,0xdc,0xd,0x2,0x3c,0x1c,0x5a,0x17,0x3e,0xee,0x13,0xef,0x1e,0x0,0x37,0xea,0x29,0xd0,0xeb,0x4e,0x1,0x1c,0xe1,0xf7,0xf3,0x27,0xa8,0x5e,0xcc,0xe6,0xb1,0xc4,0xd5,0xd1,0xc5,0x42,0xcb,0xc9,0x2e,0xba,0x1c,0x7f,0x73,0x3c,0xd6,0x8e,0xc0,0x60,0xf3,0xdc,0xd1,0x52,0xbf,0xf3,0xee,0x4e,0x51,0xf,0x2d,0xc7,0xef,0x38,0x42,0xf3,0x2a,0x1e,0xe2,0xce,0x1b,0xea,0xcd,0xc2,0x81,0xd2,0xdc,0x50,0xeb,0x1f,0x50,0x30,0xcf,0x45,0x18,0xd4,0x37,0xe6,0xfe,0xd3,0xc,0xd9,0xd6,0x23,0x50,0xff,0x23,0xc7,0xd1,0x9b,0x1,0x39,0x19,0x12,0x36,0x22,0x55,0x13,0x6,0xc4,0x64,0xf6,0xd8,0xdf,0x22,0xec,0xb2,0x41,0xe7,0x4b,0x8,0x35,0xed,0x29,0xf7,0xdd,0xd5,0xdf,0xd,0xbf,0xf3,0xd9,0x9b,0xe7,0xed,0x1b,0x34,0xe6,0xb,0xf7,0x0,0x50,0x31,0x30,0x52,0x3d,0xb4,0xd5,0xe7,0xf0,0x46,0x7f,0xb6,0xf8,0xf4,0x12,0x8d,0xdb,0xe,0x27,0x58,0x1e,0x44,0x60,0xa,0x62,0x9b,0x49,0x12,0x52,0x3f,0x21,0x47,0xc4,0xd,0x3b,0x20,0xa,0x26,0x25,0x1d,0xb,0xd5,0xbe,0x2b,0x28,0x14,0xf2,0xf6,0xac,0x2,0x7,0x45,0xcc,0xf9,0x28,0x1,0x23,0xed,0x14,0x45,0xe8,0xd8,0x29,0xfc,0xd8,0xef,0xb3,0x98,0x43,0x5,0x13,0x34,0x1e,0xb0,0x11,0x2b,0xe8,0x24,0x2d,0xa4,0x7f,0x4d,0x27,0x82,0xb,0x43,0x8,0x21,0x3e,0xd5,0xf6,0x1a,0xff,0x3f,0xf5,0xb6,0xe6,0xc7,0x46,0x92,0x23,0xcd,0x3,0x0,0x2e,0xae,0xd7,0x9,0xd2,0x4d,0xba,0x1f,0xc,0x3d,0xe2,0x4,0xfa,0x55,0x24,0xec,0x37,0xc3,0x17,0xd6,0xb3,0x70,0xe0,0x22,0xdb,0x2e,0xc5,0xb4,0xd3,0xc2,0x7f,0x71,0xc3,0x4e,0x56,0xe7,0xc6,0x34,0xbe,0x71,0x8,0x2f,0xc4,0x33,0xa9,0xbf,0x75,0xae,0x7f,0x4,0xfa,0xcb,0x2e,0x32,0x57,0xd6,0xf4,0xf1,0xed,0xbd,0xec,0xfa,0x1c,0x36,0xe7,0xbe,0xe7,0x19,0xaa,0x10,0xe3,0xe4,0xa5,0x8,0x32,0xdc,0xbe,0x87,0xe4,0xec,0x56,0x2e,0x1c,0x3f,0x2c,0x5c,0xee,0xff,0xea,0x34,0x42,0x54,0x1b,0xde,0x1d,0xfb,0x3e,0x3a,0x33,0x21,0x67,0x2e,0x5,0x7f,0x68,0x2b,0x3f,0xa6,0xfa,0x97,0xd0,0xed,0x37,0xdd,0x3,0xa1,0xcc,0xf3,0x1e,0xfa,0x5f,0xd2,0xbe,0x5f,0xf6,0x26,0x9,0x4f,0x12,0xda,0x2c,0x5,0xcb,0xdd,0x86,0xb,0x0,0xb,0xdb,0x38,0xf7,0xef,0xda,0xe4,0x17,0x5,0x95,0x43,0x78,0x2d,0xab,0x1,0x5e,0xfc,0xe6,0xf,0x12,0xde,0xa,0xbc,0x12,0xb,0x2d,0xf9,0xec,0xea,0xf,0xd8,0xd7,0xf1,0xfc,0xec,0xe0,0xcf,0xfa,0xe2,0xc7,0xdf,0xd,0x21,0x2c,0xf,0x3e,0xeb,0x20,0x1e,0xd8,0x15,0x39,0xf6,0xd8,0xbc,0x57,0x20,0xed,0x31,0x2f,0xe8,0x2,0x22,0x9c,0x42,0xdc,0xf3,0x69,0xe7,0xfe,0x81,0x34,0xe1,0x3,0x68,0x22,0xfa,0xd7,0xfa,0x44,0xf1,0x3d,0x2c,0x63,0x53,0xc0,0xa0,0xec,0xf6,0xf6,0xf,0xd,0xfd,0xda,0xc,0xde,0x7f,0x35,0x4f,0x46,0xe0,0x7,0xd3,0x4d,0xf6,0xdd,0xad,0xc7,0xca,0x4c,0xe3,0x71,0xc4,0xea,0xc5,0xbc,0xef,0x12,0xf8,0xda,0xc1,0x28,0x2b,0x5,0xb9,0xf7,0xd,0x7d,0xc1,0xbf,0xe0,0xf3,0x27,0xe5,0x0,0xfb,0xf2,0x19,0x21,0xd6,0x1f,0xf5,0xe8,0x8,0xe7,0xfc,0xb,0x1c,0xbd,0x1f,0x23,0x2e,0x11,0x16,0x36,0x6,0xf6,0xe5,0x43,0xa,0xfb,0xf0,0xd7,0xc6,0x3,0xdb,0x6,0xf7,0x20,0xb1,0xcb,0xd3,0xf5,0xa6,0xfe,0xf5,0x7,0x8,0xd7,0xdd,0x5a,0xbc,0x2,0x27,0x7f,0xe9,0x87,0xf6,0x41,0x62,0xdb,0xe,0xb4,0xb9,0x3f,0x19,0x41,0x34,0xd9,0xac,0xf4,0xf2,0xf8,0xf4,0x1d,0xd9,0xe0,0x25,0x49,0x45,0x19,0x62,0xcf,0x0,0xe4,0x1d,0xd5,0x4a,0x24,0xbb,0xae,0x19,0xec,0xa7,0x26,0x67,0xe5,0x12,0xda,0xda,0xb6,0x0,0x52,0xfa,0xed,0x15,0xe5,0x3c,0x92,0x3e,0xe8,0x7f,0xa2,0xce,0x6b,0xd5,0xd6,0x28,0x4,0xa6,0xc2,0x7a,0x9,0x72,0x16,0xfa,0xd7,0x30,0xbb,0x2a,0xb1,0x13,0xd3,0x1a,0xf4,0xf1,0x42,0x31,0x37,0xce,0xa5,0x4,0x14,0xb1,0x2e,0xc,0xde,0xd7,0xc6,0xf6,0x81,0xf5,0x1e,0x3,0xee,0x4e,0x12,0x31,0x78,0x7d,0x43,0x18,0x96,0xfc,0x5a,0x9,0xec,0xce,0x0,0x32,0x3d,0x3,0x99,0xb3,0xfa,0xd2,0xf8,0xbc,0x5,0xf0,0xe6,0x2a,0xcd,0x64,0x23,0xe9,0x5,0x41,0xbf,0x51,0x7,0x21,0xae,0xcf,0xab,0xd6,0xf8,0xe9,0xab,0xc7,0x3f,0xe3,0x2e,0x8,0x10,0x57,0xef,0x1b,0xe3,0xb0,0x6c,0x3d,0x8,0xf2,0x7f,0x94,0xfa,0x26,0xf7,0xb,0x38,0xb5,0x5e,0x20,0x30,0x83,0x1c,0x28,0xc,0x37,0x30,0xc8,0x49,0xc5,0xbc,0x6f,0x11,0x31,0xdf,0x2,0xac,0xda,0xed,0x28,0x1a,0xed,0x5,0xd7,0xcc,0xdc,0x23,0x25,0xed,0xc3,0xc0,0xfe,0xfd,0x26,0x5a,0x10,0xe7,0xfd,0x22,0xb9,0xbf,0xf2,0xfe,0x31,0x2d,0x1d,0x20,0x46,0x23,0x49,0xf5,0x9e,0x4c,0xe,0x1c,0x27,0x7f,0xbe,0xd8,0xc,0xb9,0x38,0x4b,0x56,0xb,0x1,0xa9,0x45,0x2f,0xf6,0x4c,0xfd,0x3,0xc7,0xb5,0xc3,0xdb,0xdf,0xca,0x15,0xc,0x17,0xdf,0x19,0x68,0x5e,0xc4,0xcf,0x4d,0x1b,0x6,0x26,0x33,0xc0,0x9d,0xc0,0xbd,0xfc,0xbf,0x7f,0xba,0xf3,0xd2,0x1,0xf4,0x5d,0x47,0x2f,0xf9,0xc0,0xec,0x24,0x82,0xdd,0xce,0x67,0xa2,0xac,0x38,0x43,0x2,0x13,0xfb,0xaf,0xbc,0x3f,0xcd,0xd6,0xa9,0xdc,0xe0,0xe9,0x1d,0xc5,0xe0,0x33,0x29,0x3d,0x5c,0x14,0xf8,0xe5,0x22,0xca,0xb5,0x40,0x3b,0xff,0x33,0xda,0x4e,0xa3,0xcd,0x14,0x15,0x56,0x45,0xf,0xd2,0x5,0x37,0xb5,0x71,0x54,0xe,0x68,0xde,0x90,0x45,0xe,0xc8,0x9b,0x7f,0x3f,0x5,0xf3,0x13,0x7,0x47,0xcd,0xac,0x2d,0xf9,0xca,0x6a,0xf0,0x26,0xf3,0x7f,0xbc,0x62,0xff,0xe5,0xfb,0x7e,0x0,0xc9,0xf8,0xac,0xe6,0xab,0x1f,0x1b,0x35,0xbb,0x23,0xfe,0xf,0x16,0x1,0x3f,0xef,0x1a,0xce,0x27,0xf3,0xfb,0xe2,0x1d,0x3b,0x29,0xfe,0xc6,0xc7,0xc9,0xb2,0xd0,0xff,0x38,0xa4,0x1,0x77,0x19,0xa6,0xa0,0x2b,0x3,0x2e,0xf0,0xda,0xf6,0xa7,0xb3,0xbb,0x67,0x4a,0xd9,0xf7,0x3e,0x3c,0x5,0xd8,0xfc,0xe1,0xa4,0x8c,0xe0,0x5f,0x2c,0xe7,0xd5,0x3f,0xbc,0x45,0x31,0x29,0x14,0x1f,0x27,0x4c,0xc1,0x66,0x1d,0x12,0x15,0x2f,0x81,0xa6,0x37,0xe0,0xf9,0x31,0x81,0xe4,0x9c,0x18,0xa4,0x1a,0xf5,0x60,0x6,0xf4,0xf8,0xb6,0xe6,0xb0,0x7,0x1,0x59,0xc9,0x34,0x96,0x75,0xfc,0x4b,0xe5,0x36,0xb,0x44,0xef,0x26,0xf9,0xf8,0xb,0xda,0xf1,0x2c,0x18,0xb6,0x5,0xc6,0x23,0x6,0x21,0xf5,0x8f,0xb6,0xe9,0xc2,0x18,0x7,0xe,0x74,0x3c,0x32,0x40,0xc6,0xc4,0x81,0x3f,0x10,0x15,0x17,0x4,0x38,0x63,0xed,0xeb,0xc,0xc5,0x2e,0xf6,0xca,0x9,0x34,0xd4,0xd4,0xa,0x42,0xef,0x45,0xbc,0x51,0x2f,0xce,0xa4,0xff,0x15,0xce,0xf3,0xb0,0x2,0x13,0x1b,0x2,0xe,0xd7,0xdd,0xff,0xf6,0x4a,0xc8,0x14,0xe3,0xc4,0x46,0xd5,0xf7,0x3e,0x3,0x81,0xab,0x1e,0xfb,0x63,0x4a,0xeb,0x1c,0x8,0xfd,0x9c,0x33,0x62,0x2d,0x12,0x12,0xfe,0x6,0x39,0x18,0x8,0xfb,0x11,0xed,0xec,0x2d,0x5,0x9,0x30,0x21,0xe4,0x42,0xfe,0xe8,0x14,0xe3,0xd8,0xf1,0xe1,0x12,0xc6,0xd5,0x1,0xc0,0xfd,0xfd,0xfa,0xfb,0x28,0xe2,0xfa,0xe5,0x26,0x17,0x2a,0x12,0x57,0xaa,0xbf,0xf3,0xe7,0x26,0x7,0x9f,0x3e,0xdb,0x42,0x81,0xe3,0xb,0xb8,0x98,0x11,0xee,0xd9,0x10,0x3c,0xce,0x32,0xd3,0x14,0xe0,0xc,0x99,0x23,0x1a,0x60,0xd,0xf3,0x2d,0x41,0x12,0xb8,0x15,0xa5,0x20,0x45,0x12,0xc5,0x41,0x81,0x30,0xe1,0x76,0xda,0xf7,0x49,0x29,0xec,0xe0,0xc0,0xe9,0x34,0xcd,0x9b,0x94,0xe9,0x53,0x2e,0x5c,0xa,0x1d,0xec,0xb,0x6c,0x1f,0x30,0x56,0x16,0x47,0xde,0x2c,0xd7,0x8,0x43,0x11,0x11,0x3c,0xac,0xe6,0xb0,0x37,0xe9,0xd2,0x3a,0xaa,0xd4,0xed,0x2,0xe3,0x4b,0x8,0xff,0x20,0xde,0xe5,0xd6,0x14,0xdd,0xc7,0xae,0x20,0xeb,0xad,0xc9,0xb3,0xf7,0xeb,0x23,0xdc,0x3a,0x1,0x23,0x0,0xb,0xb,0x2b,0x1f,0x7f,0x7f,0x10,0xbe,0x3d,0x47,0x16,0xf0,0x27,0x6,0x39,0xcb,0x1a,0x11,0xd6,0xfb,0xa,0xf7,0xd,0x3e,0xe7,0x3a,0x20,0x1d,0x26,0x1c,0x3,0xc7,0x29,0xa,0xda,0xd0,0xd2,0x16,0xf4,0x19,0x3c,0x1d,0x1d,0xee,0xfe,0xc3,0x15,0xc1,0x8d,0xf1,0x20,0xdf,0xfe,0x3d,0xee,0x23,0x5,0xd5,0xf,0x33,0xcc,0x59,0x4f,0x7,0x81,0xfc,0x99,0xdd,0xa,0xd8,0xe0,0xba,0x2,0xe6,0xf9,0x20,0x33,0xe7,0x3,0xbe,0x38,0xf9,0x13,0xbb,0x36,0xe5,0xe7,0xf,0xff,0x34,0x32,0xfa,0x1d,0xc9,0x24,0x1d,0xf6,0x55,0xdc,0x1f,0xc8,0xd6,0xb9,0xdc,0x42,0x35,0x9,0xb9,0xf5,0x36,0xf2,0x3c,0xd,0x40,0x22,0xe6,0x15,0x7f,0xba,0xeb,0xc4,0x69,0xb,0xb,0xd3,0xf3,0xd9,0xcc,0x23,0x60,0x32,0x18,0xe6,0x9f,0x1,0x17,0x41,0xe6,0xfc,0xb4,0x20,0xda,0x17,0xb1,0xfe,0x20,0xc0,0x29,0xf7,0x40,0x4c,0x3c,0x33,0x30,0xad,0xfa,0x2,0xea,0x39,0xd4,0x29,0x30,0x22,0x1d,0xb9,0xf5,0xdc,0xd4,0xa4,0xbd,0xb0,0x49,0x7,0x76,0x4b,0xff,0xb,0x2b,0x7f,0x5,0x38,0xa4,0xab,0xbd,0xd4,0x0,0x3b,0x56,0x9c,0x23,0xdf,0xe7,0x40,0x5e,0xdb,0x27,0x1b,0xe,0xe5,0x22,0x32,0xf7,0xba,0xa0,0xcc,0xb6,0x7f,0x24,0xc6,0x23,0x3c,0xb2,0x0,0x4,0x70,0xfa,0x2e,0x2d,0x3d,0x3b,0x14,0xf5,0x18,0x3c,0x87,0xd5,0xbb,0xac,0xe5,0xd,0x6,0xca,0xe,0xac,0x7,0x79,0x1e,0xef,0x33,0x27,0xed,0x3a,0x19,0x9,0xff,0x12,0x7f,0xb,0x61,0xcf,0x16,0x92,0xef,0x8,0xfc,0xf4,0x44,0xd2,0x94,0x3b,0xfe,0x31,0xf1,0x2b,0x45,0x1a,0xcd,0xa,0xd1,0xc8,0xe,0xd8,0xfe,0x3b,0x3b,0xd7,0x2c,0xce,0xf3,0xbd,0x8,0x3d,0x19,0xfe,0xc2,0xe2,0x21,0xe5,0xbd,0x28,0x9,0x5c,0x9c,0x1c,0xf6,0xa5,0x1d,0xf0,0xf9,0xd6,0x3d,0xe,0xd0,0x39,0x8d,0x49,0xe4,0x4,0xb9,0xfb,0xb1,0xf5,0x3b,0xe4,0xe3,0x12,0x4b,0xc2,0xfc,0xd,0x20,0x13,0xa,0xdc,0x42,0xd1,0x1,0xd7,0x31,0xff,0xc9,0x63,0xe8,0x42,0x2e,0xc0,0x1e,0xf9,0x81,0xb2,0xe6,0xd5,0x66,0xe4,0x2c,0x13,0xc9,0xe1,0x38,0x39,0xcf,0x9c,0xe8,0xdf,0x32,0xe2,0xe5,0xf,0x49,0xf9,0x34,0xba,0xda,0x38,0x5,0xda,0x1b,0xac,0x12,0xcd,0xe9,0xcd,0xe5,0x4,0x10,0xea,0x2d,0x25,0x3c,0xfb,0xe6,0x9,0x20,0xfa,0x22,0x0,0xdf,0xb8,0xfe,0x28,0x7f,0xab,0x0,0x22,0xed,0xda,0xfe,0xe1,0x1b,0x49,0xd3,0xeb,0x58,0xd6,0xb,0x20,0x53,0x4e,0x5c,0x1b,0x1,0x8f,0x2,0xff,0xf6,0xef,0x9a,0x8f,0xf8,0xd9,0xf2,0xf2,0x7f,0x11,0x4e,0x9,0xc1,0x1b,0x4d,0x13,0x8,0xda,0xab,0xdb,0xde,0xf0,0xa8,0x1d,0x1a,0x6,0xb2,0xf3,0x4d,0x20,0x8,0xda,0xea,0xc7,0x48,0x1b,0x16,0xcc,0x66,0xdd,0xf1,0x19,0x29,0x4,0xae,0xdf,0xcc,0xdd,0xf3,0xa2,0x2,0xa1,0x4,0x13,0x7,0x9,0x6,0xf4,0x29,0xf8,0x3f,0x2e,0x5,0xa,0x5,0xb8,0xf0,0xd7,0xff,0xda,0xcf,0xf,0xfe,0x29,0xd,0x17,0xea,0x28,0x1f,0x34,0xf4,0xf1,0x1,0xce,0xec,0xda,0x0,0x28,0xa,0x19,0x5b,0xa4,0xfd,0x15,0xc2,0x96,0x2e,0x47,0x5,0x12,0xc,0xd9,0xf8,0x94,0x7,0xed,0x7f,0x15,0x2a,0xd0,0x22,0xdf,0xf3,0xd,0x5,0x1a,0x81,0xd,0xb1,0x4d,0x21,0x32,0x20,0xcb,0xf5,0x9,0x6,0xf8,0x4c,0x5,0xc2,0x1,0x3,0x30,0x1e,0xea,0xac,0xfd,0xee,0xe1,0xeb,0x5,0x7,0xc8,0x45,0x5e,0x24,0xea,0xdc,0xd8,0xf1,0xfd,0xec,0xb5,0x3,0x4,0xfc,0x29,0xe0,0x84,0xbe,0xd5,0x41,0xba,0xf7,0xef,0x0,0x26,0xec,0xf0,0xf4,0x2f,0x29,0xc2,0xd7,0xad,0x12,0xb,0xf1,0xe1,0x1e,0xd0,0x4f,0xd9,0x7f,0x5c,0x46,0x41,0x1,0xd2,0xe7,0xdd,0x25,0x25,0x6,0xfa,0x33,0xdf,0x41,0x35,0xe9,0xff,0x17,0xb,0x34,0x1c,0xa,0xfd,0x3b,0x1,0x3f,0xba,0x24,0x29,0xc,0xcd,0xeb,0xff,0xdf,0xc9,0x72,0xd0,0xbc,0x1f,0x32,0x23,0xff,0x17,0xf8,0x6,0x7f,0xcb,0x24,0x32,0xae,0x9c,0xfb,0x1e,0xe4,0xe1,0xfc,0xb8,0xc7,0x5,0x28,0x10,0x27,0xfe,0xb2,0x1d,0x4c,0x39,0xc8,0x60,0xcd,0x3,0xe9,0xa,0xfe,0xb1,0xc1,0xb,0xc8,0xb,0xe7,0x22,0xc1,0x62,0x2,0x36,0x18,0x1c,0x1e,0x3c,0x61,0x69,0xdd,0xf6,0x22,0x3b,0xea,0x1b,0xe1,0xd6,0x4,0x33,0xe8,0xcd,0x12,0xde,0xd,0xff,0x36,0xc5,0x30,0xe3,0xa,0x24,0xee,0xb7,0x8,0x1b,0xff,0x10,0xe9,0x55,0x2d,0xe3,0x2,0x2e,0xa5,0xe,0xcc,0xff,0x32,0xc3,0xa,0xcb,0xf7,0x30,0x37,0xb8,0x1a,0x2d,0x81,0xa7,0xda,0xe,0x3a,0x43,0xc5,0x4f,0x33,0xdf,0xef,0xfc,0x1,0x19,0xf1,0xe8,0x18,0x22,0xb2,0xf4,0x20,0xe8,0x43,0xe1,0xcf,0xd5,0x57,0x36,0xfe,0x12,0xcb,0xca,0xec,0x1d,0x18,0xd7,0xd9,0x2,0xd5,0xfc,0xe7,0xcc,0xf3,0x1d,0xc3,0xdb,0xd2,0xb9,0x14,0xe9,0x38,0x4f,0xdb,0x24,0x4b,0x27,0xb8,0xf3,0x13,0xf0,0x28,0x8,0x7,0x7f,0x6,0xbd,0xed,0x43,0x22,0x21,0x11,0xdc,0x2e,0xa,0xde,0xf7,0xd9,0xca,0x67,0x97,0x25,0xd7,0x37,0xaf,0xf7,0xdb,0x61,0xaa,0xab,0xce,0xf1,0xb3,0xaf,0xb6,0x3a,0xfe,0x5e,0xe0,0x14,0x59,0xa7,0x1a,0xbe,0xf9,0xe0,0x3c,0x7e,0x3b,0xb0,0x25,0x57,0xd7,0x15,0x60,0x91,0x3,0xb5,0xd3,0x7f,0x3c,0xc2,0xe0,0xe6,0x51,0xc4,0xf3,0x24,0x13,0xe6,0xa7,0xde,0xdb,0x2a,0x2b,0xa7,0xd0,0xc,0xe,0xe5,0x4a,0x3f,0xf,0x3b,0x3a,0xd5,0x23,0xe5,0x26,0xe5,0xbb,0xc1,0xeb,0xfd,0xe7,0x6,0xc4,0xf5,0x8d,0xe5,0x16,0x24,0x38,0xe2,0x1c,0x3c,0xe7,0x74,0xe,0xe,0x45,0x3e,0x85,0xa7,0x1b,0x1a,0x58,0xec,0x2,0x35,0xaa,0xf8,0x81,0xc1,0x7,0x35,0x19,0x4a,0xdc,0x15,0xdd,0xd0,0x73,0xe4,0x43,0xe2,0xb4,0x8d,0x2,0x27,0x1f,0xd4,0x1f,0xcb,0x1c,0x51,0x1f,0x31,0x47,0xe6,0x9a,0x19,0x42,0xcc,0xdf,0xf,0x1,0xfb,0xcc,0xff,0x21,0x81,0x33,0xea,0xaa,0xb0,0x50,0x9,0x9b,0x5a,0x2f,0x1b,0x6a,0x1f,0xf3,0x40,0x47,0xd0,0xa6,0x64,0x92,0x81,0xfe,0x28,0xcf,0x22,0xb7,0x11,0x4d,0x32,0xf0,0x33,0xe4,0xf2,0xb2,0x2f,0xd2,0xde,0xca,0x20,0x14,0x2b,0x57,0xe3,0x41,0x9,0x1e,0xed,0x2c,0x35,0xfa,0x11,0xf9,0xfc,0xe7,0xcb,0xb4,0x0,0x40,0x23,0x28,0x0,0xa4,0xcb,0x23,0x98,0x44,0x27,0xdc,0x7b,0x9e,0xc8,0x60,0x90,0xf3,0xbd,0x62,0xfa,0x5b,0xf8,0x2,0x4,0x3,0x27,0x31,0xf4,0xb4,0xbf,0xbc,0xfa,0xab,0x25,0x3e,0xfb,0xf,0x36,0x5,0x15,0xbe,0xeb,0xb8,0x2c,0xad,0xd9,0x58,0xf7,0xca,0xa,0xc,0xb5,0x0,0x26,0x40,0x3b,0x9,0x3a,0x12,0xd5,0x1b,0x2b,0x12,0x3a,0x32,0xb5,0xaa,0xbe,0xe2,0xfe,0xb,0xce,0xfc,0xfa,0x3c,0x81,0x9d,0xe3,0xdc,0x44,0x12,0xf5,0xff,0xf5,0xf4,0xd3,0xe5,0xee,0xf7,0x4,0x8,0xc7,0xc0,0x2a,0x1f,0xd,0x9,0x26,0x38,0xf6,0x1c,0x3d,0x29,0xce,0xeb,0xf4,0x21,0x9,0x5,0x5,0xd8,0xce,0xd3,0x28,0x0,0x8,0x63,0xda,0x11,0xf7,0xb,0xc6,0x3f,0x29,0xe0,0x56,0xac,0xb6,0x63,0x81,0x13,0x22,0x60,0xf7,0xf8,0xe2,0xb9,0xa,0x1c,0xdd,0xd1,0xc2,0x1a,0xd8,0x15,0x16,0xed,0xa,0x5,0x2,0xeb,0xeb,0xd0,0x13,0xf9,0x2,0xd0,0x3,0x9e,0x1b,0x1a,0xf4,0x30,0xe3,0xf,0xe7,0xc,0x18,0xf6,0x42,0x49,0x14,0xde,0xe3,0xf5,0x2c,0x33,0x4c,0x5c,0xb6,0xdb,0x2,0x5,0x20,0xd0,0xdd,0x3c,0x11,0x35,0x81,0x65,0x4f,0xcf,0x3,0xad,0x48,0x1f,0xde,0x47,0xa8,0x25,0xaf,0xbc,0x2,0x6f,0xc2,0x32,0xda,0x1b,0xe5,0xe,0x4b,0xee,0xda,0xfa,0xd7,0xd6,0xef,0xec,0xf3,0xfe,0x12,0x9e,0x26,0x42,0x63,0x21,0x5c,0xeb,0xe3,0xbe,0x37,0x1,0xdb,0x19,0x58,0xde,0xa,0xf1,0xc3,0x61,0xfc,0x81,0x6a,0x13,0x16,0x90,0xc1,0xe6,0x29,0x37,0x30,0x19,0xc6,0xf9,0xa3,0x4c,0x9,0x60,0xdd,0xe2,0xba,0xf,0x20,0x2,0xfe,0x11,0xc6,0xfa,0xc0,0x22,0xe2,0x30,0xea,0xa8,0xde,0xf1,0xe,0xfb,0x74,0x13,0xd6,0x16,0xed,0xe6,0xeb,0x0,0x3,0xce,0xfb,0xef,0x19,0xaf,0x7f,0x41,0x20,0x24,0x22,0xec,0x75,0x35,0x59,0xa1,0x33,0xf2,0xef,0xff,0xff,0x4,0x0,0x0,0x0,0x0,0x10,0x0,0x0,0xd6,0x2f,0x38,0xf4,0x24,0x2e,0x11,0x0,0x4e,0xbc,0xf9,0xd3,0xd,0xd9,0x35,0x12,0xe0,0xc,0xd8,0x5,0xce,0x31,0xf4,0xc8,0x13,0x4e,0x1c,0xd8,0xdf,0xf8,0x51,0x12,0xfe,0xcd,0x1,0x24,0xc9,0x2e,0x1b,0xec,0xe7,0xfa,0xa2,0xe0,0xf5,0x44,0xf0,0xb2,0xfc,0xec,0x2c,0xd1,0xde,0x42,0xfc,0x3d,0x2d,0x81,0xba,0x2b,0xd7,0x20,0x4b,0xba,0xfc,0x6,0x2c,0x39,0xea,0xc0,0x32,0x29,0x16,0x50,0xd6,0xe1,0xd7,0xd6,0x9c,0xce,0x21,0x94,0x20,0x3d,0x33,0x5,0xe0,0xb9,0xd2,0x8f,0xe1,0x1c,0x1d,0x33,0xaf,0x1b,0xff,0x20,0xb9,0xde,0x14,0xd3,0xad,0x5b,0x88,0xb1,0x47,0x3a,0x28,0xc0,0xd,0x3a,0xdd,0x63,0xf1,0x2,0x40,0x9f,0xe5,0xe7,0xad,0x5a,0x79,0xed,0x7f,0xe7,0xae,0x20,0xf1,0xf5,0x1b,0xfc,0x29,0x1f,0xf8,0xf7,0x4c,0xce,0x6,0xfe,0xb3,0x26,0x51,0x2d,0xfc,0x2b,0xd9,0x2,0xf2,0x34,0x57,0xd3,0x3b,0x1a,0x32,0xe9,0xe7,0xfc,0x23,0xe6,0xe6,0xcd,0x3c,0x24,0xc6,0xf7,0x70,0xef,0x2,0x29,0xa7,0xe8,0xed,0x26,0xf5,0xaa,0x18,0xd2,0x23,0xdf,0xfd,0x57,0xef,0x32,0x10,0xc3,0x92,0x51,0x99,0xf3,0x7f,0xf5,0xf9,0xe9,0x1c,0x2b,0x10,0xf7,0x32,0xb5,0xa8,0xbe,0xef,0x2,0xbf,0xf6,0x17,0xca,0x43,0x2b,0xbb,0x31,0x0,0xf4,0x46,0xb,0xf1,0x5d,0xcd,0x5,0xfd,0xed,0x1c,0x1,0xd6,0x4,0xb7,0x1a,0xe5,0x7f,0x6,0xff,0x6a,0x0,0xec,0x25,0xda,0x4,0xf6,0xeb,0x3,0xb4,0xe6,0xe1,0xf,0x73,0x18,0x1e,0x15,0x2d,0xde,0x12,0x9e,0x17,0xf7,0x5,0xff,0xe7,0xfa,0x6,0xfc,0xd3,0x14,0x5b,0xd8,0x5d,0xf2,0x9,0x9,0x19,0x9c,0xb5,0xd9,0x8e,0x51,0x38,0x35,0xc8,0xe7,0x3,0x4,0xb5,0x1d,0x15,0x50,0x29,0xa9,0xfd,0x35,0x3f,0xff,0xd8,0x11,0xc9,0x92,0xd9,0x1,0xce,0x49,0xe0,0x5,0xee,0xd,0x2d,0xff,0x7f,0x3,0x17,0x18,0xdb,0x7,0xee,0xae,0x29,0x6b,0xcf,0x72,0xcf,0xbe,0x13,0xf3,0x19,0xea,0xa9,0x20,0xe,0xed,0xa5,0xf8,0xa1,0x15,0x5,0x3d,0x19,0x73,0x2a,0x3d,0x6e,0xd1,0xcb,0xe3,0xd,0xf,0x47,0x1d,0x3c,0x85,0xf1,0xb6,0x2,0x7f,0x3f,0xae,0xc9,0x3b,0x3e,0x33,0x35,0x6a,0xfb,0x26,0x4f,0xe1,0xd9,0xac,0x14,0x7,0x93,0x39,0x8d,0xed,0xf5,0xf6,0x11,0xf0,0x6,0x4b,0x12,0xa2,0x1e,0x83,0x37,0x7f,0x6,0xdf,0x3,0x32,0x36,0x7,0xc,0xf2,0x9f,0x45,0x3a,0x2f,0xc9,0xbf,0xe4,0x18,0x22,0x2,0x99,0xda,0xbc,0x13,0xc8,0xec,0xb9,0xd3,0xee,0x10,0xe0,0x8e,0xb9,0x29,0xc5,0xa7,0x1a,0x17,0x67,0xc9,0x35,0xfc,0x4f,0xa1,0xe8,0x3,0x2d,0x7f,0x14,0xf0,0xfa,0x3c,0xcb,0x22,0x1e,0xa6,0x12,0x20,0xdd,0x2a,0xf1,0x14,0x56,0x13,0xf3,0x4b,0xa4,0x1,0xe4,0x14,0x27,0xc6,0xbd,0x17,0x7a,0xe3,0x62,0x11,0xa,0xfd,0x1d,0xbb,0xe5,0xe4,0xd6,0x2a,0xf8,0x14,0xcf,0x9,0x24,0x8,0xac,0x2b,0x20,0x10,0x3c,0x99,0xdc,0x42,0xfb,0x16,0xc1,0x2,0xc9,0xac,0xfc,0xfb,0xe8,0x3a,0xf2,0xd3,0x16,0xf9,0x2d,0xfa,0x7f,0x14,0x3,0x28,0xa9,0x1d,0xc9,0xa7,0x3b,0x58,0xbf,0x2e,0xd9,0xe2,0x20,0xec,0xeb,0x2d,0x3d,0xd9,0xfb,0xe5,0x2e,0xe1,0x5d,0xf4,0x1,0x24,0x19,0x9f,0xe8,0xbd,0xb5,0x3a,0xea,0xf9,0xbc,0xba,0xf9,0xc1,0x93,0xdb,0xf9,0xfa,0xa,0xe8,0xd9,0xe,0x24,0x32,0xf9,0x15,0xbb,0xbf,0xea,0xbc,0xd3,0x3c,0xe7,0x1a,0xe3,0x8,0x10,0xf7,0x33,0xd7,0x27,0xf0,0x81,0x2d,0xe6,0xd1,0x37,0x55,0xf5,0x77,0xd,0xd1,0xb,0xd0,0x30,0x3d,0xc,0x46,0xf4,0x31,0xc6,0xd1,0xee,0x34,0xe7,0xd5,0xd0,0xeb,0x17,0xf,0x24,0xfc,0x1a,0xe4,0xe4,0xcb,0xc4,0x18,0x2e,0xf1,0xf9,0xf1,0xff,0x14,0x13,0x0,0xe0,0xf1,0x49,0x8,0x2d,0xf6,0xec,0x2c,0x10,0xde,0xdd,0xf1,0xd0,0x3d,0xe6,0x39,0xe1,0x33,0xe0,0x2,0x7f,0xf5,0x42,0x48,0xbc,0x0,0x44,0xc4,0xd,0xf1,0xf1,0x2,0xe9,0x3c,0x74,0x2c,0x18,0x1b,0x15,0x3f,0xd9,0xa,0xb0,0xbb,0xf3,0x19,0x56,0xf7,0x99,0x81,0xcf,0xf0,0x32,0x5d,0xa2,0xe6,0x22,0x28,0xe3,0x94,0xbc,0x32,0xf8,0xcf,0xcb,0xc3,0x71,0xd4,0x49,0x4a,0x74,0xf8,0xf2,0x86,0x33,0x7e,0x2c,0x53,0xf5,0xc6,0x6,0x3c,0x36,0xd0,0x3e,0xcc,0x57,0x5d,0x86,0xac,0x4e,0xe4,0xe3,0x7e,0xab,0x6,0x3e,0x3b,0x5,0x64,0x2d,0xd1,0xe0,0x63,0xdf,0x4a,0xd0,0xa,0xcd,0x4c,0x30,0x20,0x17,0xe8,0xb5,0xaf,0xdd,0xd4,0xbe,0x16,0x20,0x3,0xe5,0xd0,0xb5,0x37,0xcc,0xd5,0xf6,0x6d,0x28,0x2a,0xea,0x31,0xf3,0xd3,0xfe,0xb7,0xe2,0xff,0x14,0x2,0xd3,0x47,0xf1,0x44,0xec,0x81,0x37,0xfd,0x43,0x54,0x93,0xf3,0x5c,0x2,0x3b,0x33,0xa1,0xdc,0xa,0xfb,0xd6,0xf2,0xf5,0x2b,0x3e,0xa4,0xe2,0xff,0xf1,0x24,0x20,0xbb,0xce,0x1d,0x18,0x4a,0x3d,0x38,0x0,0x24,0x12,0x40,0x22,0x65,0xfa,0x2a,0x10,0xa4,0x23,0x44,0xe0,0xd1,0xc3,0x1,0x1f,0xd6,0xc5,0x7f,0xee,0x1,0x16,0xbc,0x23,0xfe,0x2c,0xb7,0x23,0xef,0x6,0x54,0x2e,0x0,0x2,0xbb,0x13,0x1d,0xd2,0x17,0xfb,0xb9,0x2e,0xdf,0xa,0x47,0xdd,0x62,0xfb,0xeb,0xe9,0x2e,0x22,0xfe,0xd8,0xa,0xf8,0xfa,0x4,0xef,0xc,0xda,0xc1,0xd0,0xc,0xf7,0xd6,0x13,0xf3,0x3a,0xdd,0xe5,0xef,0x4b,0x1,0xd,0xc1,0x43,0x2c,0x26,0xf0,0x2f,0x3,0xc2,0xf,0xc1,0xc,0x7,0x2a,0xf5,0xc4,0x3d,0xf6,0x46,0xe4,0x89,0x14,0xf3,0x50,0xa,0x81,0xf2,0xf,0xd6,0x15,0x24,0x8f,0xf5,0xf6,0x28,0x29,0xdd,0xec,0xb,0x4c,0xf2,0x2f,0x18,0xef,0xcd,0xc,0x9f,0xed,0xfc,0x81,0xe5,0x20,0x34,0xf,0xff,0xbc,0xd,0xce,0x4a,0xf7,0x10,0xf7,0xab,0xc,0xf7,0x12,0xa7,0xc7,0xda,0xfd,0xd1,0x1b,0xb,0xec,0xf5,0x9,0x16,0x25,0x3a,0x4f,0xe0,0x5a,0xf2,0xf1,0xb,0x3b,0xed,0x1,0xe0,0x6,0x20,0xca,0x18,0xea,0xeb,0x2b,0x1a,0xfa,0xa2,0x8c,0xea,0x8,0xd6,0xb1,0xf6,0xc0,0x19,0x31,0x47,0x6,0x7f,0x50,0x4,0x70,0xe,0x3,0xdb,0xf8,0xd9,0x34,0x27,0x3b,0xb7,0xca,0xce,0x23,0x68,0x4,0xd6,0xdc,0x42,0x1,0x4b,0xe6,0x35,0xe0,0x2b,0x4f,0xe0,0xd4,0xa7,0xe7,0xdf,0x9e,0x47,0xbb,0x13,0xd,0xe,0xe2,0xe3,0x7,0x2d,0xee,0xf5,0x1d,0xb1,0x1a,0x17,0x5,0xdf,0x2b,0xad,0x92,0x10,0xef,0xd0,0xe0,0xc2,0xb8,0x0,0xfe,0x5f,0x2c,0x51,0xed,0xf9,0x79,0x3a,0xe8,0xd4,0xf9,0xd0,0x29,0x9,0x4d,0xc0,0xe6,0x25,0x59,0x50,0x2b,0xf6,0xe6,0x57,0xf0,0x45,0x1,0x21,0xcf,0x38,0x37,0xe5,0xd2,0xb1,0xed,0xbf,0x81,0xc,0xb8,0xfc,0xdb,0xf9,0xf5,0xf9,0xeb,0x4,0xee,0xef,0xf,0xd7,0x5,0x11,0x26,0xf1,0xf1,0xfe,0xdd,0xd9,0x3a,0x2a,0xa9,0xdb,0x81,0xfd,0xf,0xf5,0x15,0x64,0x1c,0x4e,0x4a,0xa3,0xe,0x7,0x32,0x6e,0xf3,0x3e,0x6f,0xc9,0xc8,0xcf,0xda,0x4e,0x2d,0xdd,0xed,0x99,0x23,0xe1,0x5b,0x31,0xf,0x68,0x3d,0xf7,0xfd,0xf6,0xec,0x6,0xe3,0xda,0xbe,0xe0,0xfa,0x26,0x6f,0x20,0x21,0x32,0xf7,0x9f,0x33,0x91,0xff,0x51,0xf5,0x28,0xe5,0xb8,0xfa,0xe1,0xf1,0x1c,0xef,0xd7,0xcd,0xc4,0x44,0xdf,0x27,0x13,0x1f,0x35,0x1d,0x13,0x14,0x40,0x5,0x4d,0x30,0x22,0x39,0xbb,0xe5,0xf4,0x21,0xe7,0x3a,0x1b,0xc,0xcb,0xe6,0x9,0x55,0xfa,0x2f,0x75,0x19,0x0,0xf1,0xbd,0xf0,0xec,0xef,0xdb,0x5,0x0,0x0,0x65,0x23,0x4,0xe2,0xd6,0x7f,0xe2,0xd9,0xae,0xef,0xf5,0x4f,0xf4,0x10,0x77,0x71,0x47,0xf,0x38,0x38,0x8,0x2b,0x36,0xe9,0xad,0x6,0x81,0xf5,0x5,0xa3,0xd5,0xe9,0xfe,0xd7,0xf1,0xae,0xe4,0xde,0x48,0x47,0x2,0xc1,0xfd,0xc3,0xfb,0x7,0xfe,0x2c,0xea,0x3,0x1b,0x1e,0xe6,0xb7,0xd8,0xfb,0x42,0x21,0x14,0x6f,0xec,0x1b,0xa,0x20,0x92,0x44,0xef,0x54,0xfb,0x9d,0x3c,0x14,0x4d,0x23,0xfa,0xbd,0x19,0x16,0x9a,0xa4,0x15,0xfb,0xd7,0xce,0xc0,0x27,0xfc,0x6f,0x55,0x8,0x33,0x34,0xe5,0x7f,0x61,0xcc,0xf7,0xfc,0xbf,0x4d,0x21,0x25,0xa3,0xfb,0xf4,0x5a,0xe3,0xfd,0x47,0x6,0x61,0xa2,0x55,0xab,0xee,0xa7,0xe2,0xfe,0x33,0xc3,0x91,0xfb,0xb7,0x95,0x1b,0xed,0xcf,0xf3,0x13,0xa2,0x2d,0xba,0xba,0xf,0xde,0xb6,0x20,0xda,0xe5,0x1f,0xf7,0x0,0x3,0xfb,0x9,0xce,0xd0,0x6a,0x23,0x63,0x15,0x30,0x4b,0x11,0xb0,0xfe,0xc1,0xdb,0x2e,0xfa,0x4,0xce,0xc2,0x1a,0x9,0xcc,0x1b,0x23,0x14,0x1c,0xe2,0x7,0x5b,0x1a,0x43,0xd1,0x19,0x81,0xdf,0xb8,0xa0,0x8,0x1f,0xe0,0xeb,0xf8,0xe6,0x15,0xe6,0x46,0xed,0xe4,0xf0,0x84,0x7,0xe0,0xc6,0x22,0x52,0xcd,0x5b,0xf8,0xdd,0x2b,0x28,0xfc,0xcb,0xc0,0xd8,0xe3,0xc6,0x20,0xeb,0x62,0x13,0x11,0x47,0xfb,0xc9,0xc3,0xe6,0xf3,0x60,0xf9,0xe1,0xce,0x98,0x2f,0xe6,0xbf,0x1d,0x4,0x23,0x4d,0xda,0x16,0x40,0x32,0x68,0xaa,0x50,0x94,0xf1,0xb8,0xe6,0xd4,0x2d,0xed,0xd5,0x4,0xed,0x1e,0x1b,0x29,0x15,0xfe,0x23,0x81,0xf1,0xf6,0xb0,0x6,0x35,0xdb,0x53,0x4,0xb6,0x2f,0xef,0x29,0xfb,0xa7,0x11,0xda,0x2,0xee,0x81,0xe8,0x8,0x1,0x76,0xfc,0xf1,0xe3,0x8,0x21,0x5d,0xfd,0x23,0x16,0x8,0x38,0x17,0x3e,0xc,0xff,0x7c,0x32,0xfd,0x34,0x29,0xfe,0xce,0xc7,0xeb,0xb,0xeb,0x9c,0x70,0x13,0xd,0x4,0x86,0x1,0xc,0xf9,0x6,0x1,0x1e,0xcf,0xa,0x0,0xef,0xe4,0xf,0x1d,0xd3,0xe7,0x17,0xb,0xc9,0x26,0xfb,0xb8,0x2d,0x43,0xcc,0x1,0xf5,0xec,0xa7,0x15,0x19,0x7,0xe2,0x24,0xac,0xc9,0x13,0xd2,0x25,0xea,0x20,0xe7,0xe1,0x9,0xa0,0x9d,0x9a,0xea,0xf3,0x41,0xbf,0xd0,0xfb,0x3e,0xa2,0xd4,0x35,0x17,0x9e,0xec,0xde,0xfc,0x1d,0xa,0xfa,0xa3,0x5,0x60,0xcf,0x35,0xf4,0x5,0x51,0xa0,0x2,0x84,0xce,0x7a,0x74,0xdd,0x67,0xbb,0x81,0x69,0x1d,0xd3,0xa7,0xe7,0xcd,0xef,0xeb,0x7f,0xba,0xfe,0xee,0x3e,0x4,0xf6,0xcb,0x9,0xf,0xf,0x57,0xf7,0x10,0x24,0x1a,0x20,0x39,0x26,0x6a,0x14,0x5d,0x4,0x96,0x39,0x5f,0x29,0xd5,0xb6,0x25,0xc,0xea,0xfa,0x7f,0x31,0x1b,0x13,0xd1,0x35,0x17,0x3a,0xd4,0x29,0xbb,0xdd,0x44,0xc0,0xfc,0xd6,0x88,0x5c,0xb,0xd9,0x21,0xed,0xb5,0x50,0xf2,0x21,0x6b,0x4c,0xff,0x4d,0x2d,0xac,0x73,0xf9,0xf6,0xad,0xa7,0xde,0xe4,0x21,0xfe,0x81,0xbf,0xbc,0xe8,0xe7,0x17,0xd6,0xbe,0xbd,0x1b,0x3,0xc6,0x90,0x20,0xdf,0xf8,0x9,0xe7,0x2a,0xd8,0x35,0x6,0x40,0xa2,0xc3,0xce,0x33,0x68,0xf4,0x19,0x30,0xe,0xde,0xfd,0x24,0x9a,0x46,0xa,0xfb,0x6c,0xdc,0xd2,0x4c,0x1f,0xa,0x4d,0xa3,0xc6,0xe4,0x1e,0x16,0x44,0x14,0x14,0x23,0xba,0xd1,0xe4,0xaa,0xa9,0xc0,0xad,0xc9,0x16,0xa2,0xc,0x1,0x4c,0xd8,0x55,0x8,0x1d,0x9,0x69,0x29,0xf9,0xe5,0xf2,0x1c,0x37,0x1,0x9c,0x1c,0xc3,0x35,0xff,0xfe,0x63,0xf4,0xd1,0x23,0xb,0xfb,0x2,0x7f,0xed,0x8,0x34,0xc0,0x31,0x7b,0xfb,0x26,0xdf,0xd2,0x18,0xe5,0x1f,0xe4,0xde,0xf4,0xfa,0xf1,0x3d,0x17,0x4,0xce,0x11,0x71,0xc6,0x2d,0xe6,0xc,0xd3,0xec,0xa9,0xa2,0xe8,0x9b,0x11,0x38,0x19,0x1e,0xf0,0xdb,0x1d,0xd1,0x39,0x24,0x22,0xf6,0xb9,0x2,0xf,0xfb,0xc3,0xb8,0xcd,0x5,0xb8,0x1e,0x1e,0xde,0x32,0xe,0xd1,0xa,0x2,0x7f,0xd3,0x6a,0xfc,0xea,0x2d,0x43,0xe,0x30,0xa1,0x29,0xf6,0xe6,0x1c,0xce,0xe5,0x8,0xfc,0x16,0xfd,0xdc,0xdf,0xeb,0x2,0x89,0xe3,0x11,0xf7,0x1c,0x25,0x4,0x3e,0x2f,0xf1,0x4e,0xe4,0xee,0xf9,0xec,0xeb,0x2b,0xc4,0x2d,0x81,0xfa,0xc6,0x46,0x23,0xef,0xf7,0x37,0x2f,0x9,0x14,0xee,0xfa,0x8,0xdc,0xc,0x40,0x0,0x11,0xbf,0xf2,0xc4,0x51,0xaa,0x1,0xda,0xff,0xc5,0x25,0xb0,0x5e,0x23,0x1,0xb,0x5,0x1b,0x15,0xf3,0x28,0xfb,0x4,0x1,0xe5,0xc8,0xa,0x47,0xee,0x5f,0x15,0x22,0xd,0xe9,0x98,0xcf,0xd0,0xd2,0x6a,0x21,0xeb,0x2,0xde,0x12,0xf7,0xb0,0x1c,0x29,0x21,0x46,0xb6,0x12,0x53,0x18,0x9,0xbf,0x3a,0x93,0xdf,0xe5,0xc5,0xd1,0x20,0xec,0xde,0xff,0x2,0x63,0xdf,0x7f,0xb,0x6,0x1f,0x99,0xd,0xe8,0x95,0x3e,0x2f,0xce,0x79,0xee,0x8e,0x35,0xd0,0xe,0x63,0x33,0x65,0x63,0xf1,0xc5,0x7f,0xd5,0x51,0xb5,0x94,0xf1,0x57,0x35,0x1e,0xec,0xdd,0xaa,0xfb,0xf7,0xf8,0x86,0xe5,0x16,0xd7,0xe1,0xcc,0xad,0x7a,0xaf,0xa5,0xe8,0x3f,0x4e,0xec,0x1,0x66,0x5e,0xb1,0xec,0xcf,0x19,0x65,0xde,0x22,0xc3,0x5c,0xc0,0x5b,0x21,0xc5,0x3b,0xcc,0x66,0x7c,0xa6,0xc8,0x2c,0xc5,0x4c,0x79,0x9f,0xeb,0x19,0x4a,0x35,0x33,0xf5,0xc,0x54,0x2f,0x56,0x18,0xb1,0xae,0xd8,0x9a,0xf8,0xe,0x81,0xd4,0x21,0xe9,0xd3,0xe6,0xa6,0xfb,0x9e,0x54,0x39,0xb,0xaa,0x91,0xe4,0x23,0x0,0x2,0xec,0xbc,0xc7,0xbe,0x32,0x97,0xd5,0xdf,0x39,0x71,0x4,0x34,0x7d,0x9,0x7c,0x1a,0x2b,0xbf,0xee,0x18,0xeb,0xfd,0xe0,0x25,0x7,0x65,0xf9,0xc1,0xdb,0xf7,0xff,0x97,0xd4,0xba,0xa0,0x17,0x16,0x8a,0x9,0xbc,0x6c,0x47,0xc,0xc6,0x8e,0xbc,0x3f,0x47,0x58,0x22,0xa,0xb6,0x7c,0x1e,0x3,0xef,0x27,0x21,0x6a,0x87,0x4b,0xc,0xfe,0x23,0xc6,0x41,0xb2,0xa8,0xef,0x2f,0xeb,0x67,0xf7,0xd3,0xd0,0xf4,0x4c,0xba,0x3e,0xc2,0xf9,0x7f,0xa2,0xe1,0xb5,0xd1,0x6b,0x56,0x8d,0x6f,0x5,0xb1,0x7b,0x16,0xf2,0x33,0xea,0x3b,0x2a,0x2f,0x33,0x2b,0xef,0x2c,0xc2,0xee,0x18,0xf4,0x1a,0x1e,0xda,0xef,0x0,0xe8,0x5,0x3d,0xe2,0xf,0x12,0x7f,0xfb,0xd4,0xc4,0xff,0x14,0xf,0xb4,0xe2,0xfc,0xcf,0xa,0xd,0x29,0x4,0x3,0xa8,0x21,0x17,0x4a,0x11,0xe5,0xc1,0xd,0x2a,0xe2,0xf5,0x30,0xe2,0x4e,0x6,0xb6,0xdd,0x36,0xb0,0xed,0x53,0xbd,0x1,0xf0,0x12,0xe6,0xed,0x5,0x13,0xd6,0x57,0xcb,0x8,0xe9,0xc7,0x1b,0x3d,0x5d,0x2c,0xb,0xb8,0xf2,0xd9,0x2e,0x1b,0xf7,0xe8,0x1f,0x3,0xd7,0x85,0xe4,0x54,0x5,0xb2,0xc,0x41,0x18,0x1,0x1a,0x52,0x1d,0xbe,0x0,0xbe,0x1a,0x32,0x27,0xe0,0xa9,0x7,0xd2,0x22,0x2f,0xf9,0x7,0xd9,0xff,0x2b,0x14,0xdf,0xb,0x9a,0x26,0x7f,0xe3,0x12,0x28,0x41,0x64,0x26,0x2a,0x1c,0x9e,0x7,0x12,0xd,0xbc,0xb4,0x6,0x1c,0x21,0xe,0xcc,0xae,0xd4,0xfa,0xe5,0xe6,0xd7,0xb5,0xef,0x92,0x21,0xa9,0xeb,0x1d,0xfe,0xce,0xdc,0xe8,0x62,0x0,0x3d,0xe5,0x5b,0xa1,0xc7,0x27,0x1f,0x46,0xb2,0xfd,0x3b,0x20,0xeb,0x29,0x1b,0xbd,0x42,0x11,0xf1,0x7f,0xf9,0x26,0x40,0xec,0x20,0xb,0xa,0xe1,0x28,0xc4,0xd1,0xea,0x0,0xf4,0xb2,0x1d,0xea,0x8,0xe,0x16,0x6,0x6f,0x4b,0xf0,0x45,0x7,0xcc,0xe9,0x26,0xf4,0x22,0xe3,0x11,0x97,0xcb,0xe0,0xed,0x33,0xe1,0xeb,0x7,0x4a,0x5a,0x29,0xfe,0x24,0x20,0xc3,0x1d,0xee,0x4,0xff,0xf0,0xcb,0x81,0x21,0x90,0xf,0xb,0xdf,0x3,0xf4,0xf,0x39,0xf8,0xf7,0x19,0xb1,0x33,0x1b,0xe5,0x13,0xa,0x34,0xf3,0x3a,0x3a,0xf8,0xa3,0x75,0x3,0x3e,0xd6,0xec,0xe5,0x57,0x73,0x7,0xea,0xd5,0xfc,0xfc,0xc8,0xd7,0xb5,0xd4,0xda,0xe3,0xff,0xc1,0x0,0x5d,0x8,0xea,0xef,0x74,0x71,0xf,0xfc,0xe,0xef,0x81,0x3b,0xc0,0xce,0x3d,0xf3,0x20,0xff,0x3d,0xac,0x4,0xfc,0x95,0xe4,0xcc,0x2d,0x3e,0xc9,0xef,0x9,0x1,0x1,0x70,0xa6,0x13,0xcb,0xa9,0xd8,0xd7,0xff,0x22,0x8,0xed,0xd5,0xe1,0x1b,0x43,0x2a,0x15,0x2,0x21,0x41,0x2c,0xee,0xee,0x35,0x57,0x5d,0x2b,0x35,0xc9,0x4,0x3e,0x3c,0xeb,0x4d,0xfa,0x15,0xc9,0xf3,0xfe,0x17,0xdc,0xd5,0x7f,0x33,0x14,0xfe,0xc7,0xd7,0xb,0xcd,0xc9,0xe6,0xd8,0xfd,0x4b,0xee,0x2,0xd3,0xd7,0x45,0xf8,0xbe,0xaa,0xfa,0xd5,0x47,0x6,0xd5,0x81,0xd9,0x95,0x1a,0xc,0x6,0x9c,0xd6,0xeb,0x27,0x4e,0x5,0x56,0xf6,0x2a,0x70,0x2a,0x36,0xf9,0x3c,0x3e,0x2f,0x34,0x23,0xa3,0xfe,0x28,0x65,0xd8,0xf,0x16,0x40,0xbe,0xf1,0x35,0x4b,0xe,0x5,0x7e,0xd,0x36,0xe,0xd2,0xfc,0xdd,0xe3,0xc,0xf7,0xfd,0xcf,0x61,0xe3,0xf0,0xaa,0x3,0x6a,0xff,0xeb,0xef,0xe2,0xb1,0x68,0xe0,0x2f,0x16,0xfb,0x1d,0x43,0xf3,0x81,0x2d,0xc6,0xd,0xe7,0xc7,0xff,0x33,0x29,0x7,0x49,0xed,0xeb,0xcc,0x3b,0x14,0xda,0x3,0x43,0xaa,0xe5,0xd1,0xef,0x6b,0xe,0xa8,0xf4,0xd,0x4b,0xe9,0x1a,0x4b,0xe9,0x1d,0x20,0xc1,0x3,0x19,0xf5,0xe7,0xaf,0xb,0xaf,0x32,0xa,0xb4,0x50,0xf2,0x25,0x6b,0xe8,0xc8,0x47,0xb0,0x36,0x4f,0xe5,0xdd,0xe5,0x2,0x23,0xe1,0xda,0x17,0x1b,0x81,0x12,0xd3,0xf5,0x37,0x15,0xe0,0xbf,0xb,0xe5,0x1e,0x3f,0x46,0x21,0x30,0xa,0x7,0xff,0x17,0x32,0x43,0x3e,0x9e,0x29,0x32,0x35,0x9d,0xcb,0xe0,0x1a,0x9b,0x1,0x67,0xfe,0x32,0x18,0xb9,0xcb,0x29,0x42,0xd1,0x12,0xda,0xe5,0x40,0xf6,0x1d,0x9,0xf7,0x11,0xf1,0xc1,0xf3,0x1b,0x90,0x2b,0x26,0x8,0xff,0x9,0xda,0xba,0xde,0x3d,0xd,0x3d,0x1c,0x21,0x9,0xfe,0xe2,0xd0,0xae,0xbd,0x36,0xe6,0xdb,0xfd,0xc2,0xdc,0xb0,0xb0,0x1e,0xf9,0xfe,0x44,0xa0,0x2,0x30,0x4b,0x4d,0xe9,0x4a,0x81,0xf1,0x25,0x92,0x6,0x32,0xf5,0x1b,0x17,0xeb,0x34,0x1e,0x5d,0xf9,0x2a,0x3,0x98,0xff,0xb4,0xf5,0x24,0x3f,0xbf,0x66,0xb,0xd2,0xf7,0x39,0xf3,0x8c,0xb9,0xb7,0xc9,0xbe,0xf2,0xef,0x2d,0xf1,0x28,0x4a,0x10,0x74,0x3c,0xda,0x2a,0x6c,0xdc,0xc7,0xf9,0x6,0x20,0x16,0x2b,0xb4,0xee,0xe4,0xe,0x14,0x17,0x2d,0xf3,0x64,0xdc,0x39,0xa3,0xf0,0xda,0x6,0x53,0xea,0xec,0xc5,0x20,0xe5,0xa7,0xf0,0xba,0xdf,0xec,0x3d,0x81,0xf2,0xe0,0xef,0x51,0xc6,0xda,0xd4,0x31,0xe3,0x37,0xd3,0xd0,0xd0,0xf7,0xd9,0xe8,0xe1,0x3,0x84,0x8d,0xbe,0x1d,0x3a,0x4b,0x38,0x1a,0x4,0x43,0x50,0x55,0x5,0x66,0x49,0x4f,0x74,0x51,0xf,0xcd,0x56,0x38,0xe8,0x6f,0x4e,0xd5,0xac,0x94,0xd1,0x12,0x1f,0xc1,0x7f,0x1f,0x39,0xe,0xb8,0xc,0xc8,0xf0,0x9c,0xea,0xe1,0xbe,0x39,0x4f,0x7,0xd9,0x9d,0x2f,0xc0,0xe,0xd7,0xe9,0xde,0x22,0x3,0x14,0xb9,0xa7,0xd3,0x3,0xf3,0x8a,0xee,0x81,0xfc,0x2e,0x19,0x33,0x5c,0x46,0x3e,0x6b,0xf8,0xf0,0xe2,0xfb,0x32,0x31,0xf0,0x7b,0x93,0xe1,0xc9,0x2e,0x6d,0x1a,0xa6,0x9,0xfb,0x8,0x35,0x4b,0x1a,0x1,0x32,0x2a,0xf9,0xf8,0xf,0xd,0x2,0x94,0x33,0x8f,0xfc,0xcb,0x1b,0x35,0xe,0xe6,0x51,0xfa,0xb5,0xf9,0xa6,0x10,0x5c,0xe9,0x9,0x18,0x1b,0x7f,0x2d,0x1d,0x19,0xab,0x14,0x1b,0x20,0xe6,0x88,0x12,0xba,0xf5,0x36,0xba,0xad,0xff,0x5,0xe2,0x36,0xc2,0x3,0xda,0xc0,0x1a,0xb6,0xaf,0xe5,0xfb,0xc6,0xd3,0xb4,0x2f,0xc9,0x54,0xcc,0x70,0xde,0xf3,0x19,0x0,0x7c,0xeb,0x27,0x4b,0xf,0x11,0xee,0x24,0xec,0x67,0x1b,0xc,0x4b,0x0,0x2b,0x1d,0xb,0xdd,0x21,0xd5,0x1b,0xf8,0x10,0x7,0x16,0xf5,0xfd,0x5c,0x27,0x6a,0x7,0x9,0xf9,0x13,0xa4,0xc6,0xf3,0x9f,0x3f,0xf4,0xf1,0xcd,0xf6,0xfa,0x3,0xbf,0x66,0x15,0x8,0x14,0xab,0x4,0x4c,0x27,0x19,0xde,0xf8,0xa7,0xe2,0xfd,0xdd,0xc9,0x34,0x19,0x11,0x14,0x1d,0x37,0xf8,0x7f,0x14,0xff,0xfc,0xbf,0xf,0xd8,0xc5,0xf1,0x4f,0xc8,0x58,0xce,0xf0,0xfb,0xea,0x10,0x8,0x57,0xf1,0xa,0xe,0xf,0x20,0x49,0xfc,0xf3,0x8,0x17,0xae,0xed,0xdf,0x98,0x2e,0xfb,0x8,0xcc,0xda,0xc6,0xd2,0xc5,0xec,0xe9,0xd5,0x18,0xe5,0xd7,0xe4,0x14,0x21,0x3,0x3,0xce,0xcd,0x9,0x91,0xd7,0xfc,0xf8,0x7f,0xd8,0x25,0x20,0xf8,0x3b,0x6,0xe9,0xcf,0xe1,0x13,0xf3,0x1d,0x1c,0x5a,0xf8,0x34,0xe5,0xab,0xf5,0xed,0xd,0x58,0x64,0xfa,0xf1,0xe9,0x31,0xe3,0x4e,0xe8,0x1,0xae,0xd1,0x81,0xc6,0xe2,0x83,0x1e,0x0,0xf1,0xcd,0xe0,0xf1,0x0,0xc8,0x4d,0x1f,0x8,0xca,0xa3,0xd4,0x0,0xed,0xd8,0x1,0xe3,0xcc,0xdd,0x19,0xda,0xc8,0xa,0x2d,0x4a,0xe7,0x39,0x4a,0xf3,0x4b,0x1c,0xf4,0x11,0xfd,0xe6,0x12,0xe7,0xe,0x49,0xda,0x29,0xd3,0xbc,0x20,0x2f,0xd9,0xda,0xb9,0xdd,0xad,0x13,0xbf,0xc2,0x4a,0xff,0x3b,0x44,0xe5,0xcc,0xf1,0xb8,0x27,0x43,0xf1,0x4,0xfd,0xb1,0x1d,0xd2,0x9c,0xad,0x22,0x3d,0x6d,0xbb,0x37,0x1d,0x25,0x45,0xfd,0x68,0xb2,0xce,0xf6,0xbe,0x2,0x75,0xc,0xb3,0xcd,0xce,0xff,0x17,0xf8,0xff,0x1f,0x46,0x88,0x37,0xd6,0xb,0x7f,0x38,0xfa,0x48,0xcb,0xc5,0x64,0xec,0xdf,0x11,0x1e,0x2d,0xb9,0xd5,0x68,0xb0,0x4b,0xfa,0xf8,0x4c,0xec,0x89,0xcb,0xcf,0xc8,0x55,0x40,0xea,0xee,0x9e,0xef,0x5,0xc7,0x3f,0x42,0x2e,0x3a,0x9d,0xed,0x21,0x36,0x1a,0xbc,0x25,0xac,0xc1,0xbe,0xe2,0xed,0x34,0xe6,0xb4,0x11,0xfe,0x21,0xfa,0x7f,0x15,0xcf,0x1a,0xd7,0x20,0xd6,0xb9,0xee,0x2b,0xf4,0x41,0xe1,0xaf,0x10,0xfe,0x2,0x2b,0x27,0x27,0x9,0xf8,0x91,0xf9,0xc9,0x2a,0xc8,0xe5,0xd8,0x20,0xf,0x27,0x27,0xb7,0xfa,0xea,0xf6,0x2b,0x15,0x7,0x17,0xaa,0x1c,0xe5,0x1,0x55,0xde,0xc2,0xf5,0x9d,0x45,0xdf,0x64,0xfc,0x22,0xb,0x2,0x10,0x19,0x1c,0xcc,0x32,0xfb,0xff,0xc1,0xe9,0xdf,0xfc,0x7f,0x16,0x18,0x4d,0x10,0xf7,0x32,0xac,0x13,0xf0,0xe4,0x2d,0xe2,0x81,0xd5,0xaa,0xd4,0xee,0xc5,0xe0,0xfa,0xef,0x32,0x4d,0x3b,0x4a,0x3,0xe3,0x7c,0x21,0xe6,0xfb,0xfc,0xd6,0x63,0x1c,0x28,0xbb,0xfc,0xf8,0x35,0xec,0x43,0x15,0x44,0x3e,0xe5,0x3f,0xef,0xf7,0xc6,0x48,0x27,0x21,0xf9,0xb4,0xcf,0xd6,0xa4,0x2b,0xd4,0xcb,0x13,0x52,0x97,0x16,0x9b,0x0,0x62,0xfc,0xf5,0xe6,0xf3,0xc4,0x69,0x26,0xe5,0xb,0x1a,0xda,0xc5,0x2,0x77,0xc6,0x5c,0xd1,0x14,0x2d,0x0,0xca,0xc4,0xdf,0x9c,0x36,0x24,0x36,0xd0,0xe0,0x1c,0x2,0xc7,0x5a,0x3a,0x4c,0x35,0x9c,0x13,0x1f,0x22,0xdb,0xb5,0xf0,0xad,0xda,0xe0,0x19,0xee,0x1f,0xe4,0xbb,0xf0,0x22,0x2d,0xc0,0x7f,0xcc,0xf3,0x2e,0xbd,0xf,0xb7,0xaa,0x4f,0x52,0xcd,0x51,0xeb,0xbb,0x28,0x1f,0xfb,0x30,0x3d,0xd9,0xf3,0xfa,0x54,0xf6,0x23,0xc,0xfe,0xcb,0xe0,0x89,0xc6,0xd5,0x81,0x3d,0x25,0x1b,0xce,0xcf,0xdb,0xca,0xb9,0x27,0x5,0x2e,0xe5,0x9e,0xd5,0x20,0x2c,0xdf,0xd7,0xd7,0xe2,0xb0,0x23,0xc1,0xe6,0x18,0xe8,0x2d,0xe9,0x2a,0x52,0xea,0x73,0xb,0x19,0x29,0xe3,0xe5,0xe1,0xce,0x20,0x1b,0xd5,0x59,0xd3,0xc1,0xf3,0xf7,0xdb,0xe4,0xef,0xc4,0x4c,0x10,0xc0,0x45,0x89,0xff,0x31,0xe1,0x3e,0x3f,0x4b,0x38,0x3d,0xc7,0x14,0xd,0x2d,0x7f,0xa,0x54,0x62,0xdf,0xd6,0xab,0xb9,0x4c,0x3b,0x9e,0xcd,0xc1,0x33,0xc2,0x2f,0x38,0x4b,0x35,0x3e,0xc,0x30,0xd,0xd,0xe8,0xb5,0xe4,0x84,0xd4,0x3a,0x2e,0x6c,0xd7,0xfb,0x44,0x14,0xb2,0xfd,0x8b,0xfd,0x51,0xe,0x2d,0x1,0xb2,0x9c,0xd9,0x3,0xd6,0xd8,0xf1,0xfb,0x3,0x36,0x37,0x1a,0x4a,0x18,0xf8,0x6f,0x32,0xcf,0xda,0xe2,0xef,0x6b,0x2,0xfd,0xaa,0xf4,0x2,0x60,0x9,0xff,0xf1,0x3f,0x1e,0xfa,0x5c,0xb9,0xeb,0xeb,0xf4,0x0,0x1f,0xf8,0xd8,0xb9,0xba,0x95,0x1f,0xcd,0xde,0x20,0x43,0x81,0x31,0xbc,0xd8,0x5f,0xf,0xea,0x24,0x27,0xf2,0xf,0x13,0xe7,0xc9,0xc8,0xb,0xc6,0xd3,0x9f,0xaa,0x2e,0xf8,0x47,0x3a,0x30,0x38,0xfc,0xfa,0x7f,0x2a,0x2,0x14,0x5,0xa1,0x44,0xc5,0xb3,0x88,0xe5,0x33,0x6d,0x1b,0xf0,0x19,0x5b,0x1d,0xc0,0x35,0xce,0xfe,0xc1,0xd2,0x19,0x5f,0xf8,0xb6,0xa1,0xc8,0xc9,0x3f,0xda,0xda,0xf5,0xf5,0x97,0x3a,0x9d,0x11,0x3f,0x38,0xda,0x42,0xee,0xb3,0x3a,0xf4,0x6,0xc1,0xd8,0x17,0x33,0xca,0x96,0x35,0x3,0xfb,0x36,0x39,0xf2,0x5a,0x13,0xe9,0x7f,0xf4,0xca,0xe0,0xf4,0xe5,0x7,0x6,0x2f,0x9a,0xdc,0xfa,0x10,0x4c,0xe7,0xd4,0x6,0x3f,0x2c,0xf,0xd3,0x21,0xcb,0xf6,0x2e,0xdc,0x1,0xfb,0xf9,0xc4,0xaf,0x41,0xc7,0x1b,0xf6,0xe4,0x1,0xe8,0x11,0x59,0xd6,0xdc,0x22,0xe9,0x2e,0x19,0xc1,0x1e,0xeb,0xda,0xbf,0xf3,0xfb,0x1e,0x27,0x6,0xd5,0xd7,0x19,0xf3,0x22,0x33,0x39,0x29,0x66,0xe3,0xe3,0x13,0x34,0x61,0x1,0x42,0x51,0x7,0xf3,0xd9,0xee,0x15,0x2f,0xe4,0xcd,0xd4,0xde,0xf0,0x39,0x38,0xed,0x7f,0x44,0xda,0xe3,0xd6,0xf7,0xf0,0xd5,0xed,0xa9,0xda,0x5,0x21,0x47,0xda,0x1f,0xce,0xe5,0xd5,0xfe,0x96,0x25,0x57,0x6,0xdf,0xc,0x8f,0xb8,0x1f,0xb4,0xcf,0x1b,0x5,0x27,0xfa,0x14,0x5b,0xeb,0x9,0xd,0x5,0x69,0x77,0x4,0xea,0x2d,0xc7,0x42,0x1,0x11,0x15,0xfc,0x1c,0x6d,0xf3,0x13,0x21,0xf8,0x7e,0xa9,0x61,0xbd,0xe5,0x81,0x4f,0x23,0xde,0xde,0x8b,0xfc,0xac,0xb7,0x2f,0x16,0x19,0xf8,0x4b,0xc6,0x1c,0xea,0xa1,0x14,0x34,0xd0,0x1,0x20,0xdf,0xfd,0x2e,0x1c,0xab,0xc0,0xdf,0xeb,0xb8,0xc0,0xd,0x33,0xe9,0x14,0x71,0x29,0x58,0x2d,0x2,0x69,0x3b,0xea,0xe9,0xfa,0xea,0x2d,0xfb,0x3,0xcb,0xe,0xdf,0x1d,0x2c,0x16,0x1f,0x27,0x7f,0xeb,0x2d,0x90,0xef,0xe8,0xd2,0x2,0x5,0xd4,0xea,0xec,0xa6,0x84,0x15,0xe5,0xef,0x1d,0xd,0x81,0x2e,0xaa,0x15,0x46,0xc,0xd2,0x19,0xef,0x1e,0x28,0x0,0x0,0x6,0x0,0x8,0x0,0x4,0x0,0x6,0x0,0x0,0x0,0x4,0x0,0x0,0x0,0x80,0x1,0x0,0x0,0xb,0x11,0xef,0xee,0x22,0xc4,0xde,0x32,0xc,0xff,0xf2,0xed,0x3d,0xf,0x52,0xba,0xe3,0xf2,0xfe,0x30,0xf3,0x1a,0x13,0x14,0x1,0x1e,0xe0,0x3d,0x4e,0x81,0x16,0xdf,0x30,0x23,0x24,0xe7,0xcb,0xbf,0xce,0x9,0xef,0xc8,0x25,0x11,0xef,0x29,0xc4,0xf2,0x37,0xf8,0x28,0xf0,0x32,0xd4,0xd5,0x34,0x3d,0xdd,0xb2,0xd5,0xaf,0x0,0x1d,0xbc,0xfc,0xee,0xd6,0xb3,0x19,0x9,0xd9,0x16,0x39,0x1,0xb3,0x28,0xfe,0x2e,0x9d,0x7f,0x6b,0xd4,0xde,0xcb,0x47,0x42,0x4e,0x28,0xe,0xfb,0xca,0xc5,0xd5,0x72,0x18,0xdc,0xc2,0x3b,0xcb,0xec,0xd1,0x1f,0xf9,0x3,0xe,0xdb,0xe9,0x39,0x56,0xfb,0xff,0xc1,0x8,0x7,0xee,0x41,0x36,0xc4,0x54,0x2c,0xf5,0xba,0x78,0x5b,0x63,0xc8,0x57,0x6c,0xb3,0x32,0xc2,0x22,0x2b,0xe2,0xcb,0x35,0x2c,0xd2,0xc5,0x95,0x2f,0x92,0x18,0x10,0xa,0x21,0x62,0x81,0x18,0x9,0x1f,0x19,0x3d,0x2c,0xbb,0xe0,0x29,0x29,0x1a,0xbf,0xa8,0x52,0xc6,0xf6,0xdd,0xe9,0xae,0x72,0x70,0xbe,0x53,0x22,0x47,0x5a,0xa,0xf1,0x7,0xf0,0xf4,0x30,0x12,0xde,0x71,0x43,0x21,0x19,0x5c,0x34,0xc3,0x18,0x17,0x29,0x19,0xa,0xe5,0x7f,0xed,0xf1,0x24,0xcc,0xfd,0x34,0x23,0x2b,0xec,0x1e,0xe,0xcf,0xd4,0x31,0xf0,0x34,0xc1,0xac,0xab,0x17,0xd,0xc2,0x1b,0x35,0x22,0x32,0xc3,0x12,0x11,0xe5,0x5,0xf3,0x3e,0xe3,0xf0,0xda,0xea,0x7,0xa,0xee,0xc3,0xf7,0xff,0x5c,0xb2,0x8,0x24,0xf4,0xeb,0x43,0xe1,0x5,0x24,0xf8,0xbe,0x1,0xf0,0xc9,0xb5,0xbf,0xff,0x48,0xe9,0x90,0x5,0xa9,0x4c,0x13,0x63,0xf0,0x41,0x2f,0xb5,0x25,0x1b,0xbc,0x81,0xe2,0xe9,0x38,0xd0,0x13,0xee,0x96,0x17,0xcc,0x35,0xdf,0xe8,0xc,0xf6,0x19,0x4c,0xd6,0x4,0x3d,0x38,0xb,0x2a,0xcd,0xc8,0xe6,0xb1,0x3a,0xf3,0xc8,0xbc,0x54,0x63,0x33,0x3b,0xfb,0xe6,0xda,0xda,0x1b,0x6e,0xfe,0xe0,0xf2,0xf3,0xac,0xb3,0xfa,0x2f,0xad,0x43,0x26,0xb0,0x59,0xc,0xbb,0xb7,0x7,0x2e,0x2f,0xe4,0x30,0xd1,0x7f,0x41,0x6c,0xf,0xe5,0xf9,0xc3,0xb5,0xf7,0xd9,0xe5,0x0,0xed,0xc4,0xd,0xb0,0x18,0xb8,0xd9,0x2b,0x67,0xf9,0x3d,0xc,0xf,0xfe,0x26,0xc5,0xdb,0x1e,0x1e,0x51,0xfb,0x99,0xcc,0xba,0xd7,0xb9,0x7,0x3,0xe7,0x88,0x54,0x1,0xec,0x3c,0x63,0x0,0x1,0x94,0xed,0xff,0xff,0xf,0x0,0x0,0x0,0x4d,0x4c,0x49,0x52,0x20,0x43,0x6f,0x6e,0x76,0x65,0x72,0x74,0x65,0x64,0x2e,0x0,0x1,0x0,0x0,0x0,0x14,0x0,0x0,0x0,0x0,0x0,0xe,0x0,0x18,0x0,0x14,0x0,0x10,0x0,0xc,0x0,0x8,0x0,0x4,0x0,0xe,0x0,0x0,0x0,0x14,0x0,0x0,0x0,0x1c,0x0,0x0,0x0,0x60,0x2,0x0,0x0,0x64,0x2,0x0,0x0,0x68,0x2,0x0,0x0,0x4,0x0,0x0,0x0,0x6d,0x61,0x69,0x6e,0x0,0x0,0x0,0x0,0xb,0x0,0x0,0x0,0x14,0x2,0x0,0x0,0xc0,0x1,0x0,0x0,0x88,0x1,0x0,0x0,0x54,0x1,0x0,0x0,0x2c,0x1,0x0,0x0,0xf8,0x0,0x0,0x0,0xb4,0x0,0x0,0x0,0x8c,0x0,0x0,0x0,0x64,0x0,0x0,0x0,0x3c,0x0,0x0,0x0,0x4,0x0,0x0,0x0,0x26,0xfe,0xff,0xff,0x10,0x0,0x0,0x0,0x0,0x0,0x0,0x8,0x10,0x0,0x0,0x0,0x14,0x0,0x0,0x0,0x66,0xfe,0xff,0xff,0x0,0x0,0x0,0x1,0x1,0x0,0x0,0x0,0x16,0x0,0x0,0x0,0x3,0x0,0x0,0x0,0x15,0x0,0x0,0x0,0x1,0x0,0x0,0x0,0xff,0xff,0xff,0xff,0xda,0xfe,0xff,0xff,0xc,0x0,0x0,0x0,0x10,0x0,0x0,0x0,0x1,0x0,0x0,0x0,0x1,0x0,0x0,0x0,0x15,0x0,0x0,0x0,0x2,0x0,0x0,0x0,0x14,0x0,0x0,0x0,0x5,0x0,0x0,0x0,0xfe,0xfe,0xff,0xff,0xc,0x0,0x0,0x0,0x10,0x0,0x0,0x0,0x5,0x0,0x0,0x0,0x1,0x0,0x0,0x0,0x14,0x0,0x0,0x0,0x2,0x0,0x0,0x0,0x13,0x0,0x0,0x0,0x6,0x0,0x0,0x0,0x22,0xff,0xff,0xff,0xc,0x0,0x0,0x0,0x10,0x0,0x0,0x0,0x1,0x0,0x0,0x0,0x1,0x0,0x0,0x0,0x13,0x0,0x0,0x0,0x2,0x0,0x0,0x0,0x12,0x0,0x0,0x0,0x7,0x0,0x0,0x0,0xce,0xff,0xff,0xff,0x14,0x0,0x0,0x0,0x0,0x0,0x0,0x15,0x10,0x0,0x0,0x0,0x14,0x0,0x0,0x0,0x4,0x0,0x0,0x0,0xd0,0xee,0xff,0xff,0x1,0x0,0x0,0x0,0x12,0x0,0x0,0x0,0x2,0x0,0x0,0x0,0x11,0x0,0x0,0x0,0x4,0x0,0x0,0x0,0x0,0x0,0xe,0x0,0x18,0x0,0x14,0x0,0x10,0x0,0xc,0x0,0xb,0x0,0x4,0x0,0xe,0x0,0x0,0x0,0x14,0x0,0x0,0x0,0x0,0x0,0x0,0x1b,0x10,0x0,0x0,0x0,0x14,0x0,0x0,0x0,0x3,0x0,0x0,0x0,0x10,0xef,0xff,0xff,0x1,0x0,0x0,0x0,0x11,0x0,0x0,0x0,0x2,0x0,0x0,0x0,0x10,0x0,0x0,0x0,0xb,0x0,0x0,0x0,0xb6,0xff,0xff,0xff,0xc,0x0,0x0,0x0,0x10,0x0,0x0,0x0,0x1,0x0,0x0,0x0,0x1,0x0,0x0,0x0,0x10,0x0,0x0,0x0,0x2,0x0,0x0,0x0,0xf,0x0,0x0,0x0,0x8,0x0,0x0,0x0,0xda,0xff,0xff,0xff,0xc,0x0,0x0,0x0,0x10,0x0,0x0,0x0,0x2,0x0,0x0,0x0,0x1,0x0,0x0,0x0,0xf,0x0,0x0,0x0,0x2,0x0,0x0,0x0,0xe,0x0,0x0,0x0,0x9,0x0,0x0,0x0,0x0,0x0,0xa,0x0,0x10,0x0,0xc,0x0,0x8,0x0,0x4,0x0,0xa,0x0,0x0,0x0,0xc,0x0,0x0,0x0,0x10,0x0,0x0,0x0,0x1,0x0,0x0,0x0,0x1,0x0,0x0,0x0,0xe,0x0,0x0,0x0,0x2,0x0,0x0,0x0,0xd,0x0,0x0,0x0,0xa,0x0,0x0,0x0,0x0,0x0,0xe,0x0,0x16,0x0,0x0,0x0,0x10,0x0,0xc,0x0,0xb,0x0,0x4,0x0,0xe,0x0,0x0,0x0,0x1c,0x0,0x0,0x0,0x0,0x0,0x0,0x8,0x1c,0x0,0x0,0x0,0x20,0x0,0x0,0x0,0x0,0x0,0xa,0x0,0x8,0x0,0x0,0x0,0x0,0x0,0x7,0x0,0xa,0x0,0x0,0x0,0x0,0x0,0x0,0x1,0x1,0x0,0x0,0x0,0xd,0x0,0x0,0x0,0x3,0x0,0x0,0x0,0xc,0x0,0x0,0x0,0x2,0x0,0x0,0x0,0xff,0xff,0xff,0xff,0x0,0x0,0xe,0x0,0x14,0x0,0x0,0x0,0x10,0x0,0xc,0x0,0xb,0x0,0x4,0x0,0xe,0x0,0x0,0x0,0x10,0x0,0x0,0x0,0x0,0x0,0x0,0x8,0xc,0x0,0x0,0x0,0x10,0x0,0x0,0x0,0x14,0xf0,0xff,0xff,0x1,0x0,0x0,0x0,0xc,0x0,0x0,0x0,0x3,0x0,0x0,0x0,0x0,0x0,0x0,0x0,0x3,0x0,0x0,0x0,0xff,0xff,0xff,0xff,0x1,0x0,0x0,0x0,0x16,0x0,0x0,0x0,0x1,0x0,0x0,0x0,0x0,0x0,0x0,0x0,0x17,0x0,0x0,0x0,0xa8,0xf,0x0,0x0,0xb4,0xe,0x0,0x0,0x3c,0xb,0x0,0x0,0xb0,0x7,0x0,0x0,0x3c,0x7,0x0,0x0,0xd8,0x6,0x0,0x0,0x4c,0x6,0x0,0x0,0xd0,0x5,0x0,0x0,0x54,0x5,0x0,0x0,0x8,0x5,0x0,0x0,0xc8,0x4,0x0,0x0,0x4c,0x4,0x0,0x0,0xdc,0x3,0x0,0x0,0x94,0x3,0x0,0x0,0x48,0x3,0x0,0x0,0xfc,0x2,0x0,0x0,0x7c,0x2,0x0,0x0,0x4,0x2,0x0,0x0,0x8c,0x1,0x0,0x0,0x18,0x1,0x0,0x0,0x98,0x0,0x0,0x0,0x50,0x0,0x0,0x0,0x4,0x0,0x0,0x0,0xca,0xf0,0xff,0xff,0x0,0x0,0x0,0x1,0xc,0x0,0x0,0x0,0xc,0x0,0x0,0x0,0x2c,0x0,0x0,0x0,0xb4,0xf0,0xff,0xff,0x1f,0x0,0x0,0x0,0x73,0x65,0x72,0x76,0x69,0x6e,0x67,0x5f,0x64,0x65,0x66,0x61,0x75,0x6c,0x74,0x5f,0x6f,0x75,0x74,0x70,0x75,0x74,0x5f,0x30,0x5f,0x6f,0x75,0x74,0x70,0x75,0x74,0x0,0x2,0x0,0x0,0x0,0x1,0x0,0x0,0x0,0x6,0x0,0x0,0x0,0x12,0xf1,0xff,0xff,0x0,0x0,0x0,0x1,0xc,0x0,0x0,0x0,0xc,0x0,0x0,0x0,0x28,0x0,0x0,0x0,0xfc,0xf0,0xff,0xff,0x1a,0x0,0x0,0x0,0x6d,0x6f,0x64,0x65,0x6c,0x73,0x5f,0x6c,0x69,0x6e,0x65,0x61,0x72,0x2e,0x54,0x69,0x6e,0x79,0x4c,0x69,0x6e,0x65,0x61,0x72,0x3b,0x36,0x0,0x0,0x2,0x0,0x0,0x0,0x1,0x0,0x0,0x0,0x40,0x0,0x0,0x0,0x56,0xf1,0xff,0xff,0x0,0x0,0x0,0x1,0xc,0x0,0x0,0x0,0xc,0x0,0x0,0x0,0x58,0x0,0x0,0x0,0x40,0xf1,0xff,0xff,0x4a,0x0,0x0,0x0,0x6d,0x6f,0x64,0x65,0x6c,0x73,0x5f,0x6c,0x69,0x6e,0x65,0x61,0x72,0x2e,0x54,0x69,0x6e,0x79,0x4c,0x69,0x6e,0x65,0x61,0x72,0x2f,0x74,0x6f,0x72,0x63,0x68,0x2e,0x6e,0x6e,0x2e,0x6d,0x6f,0x64,0x75,0x6c,0x65,0x73,0x2e,0x70,0x6f,0x6f,0x6c,0x69,0x6e,0x67,0x2e,0x41,0x64,0x61,0x70,0x74,0x69,0x76,0x65,0x41,0x76,0x67,0x50,0x6f,0x6f,0x6c,0x31,0x64,0x5f,0x70,0x6f,0x6f,0x6c,0x3b,0x39,0x0,0x0,0x4,0x0,0x0,0x0,0x1,0x0,0x0,0x0,0x40,0x0,0x0,0x0,0x1,0x0,0x0,0x0,0x1,0x0,0x0,0x0,0xd2,0xf1,0xff,0xff,0x0,0x0,0x0,0x1,0xc,0x0,0x0,0x0,0xc,0x0,0x0,0x0,0x58,0x0,0x0,0x0,0xbc,0xf1,0xff,0xff,0x4a,0x0,0x0,0x0,0x6d,0x6f,0x64,0x65,0x6c,0x73,0x5f,0x6c,0x69,0x6e,0x65,0x61,0x72,0x2e,0x54,0x69,0x6e,0x79,0x4c,0x69,0x6e,0x65,0x61,0x72,0x2f,0x74,0x6f,0x72,0x63,0x68,0x2e,0x6e,0x6e,0x2e,0x6d,0x6f,0x64,0x75,0x6c,0x65,0x73,0x2e,0x70,0x6f,0x6f,0x6c,0x69,0x6e,0x67,0x2e,0x41,0x64,0x61,0x70,0x74,0x69,0x76,0x65,0x41,0x76,0x67,0x50,0x6f,0x6f,0x6c,0x31,0x64,0x5f,0x70,0x6f,0x6f,0x6c,0x3b,0x38,0x0,0x0,0x1,0x0,0x0,0x0,0x40,0x0,0x0,0x0,0x42,0xf2,0xff,0xff,0x0,0x0,0x0,0x1,0xc,0x0,0x0,0x0,0xc,0x0,0x0,0x0,0x58,0x0,0x0,0x0,0x2c,0xf2,0xff,0xff,0x4a,0x0,0x0,0x0,0x6d,0x6f,0x64,0x65,0x6c,0x73,0x5f,0x6c,0x69,0x6e,0x65,0x61,0x72,0x2e,0x54,0x69,0x6e,0x79,0x4c,0x69,0x6e,0x65,0x61,0x72,0x2f,0x74,0x6f,0x72,0x63,0x68,0x2e,0x6e,0x6e,0x2e,0x6d,0x6f,0x64,0x75,0x6c,0x65,0x73,0x2e,0x70,0x6f,0x6f,0x6c,0x69,0x6e,0x67,0x2e,0x41,0x64,0x61,0x70,0x74,0x69,0x76,0x65,0x41,0x76,0x67,0x50,0x6f,0x6f,0x6c,0x31,0x64,0x5f,0x70,0x6f,0x6f,0x6c,0x3b,0x37,0x0,0x0,0x2,0x0,0x0,0x0,0x1,0x0,0x0,0x0,0x40,0x0,0x0,0x0,0xb6,0xf2,0xff,0xff,0x0,0x0,0x0,0x1,0xc,0x0,0x0,0x0,0xc,0x0,0x0,0x0,0x58,0x0,0x0,0x0,0xa0,0xf2,0xff,0xff,0x4a,0x0,0x0,0x0,0x6d,0x6f,0x64,0x65,0x6c,0x73,0x5f,0x6c,0x69,0x6e,0x65,0x61,0x72,0x2e,0x54,0x69,0x6e,0x79,0x4c,0x69,0x6e,0x65,0x61,0x72,0x2f,0x74,0x6f,0x72,0x63,0x68,0x2e,0x6e,0x6e,0x2e,0x6d,0x6f,0x64,0x75,0x6c,0x65,0x73,0x2e,0x70,0x6f,0x6f,0x6c,0x69,0x6e,0x67,0x2e,0x41,0x64,0x61,0x70,0x74,0x69,0x76,0x65,0x41,0x76,0x67,0x50,0x6f,0x6f,0x6c,0x31,0x64,0x5f,0x70,0x6f,0x6f,0x6c,0x3b,0x36,0x0,0x0,0x2,0x0,0x0,0x0,0x1,0x0,0x0,0x0,0x40,0x0,0x0,0x0,0x2a,0xf3,0xff,0xff,0x0,0x0,0x0,0x1,0xc,0x0,0x0,0x0,0xc,0x0,0x0,0x0,0x58,0x0,0x0,0x0,0x14,0xf3,0xff,0xff,0x4a,0x0,0x0,0x0,0x6d,0x6f,0x64,0x65,0x6c,0x73,0x5f,0x6c,0x69,0x6e,0x65,0x61,0x72,0x2e,0x54,0x69,0x6e,0x79,0x4c,0x69,0x6e,0x65,0x61,0x72,0x2f,0x74,0x6f,0x72,0x63,0x68,0x2e,0x6e,0x6e,0x2e,0x6d,0x6f,0x64,0x75,0x6c,0x65,0x73,0x2e,0x70,0x6f,0x6f,0x6c,0x69,0x6e,0x67,0x2e,0x41,0x64,0x61,0x70,0x74,0x69,0x76,0x65,0x41,0x76,0x67,0x50,0x6f,0x6f,0x6c,0x31,0x64,0x5f,0x70,0x6f,0x6f,0x6c,0x3b,0x35,0x0,0x0,0x4,0x0,0x0,0x0,0x1,0x0,0x0,0x0,0x40,0x0,0x0,0x0,0x1,0x0,0x0,0x0,0xa,0x0,0x0,0x0,0xa6,0xf3,0xff,0xff,0x0,0x0,0x0,0x1,0xc,0x0,0x0,0x0,0xc,0x0,0x0,0x0,0x28,0x0,0x0,0x0,0x90,0xf3,0xff,0xff,0x1a,0x0,0x0,0x0,0x6d,0x6f,0x64,0x65,0x6c,0x73,0x5f,0x6c,0x69,0x6e,0x65,0x61,0x72,0x2e,0x54,0x69,0x6e,0x79,0x4c,0x69,0x6e,0x65,0x61,0x72,0x3b,0x35,0x0,0x0,0x3,0x0,0x0,0x0,0x1,0x0,0x0,0x0,0x40,0x0,0x0,0x0,0xa,0x0,0x0,0x0,0xee,0xf3,0xff,0xff,0x0,0x0,0x0,0x1,0xc,0x0,0x0,0x0,0xc,0x0,0x0,0x0,0x28,0x0,0x0,0x0,0xd8,0xf3,0xff,0xff,0x1a,0x0,0x0,0x0,0x6d,0x6f,0x64,0x65,0x6c,0x73,0x5f,0x6c,0x69,0x6e,0x65,0x61,0x72,0x2e,0x54,0x69,0x6e,0x79,0x4c,0x69,0x6e,0x65,0x61,0x72,0x3b,0x34,0x0,0x0,0x3,0x0,0x0,0x0,0x1,0x0,0x0,0x0,0xa,0x0,0x0,0x0,0x40,0x0,0x0,0x0,0x36,0xf4,0xff,0xff,0x0,0x0,0x0,0x1,0xc,0x0,0x0,0x0,0xc,0x0,0x0,0x0,0x28,0x0,0x0,0x0,0x20,0xf4,0xff,0xff,0x1a,0x0,0x0,0x0,0x6d,0x6f,0x64,0x65,0x6c,0x73,0x5f,0x6c,0x69,0x6e,0x65,0x61,0x72,0x2e,0x54,0x69,0x6e,0x79,0x4c,0x69,0x6e,0x65,0x61,0x72,0x3b,0x33,0x0,0x0,0x2,0x0,0x0,0x0,0xa,0x0,0x0,0x0,0x40,0x0,0x0,0x0,0x7a,0xf4,0xff,0xff,0x0,0x0,0x0,0x1,0xc,0x0,0x0,0x0,0xc,0x0,0x0,0x0,0x50,0x0,0x0,0x0,0x64,0xf4,0xff,0xff,0x43,0x0,0x0,0x0,0x6d,0x6f,0x64,0x65,0x6c,0x73,0x5f,0x6c,0x69,0x6e,0x65,0x61,0x72,0x2e,0x54,0x69,0x6e,0x79,0x4c,0x69,0x6e,0x65,0x61,0x72,0x2f,0x74,0x6f,0x72,0x63,0x68,0x2e,0x6e,0x6e,0x2e,0x6d,0x6f,0x64,0x75,0x6c,0x65,0x73,0x2e,0x6c,0x69,0x6e,0x65,0x61,0x72,0x2e,0x4c,0x69,0x6e,0x65,0x61,0x72,0x5f,0x6c,0x69,0x6e,0x65,0x61,0x72,0x5f,0x69,0x6e,0x3b,0x31,0x0,0x2,0x0,0x0,0x0,0xa,0x0,0x0,0x0,0x40,0x0,0x0,0x0,0xd6,0xf5,0xff,0xff,0x0,0x0,0x0,0x1,0x14,0x0,0x0,0x0,0x14,0x0,0x0,0x0,0xb,0x0,0x0,0x0,0x0,0x0,0x0,0x2,0x58,0x0,0x0,0x0,0xd8,0xf4,0xff,0xff,0x4a,0x0,0x0,0x0,0x6d,0x6f,0x64,0x65,0x6c,0x73,0x5f,0x6c,0x69,0x6e,0x65,0x61,0x72,0x2e,0x54,0x69,0x6e,0x79,0x4c,0x69,0x6e,0x65,0x61,0x72,0x2f,0x74,0x6f,0x72,0x63,0x68,0x2e,0x6e,0x6e,0x2e,0x6d,0x6f,0x64,0x75,0x6c,0x65,0x73,0x2e,0x70,0x6f,0x6f,0x6c,0x69,0x6e,0x67,0x2e,0x41,0x64,0x61,0x70,0x74,0x69,0x76,0x65,0x41,0x76,0x67,0x50,0x6f,0x6f,0x6c,0x31,0x64,0x5f,0x70,0x6f,0x6f,0x6c,0x3b,0x34,0x0,0x0,0x1,0x0,0x0,0x0,0x2,0x0,0x0,0x0,0x4e,0xf6,0xff,0xff,0x0,0x0,0x0,0x1,0x14,0x0,0x0,0x0,0x14,0x0,0x0,0x0,0xa,0x0,0x0,0x0,0x0,0x0,0x0,0x2,0x1c,0x0,0x0,0x0,0x50,0xf5,0xff,0xff,0xe,0x0,0x0,0x0,0x61,0x72,0x69,0x74,0x68,0x2e,0x63,0x6f,0x6e,0x73,0x74,0x61,0x6e,0x74,0x0,0x0,0x1,0x0,0x0,0x0,0x3,0x0,0x0,0x0,0x8a,0xf6,0xff,0xff,0x0,0x0,0x0,0x1,0x14,0x0,0x0,0x0,0x14,0x0,0x0,0x0,0x9,0x0,0x0,0x0,0x0,0x0,0x0,0x2,0x28,0x0,0x0,0x0,0x8c,0xf5,0xff,0xff,0x1a,0x0,0x0,0x0,0x6d,0x6f,0x64,0x65,0x6c,0x73,0x5f,0x6c,0x69,0x6e,0x65,0x61,0x72,0x2e,0x54,0x69,0x6e,0x79,0x4c,0x69,0x6e,0x65,0x61,0x72,0x3b,0x32,0x0,0x0,0x1,0x0,0x0,0x0,0x3,0x0,0x0,0x0,0xd2,0xf6,0xff,0xff,0x0,0x0,0x0,0x1,0x14,0x0,0x0,0x0,0x14,0x0,0x0,0x0,0x8,0x0,0x0,0x0,0x0,0x0,0x0,0x2,0x58,0x0,0x0,0x0,0xd4,0xf5,0xff,0xff,0x4a,0x0,0x0,0x0,0x6d,0x6f,0x64,0x65,0x6c,0x73,0x5f,0x6c,0x69,0x6e,0x65,0x61,0x72,0x2e,0x54,0x69,0x6e,0x79,0x4c,0x69,0x6e,0x65,0x61,0x72,0x2f,0x74,0x6f,0x72,0x63,0x68,0x2e,0x6e,0x6e,0x2e,0x6d,0x6f,0x64,0x75,0x6c,0x65,0x73,0x2e,0x70,0x6f,0x6f,0x6c,0x69,0x6e,0x67,0x2e,0x41,0x64,0x61,0x70,0x74,0x69,0x76,0x65,0x41,0x76,0x67,0x50,0x6f,0x6f,0x6c,0x31,0x64,0x5f,0x70,0x6f,0x6f,0x6c,0x3b,0x33,0x0,0x0,0x1,0x0,0x0,0x0,0x4,0x0,0x0,0x0,0x4a,0xf7,0xff,0xff,0x0,0x0,0x0,0x1,0x14,0x0,0x0,0x0,0x14,0x0,0x0,0x0,0x7,0x0,0x0,0x0,0x0,0x0,0x0,0x2,0x58,0x0,0x0,0x0,0x4c,0xf6,0xff,0xff,0x4a,0x0,0x0,0x0,0x6d,0x6f,0x64,0x65,0x6c,0x73,0x5f,0x6c,0x69,0x6e,0x65,0x61,0x72,0x2e,0x54,0x69,0x6e,0x79,0x4c,0x69,0x6e,0x65,0x61,0x72,0x2f,0x74,0x6f,0x72,0x63,0x68,0x2e,0x6e,0x6e,0x2e,0x6d,0x6f,0x64,0x75,0x6c,0x65,0x73,0x2e,0x70,0x6f,0x6f,0x6c,0x69,0x6e,0x67,0x2e,0x41,0x64,0x61,0x70,0x74,0x69,0x76,0x65,0x41,0x76,0x67,0x50,0x6f,0x6f,0x6c,0x31,0x64,0x5f,0x70,0x6f,0x6f,0x6c,0x3b,0x32,0x0,0x0,0x1,0x0,0x0,0x0,0x1,0x0,0x0,0x0,0xc2,0xf7,0xff,0xff,0x0,0x0,0x0,0x1,0x14,0x0,0x0,0x0,0x14,0x0,0x0,0x0,0x6,0x0,0x0,0x0,0x0,0x0,0x0,0x2,0x58,0x0,0x0,0x0,0xc4,0xf6,0xff,0xff,0x4a,0x0,0x0,0x0,0x6d,0x6f,0x64,0x65,0x6c,0x73,0x5f,0x6c,0x69,0x6e,0x65,0x61,0x72,0x2e,0x54,0x69,0x6e,0x79,0x4c,0x69,0x6e,0x65,0x61,0x72,0x2f,0x74,0x6f,0x72,0x63,0x68,0x2e,0x6e,0x6e,0x2e,0x6d,0x6f,0x64,0x75,0x6c,0x65,0x73,0x2e,0x70,0x6f,0x6f,0x6c,0x69,0x6e,0x67,0x2e,0x41,0x64,0x61,0x70,0x74,0x69,0x76,0x65,0x41,0x76,0x67,0x50,0x6f,0x6f,0x6c,0x31,0x64,0x5f,0x70,0x6f,0x6f,0x6c,0x3b,0x31,0x0,0x0,0x5,0x0,0x0,0x0,0x1,0x0,0x0,0x0,0x40,0x0,0x0,0x0,0x1,0x0,0x0,0x0,0x1,0x0,0x0,0x0,0x1,0x0,0x0,0x0,0x4a,0xf8,0xff,0xff,0x0,0x0,0x0,0x1,0x14,0x0,0x0,0x0,0x14,0x0,0x0,0x0,0x5,0x0,0x0,0x0,0x0,0x0,0x0,0x2,0x28,0x0,0x0,0x0,0x4c,0xf7,0xff,0xff,0x1a,0x0,0x0,0x0,0x6d,0x6f,0x64,0x65,0x6c,0x73,0x5f,0x6c,0x69,0x6e,0x65,0x61,0x72,0x2e,0x54,0x69,0x6e,0x79,0x4c,0x69,0x6e,0x65,0x61,0x72,0x3b,0x31,0x0,0x0,0x1,0x0,0x0,0x0,0x2,0x0,0x0,0x0,0x0,0x0,0x16,0x0,0x18,0x0,0x14,0x0,0x0,0x0,0x10,0x0,0xc,0x0,0x8,0x0,0x0,0x0,0x0,0x0,0x0,0x0,0x7,0x0,0x16,0x0,0x0,0x0,0x0,0x0,0x0,0x1,0x10,0x0,0x0,0x0,0x10,0x0,0x0,0x0,0x4,0x0,0x0,0x0,0x58,0x0,0x0,0x0,0xa8,0xf7,0xff,0xff,0x49,0x0,0x0,0x0,0x6d,0x6f,0x64,0x65,0x6c,0x73,0x5f,0x6c,0x69,0x6e,0x65,0x61,0x72,0x2e,0x54,0x69,0x6e,0x79,0x4c,0x69,0x6e,0x65,0x61,0x72,0x2f,0x74,0x6f,0x72,0x63,0x68,0x2e,0x6e,0x6e,0x2e,0x6d,0x6f,0x64,0x75,0x6c,0x65,0x73,0x2e,0x70,0x6f,0x6f,0x6c,0x69,0x6e,0x67,0x2e,0x41,0x64,0x61,0x70,0x74,0x69,0x76,0x65,0x41,0x76,0x67,0x50,0x6f,0x6f,0x6c,0x31,0x64,0x5f,0x70,0x6f,0x6f,0x6c,0x3b,0x0,0x0,0x0,0x0,0x0,0x0,0x0,0x1a,0xf9,0xff,0xff,0x0,0x0,0x0,0x1,0x14,0x0,0x0,0x0,0x28,0x3,0x0,0x0,0x3,0x0,0x0,0x0,0x0,0x0,0x0,0x9,0x64,0x3,0x0,0x0,0x4,0xf9,0xff,0xff,0x8,0x0,0x0,0x0,0xc,0x2,0x0,0x0,0x40,0x0,0x0,0x0,0x0,0x0,0x0,0x0,0x0,0x0,0x0,0x0,0x0,0x0,0x0,0x0,0x0,0x0,0x0,0x0,0x0,0x0,0x0,0x0,0x0,0x0,0x0,0x0,0x0,0x0,0x0,0x0,0x0,0x0,0x0,0x0,0x0,0x0,0x0,0x0,0x0,0x0,0x0,0x0,0x0,0x0,0x0,0x0,0x0,0x0,0x0,0x0,0x0,0x0,0x0,0x0,0x0,0x0,0x0,0x0,0x0,0x0,0x0,0x0,0x0,0x0,0x0,0x0,0x0,0x0,0x0,0x0,0x0,0x0,0x0,0x0,0x0,0x0,0x0,0x0,0x0,0x0,0x0,0x0,0x0,0x0,0x0,0x0,0x0,0x0,0x0,0x0,0x0,0x0,0x0,0x0,0x0,0x0,0x0,0x0,0x0,0x0,0x0,0x0,0x0,0x0,0x0,0x0,0x0,0x0,0x0,0x0,0x0,0x0,0x0,0x0,0x0,0x0,0x0,0x0,0x0,0x0,0x0,0x0,0x0,0x0,0x0,0x0,0x0,0x0,0x0,0x0,0x0,0x0,0x0,0x0,0x0,0x0,0x0,0x0,0x0,0x0,0x0,0x0,0x0,0x0,0x0,0x0,0x0,0x0,0x0,0x0,0x0,0x0,0x0,0x0,0x0,0x0,0x0,0x0,0x0,0x0,0x0,0x0,0x0,0x0,0x0,0x0,0x0,0x0,0x0,0x0,0x0,0x0,0x0,0x0,0x0,0x0,0x0,0x0,0x0,0x0,0x0,0x0,0x0,0x0,0x0,0x0,0x0,0x0,0x0,0x0,0x0,0x0,0x0,0x0,0x0,0x0,0x0,0x0,0x0,0x0,0x0,0x0,0x0,0x0,0x0,0x0,0x0,0x0,0x0,0x0,0x0,0x0,0x0,0x0,0x0,0x0,0x0,0x0,0x0,0x0,0x0,0x0,0x0,0x0,0x0,0x0,0x0,0x0,0x0,0x0,0x0,0x0,0x0,0x0,0x0,0x0,0x0,0x0,0x0,0x0,0x0,0x0,0x0,0x0,0x0,0x0,0x0,0x0,0x0,0x0,0x0,0x0,0x0,0x0,0x0,0x0,0x0,0x0,0x0,0x0,0x0,0x0,0x0,0x0,0x0,0x0,0x0,0x0,0x0,0x0,0x0,0x0,0x0,0x0,0x0,0x0,0x0,0x0,0x0,0x0,0x0,0x0,0x0,0x0,0x0,0x0,0x0,0x0,0x0,0x0,0x0,0x0,0x0,0x0,0x0,0x0,0x0,0x0,0x0,0x0,0x0,0x0,0x0,0x0,0x0,0x0,0x0,0x0,0x0,0x0,0x0,0x0,0x0,0x0,0x0,0x0,0x0,0x0,0x0,0x0,0x0,0x0,0x0,0x0,0x0,0x0,0x0,0x0,0x0,0x0,0x0,0x0,0x0,0x0,0x0,0x0,0x0,0x0,0x0,0x0,0x0,0x0,0x0,0x0,0x0,0x0,0x0,0x0,0x0,0x0,0x0,0x0,0x0,0x0,0x0,0x0,0x0,0x0,0x0,0x0,0x0,0x0,0x0,0x0,0x0,0x0,0x0,0x0,0x0,0x0,0x0,0x0,0x0,0x0,0x0,0x0,0x0,0x0,0x0,0x0,0x0,0x0,0x0,0x0,0x0,0x0,0x0,0x0,0x0,0x0,0x0,0x0,0x0,0x0,0x0,0x0,0x0,0x0,0x0,0x0,0x0,0x0,0x0,0x0,0x0,0x0,0x0,0x0,0x0,0x0,0x0,0x0,0x0,0x0,0x0,0x0,0x0,0x0,0x0,0x0,0x0,0x0,0x0,0x0,0x0,0x0,0x0,0x0,0x0,0x0,0x0,0x0,0x0,0x0,0x0,0x0,0x0,0x0,0x0,0x0,0x0,0x0,0x0,0x0,0x0,0x0,0x0,0x0,0x0,0x0,0x0,0x0,0x0,0x0,0x0,0x0,0x0,0x0,0x0,0x0,0x0,0x0,0x0,0x0,0x0,0x0,0x0,0x0,0x0,0x0,0x0,0x0,0x0,0x0,0x0,0x0,0x0,0x0,0x0,0x0,0x0,0x0,0x0,0x0,0x0,0x0,0x0,0x0,0x0,0x0,0x0,0x0,0x0,0x0,0x0,0x0,0x0,0x0,0x0,0x0,0x0,0x0,0x0,0x0,0x0,0x0,0x0,0x0,0x0,0x0,0x0,0x0,0x0,0x0,0x0,0x0,0x0,0x0,0x40,0x0,0x0,0x0,0x1a,0xbf,0xfc,0x3a,0xd,0xb3,0xde,0x3a,0xb6,0xbb,0xf,0x3b,0xd8,0x65,0x22,0x3b,0x68,0x4f,0x36,0x3b,0x51,0xc2,0xa,0x3b,0x71,0xef,0x16,0x3b,0x34,0x72,0x2c,0x3b,0x71,0xdd,0x1f,0x3b,0xa5,0x75,0xd,0x3b,0xad,0x60,0x4,0x3b,0xdb,0x1e,0x1c,0x3b,0xc2,0x4c,0x11,0x3b,0xf0,0x8,0x18,0x3b,0x36,0x67,0x35,0x3b,0x69,0x2f,0x1e,0x3b,0x3e,0xc9,0xa,0x3b,0x42,0x6f,0x27,0x3b,0x3c,0x20,0x18,0x3b,0xe4,0x8f,0x8,0x3b,0x7,0x5c,0x1,0x3b,0xbc,0x82,0x7,0x3b,0x4,0xf6,0x14,0x3b,0x12,0x82,0x10,0x3b,0xdb,0xbe,0xe5,0x3a,0x82,0x8,0x1a,0x3b,0xd1,0x5c,0x13,0x3b,0xbd,0xd1,0x2e,0x3b,0xff,0x83,0xe9,0x3a,0x77,0x3e,0x7,0x3b,0x4d,0x39,0xb,0x3b,0x10,0x4,0x9,0x3b,0x8,0xe8,0x4,0x3b,0xb5,0x8c,0xd5,0x3a,0x4,0xab,0xa,0x3b,0x33,0x8a,0xfa,0x3a,0x4f,0xfd,0xf,0x3b,0x7a,0x9e,0x1a,0x3b,0xc6,0x38,0x25,0x3b,0xfb,0xb2,0x4,0x3b,0x25,0x95,0x14,0x3b,0xd1,0x11,0x1c,0x3b,0xd5,0xbc,0x15,0x3b,0x60,0xa0,0xfa,0x3a,0xbd,0x82,0x6,0x3b,0x37,0x78,0xc,0x3b,0xd7,0x6c,0xe,0x3b,0x22,0x6d,0x18,0x3b,0xbb,0x24,0xb,0x3b,0xf8,0xaf,0x2a,0x3b,0x18,0x3f,0x1e,0x3b,0xfb,0x90,0x5,0x3b,0xe1,0x81,0x20,0x3b,0xa7,0x98,0x2b,0x3b,0xbe,0x5a,0x10,0x3b,0x73,0x6d,0xe4,0x3a,0x27,0xd5,0x17,0x3b,0x54,0x82,0xff,0x3a,0xba,0x96,0x0,0x3b,0x13,0x28,0xc,0x3b,0x33,0xb7,0x1a,0x3b,0x30,0x77,0x9,0x3b,0x89,0x44,0x7,0x3b,0xb2,0x27,0x17,0x3b,0x42,0x0,0x0,0x0,0x6d,0x6f,0x64,0x65,0x6c,0x73,0x5f,0x6c,0x69,0x6e,0x65,0x61,0x72,0x2e,0x54,0x69,0x6e,0x79,0x4c,0x69,0x6e,0x65,0x61,0x72,0x2f,0x74,0x6f,0x72,0x63,0x68,0x2e,0x6e,0x6e,0x2e,0x6d,0x6f,0x64,0x75,0x6c,0x65,0x73,0x2e,0x6c,0x69,0x6e,0x65,0x61,0x72,0x2e,0x4c,0x69,0x6e,0x65,0x61,0x72,0x5f,0x6c,0x69,0x6e,0x65,0x61,0x72,0x5f,0x69,0x6e,0x3b,0x0,0x0,0x2,0x0,0x0,0x0,0x40,0x0,0x0,0x0,0x39,0x0,0x0,0x0,0xa2,0xfc,0xff,0xff,0x0,0x0,0x0,0x1,0x14,0x0,0x0,0x0,0x24,0x3,0x0,0x0,0x2,0x0,0x0,0x0,0x0,0x0,0x0,0x9,0x38,0x3,0x0,0x0,0x8c,0xfc,0xff,0xff,0x8,0x0,0x0,0x0,0x8,0x2,0x0,0x0,0x40,0x0,0x0,0x0,0x0,0x0,0x0,0x0,0x0,0x0,0x0,0x0,0x0,0x0,0x0,0x0,0x0,0x0,0x0,0x0,0x0,0x0,0x0,0x0,0x0,0x0,0x0,0x0,0x0,0x0,0x0,0x0,0x0,0x0,0x0,0x0,0x0,0x0,0x0,0x0,0x0,0x0,0x0,0x0,0x0,0x0,0x0,0x0,0x0,0x0,0x0,0x0,0x0,0x0,0x0,0x0,0x0,0x0,0x0,0x0,0x0,0x0,0x0,0x0,0x0,0x0,0x0,0x0,0x0,0x0,0x0,0x0,0x0,0x0,0x0,0x0,0x0,0x0,0x0,0x0,0x0,0x0,0x0,0x0,0x0,0x0,0x0,0x0,0x0,0x0,0x0,0x0,0x0,0x0,0x0,0x0,0x0,0x0,0x0,0x0,0x0,0x0,0x0,0x0,0x0,0x0,0x0,0x0,0x0,0x0,0x0,0x0,0x0,0x0,0x0,0x0,0x0,0x0,0x0,0x0,0x0,0x0,0x0,0x0,0x0,0x0,0x0,0x0,0x0,0x0,0x0,0x0,0x0,0x0,0x0,0x0,0x0,0x0,0x0,0x0,0x0,0x0,0x0,0x0,0x0,0x0,0x0,0x0,0x0,0x0,0x0,0x0,0x0,0x0,0x0,0x0,0x0,0x0,0x0,0x0,0x0,0x0,0x0,0x0,0x0,0x0,0x0,0x0,0x0,0x0,0x0,0x0,0x0,0x0,0x0,0x0,0x0,0x0,0x0,0x0,0x0,0x0,0x0,0x0,0x0,0x0,0x0,0x0,0x0,0x0,0x0,0x0,0x0,0x0,0x0,0x0,0x0,0x0,0x0,0x0,0x0,0x0,0x0,0x0,0x0,0x0,0x0,0x0,0x0,0x0,0x0,0x0,0x0,0x0,0x0,0x0,0x0,0x0,0x0,0x0,0x0,0x0,0x0,0x0,0x0,0x0,0x0,0x0,0x0,0x0,0x0,0x0,0x0,0x0,0x0,0x0,0x0,0x0,0x0,0x0,0x0,0x0,0x0,0x0,0x0,0x0,0x0,0x0,0x0,0x0,0x0,0x0,0x0,0x0,0x0,0x0,0x0,0x0,0x0,0x0,0x0,0x0,0x0,0x0,0x0,0x0,0x0,0x0,0x0,0x0,0x0,0x0,0x0,0x0,0x0,0x0,0x0,0x0,0x0,0x0,0x0,0x0,0x0,0x0,0x0,0x0,0x0,0x0,0x0,0x0,0x0,0x0,0x0,0x0,0x0,0x0,0x0,0x0,0x0,0x0,0x0,0x0,0x0,0x0,0x0,0x0,0x0,0x0,0x0,0x0,0x0,0x0,0x0,0x0,0x0,0x0,0x0,0x0,0x0,0x0,0x0,0x0,0x0,0x0,0x0,0x0,0x0,0x0,0x0,0x0,0x0,0x0,0x0,0x0,0x0,0x0,0x0,0x0,0x0,0x0,0x0,0x0,0x0,0x0,0x0,0x0,0x0,0x0,0x0,0x0,0x0,0x0,0x0,0x0,0x0,0x0,0x0,0x0,0x0,0x0,0x0,0x0,0x0,0x0,0x0,0x0,0x0,0x0,0x0,0x0,0x0,0x0,0x0,0x0,0x0,0x0,0x0,0x0,0x0,0x0,0x0,0x0,0x0,0x0,0x0,0x0,0x0,0x0,0x0,0x0,0x0,0x0,0x0,0x0,0x0,0x0,0x0,0x0,0x0,0x0,0x0,0x0,0x0,0x0,0x0,0x0,0x0,0x0,0x0,0x0,0x0,0x0,0x0,0x0,0x0,0x0,0x0,0x0,0x0,0x0,0x0,0x0,0x0,0x0,0x0,0x0,0x0,0x0,0x0,0x0,0x0,0x0,0x0,0x0,0x0,0x0,0x0,0x0,0x0,0x0,0x0,0x0,0x0,0x0,0x0,0x0,0x0,0x0,0x0,0x0,0x0,0x0,0x0,0x0,0x0,0x0,0x0,0x0,0x0,0x0,0x0,0x0,0x0,0x0,0x0,0x0,0x0,0x0,0x0,0x0,0x0,0x0,0x0,0x0,0x0,0x0,0x0,0x0,0x0,0x0,0x0,0x0,0x0,0x0,0x0,0x0,0x0,0x0,0x0,0x0,0x0,0x0,0x0,0x0,0x0,0x0,0x0,0x0,0x0,0x0,0x0,0x0,0x0,0x0,0x0,0x0,0x0,0x0,0x0,0x0,0x0,0x0,0x0,0x0,0x0,0x0,0x40,0x0,0x0,0x0,0x7c,0x56,0x53,0x3b,0x95,0x3f,0x27,0x3b,0x2b,0x13,0x50,0x3b,0xa7,0xa1,0x6c,0x3b,0x9e,0x80,0x5b,0x3b,0x53,0x47,0x4b,0x3b,0x9b,0x66,0x41,0x3b,0x3f,0x93,0x5d,0x3b,0xcd,0xcb,0x55,0x3b,0xb9,0xfe,0x26,0x3b,0xf8,0x14,0x32,0x3b,0xb2,0x40,0x50,0x3b,0x1,0xff,0x70,0x3b,0x81,0xa,0x72,0x3b,0xc9,0x4c,0x8d,0x3b,0x13,0x4a,0x65,0x3b,0x44,0xdd,0x5f,0x3b,0x39,0x58,0x59,0x3b,0xf3,0x69,0x62,0x3b,0x4d,0xde,0x3b,0x3b,0x8c,0xbe,0x32,0x3b,0x69,0x39,0x71,0x3b,0xc2,0xae,0x68,0x3b,0xe7,0xa0,0x57,0x3b,0x74,0x9e,0x1d,0x3b,0x81,0x62,0x32,0x3b,0xba,0xfe,0x31,0x3b,0x49,0x5c,0x24,0x3b,0x28,0x29,0x64,0x3b,0xa1,0x1a,0x69,0x3b,0x4f,0x82,0x71,0x3b,0x1,0xde,0x24,0x3b,0x70,0x4a,0x4c,0x3b,0x46,0x9d,0x27,0x3b,0xb0,0x99,0x5d,0x3b,0xaf,0xca,0x68,0x3b,0x90,0xe,0x5a,0x3b,0xad,0x57,0x52,0x3b,0xa4,0x1b,0x2a,0x3b,0x28,0x6f,0x54,0x3b,0x8c,0x78,0x34,0x3b,0x27,0xd9,0x59,0x3b,0x54,0xd6,0x44,0x3b,0xd8,0x9,0x3e,0x3b,0x38,0x37,0x28,0x3b,0xf0,0x23,0x8,0x3b,0xc8,0xd6,0x3a,0x3b,0xa5,0xe2,0x49,0x3b,0xa6,0x6a,0x69,0x3b,0x4a,0x36,0x62,0x3b,0x9b,0x50,0x72,0x3b,0xd5,0xa6,0x2e,0x3b,0x48,0xe,0x50,0x3b,0x38,0x48,0x58,0x3b,0x48,0x1c,0x64,0x3b,0x9f,0x8f,0x51,0x3b,0xe9,0xb0,0x76,0x3b,0x43,0x5f,0x32,0x3b,0xe4,0x80,0x5d,0x3b,0x51,0x6d,0x4e,0x3b,0x94,0x5e,0x77,0x3b,0xe0,0x7b,0x62,0x3b,0x94,0x15,0x38,0x3b,0xb9,0x75,0x4a,0x3b,0x19,0x0,0x0,0x0,0x6d,0x6f,0x64,0x65,0x6c,0x73,0x5f,0x6c,0x69,0x6e,0x65,0x61,0x72,0x2e,0x54,0x69,0x6e,0x79,0x4c,0x69,0x6e,0x65,0x61,0x72,0x3b,0x0,0x0,0x0,0x2,0x0,0x0,0x0,0x40,0x0,0x0,0x0,0x40,0x0,0x0,0x0,0x0,0x0,0x16,0x0,0x1c,0x0,0x18,0x0,0x17,0x0,0x10,0x0,0xc,0x0,0x8,0x0,0x0,0x0,0x0,0x0,0x0,0x0,0x7,0x0,0x16,0x0,0x0,0x0,0x0,0x0,0x0,0x1,0x20,0x0,0x0,0x0,0x78,0x0,0x0,0x0,0x1,0x0,0x0,0x0,0x0,0x0,0x0,0x9,0xb4,0x0,0x0,0x0,0xc,0x0,0xc,0x0,0x0,0x0,0x0,0x0,0x8,0x0,0x4,0x0,0xc,0x0,0x0,0x0,0x8,0x0,0x0,0x0,0x38,0x0,0x0,0x0,0x6,0x0,0x0,0x0,0x0,0x0,0x0,0x0,0x0,0x0,0x0,0x0,0x0,0x0,0x0,0x0,0x0,0x0,0x0,0x0,0x0,0x0,0x0,0x0,0x0,0x0,0x0,0x0,0x0,0x0,0x0,0x0,0x0,0x0,0x0,0x0,0x0,0x0,0x0,0x0,0x0,0x0,0x0,0x0,0x0,0x0,0x0,0x0,0x0,0x0,0x0,0x0,0x6,0x0,0x0,0x0,0x24,0xb8,0x96,0x3b,0x62,0xc1,0x73,0x3b,0x5c,0xb8,0x75,0x3b,0xe9,0x1a,0x3d,0x3b,0xce,0xd9,0x44,0x3b,0xd6,0xbb,0x8d,0x3b,0x43,0x0,0x0,0x0,0x6d,0x6f,0x64,0x65,0x6c,0x73,0x5f,0x6c,0x69,0x6e,0x65,0x61,0x72,0x2e,0x54,0x69,0x6e,0x79,0x4c,0x69,0x6e,0x65,0x61,0x72,0x2f,0x74,0x6f,0x72,0x63,0x68,0x2e,0x6e,0x6e,0x2e,0x6d,0x6f,0x64,0x75,0x6c,0x65,0x73,0x2e,0x6c,0x69,0x6e,0x65,0x61,0x72,0x2e,0x4c,0x69,0x6e,0x65,0x61,0x72,0x5f,0x63,0x6c,0x61,0x73,0x73,0x69,0x66,0x69,0x65,0x72,0x3b,0x0,0x2,0x0,0x0,0x0,0x6,0x0,0x0,0x0,0x40,0x0,0x0,0x0,0x0,0x0,0x16,0x0,0x14,0x0,0x10,0x0,0x0,0x0,0x0,0x0,0xc,0x0,0x8,0x0,0x0,0x0,0x0,0x0,0x0,0x0,0x7,0x0,0x16,0x0,0x0,0x0,0x0,0x0,0x0,0x1,0x10,0x0,0x0,0x0,0x10,0x0,0x0,0x0,0x28,0x0,0x0,0x0,0x4,0x0,0x4,0x0,0x4,0x0,0x0,0x0,0x16,0x0,0x0,0x0,0x73,0x65,0x72,0x76,0x69,0x6e,0x67,0x5f,0x64,0x65,0x66,0x61,0x75,0x6c,0x74,0x5f,0x61,0x72,0x67,0x73,0x5f,0x30,0x0,0x0,0x3,0x0,0x0,0x0,0x1,0x0,0x0,0x0,0xa,0x0,0x0,0x0,0x39,0x0,0x0,0x0,0x6,0x0,0x0,0x0,0x6c,0x0,0x0,0x0,0x50,0x0,0x0,0x0,0x34,0x0,0x0,0x0,0x24,0x0,0x0,0x0,0x14,0x0,0x0,0x0,0x4,0x0,0x0,0x0,0xd0,0xff,0xff,0xff,0x6b,0x0,0x0,0x0,0x0,0x0,0x0,0x6b,0xdc,0xff,0xff,0xff,0x12,0x0,0x0,0x0,0x0,0x0,0x0,0x12,0xe8,0xff,0xff,0xff,0x4a,0x0,0x0,0x0,0x0,0x0,0x0,0x4a,0xf4,0xff,0xff,0xff,0x27,0x0,0x0,0x0,0x0,0x0,0x0,0x27,0xc,0x0,0xc,0x0,0xb,0x0,0x0,0x0,0x0,0x0,0x4,0x0,0xc,0x0,0x0,0x0,0x16,0x0,0x0,0x0,0x0,0x0,0x0,0x16,0xc,0x0,0x10,0x0,0xf,0x0,0x0,0x0,0x8,0x0,0x4,0x0,0xc,0x0,0x0,0x0,0x9,0x0,0x0,0x0,0x5,0x0,0x0,0x0,0x0,0x0,0x0,0x9};
