#include <cstdint>

#include "audio_preprocessor_float_model_data.h"

alignas(16) const unsigned char g_audio_preprocessor_float_model_data[] = {0x1c,0x0,0x0,0x0,0x54,0x46,0x4c,0x33,0x14,0x0,0x20,0x0,0x1c,0x0,0x18,0x0,0x14,0x0,0x10,0x0,0xc,0x0,0x0,0x0,0x8,0x0,0x4,0x0,0x14,0x0,0x0,0x0,0x1c,0x0,0x0,0x0,0x88,0x0,0x0,0x0,0xe0,0x0,0x0,0x0,0xdc,0x25,0x0,0x0,0xec,0x25,0x0,0x0,0x44,0x31,0x0,0x0,0x3,0x0,0x0,0x0,0x1,0x0,0x0,0x0,0x4,0x0,0x0,0x0,0xce,0xd6,0xff,0xff,0xc,0x0,0x0,0x0,0x1c,0x0,0x0,0x0,0x3c,0x0,0x0,0x0,0xf,0x0,0x0,0x0,0x73,0x65,0x72,0x76,0x69,0x6e,0x67,0x5f,0x64,0x65,0x66,0x61,0x75,0x6c,0x74,0x0,0x1,0x0,0x0,0x0,0x4,0x0,0x0,0x0,0x94,0xff,0xff,0xff,0x1b,0x0,0x0,0x0,0x4,0x0,0x0,0x0,0x8,0x0,0x0,0x0,0x6f,0x75,0x74,0x70,0x75,0x74,0x5f,0x30,0x0,0x0,0x0,0x0,0x1,0x0,0x0,0x0,0x4,0x0,0x0,0x0,0xa6,0xf3,0xff,0xff,0x4,0x0,0x0,0x0,0xb,0x0,0x0,0x0,0x61,0x75,0x64,0x69,0x6f,0x5f,0x66,0x72,0x61,0x6d,0x65,0x0,0x2,0x0,0x0,0x0,0x34,0x0,0x0,0x0,0x4,0x0,0x0,0x0,0xdc,0xff,0xff,0xff,0x1e,0x0,0x0,0x0,0x4,0x0,0x0,0x0,0x13,0x0,0x0,0x0,0x43,0x4f,0x4e,0x56,0x45,0x52,0x53,0x49,0x4f,0x4e,0x5f,0x4d,0x45,0x54,0x41,0x44,0x41,0x54,0x41,0x0,0x8,0x0,0xc,0x0,0x8,0x0,0x4,0x0,0x8,0x0,0x0,0x0,0x1d,0x0,0x0,0x0,0x4,0x0,0x0,0x0,0x13,0x0,0x0,0x0,0x6d,0x69,0x6e,0x5f,0x72,0x75,0x6e,0x74,0x69,0x6d,0x65,0x5f,0x76,0x65,0x72,0x73,0x69,0x6f,0x6e,0x0,0x1f,0x0,0x0,0x0,0xf8,0x24,0x0,0x0,0xf0,0x24,0x0,0x0,0xe0,0xb,0x0,0x0,0xc4,0xb,0x0,0x0,0xb0,0xb,0x0,0x0,0xe0,0x7,0x0,0x0,0xc0,0x7,0x0,0x0,0xac,0x7,0x0,0x0,0x98,0x7,0x0,0x0,0xe8,0x4,0x0,0x0,0x38,0x2,0x0,0x0,0xd4,0x1,0x0,0x0,0x70,0x1,0x0,0x0,0xc,0x1,0x0,0x0,0x4,0x1,0x0,0x0,0xfc,0x0,0x0,0x0,0xf4,0x0,0x0,0x0,0xec,0x0,0x0,0x0,0xe4,0x0,0x0,0x0,0xdc,0x0,0x0,0x0,0xd4,0x0,0x0,0x0,0xcc,0x0,0x0,0x0,0xc4,0x0,0x0,0x0,0xbc,0x0,0x0,0x0,0xb4,0x0,0x0,0x0,0xac,0x0,0x0,0x0,0xa4,0x0,0x0,0x0,0x9c,0x0,0x0,0x0,0x94,0x0,0x0,0x0,0x74,0x0,0x0,0x0,0x4,0x0,0x0,0x0,0x9a,0xf4,0xff,0xff,0x4,0x0,0x0,0x0,0x60,0x0,0x0,0x0,0xc,0x0,0x0,0x0,0x8,0x0,0xc,0x0,0x8,0x0,0x4,0x0,0x8,0x0,0x0,0x0,0x10,0x0,0x0,0x0,0x28,0x0,0x0,0x0,0x8,0x0,0xc,0x0,0x8,0x0,0x7,0x0,0x8,0x0,0x0,0x0,0x0,0x0,0x0,0x1,0x4,0x0,0x0,0x0,0x0,0x0,0x0,0x0,0xc,0x0,0x18,0x0,0x14,0x0,0x10,0x0,0xc,0x0,0x4,0x0,0xc,0x0,0x0,0x0,0x8a,0x55,0xe5,0xb2,0xc9,0xcf,0x59,0xa0,0x3,0x0,0x0,0x0,0x2,0x0,0x0,0x0,0x4,0x0,0x0,0x0,0x6,0x0,0x0,0x0,0x32,0x2e,0x32,0x30,0x2e,0x30,0x0,0x0,0x6,0xf5,0xff,0xff,0x4,0x0,0x0,0x0,0x10,0x0,0x0,0x0,0x32,0x2e,0x37,0x2e,0x30,0x0,0x0,0x0,0x0,0x0,0x0,0x0,0x0,0x0,0x0,0x0,0xd0,0xd0,0xff,0xff,0xd4,0xd0,0xff,0xff,0xd8,0xd0,0xff,0xff,0xdc,0xd0,0xff,0xff,0xe0,0xd0,0xff,0xff,0xe4,0xd0,0xff,0xff,0xe8,0xd0,0xff,0xff,0xec,0xd0,0xff,0xff,0xf0,0xd0,0xff,0xff,0xf4,0xd0,0xff,0xff,0xf8,0xd0,0xff,0xff,0xfc,0xd0,0xff,0xff,0x0,0xd1,0xff,0xff,0x4,0xd1,0xff,0xff,0x8,0xd1,0xff,0xff,0x5e,0xf5,0xff,0xff,0x4,0x0,0x0,0x0,0x52,0x0,0x0,0x0,0x4,0x0,0x4,0x0,0x4,0x0,0x4,0x0,0x4,0x0,0x4,0x0,0x4,0x0,0x4,0x0,0x4,0x0,0x4,0x0,0x4,0x0,0x4,0x0,0x4,0x0,0x4,0x0,0x4,0x0,0x4,0x0,0x4,0x0,0x8,0x0,0x8,0x0,0x4,0x0,0x8,0x0,0x8,0x0,0x8,0x0,0x8,0x0,0x8,0x0,0x8,0x0,0x8,0x0,0x8,0x0,0x8,0x0,0xc,0x0,0xc,0x0,0xc,0x0,0xc,0x0,0xc,0x0,0x10,0x0,0x10,0x0,0x10,0x0,0x10,0x0,0x10,0x0,0x10,0x0,0x14,0x0,0x0,0x0,0xbe,0xf5,0xff,0xff,0x4,0x0,0x0,0x0,0x52,0x0,0x0,0x0,0x0,0x0,0x4,0x0,0x8,0x0,0xc,0x0,0x10,0x0,0x14,0x0,0x18,0x0,0x1c,0x0,0x20,0x0,0x24,0x0,0x28,0x0,0x2c,0x0,0x30,0x0,0x34,0x0,0x38,0x0,0x3c,0x0,0x40,0x0,0x44,0x0,0x4c,0x0,0x54,0x0,0x58,0x0,0x60,0x0,0x68,0x0,0x70,0x0,0x78,0x0,0x80,0x0,0x88,0x0,0x90,0x0,0x98,0x0,0xa0,0x0,0xac,0x0,0xb8,0x0,0xc4,0x0,0xd0,0x0,0xdc,0x0,0xec,0x0,0xfc,0x0,0xc,0x1,0x1c,0x1,0x2c,0x1,0x3c,0x1,0x0,0x0,0x1e,0xf6,0xff,0xff,0x4,0x0,0x0,0x0,0x52,0x0,0x0,0x0,0x0,0x0,0x2,0x0,0x2,0x0,0x4,0x0,0x6,0x0,0x8,0x0,0xa,0x0,0xc,0x0,0xe,0x0,0x10,0x0,0x12,0x0,0x16,0x0,0x18,0x0,0x1c,0x0,0x1e,0x0,0x22,0x0,0x26,0x0,0x28,0x0,0x2c,0x0,0x32,0x0,0x36,0x0,0x3a,0x0,0x40,0x0,0x46,0x0,0x4a,0x0,0x50,0x0,0x58,0x0,0x5e,0x0,0x66,0x0,0x6e,0x0,0x76,0x0,0x7e,0x0,0x88,0x0,0x92,0x0,0x9c,0x0,0xa8,0x0,0xb4,0x0,0xc2,0x0,0xce,0x0,0xde,0x0,0xec,0x0,0x0,0x0,0x7e,0xf6,0xff,0xff,0x4,0x0,0x0,0x0,0xa0,0x2,0x0,0x0,0x0,0x0,0x6b,0xb,0x0,0x0,0x0,0x0,0x5d,0x6,0x0,0x0,0x0,0x0,0x0,0x0,0x0,0x0,0xde,0x0,0xf7,0xa,0x0,0x0,0x0,0x0,0xb0,0x4,0x10,0xe,0x0,0x0,0x0,0x0,0x1d,0x7,0xdc,0xf,0x0,0x0,0x0,0x0,0x53,0x8,0x0,0x0,0x0,0x0,0x86,0x0,0x79,0x8,0x0,0x0,0x0,0x0,0x30,0x0,0xaf,0x7,0xf7,0xe,0x0,0x0,0x0,0x0,0xe,0x6,0xf4,0xc,0x0,0x0,0x0,0x0,0xae,0x3,0x3c,0xa,0x0,0x0,0x0,0x0,0xa1,0x0,0xde,0x6,0xf7,0xc,0xec,0x2,0xbf,0x8,0x72,0xe,0x0,0x0,0x0,0x0,0x5,0x4,0x7b,0x9,0xd4,0xe,0x12,0x4,0x35,0x9,0x3f,0xe,0x0,0x0,0x0,0x0,0x31,0x3,0xb,0x8,0xcf,0xc,0x7c,0x1,0x15,0x6,0x99,0xa,0xa,0xf,0x68,0x3,0xb3,0x7,0xec,0xb,0x0,0x0,0x0,0x0,0x15,0x0,0x2d,0x4,0x34,0x8,0x2c,0xc,0x0,0x0,0x0,0x0,0x0,0x0,0x0,0x0,0x15,0x0,0xef,0x3,0xbb,0x7,0x78,0xb,0x29,0xf,0x0,0x0,0x0,0x0,0xcc,0x2,0x62,0x6,0xec,0x9,0x6a,0xd,0xdc,0x0,0x43,0x4,0x9e,0x7,0xef,0xa,0x34,0xe,0x0,0x0,0x0,0x0,0x0,0x0,0x0,0x0,0x70,0x1,0xa2,0x4,0xc9,0x7,0xe7,0xa,0xfc,0xd,0x0,0x0,0x0,0x0,0x7,0x1,0x9,0x4,0x3,0x7,0xf4,0x9,0xdd,0xc,0xbd,0xf,0x0,0x0,0x0,0x0,0x96,0x2,0x67,0x5,0x30,0x8,0xf1,0xa,0xab,0xd,0x0,0x0,0x0,0x0,0x0,0x0,0x0,0x0,0x5e,0x0,0xa,0x3,0xaf,0x5,0x4d,0x8,0xe4,0xa,0x75,0xd,0x0,0x0,0x0,0x0,0x0,0x0,0x84,0x2,0x3,0x5,0x7b,0x7,0xed,0x9,0x5a,0xc,0xc0,0xe,0x22,0x1,0x7d,0x3,0xd4,0x5,0x25,0x8,0x70,0xa,0xb7,0xc,0xf9,0xe,0x0,0x0,0x0,0x0,0x35,0x1,0x6d,0x3,0xa0,0x5,0xcf,0x7,0xf8,0x9,0x1e,0xc,0x3e,0xe,0x5b,0x0,0x73,0x2,0x86,0x4,0x96,0x6,0xa1,0x8,0xa9,0xa,0xac,0xc,0xac,0xe,0xa7,0x0,0x9f,0x2,0x93,0x4,0x83,0x6,0x70,0x8,0x59,0xa,0x3e,0xc,0x20,0xe,0xff,0xf,0x0,0x0,0x0,0x0,0x0,0x0,0x0,0x0,0xda,0x1,0xb2,0x3,0x86,0x5,0x58,0x7,0x26,0x9,0xf1,0xa,0xb8,0xc,0x7d,0xe,0x0,0x0,0x0,0x0,0x0,0x0,0x0,0x0,0x3f,0x0,0xfd,0x1,0xb9,0x3,0x72,0x5,0x28,0x7,0xdb,0x8,0x8b,0xa,0x38,0xc,0xe3,0xd,0x8b,0xf,0x0,0x0,0x0,0x0,0x30,0x1,0xd3,0x2,0x73,0x4,0x10,0x6,0xab,0x7,0x44,0x9,0xda,0xa,0x6d,0xc,0xff,0xd,0x8d,0xf,0x0,0x0,0x0,0x0,0x1a,0x1,0xa4,0x2,0x2c,0x4,0xb1,0x5,0x34,0x7,0xb5,0x8,0x34,0xa,0xb1,0xb,0x2b,0xd,0xa3,0xe,0x0,0x0,0x0,0x0,0x1a,0x0,0x8e,0x1,0x0,0x3,0x70,0x4,0xde,0x5,0x4a,0x7,0xb4,0x8,0x1c,0xa,0x82,0xb,0xe7,0xc,0x49,0xe,0xaa,0xf,0x0,0x0,0x0,0x0,0x0,0x0,0x0,0x0,0x8,0x1,0x65,0x2,0xc0,0x3,0x1a,0x5,0x71,0x6,0xc7,0x7,0x1b,0x9,0x6d,0xa,0xbe,0xb,0xd,0xd,0x5a,0xe,0xa5,0xf,0x0,0x0,0x0,0x0,0x0,0x0,0x0,0x0,0xef,0x0,0x38,0x2,0x7e,0x3,0xc4,0x4,0x7,0x6,0x49,0x7,0x8a,0x8,0xc9,0x9,0x6,0xb,0x42,0xc,0x7d,0xd,0xb5,0xe,0xed,0xf,0x0,0x0,0x0,0x0,0x23,0x1,0x58,0x2,0x8b,0x3,0xbd,0x4,0xed,0x5,0x1c,0x7,0x4a,0x8,0x76,0x9,0xa1,0xa,0xcb,0xb,0xf4,0xc,0x1b,0xe,0x40,0xf,0x0,0x0,0x0,0x0,0x0,0x0,0x0,0x0,0x65,0x0,0x88,0x1,0xaa,0x2,0xcb,0x3,0xea,0x4,0x8,0x6,0x25,0x7,0x41,0x8,0x5c,0x9,0x75,0xa,0x8d,0xb,0xa4,0xc,0xba,0xd,0xcf,0xe,0xe3,0xf,0xf5,0x0,0x7,0x2,0x17,0x3,0x26,0x4,0x34,0x5,0x41,0x6,0x4d,0x7,0x58,0x8,0x62,0x9,0x6a,0xa,0x72,0xb,0x79,0xc,0x7e,0xd,0x83,0xe,0x86,0xf,0x0,0x0,0x0,0x0,0x89,0x0,0x8b,0x1,0x8b,0x2,0x8b,0x3,0x8a,0x4,0x87,0x5,0x84,0x6,0x80,0x7,0x7b,0x8,0x74,0x9,0x6d,0xa,0x65,0xb,0x5d,0xc,0x53,0xd,0x48,0xe,0x3d,0xf,0x0,0x0,0x0,0x0,0x0,0x0,0x2a,0xf9,0xff,0xff,0x4,0x0,0x0,0x0,0xa0,0x2,0x0,0x0,0x0,0x0,0x94,0x4,0x0,0x0,0x0,0x0,0xa2,0x9,0x0,0x0,0x0,0x0,0x0,0x0,0x0,0x0,0x21,0xf,0x8,0x5,0x0,0x0,0x0,0x0,0x4f,0xb,0xef,0x1,0x0,0x0,0x0,0x0,0xe2,0x8,0x23,0x0,0x0,0x0,0x0,0x0,0xac,0x7,0x0,0x0,0x0,0x0,0x79,0xf,0x86,0x7,0x0,0x0,0x0,0x0,0xcf,0xf,0x50,0x8,0x8,0x1,0x0,0x0,0x0,0x0,0xf1,0x9,0xb,0x3,0x0,0x0,0x0,0x0,0x51,0xc,0xc3,0x5,0x0,0x0,0x0,0x0,0x5e,0xf,0x21,0x9,0x8,0x3,0x13,0xd,0x40,0x7,0x8d,0x1,0x0,0x0,0x0,0x0,0xfa,0xb,0x84,0x6,0x2b,0x1,0xed,0xb,0xca,0x6,0xc0,0x1,0x0,0x0,0x0,0x0,0xce,0xc,0xf4,0x7,0x30,0x3,0x83,0xe,0xea,0x9,0x66,0x5,0xf5,0x0,0x97,0xc,0x4c,0x8,0x13,0x4,0x0,0x0,0x0,0x0,0xea,0xf,0xd2,0xb,0xcb,0x7,0xd3,0x3,0x0,0x0,0x0,0x0,0x0,0x0,0x0,0x0,0xea,0xf,0x10,0xc,0x44,0x8,0x87,0x4,0xd6,0x0,0x0,0x0,0x0,0x0,0x33,0xd,0x9d,0x9,0x13,0x6,0x95,0x2,0x23,0xf,0xbc,0xb,0x61,0x8,0x10,0x5,0xcb,0x1,0x0,0x0,0x0,0x0,0x0,0x0,0x0,0x0,0x8f,0xe,0x5d,0xb,0x36,0x8,0x18,0x5,0x3,0x2,0x0,0x0,0x0,0x0,0xf8,0xe,0xf6,0xb,0xfc,0x8,0xb,0x6,0x22,0x3,0x42,0x0,0x0,0x0,0x0,0x0,0x69,0xd,0x98,0xa,0xcf,0x7,0xe,0x5,0x54,0x2,0x0,0x0,0x0,0x0,0x0,0x0,0x0,0x0,0xa1,0xf,0xf5,0xc,0x50,0xa,0xb2,0x7,0x1b,0x5,0x8a,0x2,0x0,0x0,0x0,0x0,0xff,0xf,0x7b,0xd,0xfc,0xa,0x84,0x8,0x12,0x6,0xa5,0x3,0x3f,0x1,0xdd,0xe,0x82,0xc,0x2b,0xa,0xda,0x7,0x8f,0x5,0x48,0x3,0x6,0x1,0x0,0x0,0x0,0x0,0xca,0xe,0x92,0xc,0x5f,0xa,0x30,0x8,0x7,0x6,0xe1,0x3,0xc1,0x1,0xa4,0xf,0x8c,0xd,0x79,0xb,0x69,0x9,0x5e,0x7,0x56,0x5,0x53,0x3,0x53,0x1,0x58,0xf,0x60,0xd,0x6c,0xb,0x7c,0x9,0x8f,0x7,0xa6,0x5,0xc1,0x3,0xdf,0x1,0x0,0x0,0x0,0x0,0x0,0x0,0x0,0x0,0x0,0x0,0x25,0xe,0x4d,0xc,0x79,0xa,0xa7,0x8,0xd9,0x6,0xe,0x5,0x47,0x3,0x82,0x1,0x0,0x0,0x0,0x0,0x0,0x0,0x0,0x0,0xc0,0xf,0x2,0xe,0x46,0xc,0x8d,0xa,0xd7,0x8,0x24,0x7,0x74,0x5,0xc7,0x3,0x1c,0x2,0x74,0x0,0x0,0x0,0x0,0x0,0xcf,0xe,0x2c,0xd,0x8c,0xb,0xef,0x9,0x54,0x8,0xbb,0x6,0x25,0x5,0x92,0x3,0x0,0x2,0x72,0x0,0x0,0x0,0x0,0x0,0xe5,0xe,0x5b,0xd,0xd3,0xb,0x4e,0xa,0xcb,0x8,0x4a,0x7,0xcb,0x5,0x4e,0x4,0xd4,0x2,0x5c,0x1,0x0,0x0,0x0,0x0,0xe5,0xf,0x71,0xe,0xff,0xc,0x8f,0xb,0x21,0xa,0xb5,0x8,0x4b,0x7,0xe3,0x5,0x7d,0x4,0x18,0x3,0xb6,0x1,0x55,0x0,0x0,0x0,0x0,0x0,0x0,0x0,0x0,0x0,0xf7,0xe,0x9a,0xd,0x3f,0xc,0xe5,0xa,0x8e,0x9,0x38,0x8,0xe4,0x6,0x92,0x5,0x41,0x4,0xf2,0x2,0xa5,0x1,0x5a,0x0,0x0,0x0,0x0,0x0,0x0,0x0,0x0,0x0,0x10,0xf,0xc7,0xd,0x81,0xc,0x3b,0xb,0xf8,0x9,0xb6,0x8,0x75,0x7,0x36,0x6,0xf9,0x4,0xbd,0x3,0x82,0x2,0x4a,0x1,0x12,0x0,0x0,0x0,0x0,0x0,0xdc,0xe,0xa7,0xd,0x74,0xc,0x42,0xb,0x12,0xa,0xe3,0x8,0xb5,0x7,0x89,0x6,0x5e,0x5,0x34,0x4,0xb,0x3,0xe4,0x1,0xbf,0x0,0x0,0x0,0x0,0x0,0x0,0x0,0x0,0x0,0x9a,0xf,0x77,0xe,0x55,0xd,0x34,0xc,0x15,0xb,0xf7,0x9,0xda,0x8,0xbe,0x7,0xa3,0x6,0x8a,0x5,0x72,0x4,0x5b,0x3,0x45,0x2,0x30,0x1,0x1c,0x0,0xa,0xf,0xf8,0xd,0xe8,0xc,0xd9,0xb,0xcb,0xa,0xbe,0x9,0xb2,0x8,0xa7,0x7,0x9d,0x6,0x95,0x5,0x8d,0x4,0x86,0x3,0x81,0x2,0x7c,0x1,0x79,0x0,0x0,0x0,0x0,0x0,0x76,0xf,0x74,0xe,0x74,0xd,0x74,0xc,0x75,0xb,0x78,0xa,0x7b,0x9,0x7f,0x8,0x84,0x7,0x8b,0x6,0x92,0x5,0x9a,0x4,0xa2,0x3,0xac,0x2,0xb7,0x1,0xc2,0x0,0x0,0x0,0x0,0x0,0x0,0x0,0xd6,0xfb,0xff,0xff,0x4,0x0,0x0,0x0,0x4,0x0,0x0,0x0,0xff,0xff,0xff,0xff,0xe6,0xfb,0xff,0xff,0x4,0x0,0x0,0x0,0x4,0x0,0x0,0x0,0x0,0x0,0x0,0x0,0xf6,0xfb,0xff,0xff,0x4,0x0,0x0,0x0,0x10,0x0,0x0,0x0,0x0,0x0,0x0,0x0,0x0,0x0,0x0,0x0,0x0,0x0,0x0,0x0,0x0,0x0,0x0,0x0,0x12,0xfc,0xff,0xff,0x4,0x0,0x0,0x0,0xc0,0x3,0x0,0x0,0x0,0x0,0x0,0x0,0x1,0x0,0x2,0x0,0x4,0x0,0x5,0x0,0x7,0x0,0xa,0x0,0xd,0x0,0x10,0x0,0x13,0x0,0x17,0x0,0x1b,0x0,0x20,0x0,0x25,0x0,0x2a,0x0,0x30,0x0,0x35,0x0,0x3c,0x0,0x42,0x0,0x49,0x0,0x51,0x0,0x58,0x0,0x60,0x0,0x68,0x0,0x71,0x0,0x7a,0x0,0x83,0x0,0x8d,0x0,0x97,0x0,0xa1,0x0,0xac,0x0,0xb7,0x0,0xc2,0x0,0xcd,0x0,0xd9,0x0,0xe5,0x0,0xf2,0x0,0xff,0x0,0xc,0x1,0x19,0x1,0x27,0x1,0x35,0x1,0x43,0x1,0x52,0x1,0x61,0x1,0x70,0x1,0x7f,0x1,0x8f,0x1,0x9f,0x1,0xaf,0x1,0xc0,0x1,0xd1,0x1,0xe2,0x1,0xf3,0x1,0x5,0x2,0x17,0x2,0x29,0x2,0x3c,0x2,0x4e,0x2,0x61,0x2,0x75,0x2,0x88,0x2,0x9c,0x2,0xb0,0x2,0xc4,0x2,0xd8,0x2,0xed,0x2,0x2,0x3,0x17,0x3,0x2c,0x3,0x41,0x3,0x57,0x3,0x6d,0x3,0x83,0x3,0x99,0x3,0xb0,0x3,0xc7,0x3,0xdd,0x3,0xf4,0x3,0xc,0x4,0x23,0x4,0x3b,0x4,0x52,0x4,0x6a,0x4,0x82,0x4,0x9a,0x4,0xb3,0x4,0xcb,0x4,0xe4,0x4,0xfd,0x4,0x16,0x5,0x2f,0x5,0x48,0x5,0x61,0x5,0x7a,0x5,0x94,0x5,0xad,0x5,0xc7,0x5,0xe1,0x5,0xfb,0x5,0x15,0x6,0x2f,0x6,0x49,0x6,0x63,0x6,0x7e,0x6,0x98,0x6,0xb2,0x6,0xcd,0x6,0xe7,0x6,0x2,0x7,0x1d,0x7,0x37,0x7,0x52,0x7,0x6d,0x7,0x87,0x7,0xa2,0x7,0xbd,0x7,0xd8,0x7,0xf3,0x7,0xd,0x8,0x28,0x8,0x43,0x8,0x5e,0x8,0x79,0x8,0x93,0x8,0xae,0x8,0xc9,0x8,0xe3,0x8,0xfe,0x8,0x19,0x9,0x33,0x9,0x4e,0x9,0x68,0x9,0x82,0x9,0x9d,0x9,0xb7,0x9,0xd1,0x9,0xeb,0x9,0x5,0xa,0x1f,0xa,0x39,0xa,0x53,0xa,0x6c,0xa,0x86,0xa,0x9f,0xa,0xb8,0xa,0xd1,0xa,0xea,0xa,0x3,0xb,0x1c,0xb,0x35,0xb,0x4d,0xb,0x66,0xb,0x7e,0xb,0x96,0xb,0xae,0xb,0xc5,0xb,0xdd,0xb,0xf4,0xb,0xc,0xc,0x23,0xc,0x39,0xc,0x50,0xc,0x67,0xc,0x7d,0xc,0x93,0xc,0xa9,0xc,0xbf,0xc,0xd4,0xc,0xe9,0xc,0xfe,0xc,0x13,0xd,0x28,0xd,0x3c,0xd,0x50,0xd,0x64,0xd,0x78,0xd,0x8b,0xd,0x9f,0xd,0xb2,0xd,0xc4,0xd,0xd7,0xd,0xe9,0xd,0xfb,0xd,0xd,0xe,0x1e,0xe,0x2f,0xe,0x40,0xe,0x51,0xe,0x61,0xe,0x71,0xe,0x81,0xe,0x90,0xe,0x9f,0xe,0xae,0xe,0xbd,0xe,0xcb,0xe,0xd9,0xe,0xe7,0xe,0xf4,0xe,0x1,0xf,0xe,0xf,0x1b,0xf,0x27,0xf,0x33,0xf,0x3e,0xf,0x49,0xf,0x54,0xf,0x5f,0xf,0x69,0xf,0x73,0xf,0x7d,0xf,0x86,0xf,0x8f,0xf,0x98,0xf,0xa0,0xf,0xa8,0xf,0xaf,0xf,0xb7,0xf,0xbe,0xf,0xc4,0xf,0xcb,0xf,0xd0,0xf,0xd6,0xf,0xdb,0xf,0xe0,0xf,0xe5,0xf,0xe9,0xf,0xed,0xf,0xf0,0xf,0xf3,0xf,0xf6,0xf,0xf9,0xf,0xfb,0xf,0xfc,0xf,0xfe,0xf,0xff,0xf,0x0,0x10,0x0,0x10,0x0,0x10,0x0,0x10,0xff,0xf,0xfe,0xf,0xfc,0xf,0xfb,0xf,0xf9,0xf,0xf6,0xf,0xf3,0xf,0xf0,0xf,0xed,0xf,0xe9,0xf,0xe5,0xf,0xe0,0xf,0xdb,0xf,0xd6,0xf,0xd0,0xf,0xcb,0xf,0xc4,0xf,0xbe,0xf,0xb7,0xf,0xaf,0xf,0xa8,0xf,0xa0,0xf,0x98,0xf,0x8f,0xf,0x86,0xf,0x7d,0xf,0x73,0xf,0x69,0xf,0x5f,0xf,0x54,0xf,0x49,0xf,0x3e,0xf,0x33,0xf,0x27,0xf,0x1b,0xf,0xe,0xf,0x1,0xf,0xf4,0xe,0xe7,0xe,0xd9,0xe,0xcb,0xe,0xbd,0xe,0xae,0xe,0x9f,0xe,0x90,0xe,0x81,0xe,0x71,0xe,0x61,0xe,0x51,0xe,0x40,0xe,0x2f,0xe,0x1e,0xe,0xd,0xe,0xfb,0xd,0xe9,0xd,0xd7,0xd,0xc4,0xd,0xb2,0xd,0x9f,0xd,0x8b,0xd,0x78,0xd,0x64,0xd,0x50,0xd,0x3c,0xd,0x28,0xd,0x13,0xd,0xfe,0xc,0xe9,0xc,0xd4,0xc,0xbf,0xc,0xa9,0xc,0x93,0xc,0x7d,0xc,0x67,0xc,0x50,0xc,0x39,0xc,0x23,0xc,0xc,0xc,0xf4,0xb,0xdd,0xb,0xc5,0xb,0xae,0xb,0x96,0xb,0x7e,0xb,0x66,0xb,0x4d,0xb,0x35,0xb,0x1c,0xb,0x3,0xb,0xea,0xa,0xd1,0xa,0xb8,0xa,0x9f,0xa,0x86,0xa,0x6c,0xa,0x53,0xa,0x39,0xa,0x1f,0xa,0x5,0xa,0xeb,0x9,0xd1,0x9,0xb7,0x9,0x9d,0x9,0x82,0x9,0x68,0x9,0x4e,0x9,0x33,0x9,0x19,0x9,0xfe,0x8,0xe3,0x8,0xc9,0x8,0xae,0x8,0x93,0x8,0x79,0x8,0x5e,0x8,0x43,0x8,0x28,0x8,0xd,0x8,0xf3,0x7,0xd8,0x7,0xbd,0x7,0xa2,0x7,0x87,0x7,0x6d,0x7,0x52,0x7,0x37,0x7,0x1d,0x7,0x2,0x7,0xe7,0x6,0xcd,0x6,0xb2,0x6,0x98,0x6,0x7e,0x6,0x63,0x6,0x49,0x6,0x2f,0x6,0x15,0x6,0xfb,0x5,0xe1,0x5,0xc7,0x5,0xad,0x5,0x94,0x5,0x7a,0x5,0x61,0x5,0x48,0x5,0x2f,0x5,0x16,0x5,0xfd,0x4,0xe4,0x4,0xcb,0x4,0xb3,0x4,0x9a,0x4,0x82,0x4,0x6a,0x4,0x52,0x4,0x3b,0x4,0x23,0x4,0xc,0x4,0xf4,0x3,0xdd,0x3,0xc7,0x3,0xb0,0x3,0x99,0x3,0x83,0x3,0x6d,0x3,0x57,0x3,0x41,0x3,0x2c,0x3,0x17,0x3,0x2,0x3,0xed,0x2,0xd8,0x2,0xc4,0x2,0xb0,0x2,0x9c,0x2,0x88,0x2,0x75,0x2,0x61,0x2,0x4e,0x2,0x3c,0x2,0x29,0x2,0x17,0x2,0x5,0x2,0xf3,0x1,0xe2,0x1,0xd1,0x1,0xc0,0x1,0xaf,0x1,0x9f,0x1,0x8f,0x1,0x7f,0x1,0x70,0x1,0x61,0x1,0x52,0x1,0x43,0x1,0x35,0x1,0x27,0x1,0x19,0x1,0xc,0x1,0xff,0x0,0xf2,0x0,0xe5,0x0,0xd9,0x0,0xcd,0x0,0xc2,0x0,0xb7,0x0,0xac,0x0,0xa1,0x0,0x97,0x0,0x8d,0x0,0x83,0x0,0x7a,0x0,0x71,0x0,0x68,0x0,0x60,0x0,0x58,0x0,0x51,0x0,0x49,0x0,0x42,0x0,0x3c,0x0,0x35,0x0,0x30,0x0,0x2a,0x0,0x25,0x0,0x20,0x0,0x1b,0x0,0x17,0x0,0x13,0x0,0x10,0x0,0xd,0x0,0xa,0x0,0x7,0x0,0x5,0x0,0x4,0x0,0x2,0x0,0x1,0x0,0x0,0x0,0x0,0x0,0xde,0xff,0xff,0xff,0x4,0x0,0x0,0x0,0x4,0x0,0x0,0x0,0x1,0x0,0x0,0x0,0xee,0xff,0xff,0xff,0x4,0x0,0x0,0x0,0x4,0x0,0x0,0x0,0xfc,0x0,0x0,0x0,0x0,0x0,0x6,0x0,0x8,0x0,0x4,0x0,0x6,0x0,0x0,0x0,0x4,0x0,0x0,0x0,0x0,0x19,0x0,0x0,0xc2,0x62,0xca,0x3b,0xc2,0x62,0xca,0x3b,0xc2,0x62,0xca,0x3b,0xc2,0x62,0xca,0x3b,0xc2,0x62,0xca,0x3b,0xc2,0x62,0xca,0x3b,0xc2,0x62,0xca,0x3b,0xc2,0x62,0xca,0x3b,0xc2,0x62,0xca,0x3b,0xc2,0x62,0xca,0x3b,0xc2,0x62,0xca,0x3b,0xc2,0x62,0xca,0x3b,0xc2,0x62,0xca,0x3b,0xc2,0x62,0xca,0x3b,0xc2,0x62,0xca,0x3b,0xc2,0x62,0xca,0x3b,0xc2,0x62,0xca,0x3b,0xc2,0x62,0xca,0x3b,0xc2,0x62,0xca,0x3b,0xc2,0x62,0xca,0x3b,0xc2,0x62,0xca,0x3b,0xc2,0x62,0xca,0x3b,0xc2,0x62,0xca,0x3b,0xc2,0x62,0xca,0x3b,0xc2,0x62,0xca,0x3b,0xc2,0x62,0xca,0x3b,0xc2,0x62,0xca,0x3b,0xc2,0x62,0xca,0x3b,0xc2,0x62,0xca,0x3b,0xc2,0x62,0xca,0x3b,0xc2,0x62,0xca,0x3b,0xc2,0x62,0xca,0x3b,0xc2,0x62,0xca,0x3b,0xc2,0x62,0xca,0x3b,0xc2,0x62,0xca,0x3b,0xc2,0x62,0xca,0x3b,0xc2,0x62,0xca,0x3b,0xc2,0x62,0xca,0x3b,0xc2,0x62,0xca,0x3b,0xc2,0x62,0xca,0x3b,0x7e,0xff,0xe,0x3c,0xcb,0x1d,0xe,0x3c,0xcb,0x5b,0xc,0x3c,0x42,0xbc,0x9,0x3c,0x55,0x43,0x6,0x3c,0x7f,0xf6,0x1,0x3c,0x11,0xb9,0xf9,0x3b,0x1,0xfb,0xed,0x3b,0x54,0xc5,0xe0,0x3b,0xe4,0x2c,0xd2,0x3b,0xbc,0x48,0xc2,0x3b,0xee,0x31,0xb1,0x3b,0x74,0x3,0x9f,0x3b,0x0,0xda,0x8b,0x3b,0xa3,0xa7,0x6f,0x3b,0x4,0x21,0x46,0x3b,0xb0,0x61,0x1b,0x3b,0x39,0x5a,0xdf,0x3a,0x8e,0x90,0x86,0x3a,0xff,0xc9,0xb3,0x39,0xff,0xc9,0xb3,0xb9,0x8e,0x90,0x86,0xba,0x39,0x5a,0xdf,0xba,0xb0,0x61,0x1b,0xbb,0x4,0x21,0x46,0xbb,0xa3,0xa7,0x6f,0xbb,0x0,0xda,0x8b,0xbb,0x74,0x3,0x9f,0xbb,0xee,0x31,0xb1,0xbb,0xbc,0x48,0xc2,0xbb,0xe4,0x2c,0xd2,0xbb,0x54,0xc5,0xe0,0xbb,0x1,0xfb,0xed,0xbb,0x11,0xb9,0xf9,0xbb,0x7f,0xf6,0x1,0xbc,0x55,0x43,0x6,0xbc,0x42,0xbc,0x9,0xbc,0xcb,0x5b,0xc,0xbc,0xcb,0x1d,0xe,0xbc,0x7e,0xff,0xe,0xbc,0xce,0xaa,0xe,0x3c,0x7d,0x27,0xb,0x3c,0x2,0x37,0x4,0x3c,0x34,0xa,0xf4,0x3b,0x12,0xa4,0xd9,0x3b,0x4,0xe2,0xb9,0x3b,0x3e,0x8c,0x95,0x3b,0x90,0xf,0x5b,0x3b,0xc6,0xa1,0x5,0x3b,0x82,0xa6,0x33,0x3a,0x82,0xa6,0x33,0xba,0xc6,0xa1,0x5,0xbb,0x90,0xf,0x5b,0xbb,0x3e,0x8c,0x95,0xbb,0x4,0xe2,0xb9,0xbb,0x12,0xa4,0xd9,0xbb,0x34,0xa,0xf4,0xbb,0x2,0x37,0x4,0xbc,0x7d,0x27,0xb,0xbc,0xce,0xaa,0xe,0xbc,0xce,0xaa,0xe,0xbc,0x7d,0x27,0xb,0xbc,0x2,0x37,0x4,0xbc,0x34,0xa,0xf4,0xbb,0x12,0xa4,0xd9,0xbb,0x4,0xe2,0xb9,0xbb,0x3e,0x8c,0x95,0xbb,0x90,0xf,0x5b,0xbb,0xc6,0xa1,0x5,0xbb,0x82,0xa6,0x33,0xba,0x82,0xa6,0x33,0x3a,0xc6,0xa1,0x5,0x3b,0x90,0xf,0x5b,0x3b,0x3e,0x8c,0x95,0x3b,0x4,0xe2,0xb9,0x3b,0x12,0xa4,0xd9,0x3b,0x34,0xa,0xf4,0x3b,0x2,0x37,0x4,0x3c,0x7d,0x27,0xb,0x3c,0xce,0xaa,0xe,0x3c,0xcb,0x1d,0xe,0x3c,0x55,0x43,0x6,0x3c,0x1,0xfb,0xed,0x3b,0xbc,0x48,0xc2,0x3b,0x0,0xda,0x8b,0x3b,0xb0,0x61,0x1b,0x3b,0xff,0xc9,0xb3,0x39,0x39,0x5a,0xdf,0xba,0xa3,0xa7,0x6f,0xbb,0xee,0x31,0xb1,0xbb,0x54,0xc5,0xe0,0xbb,0x7f,0xf6,0x1,0xbc,0xcb,0x5b,0xc,0xbc,0x7e,0xff,0xe,0xbc,0x42,0xbc,0x9,0xbc,0x11,0xb9,0xf9,0xbb,0xe4,0x2c,0xd2,0xbb,0x74,0x3,0x9f,0xbb,0x4,0x21,0x46,0xbb,0x8e,0x90,0x86,0xba,0x8e,0x90,0x86,0x3a,0x4,0x21,0x46,0x3b,0x74,0x3,0x9f,0x3b,0xe4,0x2c,0xd2,0x3b,0x11,0xb9,0xf9,0x3b,0x42,0xbc,0x9,0x3c,0x7e,0xff,0xe,0x3c,0xcb,0x5b,0xc,0x3c,0x7f,0xf6,0x1,0x3c,0x54,0xc5,0xe0,0x3b,0xee,0x31,0xb1,0x3b,0xa3,0xa7,0x6f,0x3b,0x39,0x5a,0xdf,0x3a,0xff,0xc9,0xb3,0xb9,0xb0,0x61,0x1b,0xbb,0x0,0xda,0x8b,0xbb,0xbc,0x48,0xc2,0xbb,0x1,0xfb,0xed,0xbb,0x55,0x43,0x6,0xbc,0xcb,0x1d,0xe,0xbc,0xb1,0x58,0xd,0x3c,0x5c,0x5,0xff,0x3b,0xc2,0x62,0xca,0x3b,0x8e,0xf0,0x81,0x3b,0xbc,0x18,0xb3,0x3a,0xbc,0x18,0xb3,0xba,0x8e,0xf0,0x81,0xbb,0xc2,0x62,0xca,0xbb,0x5c,0x5,0xff,0xbb,0xb1,0x58,0xd,0xbc,0xb1,0x58,0xd,0xbc,0x5c,0x5,0xff,0xbb,0xc2,0x62,0xca,0xbb,0x8e,0xf0,0x81,0xbb,0xbc,0x18,0xb3,0xba,0xbc,0x18,0xb3,0x3a,0x8e,0xf0,0x81,0x3b,0xc2,0x62,0xca,0x3b,0x5c,0x5,0xff,0x3b,0xb1,0x58,0xd,0x3c,0xb1,0x58,0xd,0x3c,0x5c,0x5,0xff,0x3b,0xc2,0x62,0xca,0x3b,0x8e,0xf0,0x81,0x3b,0xbc,0x18,0xb3,0x3a,0xbc,0x18,0xb3,0xba,0x8e,0xf0,0x81,0xbb,0xc2,0x62,0xca,0xbb,0x5c,0x5,0xff,0xbb,0xb1,0x58,0xd,0xbc,0xb1,0x58,0xd,0xbc,0x5c,0x5,0xff,0xbb,0xc2,0x62,0xca,0xbb,0x8e,0xf0,0x81,0xbb,0xbc,0x18,0xb3,0xba,0xbc,0x18,0xb3,0x3a,0x8e,0xf0,0x81,0x3b,0xc2,0x62,0xca,0x3b,0x5c,0x5,0xff,0x3b,0xb1,0x58,0xd,0x3c,0xcb,0x5b,0xc,0x3c,0x1,0xfb,0xed,0x3b,0x74,0x3,0x9f,0x3b,0x39,0x5a,0xdf,0x3a,0x39,0x5a,0xdf,0xba,0x74,0x3,0x9f,0xbb,0x1,0xfb,0xed,0xbb,0xcb,0x5b,0xc,0xbc,0xcb,0x5b,0xc,0xbc,0x1,0xfb,0xed,0xbb,0x74,0x3,0x9f,0xbb,0x39,0x5a,0xdf,0xba,0x39,0x5a,0xdf,0x3a,0x74,0x3,0x9f,0x3b,0x1,0xfb,0xed,0x3b,0xcb,0x5b,0xc,0x3c,0xcb,0x5b,0xc,0x3c,0x1,0xfb,0xed,0x3b,0x74,0x3,0x9f,0x3b,0x39,0x5a,0xdf,0x3a,0x39,0x5a,0xdf,0xba,0x74,0x3,0x9f,0xbb,0x1,0xfb,0xed,0xbb,0xcb,0x5b,0xc,0xbc,0xcb,0x5b,0xc,0xbc,0x1,0xfb,0xed,0xbb,0x74,0x3,0x9f,0xbb,0x39,0x5a,0xdf,0xba,0x39,0x5a,0xdf,0x3a,0x74,0x3,0x9f,0x3b,0x1,0xfb,0xed,0x3b,0xcb,0x5b,0xc,0x3c,0xcb,0x5b,0xc,0x3c,0x1,0xfb,0xed,0x3b,0x74,0x3,0x9f,0x3b,0x39,0x5a,0xdf,0x3a,0x39,0x5a,0xdf,0xba,0x74,0x3,0x9f,0xbb,0x1,0xfb,0xed,0xbb,0xcb,0x5b,0xc,0xbc,0x7d,0x27,0xb,0x3c,0x12,0xa4,0xd9,0x3b,0x90,0xf,0x5b,0x3b,0x82,0xa6,0x33,0xba,0x3e,0x8c,0x95,0xbb,0x34,0xa,0xf4,0xbb,0xce,0xaa,0xe,0xbc,0x2,0x37,0x4,0xbc,0x4,0xe2,0xb9,0xbb,0xc6,0xa1,0x5,0xbb,0xc6,0xa1,0x5,0x3b,0x4,0xe2,0xb9,0x3b,0x2,0x37,0x4,0x3c,0xce,0xaa,0xe,0x3c,0x34,0xa,0xf4,0x3b,0x3e,0x8c,0x95,0x3b,0x82,0xa6,0x33,0x3a,0x90,0xf,0x5b,0xbb,0x12,0xa4,0xd9,0xbb,0x7d,0x27,0xb,0xbc,0x7d,0x27,0xb,0xbc,0x12,0xa4,0xd9,0xbb,0x90,0xf,0x5b,0xbb,0x82,0xa6,0x33,0x3a,0x3e,0x8c,0x95,0x3b,0x34,0xa,0xf4,0x3b,0xce,0xaa,0xe,0x3c,0x2,0x37,0x4,0x3c,0x4,0xe2,0xb9,0x3b,0xc6,0xa1,0x5,0x3b,0xc6,0xa1,0x5,0xbb,0x4,0xe2,0xb9,0xbb,0x2,0x37,0x4,0xbc,0xce,0xaa,0xe,0xbc,0x34,0xa,0xf4,0xbb,0x3e,0x8c,0x95,0xbb,0x82,0xa6,0x33,0xba,0x90,0xf,0x5b,0x3b,0x12,0xa4,0xd9,0x3b,0x7d,0x27,0xb,0x3c,0x42,0xbc,0x9,0x3c,0xbc,0x48,0xc2,0x3b,0x39,0x5a,0xdf,0x3a,0x4,0x21,0x46,0xbb,0x54,0xc5,0xe0,0xbb,0xcb,0x1d,0xe,0xbc,0x7f,0xf6,0x1,0xbc,0x74,0x3,0x9f,0xbb,0xff,0xc9,0xb3,0xb9,0x0,0xda,0x8b,0x3b,0x11,0xb9,0xf9,0x3b,0x7e,0xff,0xe,0x3c,0x1,0xfb,0xed,0x3b,0xa3,0xa7,0x6f,0x3b,0x8e,0x90,0x86,0xba,0xee,0x31,0xb1,0xbb,0x55,0x43,0x6,0xbc,0xcb,0x5b,0xc,0xbc,0xe4,0x2c,0xd2,0xbb,0xb0,0x61,0x1b,0xbb,0xb0,0x61,0x1b,0x3b,0xe4,0x2c,0xd2,0x3b,0xcb,0x5b,0xc,0x3c,0x55,0x43,0x6,0x3c,0xee,0x31,0xb1,0x3b,0x8e,0x90,0x86,0x3a,0xa3,0xa7,0x6f,0xbb,0x1,0xfb,0xed,0xbb,0x7e,0xff,0xe,0xbc,0x11,0xb9,0xf9,0xbb,0x0,0xda,0x8b,0xbb,0xff,0xc9,0xb3,0x39,0x74,0x3,0x9f,0x3b,0x7f,0xf6,0x1,0x3c,0xcb,0x1d,0xe,0x3c,0x54,0xc5,0xe0,0x3b,0x4,0x21,0x46,0x3b,0x39,0x5a,0xdf,0xba,0xbc,0x48,0xc2,0xbb,0x42,0xbc,0x9,0xbc,0xa8,0x1a,0x8,0x3c,0xe4,0x3b,0xa8,0x3b,0x8e,0xdb,0x1d,0x21,0xe4,0x3b,0xa8,0xbb,0xa8,0x1a,0x8,0xbc,0xa8,0x1a,0x8,0xbc,0xe4,0x3b,0xa8,0xbb,0x56,0xc9,0xec,0xa1,0xe4,0x3b,0xa8,0x3b,0xa8,0x1a,0x8,0x3c,0xa8,0x1a,0x8,0x3c,0xe4,0x3b,0xa8,0x3b,0x72,0x52,0x45,0x22,0xe4,0x3b,0xa8,0xbb,0xa8,0x1a,0x8,0xbc,0xa8,0x1a,0x8,0xbc,0xe4,0x3b,0xa8,0xbb,0x1c,0x20,0x8a,0xa2,0xe4,0x3b,0xa8,0x3b,0xa8,0x1a,0x8,0x3c,0xa8,0x1a,0x8,0x3c,0xe4,0x3b,0xa8,0x3b,0x0,0x97,0xb1,0x22,0xe4,0x3b,0xa8,0xbb,0xa8,0x1a,0x8,0xbc,0xa8,0x1a,0x8,0xbc,0xe4,0x3b,0xa8,0xbb,0x88,0xb0,0x31,0x23,0xe4,0x3b,0xa8,0x3b,0xa8,0x1a,0x8,0x3c,0xa8,0x1a,0x8,0x3c,0xe4,0x3b,0xa8,0x3b,0xee,0x3c,0xcf,0x23,0xe4,0x3b,0xa8,0xbb,0xa8,0x1a,0x8,0xbc,0xa8,0x1a,0x8,0xbc,0xe4,0x3b,0xa8,0xbb,0xa7,0x1a,0xd9,0xa3,0xe4,0x3b,0xa8,0x3b,0xa8,0x1a,0x8,0x3c,0x55,0x43,0x6,0x3c,0x0,0xda,0x8b,0x3b,0x39,0x5a,0xdf,0xba,0x54,0xc5,0xe0,0xbb,0x7e,0xff,0xe,0xbc,0xe4,0x2c,0xd2,0xbb,0x8e,0x90,0x86,0xba,0x74,0x3,0x9f,0x3b,0x42,0xbc,0x9,0x3c,0x7f,0xf6,0x1,0x3c,0xa3,0xa7,0x6f,0x3b,0xb0,0x61,0x1b,0xbb,0x1,0xfb,0xed,0xbb,0xcb,0x1d,0xe,0xbc,0xbc,0x48,0xc2,0xbb,0xff,0xc9,0xb3,0xb9,0xee,0x31,0xb1,0x3b,0xcb,0x5b,0xc,0x3c,0x11,0xb9,0xf9,0x3b,0x4,0x21,0x46,0x3b,0x4,0x21,0x46,0xbb,0x11,0xb9,0xf9,0xbb,0xcb,0x5b,0xc,0xbc,0xee,0x31,0xb1,0xbb,0xff,0xc9,0xb3,0x39,0xbc,0x48,0xc2,0x3b,0xcb,0x1d,0xe,0x3c,0x1,0xfb,0xed,0x3b,0xb0,0x61,0x1b,0x3b,0xa3,0xa7,0x6f,0xbb,0x7f,0xf6,0x1,0xbc,0x42,0xbc,0x9,0xbc,0x74,0x3,0x9f,0xbb,0x8e,0x90,0x86,0x3a,0xe4,0x2c,0xd2,0x3b,0x7e,0xff,0xe,0x3c,0x54,0xc5,0xe0,0x3b,0x39,0x5a,0xdf,0x3a,0x0,0xda,0x8b,0xbb,0x55,0x43,0x6,0xbc,0x2,0x37,0x4,0x3c,0x90,0xf,0x5b,0x3b,0x90,0xf,0x5b,0xbb,0x2,0x37,0x4,0xbc,0x2,0x37,0x4,0xbc,0x90,0xf,0x5b,0xbb,0x90,0xf,0x5b,0x3b,0x2,0x37,0x4,0x3c,0x2,0x37,0x4,0x3c,0x90,0xf,0x5b,0x3b,0x90,0xf,0x5b,0xbb,0x2,0x37,0x4,0xbc,0x2,0x37,0x4,0xbc,0x90,0xf,0x5b,0xbb,0x90,0xf,0x5b,0x3b,0x2,0x37,0x4,0x3c,0x2,0x37,0x4,0x3c,0x90,0xf,0x5b,0x3b,0x90,0xf,0x5b,0xbb,0x2,0x37,0x4,0xbc,0x2,0x37,0x4,0xbc,0x90,0xf,0x5b,0xbb,0x90,0xf,0x5b,0x3b,0x2,0x37,0x4,0x3c,0x2,0x37,0x4,0x3c,0x90,0xf,0x5b,0x3b,0x90,0xf,0x5b,0xbb,0x2,0x37,0x4,0xbc,0x2,0x37,0x4,0xbc,0x90,0xf,0x5b,0xbb,0x90,0xf,0x5b,0x3b,0x2,0x37,0x4,0x3c,0x2,0x37,0x4,0x3c,0x90,0xf,0x5b,0x3b,0x90,0xf,0x5b,0xbb,0x2,0x37,0x4,0xbc,0x2,0x37,0x4,0xbc,0x90,0xf,0x5b,0xbb,0x90,0xf,0x5b,0x3b,0x2,0x37,0x4,0x3c,0x7f,0xf6,0x1,0x3c,0xb0,0x61,0x1b,0x3b,0x74,0x3,0x9f,0xbb,0xcb,0x1d,0xe,0xbc,0xe4,0x2c,0xd2,0xbb,0xff,0xc9,0xb3,0x39,0x54,0xc5,0xe0,0x3b,0xcb,0x5b,0xc,0x3c,0x0,0xda,0x8b,0x3b,0x4,0x21,0x46,0xbb,0x55,0x43,0x6,0xbc,0x11,0xb9,0xf9,0xbb,0x39,0x5a,0xdf,0xba,0xee,0x31,0xb1,0x3b,0x7e,0xff,0xe,0x3c,0xbc,0x48,0xc2,0x3b,0x8e,0x90,0x86,0xba,0x1,0xfb,0xed,0xbb,0x42,0xbc,0x9,0xbc,0xa3,0xa7,0x6f,0xbb,0xa3,0xa7,0x6f,0x3b,0x42,0xbc,0x9,0x3c,0x1,0xfb,0xed,0x3b,0x8e,0x90,0x86,0x3a,0xbc,0x48,0xc2,0xbb,0x7e,0xff,0xe,0xbc,0xee,0x31,0xb1,0xbb,0x39,0x5a,0xdf,0x3a,0x11,0xb9,0xf9,0x3b,0x55,0x43,0x6,0x3c,0x4,0x21,0x46,0x3b,0x0,0xda,0x8b,0xbb,0xcb,0x5b,0xc,0xbc,0x54,0xc5,0xe0,0xbb,0xff,0xc9,0xb3,0xb9,0xe4,0x2c,0xd2,0x3b,0xcb,0x1d,0xe,0x3c,0x74,0x3,0x9f,0x3b,0xb0,0x61,0x1b,0xbb,0x7f,0xf6,0x1,0xbc,0x5c,0x5,0xff,0x3b,0xbc,0x18,0xb3,0x3a,0xc2,0x62,0xca,0xbb,0xb1,0x58,0xd,0xbc,0x8e,0xf0,0x81,0xbb,0x8e,0xf0,0x81,0x3b,0xb1,0x58,0xd,0x3c,0xc2,0x62,0xca,0x3b,0xbc,0x18,0xb3,0xba,0x5c,0x5,0xff,0xbb,0x5c,0x5,0xff,0xbb,0xbc,0x18,0xb3,0xba,0xc2,0x62,0xca,0x3b,0xb1,0x58,0xd,0x3c,0x8e,0xf0,0x81,0x3b,0x8e,0xf0,0x81,0xbb,0xb1,0x58,0xd,0xbc,0xc2,0x62,0xca,0xbb,0xbc,0x18,0xb3,0x3a,0x5c,0x5,0xff,0x3b,0x5c,0x5,0xff,0x3b,0xbc,0x18,0xb3,0x3a,0xc2,0x62,0xca,0xbb,0xb1,0x58,0xd,0xbc,0x8e,0xf0,0x81,0xbb,0x8e,0xf0,0x81,0x3b,0xb1,0x58,0xd,0x3c,0xc2,0x62,0xca,0x3b,0xbc,0x18,0xb3,0xba,0x5c,0x5,0xff,0xbb,0x5c,0x5,0xff,0xbb,0xbc,0x18,0xb3,0xba,0xc2,0x62,0xca,0x3b,0xb1,0x58,0xd,0x3c,0x8e,0xf0,0x81,0x3b,0x8e,0xf0,0x81,0xbb,0xb1,0x58,0xd,0xbc,0xc2,0x62,0xca,0xbb,0xbc,0x18,0xb3,0x3a,0x5c,0x5,0xff,0x3b,0x11,0xb9,0xf9,0x3b,0xff,0xc9,0xb3,0x39,0x1,0xfb,0xed,0xbb,0x7f,0xf6,0x1,0xbc,0x8e,0x90,0x86,0xba,0x54,0xc5,0xe0,0x3b,0x55,0x43,0x6,0x3c,0x39,0x5a,0xdf,0x3a,0xe4,0x2c,0xd2,0xbb,0x42,0xbc,0x9,0xbc,0xb0,0x61,0x1b,0xbb,0xbc,0x48,0xc2,0x3b,0xcb,0x5b,0xc,0x3c,0x4,0x21,0x46,0x3b,0xee,0x31,0xb1,0xbb,0xcb,0x1d,0xe,0xbc,0xa3,0xa7,0x6f,0xbb,0x74,0x3,0x9f,0x3b,0x7e,0xff,0xe,0x3c,0x0,0xda,0x8b,0x3b,0x0,0xda,0x8b,0xbb,0x7e,0xff,0xe,0xbc,0x74,0x3,0x9f,0xbb,0xa3,0xa7,0x6f,0x3b,0xcb,0x1d,0xe,0x3c,0xee,0x31,0xb1,0x3b,0x4,0x21,0x46,0xbb,0xcb,0x5b,0xc,0xbc,0xbc,0x48,0xc2,0xbb,0xb0,0x61,0x1b,0x3b,0x42,0xbc,0x9,0x3c,0xe4,0x2c,0xd2,0x3b,0x39,0x5a,0xdf,0xba,0x55,0x43,0x6,0xbc,0x54,0xc5,0xe0,0xbb,0x8e,0x90,0x86,0x3a,0x7f,0xf6,0x1,0x3c,0x1,0xfb,0xed,0x3b,0xff,0xc9,0xb3,0xb9,0x11,0xb9,0xf9,0xbb,0x34,0xa,0xf4,0x3b,0x82,0xa6,0x33,0xba,0x2,0x37,0x4,0xbc,0x12,0xa4,0xd9,0xbb,0xc6,0xa1,0x5,0x3b,0x7d,0x27,0xb,0x3c,0x4,0xe2,0xb9,0x3b,0x90,0xf,0x5b,0xbb,0xce,0xaa,0xe,0xbc,0x3e,0x8c,0x95,0xbb,0x3e,0x8c,0x95,0x3b,0xce,0xaa,0xe,0x3c,0x90,0xf,0x5b,0x3b,0x4,0xe2,0xb9,0xbb,0x7d,0x27,0xb,0xbc,0xc6,0xa1,0x5,0xbb,0x12,0xa4,0xd9,0x3b,0x2,0x37,0x4,0x3c,0x82,0xa6,0x33,0x3a,0x34,0xa,0xf4,0xbb,0x34,0xa,0xf4,0xbb,0x82,0xa6,0x33,0x3a,0x2,0x37,0x4,0x3c,0x12,0xa4,0xd9,0x3b,0xc6,0xa1,0x5,0xbb,0x7d,0x27,0xb,0xbc,0x4,0xe2,0xb9,0xbb,0x90,0xf,0x5b,0x3b,0xce,0xaa,0xe,0x3c,0x3e,0x8c,0x95,0x3b,0x3e,0x8c,0x95,0xbb,0xce,0xaa,0xe,0xbc,0x90,0xf,0x5b,0xbb,0x4,0xe2,0xb9,0x3b,0x7d,0x27,0xb,0x3c,0xc6,0xa1,0x5,0x3b,0x12,0xa4,0xd9,0xbb,0x2,0x37,0x4,0xbc,0x82,0xa6,0x33,0xba,0x34,0xa,0xf4,0x3b,0x1,0xfb,0xed,0x3b,0x39,0x5a,0xdf,0xba,0xcb,0x5b,0xc,0xbc,0x74,0x3,0x9f,0xbb,0x74,0x3,0x9f,0x3b,0xcb,0x5b,0xc,0x3c,0x39,0x5a,0xdf,0x3a,0x1,0xfb,0xed,0xbb,0x1,0xfb,0xed,0xbb,0x39,0x5a,0xdf,0x3a,0xcb,0x5b,0xc,0x3c,0x74,0x3,0x9f,0x3b,0x74,0x3,0x9f,0xbb,0xcb,0x5b,0xc,0xbc,0x39,0x5a,0xdf,0xba,0x1,0xfb,0xed,0x3b,0x1,0xfb,0xed,0x3b,0x39,0x5a,0xdf,0xba,0xcb,0x5b,0xc,0xbc,0x74,0x3,0x9f,0xbb,0x74,0x3,0x9f,0x3b,0xcb,0x5b,0xc,0x3c,0x39,0x5a,0xdf,0x3a,0x1,0xfb,0xed,0xbb,0x1,0xfb,0xed,0xbb,0x39,0x5a,0xdf,0x3a,0xcb,0x5b,0xc,0x3c,0x74,0x3,0x9f,0x3b,0x74,0x3,0x9f,0xbb,0xcb,0x5b,0xc,0xbc,0x39,0x5a,0xdf,0xba,0x1,0xfb,0xed,0x3b,0x1,0xfb,0xed,0x3b,0x39,0x5a,0xdf,0xba,0xcb,0x5b,0xc,0xbc,0x74,0x3,0x9f,0xbb,0x74,0x3,0x9f,0x3b,0xcb,0x5b,0xc,0x3c,0x39,0x5a,0xdf,0x3a,0x1,0xfb,0xed,0xbb,0xdf,0x8d,0xe7,0x3b,0x43,0xe4,0x30,0xbb,0xbd,0x1b,0xf,0xbc,0x43,0xe4,0x30,0xbb,0xdf,0x8d,0xe7,0x3b,0xdf,0x8d,0xe7,0x3b,0x43,0xe4,0x30,0xbb,0xbd,0x1b,0xf,0xbc,0x43,0xe4,0x30,0xbb,0xdf,0x8d,0xe7,0x3b,0xdf,0x8d,0xe7,0x3b,0x43,0xe4,0x30,0xbb,0xbd,0x1b,0xf,0xbc,0x43,0xe4,0x30,0xbb,0xdf,0x8d,0xe7,0x3b,0xdf,0x8d,0xe7,0x3b,0x43,0xe4,0x30,0xbb,0xbd,0x1b,0xf,0xbc,0x43,0xe4,0x30,0xbb,0xdf,0x8d,0xe7,0x3b,0xdf,0x8d,0xe7,0x3b,0x43,0xe4,0x30,0xbb,0xbd,0x1b,0xf,0xbc,0x43,0xe4,0x30,0xbb,0xdf,0x8d,0xe7,0x3b,0xdf,0x8d,0xe7,0x3b,0x43,0xe4,0x30,0xbb,0xbd,0x1b,0xf,0xbc,0x43,0xe4,0x30,0xbb,0xdf,0x8d,0xe7,0x3b,0xdf,0x8d,0xe7,0x3b,0x43,0xe4,0x30,0xbb,0xbd,0x1b,0xf,0xbc,0x43,0xe4,0x30,0xbb,0xdf,0x8d,0xe7,0x3b,0xdf,0x8d,0xe7,0x3b,0x43,0xe4,0x30,0xbb,0xbd,0x1b,0xf,0xbc,0x43,0xe4,0x30,0xbb,0xdf,0x8d,0xe7,0x3b,0x54,0xc5,0xe0,0x3b,0xa3,0xa7,0x6f,0xbb,0xcb,0x5b,0xc,0xbc,0xff,0xc9,0xb3,0xb9,0x42,0xbc,0x9,0x3c,0x0,0xda,0x8b,0x3b,0xe4,0x2c,0xd2,0xbb,0x1,0xfb,0xed,0xbb,0x4,0x21,0x46,0x3b,0xcb,0x1d,0xe,0x3c,0x8e,0x90,0x86,0x3a,0x55,0x43,0x6,0xbc,0x74,0x3,0x9f,0xbb,0xbc,0x48,0xc2,0x3b,0x11,0xb9,0xf9,0x3b,0xb0,0x61,0x1b,0xbb,0x7e,0xff,0xe,0xbc,0x39,0x5a,0xdf,0xba,0x7f,0xf6,0x1,0x3c,0xee,0x31,0xb1,0x3b,0xee,0x31,0xb1,0xbb,0x7f,0xf6,0x1,0xbc,0x39,0x5a,0xdf,0x3a,0x7e,0xff,0xe,0x3c,0xb0,0x61,0x1b,0x3b,0x11,0xb9,0xf9,0xbb,0xbc,0x48,0xc2,0xbb,0x74,0x3,0x9f,0x3b,0x55,0x43,0x6,0x3c,0x8e,0x90,0x86,0xba,0xcb,0x1d,0xe,0xbc,0x4,0x21,0x46,0xbb,0x1,0xfb,0xed,0x3b,0xe4,0x2c,0xd2,0x3b,0x0,0xda,0x8b,0xbb,0x42,0xbc,0x9,0xbc,0xff,0xc9,0xb3,0x39,0xcb,0x5b,0xc,0x3c,0xa3,0xa7,0x6f,0x3b,0x54,0xc5,0xe0,0xbb,0x12,0xa4,0xd9,0x3b,0x3e,0x8c,0x95,0xbb,0x2,0x37,0x4,0xbc,0xc6,0xa1,0x5,0x3b,0xce,0xaa,0xe,0x3c,0x82,0xa6,0x33,0x3a,0x7d,0x27,0xb,0xbc,0x90,0xf,0x5b,0xbb,0x34,0xa,0xf4,0x3b,0x4,0xe2,0xb9,0x3b,0x4,0xe2,0xb9,0xbb,0x34,0xa,0xf4,0xbb,0x90,0xf,0x5b,0x3b,0x7d,0x27,0xb,0x3c,0x82,0xa6,0x33,0xba,0xce,0xaa,0xe,0xbc,0xc6,0xa1,0x5,0xbb,0x2,0x37,0x4,0x3c,0x3e,0x8c,0x95,0x3b,0x12,0xa4,0xd9,0xbb,0x12,0xa4,0xd9,0xbb,0x3e,0x8c,0x95,0x3b,0x2,0x37,0x4,0x3c,0xc6,0xa1,0x5,0xbb,0xce,0xaa,0xe,0xbc,0x82,0xa6,0x33,0xba,0x7d,0x27,0xb,0x3c,0x90,0xf,0x5b,0x3b,0x34,0xa,0xf4,0xbb,0x4,0xe2,0xb9,0xbb,0x4,0xe2,0xb9,0x3b,0x34,0xa,0xf4,0x3b,0x90,0xf,0x5b,0xbb,0x7d,0x27,0xb,0xbc,0x82,0xa6,0x33,0x3a,0xce,0xaa,0xe,0x3c,0xc6,0xa1,0x5,0x3b,0x2,0x37,0x4,0xbc,0x3e,0x8c,0x95,0xbb,0x12,0xa4,0xd9,0x3b,0xe4,0x2c,0xd2,0x3b,0xee,0x31,0xb1,0xbb,0x1,0xfb,0xed,0xbb,0x0,0xda,0x8b,0x3b,0x7f,0xf6,0x1,0x3c,0x4,0x21,0x46,0xbb,0x42,0xbc,0x9,0xbc,0x39,0x5a,0xdf,0x3a,0xcb,0x1d,0xe,0x3c,0xff,0xc9,0xb3,0xb9,0x7e,0xff,0xe,0xbc,0x8e,0x90,0x86,0xba,0xcb,0x5b,0xc,0x3c,0xb0,0x61,0x1b,0x3b,0x55,0x43,0x6,0xbc,0xa3,0xa7,0x6f,0xbb,0x11,0xb9,0xf9,0x3b,0x74,0x3,0x9f,0x3b,0x54,0xc5,0xe0,0xbb,0xbc,0x48,0xc2,0xbb,0xbc,0x48,0xc2,0x3b,0x54,0xc5,0xe0,0x3b,0x74,0x3,0x9f,0xbb,0x11,0xb9,0xf9,0xbb,0xa3,0xa7,0x6f,0x3b,0x55,0x43,0x6,0x3c,0xb0,0x61,0x1b,0xbb,0xcb,0x5b,0xc,0xbc,0x8e,0x90,0x86,0x3a,0x7e,0xff,0xe,0x3c,0xff,0xc9,0xb3,0x39,0xcb,0x1d,0xe,0xbc,0x39,0x5a,0xdf,0xba,0x42,0xbc,0x9,0x3c,0x4,0x21,0x46,0x3b,0x7f,0xf6,0x1,0xbc,0x0,0xda,0x8b,0xbb,0x1,0xfb,0xed,0x3b,0xee,0x31,0xb1,0x3b,0xe4,0x2c,0xd2,0xbb,0xc2,0x62,0xca,0x3b,0xc2,0x62,0xca,0xbb,0xc2,0x62,0xca,0xbb,0xc2,0x62,0xca,0x3b,0xc2,0x62,0xca,0x3b,0xc2,0x62,0xca,0xbb,0xc2,0x62,0xca,0xbb,0xc2,0x62,0xca,0x3b,0xc2,0x62,0xca,0x3b,0xc2,0x62,0xca,0xbb,0xc2,0x62,0xca,0xbb,0xc2,0x62,0xca,0x3b,0xc2,0x62,0xca,0x3b,0xc2,0x62,0xca,0xbb,0xc2,0x62,0xca,0xbb,0xc2,0x62,0xca,0x3b,0xc2,0x62,0xca,0x3b,0xc2,0x62,0xca,0xbb,0xc2,0x62,0xca,0xbb,0xc2,0x62,0xca,0x3b,0xc2,0x62,0xca,0x3b,0xc2,0x62,0xca,0xbb,0xc2,0x62,0xca,0xbb,0xc2,0x62,0xca,0x3b,0xc2,0x62,0xca,0x3b,0xc2,0x62,0xca,0xbb,0xc2,0x62,0xca,0xbb,0xc2,0x62,0xca,0x3b,0xc2,0x62,0xca,0x3b,0xc2,0x62,0xca,0xbb,0xc2,0x62,0xca,0xbb,0xc2,0x62,0xca,0x3b,0xc2,0x62,0xca,0x3b,0xc2,0x62,0xca,0xbb,0xc2,0x62,0xca,0xbb,0xc2,0x62,0xca,0x3b,0xc2,0x62,0xca,0x3b,0xc2,0x62,0xca,0xbb,0xc2,0x62,0xca,0xbb,0xc2,0x62,0xca,0x3b,0xbc,0x48,0xc2,0x3b,0x54,0xc5,0xe0,0xbb,0x74,0x3,0x9f,0xbb,0x11,0xb9,0xf9,0x3b,0xa3,0xa7,0x6f,0x3b,0x55,0x43,0x6,0xbc,0xb0,0x61,0x1b,0xbb,0xcb,0x5b,0xc,0x3c,0x8e,0x90,0x86,0x3a,0x7e,0xff,0xe,0xbc,0xff,0xc9,0xb3,0x39,0xcb,0x1d,0xe,0x3c,0x39,0x5a,0xdf,0xba,0x42,0xbc,0x9,0xbc,0x4,0x21,0x46,0x3b,0x7f,0xf6,0x1,0x3c,0x0,0xda,0x8b,0xbb,0x1,0xfb,0xed,0xbb,0xee,0x31,0xb1,0x3b,0xe4,0x2c,0xd2,0x3b,0xe4,0x2c,0xd2,0xbb,0xee,0x31,0xb1,0xbb,0x1,0xfb,0xed,0x3b,0x0,0xda,0x8b,0x3b,0x7f,0xf6,0x1,0xbc,0x4,0x21,0x46,0xbb,0x42,0xbc,0x9,0x3c,0x39,0x5a,0xdf,0x3a,0xcb,0x1d,0xe,0xbc,0xff,0xc9,0xb3,0xb9,0x7e,0xff,0xe,0x3c,0x8e,0x90,0x86,0xba,0xcb,0x5b,0xc,0xbc,0xb0,0x61,0x1b,0x3b,0x55,0x43,0x6,0x3c,0xa3,0xa7,0x6f,0xbb,0x11,0xb9,0xf9,0xbb,0x74,0x3,0x9f,0x3b,0x54,0xc5,0xe0,0x3b,0xbc,0x48,0xc2,0xbb,0x4,0xe2,0xb9,0x3b,0x34,0xa,0xf4,0xbb,0x90,0xf,0x5b,0xbb,0x7d,0x27,0xb,0x3c,0x82,0xa6,0x33,0x3a,0xce,0xaa,0xe,0xbc,0xc6,0xa1,0x5,0x3b,0x2,0x37,0x4,0x3c,0x3e,0x8c,0x95,0xbb,0x12,0xa4,0xd9,0xbb,0x12,0xa4,0xd9,0x3b,0x3e,0x8c,0x95,0x3b,0x2,0x37,0x4,0xbc,0xc6,0xa1,0x5,0xbb,0xce,0xaa,0xe,0x3c,0x82,0xa6,0x33,0xba,0x7d,0x27,0xb,0xbc,0x90,0xf,0x5b,0x3b,0x34,0xa,0xf4,0x3b,0x4,0xe2,0xb9,0xbb,0x4,0xe2,0xb9,0xbb,0x34,0xa,0xf4,0x3b,0x90,0xf,0x5b,0x3b,0x7d,0x27,0xb,0xbc,0x82,0xa6,0x33,0xba,0xce,0xaa,0xe,0x3c,0xc6,0xa1,0x5,0xbb,0x2,0x37,0x4,0xbc,0x3e,0x8c,0x95,0x3b,0x12,0xa4,0xd9,0x3b,0x12,0xa4,0xd9,0xbb,0x3e,0x8c,0x95,0xbb,0x2,0x37,0x4,0x3c,0xc6,0xa1,0x5,0x3b,0xce,0xaa,0xe,0xbc,0x82,0xa6,0x33,0x3a,0x7d,0x27,0xb,0x3c,0x90,0xf,0x5b,0xbb,0x34,0xa,0xf4,0xbb,0x4,0xe2,0xb9,0x3b,0xee,0x31,0xb1,0x3b,0x7f,0xf6,0x1,0xbc,0x39,0x5a,0xdf,0xba,0x7e,0xff,0xe,0x3c,0xb0,0x61,0x1b,0xbb,0x11,0xb9,0xf9,0xbb,0xbc,0x48,0xc2,0x3b,0x74,0x3,0x9f,0x3b,0x55,0x43,0x6,0xbc,0x8e,0x90,0x86,0xba,0xcb,0x1d,0xe,0x3c,0x4,0x21,0x46,0xbb,0x1,0xfb,0xed,0xbb,0xe4,0x2c,0xd2,0x3b,0x0,0xda,0x8b,0x3b,0x42,0xbc,0x9,0xbc,0xff,0xc9,0xb3,0xb9,0xcb,0x5b,0xc,0x3c,0xa3,0xa7,0x6f,0xbb,0x54,0xc5,0xe0,0xbb,0x54,0xc5,0xe0,0x3b,0xa3,0xa7,0x6f,0x3b,0xcb,0x5b,0xc,0xbc,0xff,0xc9,0xb3,0x39,0x42,0xbc,0x9,0x3c,0x0,0xda,0x8b,0xbb,0xe4,0x2c,0xd2,0xbb,0x1,0xfb,0xed,0x3b,0x4,0x21,0x46,0x3b,0xcb,0x1d,0xe,0xbc,0x8e,0x90,0x86,0x3a,0x55,0x43,0x6,0x3c,0x74,0x3,0x9f,0xbb,0xbc,0x48,0xc2,0xbb,0x11,0xb9,0xf9,0x3b,0xb0,0x61,0x1b,0x3b,0x7e,0xff,0xe,0xbc,0x39,0x5a,0xdf,0x3a,0x7f,0xf6,0x1,0x3c,0xee,0x31,0xb1,0xbb,0xe4,0x3b,0xa8,0x3b,0xa8,0x1a,0x8,0xbc,0x56,0xc9,0xec,0xa1,0xa8,0x1a,0x8,0x3c,0xe4,0x3b,0xa8,0xbb,0xe4,0x3b,0xa8,0xbb,0xa8,0x1a,0x8,0x3c,0x0,0x97,0xb1,0x22,0xa8,0x1a,0x8,0xbc,0xe4,0x3b,0xa8,0x3b,0xe4,0x3b,0xa8,0x3b,0xa8,0x1a,0x8,0xbc,0xa7,0x1a,0xd9,0xa3,0xa8,0x1a,0x8,0x3c,0xe4,0x3b,0xa8,0xbb,0xe4,0x3b,0xa8,0xbb,0xa8,0x1a,0x8,0x3c,0x9f,0xe,0x9e,0xa2,0xa8,0x1a,0x8,0xbc,0xe4,0x3b,0xa8,0x3b,0xe4,0x3b,0xa8,0x3b,0xa8,0x1a,0x8,0xbc,0x7e,0x26,0xa,0xa4,0xa8,0x1a,0x8,0x3c,0xe4,0x3b,0xa8,0xbb,0xe4,0x3b,0xa8,0xbb,0xa8,0x1a,0x8,0x3c,0x68,0x7,0x94,0x24,0xa8,0x1a,0x8,0xbc,0xe4,0x3b,0xa8,0x3b,0xe4,0x3b,0xa8,0x3b,0xa8,0x1a,0x8,0xbc,0xaa,0xbf,0x27,0xa4,0xa8,0x1a,0x8,0x3c,0xe4,0x3b,0xa8,0xbb,0xe4,0x3b,0xa8,0xbb,0xa8,0x1a,0x8,0x3c,0x6,0xc2,0x1d,0x23,0xa8,0x1a,0x8,0xbc,0xe4,0x3b,0xa8,0x3b,0x74,0x3,0x9f,0x3b,0xcb,0x5b,0xc,0xbc,0x39,0x5a,0xdf,0x3a,0x1,0xfb,0xed,0x3b,0x1,0xfb,0xed,0xbb,0x39,0x5a,0xdf,0xba,0xcb,0x5b,0xc,0x3c,0x74,0x3,0x9f,0xbb,0x74,0x3,0x9f,0xbb,0xcb,0x5b,0xc,0x3c,0x39,0x5a,0xdf,0xba,0x1,0xfb,0xed,0xbb,0x1,0xfb,0xed,0x3b,0x39,0x5a,0xdf,0x3a,0xcb,0x5b,0xc,0xbc,0x74,0x3,0x9f,0x3b,0x74,0x3,0x9f,0x3b,0xcb,0x5b,0xc,0xbc,0x39,0x5a,0xdf,0x3a,0x1,0xfb,0xed,0x3b,0x1,0xfb,0xed,0xbb,0x39,0x5a,0xdf,0xba,0xcb,0x5b,0xc,0x3c,0x74,0x3,0x9f,0xbb,0x74,0x3,0x9f,0xbb,0xcb,0x5b,0xc,0x3c,0x39,0x5a,0xdf,0xba,0x1,0xfb,0xed,0xbb,0x1,0xfb,0xed,0x3b,0x39,0x5a,0xdf,0x3a,0xcb,0x5b,0xc,0xbc,0x74,0x3,0x9f,0x3b,0x74,0x3,0x9f,0x3b,0xcb,0x5b,0xc,0xbc,0x39,0x5a,0xdf,0x3a,0x1,0xfb,0xed,0x3b,0x1,0xfb,0xed,0xbb,0x39,0x5a,0xdf,0xba,0xcb,0x5b,0xc,0x3c,0x74,0x3,0x9f,0xbb,0x3e,0x8c,0x95,0x3b,0xce,0xaa,0xe,0xbc,0x90,0xf,0x5b,0x3b,0x4,0xe2,0xb9,0x3b,0x7d,0x27,0xb,0xbc,0xc6,0xa1,0x5,0x3b,0x12,0xa4,0xd9,0x3b,0x2,0x37,0x4,0xbc,0x82,0xa6,0x33,0x3a,0x34,0xa,0xf4,0x3b,0x34,0xa,0xf4,0xbb,0x82,0xa6,0x33,0xba,0x2,0x37,0x4,0x3c,0x12,0xa4,0xd9,0xbb,0xc6,0xa1,0x5,0xbb,0x7d,0x27,0xb,0x3c,0x4,0xe2,0xb9,0xbb,0x90,0xf,0x5b,0xbb,0xce,0xaa,0xe,0x3c,0x3e,0x8c,0x95,0xbb,0x3e,0x8c,0x95,0xbb,0xce,0xaa,0xe,0x3c,0x90,0xf,0x5b,0xbb,0x4,0xe2,0xb9,0xbb,0x7d,0x27,0xb,0x3c,0xc6,0xa1,0x5,0xbb,0x12,0xa4,0xd9,0xbb,0x2,0x37,0x4,0x3c,0x82,0xa6,0x33,0xba,0x34,0xa,0xf4,0xbb,0x34,0xa,0xf4,0x3b,0x82,0xa6,0x33,0x3a,0x2,0x37,0x4,0xbc,0x12,0xa4,0xd9,0x3b,0xc6,0xa1,0x5,0x3b,0x7d,0x27,0xb,0xbc,0x4,0xe2,0xb9,0x3b,0x90,0xf,0x5b,0x3b,0xce,0xaa,0xe,0xbc,0x3e,0x8c,0x95,0x3b,0x0,0xda,0x8b,0x3b,0x7e,0xff,0xe,0xbc,0x74,0x3,0x9f,0x3b,0xa3,0xa7,0x6f,0x3b,0xcb,0x1d,0xe,0xbc,0xee,0x31,0xb1,0x3b,0x4,0x21,0x46,0x3b,0xcb,0x5b,0xc,0xbc,0xbc,0x48,0xc2,0x3b,0xb0,0x61,0x1b,0x3b,0x42,0xbc,0x9,0xbc,0xe4,0x2c,0xd2,0x3b,0x39,0x5a,0xdf,0x3a,0x55,0x43,0x6,0xbc,0x54,0xc5,0xe0,0x3b,0x8e,0x90,0x86,0x3a,0x7f,0xf6,0x1,0xbc,0x1,0xfb,0xed,0x3b,0xff,0xc9,0xb3,0x39,0x11,0xb9,0xf9,0xbb,0x11,0xb9,0xf9,0x3b,0xff,0xc9,0xb3,0xb9,0x1,0xfb,0xed,0xbb,0x7f,0xf6,0x1,0x3c,0x8e,0x90,0x86,0xba,0x54,0xc5,0xe0,0xbb,0x55,0x43,0x6,0x3c,0x39,0x5a,0xdf,0xba,0xe4,0x2c,0xd2,0xbb,0x42,0xbc,0x9,0x3c,0xb0,0x61,0x1b,0xbb,0xbc,0x48,0xc2,0xbb,0xcb,0x5b,0xc,0x3c,0x4,0x21,0x46,0xbb,0xee,0x31,0xb1,0xbb,0xcb,0x1d,0xe,0x3c,0xa3,0xa7,0x6f,0xbb,0x74,0x3,0x9f,0xbb,0x7e,0xff,0xe,0x3c,0x0,0xda,0x8b,0xbb,0x8e,0xf0,0x81,0x3b,0xb1,0x58,0xd,0xbc,0xc2,0x62,0xca,0x3b,0xbc,0x18,0xb3,0x3a,0x5c,0x5,0xff,0xbb,0x5c,0x5,0xff,0x3b,0xbc,0x18,0xb3,0xba,0xc2,0x62,0xca,0xbb,0xb1,0x58,0xd,0x3c,0x8e,0xf0,0x81,0xbb,0x8e,0xf0,0x81,0xbb,0xb1,0x58,0xd,0x3c,0xc2,0x62,0xca,0xbb,0xbc,0x18,0xb3,0xba,0x5c,0x5,0xff,0x3b,0x5c,0x5,0xff,0xbb,0xbc,0x18,0xb3,0x3a,0xc2,0x62,0xca,0x3b,0xb1,0x58,0xd,0xbc,0x8e,0xf0,0x81,0x3b,0x8e,0xf0,0x81,0x3b,0xb1,0x58,0xd,0xbc,0xc2,0x62,0xca,0x3b,0xbc,0x18,0xb3,0x3a,0x5c,0x5,0xff,0xbb,0x5c,0x5,0xff,0x3b,0xbc,0x18,0xb3,0xba,0xc2,0x62,0xca,0xbb,0xb1,0x58,0xd,0x3c,0x8e,0xf0,0x81,0xbb,0x8e,0xf0,0x81,0xbb,0xb1,0x58,0xd,0x3c,0xc2,0x62,0xca,0xbb,0xbc,0x18,0xb3,0xba,0x5c,0x5,0xff,0x3b,0x5c,0x5,0xff,0xbb,0xbc,0x18,0xb3,0x3a,0xc2,0x62,0xca,0x3b,0xb1,0x58,0xd,0xbc,0x8e,0xf0,0x81,0x3b,0xa3,0xa7,0x6f,0x3b,0x42,0xbc,0x9,0xbc,0x1,0xfb,0xed,0x3b,0x8e,0x90,0x86,0xba,0xbc,0x48,0xc2,0xbb,0x7e,0xff,0xe,0x3c,0xee,0x31,0xb1,0xbb,0x39,0x5a,0xdf,0xba,0x11,0xb9,0xf9,0x3b,0x55,0x43,0x6,0xbc,0x4,0x21,0x46,0x3b,0x0,0xda,0x8b,0x3b,0xcb,0x5b,0xc,0xbc,0x54,0xc5,0xe0,0x3b,0xff,0xc9,0xb3,0xb9,0xe4,0x2c,0xd2,0xbb,0xcb,0x1d,0xe,0x3c,0x74,0x3,0x9f,0xbb,0xb0,0x61,0x1b,0xbb,0x7f,0xf6,0x1,0x3c,0x7f,0xf6,0x1,0xbc,0xb0,0x61,0x1b,0x3b,0x74,0x3,0x9f,0x3b,0xcb,0x1d,0xe,0xbc,0xe4,0x2c,0xd2,0x3b,0xff,0xc9,0xb3,0x39,0x54,0xc5,0xe0,0xbb,0xcb,0x5b,0xc,0x3c,0x0,0xda,0x8b,0xbb,0x4,0x21,0x46,0xbb,0x55,0x43,0x6,0x3c,0x11,0xb9,0xf9,0xbb,0x39,0x5a,0xdf,0x3a,0xee,0x31,0xb1,0x3b,0x7e,0xff,0xe,0xbc,0xbc,0x48,0xc2,0x3b,0x8e,0x90,0x86,0x3a,0x1,0xfb,0xed,0xbb,0x42,0xbc,0x9,0x3c,0xa3,0xa7,0x6f,0xbb,0x90,0xf,0x5b,0x3b,0x2,0x37,0x4,0xbc,0x2,0x37,0x4,0x3c,0x90,0xf,0x5b,0xbb,0x90,0xf,0x5b,0xbb,0x2,0x37,0x4,0x3c,0x2,0x37,0x4,0xbc,0x90,0xf,0x5b,0x3b,0x90,0xf,0x5b,0x3b,0x2,0x37,0x4,0xbc,0x2,0x37,0x4,0x3c,0x90,0xf,0x5b,0xbb,0x90,0xf,0x5b,0xbb,0x2,0x37,0x4,0x3c,0x2,0x37,0x4,0xbc,0x90,0xf,0x5b,0x3b,0x90,0xf,0x5b,0x3b,0x2,0x37,0x4,0xbc,0x2,0x37,0x4,0x3c,0x90,0xf,0x5b,0xbb,0x90,0xf,0x5b,0xbb,0x2,0x37,0x4,0x3c,0x2,0x37,0x4,0xbc,0x90,0xf,0x5b,0x3b,0x90,0xf,0x5b,0x3b,0x2,0x37,0x4,0xbc,0x2,0x37,0x4,0x3c,0x90,0xf,0x5b,0xbb,0x90,0xf,0x5b,0xbb,0x2,0x37,0x4,0x3c,0x2,0x37,0x4,0xbc,0x90,0xf,0x5b,0x3b,0x90,0xf,0x5b,0x3b,0x2,0x37,0x4,0xbc,0x2,0x37,0x4,0x3c,0x90,0xf,0x5b,0xbb,0x90,0xf,0x5b,0xbb,0x2,0x37,0x4,0x3c,0x2,0x37,0x4,0xbc,0x90,0xf,0x5b,0x3b,0x4,0x21,0x46,0x3b,0x11,0xb9,0xf9,0xbb,0xcb,0x5b,0xc,0x3c,0xee,0x31,0xb1,0xbb,0xff,0xc9,0xb3,0xb9,0xbc,0x48,0xc2,0x3b,0xcb,0x1d,0xe,0xbc,0x1,0xfb,0xed,0x3b,0xb0,0x61,0x1b,0xbb,0xa3,0xa7,0x6f,0xbb,0x7f,0xf6,0x1,0x3c,0x42,0xbc,0x9,0xbc,0x74,0x3,0x9f,0x3b,0x8e,0x90,0x86,0x3a,0xe4,0x2c,0xd2,0xbb,0x7e,0xff,0xe,0x3c,0x54,0xc5,0xe0,0xbb,0x39,0x5a,0xdf,0x3a,0x0,0xda,0x8b,0x3b,0x55,0x43,0x6,0xbc,0x55,0x43,0x6,0x3c,0x0,0xda,0x8b,0xbb,0x39,0x5a,0xdf,0xba,0x54,0xc5,0xe0,0x3b,0x7e,0xff,0xe,0xbc,0xe4,0x2c,0xd2,0x3b,0x8e,0x90,0x86,0xba,0x74,0x3,0x9f,0xbb,0x42,0xbc,0x9,0x3c,0x7f,0xf6,0x1,0xbc,0xa3,0xa7,0x6f,0x3b,0xb0,0x61,0x1b,0x3b,0x1,0xfb,0xed,0xbb,0xcb,0x1d,0xe,0x3c,0xbc,0x48,0xc2,0xbb,0xff,0xc9,0xb3,0x39,0xee,0x31,0xb1,0x3b,0xcb,0x5b,0xc,0xbc,0x11,0xb9,0xf9,0x3b,0x4,0x21,0x46,0xbb,0x43,0xe4,0x30,0x3b,0xdf,0x8d,0xe7,0xbb,0xbd,0x1b,0xf,0x3c,0xdf,0x8d,0xe7,0xbb,0x43,0xe4,0x30,0x3b,0x43,0xe4,0x30,0x3b,0xdf,0x8d,0xe7,0xbb,0xbd,0x1b,0xf,0x3c,0xdf,0x8d,0xe7,0xbb,0x43,0xe4,0x30,0x3b,0x43,0xe4,0x30,0x3b,0xdf,0x8d,0xe7,0xbb,0xbd,0x1b,0xf,0x3c,0xdf,0x8d,0xe7,0xbb,0x43,0xe4,0x30,0x3b,0x43,0xe4,0x30,0x3b,0xdf,0x8d,0xe7,0xbb,0xbd,0x1b,0xf,0x3c,0xdf,0x8d,0xe7,0xbb,0x43,0xe4,0x30,0x3b,0x43,0xe4,0x30,0x3b,0xdf,0x8d,0xe7,0xbb,0xbd,0x1b,0xf,0x3c,0xdf,0x8d,0xe7,0xbb,0x43,0xe4,0x30,0x3b,0x43,0xe4,0x30,0x3b,0xdf,0x8d,0xe7,0xbb,0xbd,0x1b,0xf,0x3c,0xdf,0x8d,0xe7,0xbb,0x43,0xe4,0x30,0x3b,0x43,0xe4,0x30,0x3b,0xdf,0x8d,0xe7,0xbb,0xbd,0x1b,0xf,0x3c,0xdf,0x8d,0xe7,0xbb,0x43,0xe4,0x30,0x3b,0x43,0xe4,0x30,0x3b,0xdf,0x8d,0xe7,0xbb,0xbd,0x1b,0xf,0x3c,0xdf,0x8d,0xe7,0xbb,0x43,0xe4,0x30,0x3b,0xb0,0x61,0x1b,0x3b,0xe4,0x2c,0xd2,0xbb,0xcb,0x5b,0xc,0x3c,0x55,0x43,0x6,0xbc,0xee,0x31,0xb1,0x3b,0x8e,0x90,0x86,0xba,0xa3,0xa7,0x6f,0xbb,0x1,0xfb,0xed,0x3b,0x7e,0xff,0xe,0xbc,0x11,0xb9,0xf9,0x3b,0x0,0xda,0x8b,0xbb,0xff,0xc9,0xb3,0xb9,0x74,0x3,0x9f,0x3b,0x7f,0xf6,0x1,0xbc,0xcb,0x1d,0xe,0x3c,0x54,0xc5,0xe0,0xbb,0x4,0x21,0x46,0x3b,0x39,0x5a,0xdf,0x3a,0xbc,0x48,0xc2,0xbb,0x42,0xbc,0x9,0x3c,0x42,0xbc,0x9,0xbc,0xbc,0x48,0xc2,0x3b,0x39,0x5a,0xdf,0xba,0x4,0x21,0x46,0xbb,0x54,0xc5,0xe0,0x3b,0xcb,0x1d,0xe,0xbc,0x7f,0xf6,0x1,0x3c,0x74,0x3,0x9f,0xbb,0xff,0xc9,0xb3,0x39,0x0,0xda,0x8b,0x3b,0x11,0xb9,0xf9,0xbb,0x7e,0xff,0xe,0x3c,0x1,0xfb,0xed,0xbb,0xa3,0xa7,0x6f,0x3b,0x8e,0x90,0x86,0x3a,0xee,0x31,0xb1,0xbb,0x55,0x43,0x6,0x3c,0xcb,0x5b,0xc,0xbc,0xe4,0x2c,0xd2,0x3b,0xb0,0x61,0x1b,0xbb,0xc6,0xa1,0x5,0x3b,0x4,0xe2,0xb9,0xbb,0x2,0x37,0x4,0x3c,0xce,0xaa,0xe,0xbc,0x34,0xa,0xf4,0x3b,0x3e,0x8c,0x95,0xbb,0x82,0xa6,0x33,0x3a,0x90,0xf,0x5b,0x3b,0x12,0xa4,0xd9,0xbb,0x7d,0x27,0xb,0x3c,0x7d,0x27,0xb,0xbc,0x12,0xa4,0xd9,0x3b,0x90,0xf,0x5b,0xbb,0x82,0xa6,0x33,0xba,0x3e,0x8c,0x95,0x3b,0x34,0xa,0xf4,0xbb,0xce,0xaa,0xe,0x3c,0x2,0x37,0x4,0xbc,0x4,0xe2,0xb9,0x3b,0xc6,0xa1,0x5,0xbb,0xc6,0xa1,0x5,0xbb,0x4,0xe2,0xb9,0x3b,0x2,0x37,0x4,0xbc,0xce,0xaa,0xe,0x3c,0x34,0xa,0xf4,0xbb,0x3e,0x8c,0x95,0x3b,0x82,0xa6,0x33,0xba,0x90,0xf,0x5b,0xbb,0x12,0xa4,0xd9,0x3b,0x7d,0x27,0xb,0xbc,0x7d,0x27,0xb,0x3c,0x12,0xa4,0xd9,0xbb,0x90,0xf,0x5b,0x3b,0x82,0xa6,0x33,0x3a,0x3e,0x8c,0x95,0xbb,0x34,0xa,0xf4,0x3b,0xce,0xaa,0xe,0xbc,0x2,0x37,0x4,0x3c,0x4,0xe2,0xb9,0xbb,0xc6,0xa1,0x5,0x3b,0x39,0x5a,0xdf,0x3a,0x74,0x3,0x9f,0xbb,0x1,0xfb,0xed,0x3b,0xcb,0x5b,0xc,0xbc,0xcb,0x5b,0xc,0x3c,0x1,0xfb,0xed,0xbb,0x74,0x3,0x9f,0x3b,0x39,0x5a,0xdf,0xba,0x39,0x5a,0xdf,0xba,0x74,0x3,0x9f,0x3b,0x1,0xfb,0xed,0xbb,0xcb,0x5b,0xc,0x3c,0xcb,0x5b,0xc,0xbc,0x1,0xfb,0xed,0x3b,0x74,0x3,0x9f,0xbb,0x39,0x5a,0xdf,0x3a,0x39,0x5a,0xdf,0x3a,0x74,0x3,0x9f,0xbb,0x1,0xfb,0xed,0x3b,0xcb,0x5b,0xc,0xbc,0xcb,0x5b,0xc,0x3c,0x1,0xfb,0xed,0xbb,0x74,0x3,0x9f,0x3b,0x39,0x5a,0xdf,0xba,0x39,0x5a,0xdf,0xba,0x74,0x3,0x9f,0x3b,0x1,0xfb,0xed,0xbb,0xcb,0x5b,0xc,0x3c,0xcb,0x5b,0xc,0xbc,0x1,0xfb,0xed,0x3b,0x74,0x3,0x9f,0xbb,0x39,0x5a,0xdf,0x3a,0x39,0x5a,0xdf,0x3a,0x74,0x3,0x9f,0xbb,0x1,0xfb,0xed,0x3b,0xcb,0x5b,0xc,0xbc,0xcb,0x5b,0xc,0x3c,0x1,0xfb,0xed,0xbb,0x74,0x3,0x9f,0x3b,0x39,0x5a,0xdf,0xba,0xbc,0x18,0xb3,0x3a,0x8e,0xf0,0x81,0xbb,0xc2,0x62,0xca,0x3b,0x5c,0x5,0xff,0xbb,0xb1,0x58,0xd,0x3c,0xb1,0x58,0xd,0xbc,0x5c,0x5,0xff,0x3b,0xc2,0x62,0xca,0xbb,0x8e,0xf0,0x81,0x3b,0xbc,0x18,0xb3,0xba,0xbc,0x18,0xb3,0xba,0x8e,0xf0,0x81,0x3b,0xc2,0x62,0xca,0xbb,0x5c,0x5,0xff,0x3b,0xb1,0x58,0xd,0xbc,0xb1,0x58,0xd,0x3c,0x5c,0x5,0xff,0xbb,0xc2,0x62,0xca,0x3b,0x8e,0xf0,0x81,0xbb,0xbc,0x18,0xb3,0x3a,0xbc,0x18,0xb3,0x3a,0x8e,0xf0,0x81,0xbb,0xc2,0x62,0xca,0x3b,0x5c,0x5,0xff,0xbb,0xb1,0x58,0xd,0x3c,0xb1,0x58,0xd,0xbc,0x5c,0x5,0xff,0x3b,0xc2,0x62,0xca,0xbb,0x8e,0xf0,0x81,0x3b,0xbc,0x18,0xb3,0xba,0xbc,0x18,0xb3,0xba,0x8e,0xf0,0x81,0x3b,0xc2,0x62,0xca,0xbb,0x5c,0x5,0xff,0x3b,0xb1,0x58,0xd,0xbc,0xb1,0x58,0xd,0x3c,0x5c,0x5,0xff,0xbb,0xc2,0x62,0xca,0x3b,0x8e,0xf0,0x81,0xbb,0xbc,0x18,0xb3,0x3a,0x8e,0x90,0x86,0x3a,0x4,0x21,0x46,0xbb,0x74,0x3,0x9f,0x3b,0xe4,0x2c,0xd2,0xbb,0x11,0xb9,0xf9,0x3b,0x42,0xbc,0x9,0xbc,0x7e,0xff,0xe,0x3c,0xcb,0x5b,0xc,0xbc,0x7f,0xf6,0x1,0x3c,0x54,0xc5,0xe0,0xbb,0xee,0x31,0xb1,0x3b,0xa3,0xa7,0x6f,0xbb,0x39,0x5a,0xdf,0x3a,0xff,0xc9,0xb3,0x39,0xb0,0x61,0x1b,0xbb,0x0,0xda,0x8b,0x3b,0xbc,0x48,0xc2,0xbb,0x1,0xfb,0xed,0x3b,0x55,0x43,0x6,0xbc,0xcb,0x1d,0xe,0x3c,0xcb,0x1d,0xe,0xbc,0x55,0x43,0x6,0x3c,0x1,0xfb,0xed,0xbb,0xbc,0x48,0xc2,0x3b,0x0,0xda,0x8b,0xbb,0xb0,0x61,0x1b,0x3b,0xff,0xc9,0xb3,0xb9,0x39,0x5a,0xdf,0xba,0xa3,0xa7,0x6f,0x3b,0xee,0x31,0xb1,0xbb,0x54,0xc5,0xe0,0x3b,0x7f,0xf6,0x1,0xbc,0xcb,0x5b,0xc,0x3c,0x7e,0xff,0xe,0xbc,0x42,0xbc,0x9,0x3c,0x11,0xb9,0xf9,0xbb,0xe4,0x2c,0xd2,0x3b,0x74,0x3,0x9f,0xbb,0x4,0x21,0x46,0x3b,0x8e,0x90,0x86,0xba,0x82,0xa6,0x33,0x3a,0xc6,0xa1,0x5,0xbb,0x90,0xf,0x5b,0x3b,0x3e,0x8c,0x95,0xbb,0x4,0xe2,0xb9,0x3b,0x12,0xa4,0xd9,0xbb,0x34,0xa,0xf4,0x3b,0x2,0x37,0x4,0xbc,0x7d,0x27,0xb,0x3c,0xce,0xaa,0xe,0xbc,0xce,0xaa,0xe,0x3c,0x7d,0x27,0xb,0xbc,0x2,0x37,0x4,0x3c,0x34,0xa,0xf4,0xbb,0x12,0xa4,0xd9,0x3b,0x4,0xe2,0xb9,0xbb,0x3e,0x8c,0x95,0x3b,0x90,0xf,0x5b,0xbb,0xc6,0xa1,0x5,0x3b,0x82,0xa6,0x33,0xba,0x82,0xa6,0x33,0xba,0xc6,0xa1,0x5,0x3b,0x90,0xf,0x5b,0xbb,0x3e,0x8c,0x95,0x3b,0x4,0xe2,0xb9,0xbb,0x12,0xa4,0xd9,0x3b,0x34,0xa,0xf4,0xbb,0x2,0x37,0x4,0x3c,0x7d,0x27,0xb,0xbc,0xce,0xaa,0xe,0x3c,0xce,0xaa,0xe,0xbc,0x7d,0x27,0xb,0x3c,0x2,0x37,0x4,0xbc,0x34,0xa,0xf4,0x3b,0x12,0xa4,0xd9,0xbb,0x4,0xe2,0xb9,0x3b,0x3e,0x8c,0x95,0xbb,0x90,0xf,0x5b,0x3b,0xc6,0xa1,0x5,0xbb,0x82,0xa6,0x33,0x3a,0xff,0xc9,0xb3,0x39,0x8e,0x90,0x86,0xba,0x39,0x5a,0xdf,0x3a,0xb0,0x61,0x1b,0xbb,0x4,0x21,0x46,0x3b,0xa3,0xa7,0x6f,0xbb,0x0,0xda,0x8b,0x3b,0x74,0x3,0x9f,0xbb,0xee,0x31,0xb1,0x3b,0xbc,0x48,0xc2,0xbb,0xe4,0x2c,0xd2,0x3b,0x54,0xc5,0xe0,0xbb,0x1,0xfb,0xed,0x3b,0x11,0xb9,0xf9,0xbb,0x7f,0xf6,0x1,0x3c,0x55,0x43,0x6,0xbc,0x42,0xbc,0x9,0x3c,0xcb,0x5b,0xc,0xbc,0xcb,0x1d,0xe,0x3c,0x7e,0xff,0xe,0xbc,0x7e,0xff,0xe,0x3c,0xcb,0x1d,0xe,0xbc,0xcb,0x5b,0xc,0x3c,0x42,0xbc,0x9,0xbc,0x55,0x43,0x6,0x3c,0x7f,0xf6,0x1,0xbc,0x11,0xb9,0xf9,0x3b,0x1,0xfb,0xed,0xbb,0x54,0xc5,0xe0,0x3b,0xe4,0x2c,0xd2,0xbb,0xbc,0x48,0xc2,0x3b,0xee,0x31,0xb1,0xbb,0x74,0x3,0x9f,0x3b,0x0,0xda,0x8b,0xbb,0xa3,0xa7,0x6f,0x3b,0x4,0x21,0x46,0xbb,0xb0,0x61,0x1b,0x3b,0x39,0x5a,0xdf,0xba,0x8e,0x90,0x86,0x3a,0xff,0xc9,0xb3,0xb9,0xc0,0xf4,0xff,0xff,0xc4,0xf4,0xff,0xff,0xf,0x0,0x0,0x0,0x4d,0x4c,0x49,0x52,0x20,0x43,0x6f,0x6e,0x76,0x65,0x72,0x74,0x65,0x64,0x2e,0x0,0x1,0x0,0x0,0x0,0x14,0x0,0x0,0x0,0x0,0x0,0xe,0x0,0x18,0x0,0x14,0x0,0x10,0x0,0xc,0x0,0x8,0x0,0x4,0x0,0xe,0x0,0x0,0x0,0x14,0x0,0x0,0x0,0x1c,0x0,0x0,0x0,0xac,0x3,0x0,0x0,0xb0,0x3,0x0,0x0,0xb4,0x3,0x0,0x0,0x4,0x0,0x0,0x0,0x6d,0x61,0x69,0x6e,0x0,0x0,0x0,0x0,0xe,0x0,0x0,0x0,0x58,0x3,0x0,0x0,0x20,0x3,0x0,0x0,0xdc,0x2,0x0,0x0,0x80,0x2,0x0,0x0,0x28,0x2,0x0,0x0,0x4,0x2,0x0,0x0,0xd8,0x1,0x0,0x0,0xa0,0x1,0x0,0x0,0x6c,0x1,0x0,0x0,0x14,0x1,0x0,0x0,0xdc,0x0,0x0,0x0,0x80,0x0,0x0,0x0,0x5c,0x0,0x0,0x0,0x14,0x0,0x0,0x0,0x0,0x0,0xe,0x0,0x1a,0x0,0x14,0x0,0x10,0x0,0xc,0x0,0xb,0x0,0x4,0x0,0xe,0x0,0x0,0x0,0x20,0x0,0x0,0x0,0x0,0x0,0x0,0x8,0x20,0x0,0x0,0x0,0x24,0x0,0x0,0x0,0xb,0x0,0x0,0x0,0x0,0x0,0xa,0x0,0x8,0x0,0x0,0x0,0x0,0x0,0x7,0x0,0xa,0x0,0x0,0x0,0x0,0x0,0x0,0x1,0x1,0x0,0x0,0x0,0x1b,0x0,0x0,0x0,0x3,0x0,0x0,0x0,0x1a,0x0,0x0,0x0,0x1,0x0,0x0,0x0,0xff,0xff,0xff,0xff,0x72,0xfd,0xff,0xff,0xc,0x0,0x0,0x0,0x10,0x0,0x0,0x0,0x5,0x0,0x0,0x0,0x1,0x0,0x0,0x0,0x1a,0x0,0x0,0x0,0x1,0x0,0x0,0x0,0x19,0x0,0x0,0x0,0xd8,0xfd,0xff,0xff,0x10,0x0,0x0,0x0,0x40,0x0,0x0,0x0,0x44,0x0,0x0,0x0,0xa,0x0,0x0,0x0,0x30,0x0,0x0,0x0,0x69,0x6e,0x70,0x75,0x74,0x5f,0x63,0x6f,0x72,0x72,0x65,0x63,0x74,0x69,0x6f,0x6e,0x5f,0x62,0x69,0x74,0x73,0x0,0x6f,0x75,0x74,0x70,0x75,0x74,0x5f,0x73,0x63,0x61,0x6c,0x65,0x0,0x2,0x24,0xf,0x2,0x1,0x2,0x3,0x40,0x4,0x4,0x4,0x24,0x1,0x1,0x0,0x0,0x0,0x19,0x0,0x0,0x0,0x1,0x0,0x0,0x0,0x18,0x0,0x0,0x0,0x30,0xfe,0xff,0xff,0x10,0x0,0x0,0x0,0x18,0x0,0x0,0x0,0x1c,0x0,0x0,0x0,0x9,0x0,0x0,0x0,0x7,0x0,0x0,0x0,0x0,0x0,0x1,0x0,0x0,0x24,0x1,0x0,0x1,0x0,0x0,0x0,0x18,0x0,0x0,0x0,0x2,0x0,0x0,0x0,0x17,0x0,0x0,0x0,0x10,0x0,0x0,0x0,0x64,0xfe,0xff,0xff,0x10,0x0,0x0,0x0,0x28,0x0,0x0,0x0,0x2c,0x0,0x0,0x0,0x8,0x0,0x0,0x0,0x17,0x0,0x0,0x0,0x6e,0x75,0x6d,0x5f,0x63,0x68,0x61,0x6e,0x6e,0x65,0x6c,0x73,0x0,0x1,0xe,0x1,0x1,0x1,0x28,0x4,0x2,0x24,0x1,0x0,0x1,0x0,0x0,0x0,0x17,0x0,0x0,0x0,0x6,0x0,0x0,0x0,0x16,0x0,0x0,0x0,0x8,0x0,0x0,0x0,0x9,0x0,0x0,0x0,0xa,0x0,0x0,0x0,0xb,0x0,0x0,0x0,0xc,0x0,0x0,0x0,0x72,0xfe,0xff,0xff,0xc,0x0,0x0,0x0,0x10,0x0,0x0,0x0,0x5,0x0,0x0,0x0,0x1,0x0,0x0,0x0,0x16,0x0,0x0,0x0,0x1,0x0,0x0,0x0,0x15,0x0,0x0,0x0,0x0,0x0,0xe,0x0,0x18,0x0,0x14,0x0,0x10,0x0,0xc,0x0,0xb,0x0,0x4,0x0,0xe,0x0,0x0,0x0,0x14,0x0,0x0,0x0,0x0,0x0,0x0,0xa,0x10,0x0,0x0,0x0,0x14,0x0,0x0,0x0,0x7,0x0,0x0,0x0,0xf0,0xf6,0xff,0xff,0x1,0x0,0x0,0x0,0x15,0x0,0x0,0x0,0x3,0x0,0x0,0x0,0x6,0x0,0x0,0x0,0x14,0x0,0x0,0x0,0x5,0x0,0x0,0x0,0xd6,0xfe,0xff,0xff,0xc,0x0,0x0,0x0,0x10,0x0,0x0,0x0,0x6,0x0,0x0,0x0,0x1,0x0,0x0,0x0,0x14,0x0,0x0,0x0,0x3,0x0,0x0,0x0,0x13,0x0,0x0,0x0,0x3,0x0,0x0,0x0,0x2,0x0,0x0,0x0,0xfe,0xfe,0xff,0xff,0xc,0x0,0x0,0x0,0x10,0x0,0x0,0x0,0x5,0x0,0x0,0x0,0x1,0x0,0x0,0x0,0x13,0x0,0x0,0x0,0x1,0x0,0x0,0x0,0x12,0x0,0x0,0x0,0x64,0xff,0xff,0xff,0x10,0x0,0x0,0x0,0x3c,0x0,0x0,0x0,0x40,0x0,0x0,0x0,0x4,0x0,0x0,0x0,0x29,0x0,0x0,0x0,0x65,0x6e,0x64,0x5f,0x69,0x6e,0x64,0x65,0x78,0x0,0x73,0x74,0x61,0x72,0x74,0x5f,0x69,0x6e,0x64,0x65,0x78,0x0,0x2,0x17,0xe,0x0,0x3,0x0,0x1,0x0,0x2,0x0,0xfd,0x0,0x1,0x0,0x5,0x5,0x6,0x25,0x1,0x0,0x0,0x0,0x1,0x0,0x0,0x0,0x12,0x0,0x0,0x0,0x1,0x0,0x0,0x0,0x11,0x0,0x0,0x0,0xb8,0xff,0xff,0xff,0x10,0x0,0x0,0x0,0x30,0x0,0x0,0x0,0x34,0x0,0x0,0x0,0x3,0x0,0x0,0x0,0x1f,0x0,0x0,0x0,0x54,0x0,0x66,0x66,0x74,0x5f,0x6c,0x65,0x6e,0x67,0x74,0x68,0x0,0x2,0xe,0xd,0x2,0x0,0x1,0x0,0x2,0x0,0x7,0x0,0x0,0x2,0x5,0x5,0x6,0x25,0x1,0x0,0x1,0x0,0x0,0x0,0x11,0x0,0x0,0x0,0x1,0x0,0x0,0x0,0xf,0x0,0x0,0x0,0x10,0x0,0x14,0x0,0x10,0x0,0xc,0x0,0x8,0x0,0x0,0x0,0x0,0x0,0x4,0x0,0x10,0x0,0x0,0x0,0x10,0x0,0x0,0x0,0x18,0x0,0x0,0x0,0x20,0x0,0x0,0x0,0x2,0x0,0x0,0x0,0x7,0x0,0x0,0x0,0x0,0x0,0x1,0x0,0x0,0x24,0x1,0x0,0x2,0x0,0x0,0x0,0xf,0x0,0x0,0x0,0x10,0x0,0x0,0x0,0x1,0x0,0x0,0x0,0xe,0x0,0x0,0x0,0x0,0x0,0xa,0x0,0x10,0x0,0xc,0x0,0x8,0x0,0x4,0x0,0xa,0x0,0x0,0x0,0xc,0x0,0x0,0x0,0x10,0x0,0x0,0x0,0x1,0x0,0x0,0x0,0x1,0x0,0x0,0x0,0xe,0x0,0x0,0x0,0x2,0x0,0x0,0x0,0xd,0x0,0x0,0x0,0x7,0x0,0x0,0x0,0x10,0x0,0x10,0x0,0x0,0x0,0xc,0x0,0x8,0x0,0x0,0x0,0x0,0x0,0x4,0x0,0x10,0x0,0x0,0x0,0xc,0x0,0x0,0x0,0x1c,0x0,0x0,0x0,0x20,0x0,0x0,0x0,0x10,0x0,0x0,0x0,0x73,0x68,0x69,0x66,0x74,0x0,0x1,0x7,0x1,0x1,0x1,0xc,0x4,0x2,0x24,0x1,0x1,0x0,0x0,0x0,0xd,0x0,0x0,0x0,0x2,0x0,0x0,0x0,0x0,0x0,0x0,0x0,0x4,0x0,0x0,0x0,0x1,0x0,0x0,0x0,0x1b,0x0,0x0,0x0,0x1,0x0,0x0,0x0,0x0,0x0,0x0,0x0,0x1c,0x0,0x0,0x0,0x24,0x7,0x0,0x0,0xcc,0x6,0x0,0x0,0x74,0x6,0x0,0x0,0x34,0x6,0x0,0x0,0xfc,0x5,0x0,0x0,0xbc,0x5,0x0,0x0,0x7c,0x5,0x0,0x0,0x3c,0x5,0x0,0x0,0xf0,0x4,0x0,0x0,0xa4,0x4,0x0,0x0,0x58,0x4,0x0,0x0,0xc,0x4,0x0,0x0,0xc0,0x3,0x0,0x0,0x7c,0x3,0x0,0x0,0x44,0x3,0x0,0x0,0xfc,0x2,0x0,0x0,0xb8,0x2,0x0,0x0,0x7c,0x2,0x0,0x0,0x3c,0x2,0x0,0x0,0x4,0x2,0x0,0x0,0xc4,0x1,0x0,0x0,0x8c,0x1,0x0,0x0,0x54,0x1,0x0,0x0,0x10,0x1,0x0,0x0,0xc0,0x0,0x0,0x0,0x78,0x0,0x0,0x0,0x44,0x0,0x0,0x0,0x4,0x0,0x0,0x0,0xb6,0xf9,0xff,0xff,0x0,0x0,0x0,0x1,0x10,0x0,0x0,0x0,0x10,0x0,0x0,0x0,0x1c,0x0,0x0,0x0,0x20,0x0,0x0,0x0,0x48,0xf9,0xff,0xff,0x11,0x0,0x0,0x0,0x50,0x61,0x72,0x74,0x69,0x74,0x69,0x6f,0x6e,0x65,0x64,0x43,0x61,0x6c,0x6c,0x3a,0x30,0x0,0x0,0x0,0x1,0x0,0x0,0x0,0x28,0x0,0x0,0x0,0xf2,0xf9,0xff,0xff,0x0,0x0,0x0,0x1,0x10,0x0,0x0,0x0,0x10,0x0,0x0,0x0,0x1b,0x0,0x0,0x0,0x14,0x0,0x0,0x0,0x84,0xf9,0xff,0xff,0x6,0x0,0x0,0x0,0x43,0x61,0x73,0x74,0x5f,0x32,0x0,0x0,0x1,0x0,0x0,0x0,0x28,0x0,0x0,0x0,0xce,0xf9,0xff,0xff,0x0,0x0,0x0,0x1,0x14,0x0,0x0,0x0,0x14,0x0,0x0,0x0,0x1a,0x0,0x0,0x0,0x0,0x0,0x0,0x7,0x24,0x0,0x0,0x0,0xb8,0xf9,0xff,0xff,0x16,0x0,0x0,0x0,0x73,0x69,0x67,0x6e,0x61,0x6c,0x5f,0x66,0x69,0x6c,0x74,0x65,0x72,0x5f,0x62,0x61,0x6e,0x6b,0x5f,0x6c,0x6f,0x67,0x0,0x0,0x1,0x0,0x0,0x0,0x28,0x0,0x0,0x0,0x12,0xfa,0xff,0xff,0x0,0x0,0x0,0x1,0x14,0x0,0x0,0x0,0x14,0x0,0x0,0x0,0x19,0x0,0x0,0x0,0x0,0x0,0x0,0xf,0x2c,0x0,0x0,0x0,0xfc,0xf9,0xff,0xff,0x1e,0x0,0x0,0x0,0x73,0x69,0x67,0x6e,0x61,0x6c,0x5f,0x66,0x69,0x6c,0x74,0x65,0x72,0x5f,0x62,0x61,0x6e,0x6b,0x5f,0x73,0x71,0x75,0x61,0x72,0x65,0x5f,0x72,0x6f,0x6f,0x74,0x0,0x0,0x1,0x0,0x0,0x0,0x28,0x0,0x0,0x0,0x5e,0xfa,0xff,0xff,0x0,0x0,0x0,0x1,0x14,0x0,0x0,0x0,0x14,0x0,0x0,0x0,0x18,0x0,0x0,0x0,0x0,0x0,0x0,0xc,0x20,0x0,0x0,0x0,0x48,0xfa,0xff,0xff,0x12,0x0,0x0,0x0,0x73,0x69,0x67,0x6e,0x61,0x6c,0x5f,0x66,0x69,0x6c,0x74,0x65,0x72,0x5f,0x62,0x61,0x6e,0x6b,0x0,0x0,0x1,0x0,0x0,0x0,0x28,0x0,0x0,0x0,0x9e,0xfa,0xff,0xff,0x0,0x0,0x0,0x1,0x14,0x0,0x0,0x0,0x14,0x0,0x0,0x0,0x17,0x0,0x0,0x0,0x0,0x0,0x0,0xf,0x14,0x0,0x0,0x0,0x88,0xfa,0xff,0xff,0x6,0x0,0x0,0x0,0x43,0x61,0x73,0x74,0x5f,0x31,0x0,0x0,0x1,0x0,0x0,0x0,0x1,0x1,0x0,0x0,0xd2,0xfa,0xff,0xff,0x0,0x0,0x0,0x1,0x14,0x0,0x0,0x0,0x14,0x0,0x0,0x0,0x16,0x0,0x0,0x0,0x0,0x0,0x0,0x2,0x14,0x0,0x0,0x0,0xbc,0xfa,0xff,0xff,0x6,0x0,0x0,0x0,0x63,0x6f,0x6e,0x63,0x61,0x74,0x0,0x0,0x1,0x0,0x0,0x0,0x1,0x1,0x0,0x0,0x6,0xfb,0xff,0xff,0x0,0x0,0x0,0x1,0x14,0x0,0x0,0x0,0x14,0x0,0x0,0x0,0x15,0x0,0x0,0x0,0x0,0x0,0x0,0x2,0x1c,0x0,0x0,0x0,0xf0,0xfa,0xff,0xff,0xe,0x0,0x0,0x0,0x73,0x74,0x72,0x69,0x64,0x65,0x64,0x5f,0x73,0x6c,0x69,0x63,0x65,0x3b,0x0,0x0,0x1,0x0,0x0,0x0,0xfc,0x0,0x0,0x0,0x42,0xfb,0xff,0xff,0x0,0x0,0x0,0x1,0x14,0x0,0x0,0x0,0x14,0x0,0x0,0x0,0x14,0x0,0x0,0x0,0x0,0x0,0x0,0x2,0x14,0x0,0x0,0x0,0x2c,0xfb,0xff,0xff,0x4,0x0,0x0,0x0,0x43,0x61,0x73,0x74,0x0,0x0,0x0,0x0,0x1,0x0,0x0,0x0,0x1,0x1,0x0,0x0,0x76,0xfb,0xff,0xff,0x0,0x0,0x0,0x1,0x14,0x0,0x0,0x0,0x14,0x0,0x0,0x0,0x13,0x0,0x0,0x0,0x0,0x0,0x0,0xf,0x1c,0x0,0x0,0x0,0x60,0xfb,0xff,0xff,0xd,0x0,0x0,0x0,0x73,0x69,0x67,0x6e,0x61,0x6c,0x5f,0x65,0x6e,0x65,0x72,0x67,0x79,0x0,0x0,0x0,0x1,0x0,0x0,0x0,0x1,0x1,0x0,0x0,0xb2,0xfb,0xff,0xff,0x0,0x0,0x0,0x1,0x14,0x0,0x0,0x0,0x14,0x0,0x0,0x0,0x12,0x0,0x0,0x0,0x0,0x0,0x0,0x7,0x18,0x0,0x0,0x0,0x9c,0xfb,0xff,0xff,0xb,0x0,0x0,0x0,0x73,0x69,0x67,0x6e,0x61,0x6c,0x5f,0x72,0x66,0x66,0x74,0x0,0x1,0x0,0x0,0x0,0x2,0x2,0x0,0x0,0xea,0xfb,0xff,0xff,0x0,0x0,0x0,0x1,0x14,0x0,0x0,0x0,0x14,0x0,0x0,0x0,0x11,0x0,0x0,0x0,0x0,0x0,0x0,0x2,0x24,0x0,0x0,0x0,0xd4,0xfb,0xff,0xff,0x16,0x0,0x0,0x0,0x73,0x69,0x67,0x6e,0x61,0x6c,0x5f,0x66,0x66,0x74,0x5f,0x61,0x75,0x74,0x6f,0x5f,0x73,0x63,0x61,0x6c,0x65,0x31,0x0,0x0,0x0,0x0,0x0,0x0,0x2a,0xfc,0xff,0xff,0x0,0x0,0x0,0x1,0x14,0x0,0x0,0x0,0x14,0x0,0x0,0x0,0x10,0x0,0x0,0x0,0x0,0x0,0x0,0x7,0x24,0x0,0x0,0x0,0x14,0xfc,0xff,0xff,0x15,0x0,0x0,0x0,0x73,0x69,0x67,0x6e,0x61,0x6c,0x5f,0x66,0x66,0x74,0x5f,0x61,0x75,0x74,0x6f,0x5f,0x73,0x63,0x61,0x6c,0x65,0x0,0x0,0x0,0x1,0x0,0x0,0x0,0xe0,0x1,0x0,0x0,0x6e,0xfc,0xff,0xff,0x0,0x0,0x0,0x1,0x14,0x0,0x0,0x0,0x14,0x0,0x0,0x0,0xf,0x0,0x0,0x0,0x0,0x0,0x0,0x7,0x14,0x0,0x0,0x0,0x58,0xfc,0xff,0xff,0x7,0x0,0x0,0x0,0x52,0x65,0x73,0x68,0x61,0x70,0x65,0x0,0x1,0x0,0x0,0x0,0xe0,0x1,0x0,0x0,0xa2,0xfc,0xff,0xff,0x0,0x0,0x0,0x1,0x14,0x0,0x0,0x0,0x14,0x0,0x0,0x0,0xe,0x0,0x0,0x0,0x0,0x0,0x0,0x7,0x1c,0x0,0x0,0x0,0x8c,0xfc,0xff,0xff,0xd,0x0,0x0,0x0,0x73,0x69,0x67,0x6e,0x61,0x6c,0x5f,0x77,0x69,0x6e,0x64,0x6f,0x77,0x0,0x0,0x0,0x2,0x0,0x0,0x0,0x1,0x0,0x0,0x0,0xe0,0x1,0x0,0x0,0xe2,0xfc,0xff,0xff,0x0,0x0,0x0,0x1,0x14,0x0,0x0,0x0,0x14,0x0,0x0,0x0,0xd,0x0,0x0,0x0,0x0,0x0,0x0,0x7,0x28,0x0,0x0,0x0,0xcc,0xfc,0xff,0xff,0x1a,0x0,0x0,0x0,0x73,0x69,0x67,0x6e,0x61,0x6c,0x5f,0x66,0x69,0x6c,0x74,0x65,0x72,0x5f,0x62,0x61,0x6e,0x6b,0x2f,0x43,0x6f,0x6e,0x73,0x74,0x5f,0x34,0x0,0x0,0x1,0x0,0x0,0x0,0x29,0x0,0x0,0x0,0x2a,0xfd,0xff,0xff,0x0,0x0,0x0,0x1,0x14,0x0,0x0,0x0,0x14,0x0,0x0,0x0,0xc,0x0,0x0,0x0,0x0,0x0,0x0,0x7,0x28,0x0,0x0,0x0,0x14,0xfd,0xff,0xff,0x1a,0x0,0x0,0x0,0x73,0x69,0x67,0x6e,0x61,0x6c,0x5f,0x66,0x69,0x6c,0x74,0x65,0x72,0x5f,0x62,0x61,0x6e,0x6b,0x2f,0x43,0x6f,0x6e,0x73,0x74,0x5f,0x33,0x0,0x0,0x1,0x0,0x0,0x0,0x29,0x0,0x0,0x0,0x72,0xfd,0xff,0xff,0x0,0x0,0x0,0x1,0x14,0x0,0x0,0x0,0x14,0x0,0x0,0x0,0xb,0x0,0x0,0x0,0x0,0x0,0x0,0x7,0x28,0x0,0x0,0x0,0x5c,0xfd,0xff,0xff,0x1a,0x0,0x0,0x0,0x73,0x69,0x67,0x6e,0x61,0x6c,0x5f,0x66,0x69,0x6c,0x74,0x65,0x72,0x5f,0x62,0x61,0x6e,0x6b,0x2f,0x43,0x6f,0x6e,0x73,0x74,0x5f,0x32,0x0,0x0,0x1,0x0,0x0,0x0,0x29,0x0,0x0,0x0,0xba,0xfd,0xff,0xff,0x0,0x0,0x0,0x1,0x14,0x0,0x0,0x0,0x14,0x0,0x0,0x0,0xa,0x0,0x0,0x0,0x0,0x0,0x0,0x7,0x28,0x0,0x0,0x0,0xa4,0xfd,0xff,0xff,0x1a,0x0,0x0,0x0,0x73,0x69,0x67,0x6e,0x61,0x6c,0x5f,0x66,0x69,0x6c,0x74,0x65,0x72,0x5f,0x62,0x61,0x6e,0x6b,0x2f,0x43,0x6f,0x6e,0x73,0x74,0x5f,0x31,0x0,0x0,0x1,0x0,0x0,0x0,0x50,0x1,0x0,0x0,0x2,0xfe,0xff,0xff,0x0,0x0,0x0,0x1,0x14,0x0,0x0,0x0,0x14,0x0,0x0,0x0,0x9,0x0,0x0,0x0,0x0,0x0,0x0,0x7,0x28,0x0,0x0,0x0,0xec,0xfd,0xff,0xff,0x18,0x0,0x0,0x0,0x73,0x69,0x67,0x6e,0x61,0x6c,0x5f,0x66,0x69,0x6c,0x74,0x65,0x72,0x5f,0x62,0x61,0x6e,0x6b,0x2f,0x43,0x6f,0x6e,0x73,0x74,0x0,0x0,0x0,0x0,0x1,0x0,0x0,0x0,0x50,0x1,0x0,0x0,0x4a,0xfe,0xff,0xff,0x0,0x0,0x0,0x1,0x14,0x0,0x0,0x0,0x14,0x0,0x0,0x0,0x8,0x0,0x0,0x0,0x0,0x0,0x0,0x2,0x1c,0x0,0x0,0x0,0x34,0xfe,0xff,0xff,0xf,0x0,0x0,0x0,0x61,0x72,0x69,0x74,0x68,0x2e,0x63,0x6f,0x6e,0x73,0x74,0x61,0x6e,0x74,0x35,0x0,0x1,0x0,0x0,0x0,0x1,0x0,0x0,0x0,0x86,0xfe,0xff,0xff,0x0,0x0,0x0,0x1,0x14,0x0,0x0,0x0,0x14,0x0,0x0,0x0,0x7,0x0,0x0,0x0,0x0,0x0,0x0,0x2,0x1c,0x0,0x0,0x0,0x70,0xfe,0xff,0xff,0xf,0x0,0x0,0x0,0x61,0x72,0x69,0x74,0x68,0x2e,0x63,0x6f,0x6e,0x73,0x74,0x61,0x6e,0x74,0x34,0x0,0x1,0x0,0x0,0x0,0x1,0x0,0x0,0x0,0xc2,0xfe,0xff,0xff,0x0,0x0,0x0,0x1,0x14,0x0,0x0,0x0,0x14,0x0,0x0,0x0,0x6,0x0,0x0,0x0,0x0,0x0,0x0,0x2,0x1c,0x0,0x0,0x0,0xac,0xfe,0xff,0xff,0xf,0x0,0x0,0x0,0x61,0x72,0x69,0x74,0x68,0x2e,0x63,0x6f,0x6e,0x73,0x74,0x61,0x6e,0x74,0x33,0x0,0x1,0x0,0x0,0x0,0x4,0x0,0x0,0x0,0xfe,0xfe,0xff,0xff,0x0,0x0,0x0,0x1,0x14,0x0,0x0,0x0,0x14,0x0,0x0,0x0,0x5,0x0,0x0,0x0,0x0,0x0,0x0,0x7,0x14,0x0,0x0,0x0,0xe8,0xfe,0xff,0xff,0x7,0x0,0x0,0x0,0x43,0x6f,0x6e,0x73,0x74,0x5f,0x31,0x0,0x1,0x0,0x0,0x0,0xe0,0x1,0x0,0x0,0x32,0xff,0xff,0xff,0x0,0x0,0x0,0x1,0x14,0x0,0x0,0x0,0x14,0x0,0x0,0x0,0x4,0x0,0x0,0x0,0x0,0x0,0x0,0x2,0x1c,0x0,0x0,0x0,0x1c,0xff,0xff,0xff,0xf,0x0,0x0,0x0,0x61,0x72,0x69,0x74,0x68,0x2e,0x63,0x6f,0x6e,0x73,0x74,0x61,0x6e,0x74,0x32,0x0,0x1,0x0,0x0,0x0,0x1,0x0,0x0,0x0,0x6e,0xff,0xff,0xff,0x0,0x0,0x0,0x1,0x14,0x0,0x0,0x0,0x14,0x0,0x0,0x0,0x3,0x0,0x0,0x0,0x0,0x0,0x0,0x2,0x1c,0x0,0x0,0x0,0x58,0xff,0xff,0xff,0xf,0x0,0x0,0x0,0x61,0x72,0x69,0x74,0x68,0x2e,0x63,0x6f,0x6e,0x73,0x74,0x61,0x6e,0x74,0x31,0x0,0x1,0x0,0x0,0x0,0x1,0x0,0x0,0x0,0x0,0x0,0x16,0x0,0x18,0x0,0x14,0x0,0x0,0x0,0x10,0x0,0xc,0x0,0x8,0x0,0x0,0x0,0x0,0x0,0x0,0x0,0x7,0x0,0x16,0x0,0x0,0x0,0x0,0x0,0x0,0x1,0x10,0x0,0x0,0x0,0x10,0x0,0x0,0x0,0x2,0x0,0x0,0x0,0x1c,0x0,0x0,0x0,0xa8,0xff,0xff,0xff,0xe,0x0,0x0,0x0,0x61,0x72,0x69,0x74,0x68,0x2e,0x63,0x6f,0x6e,0x73,0x74,0x61,0x6e,0x74,0x0,0x0,0x2,0x0,0x0,0x0,0x28,0x0,0x0,0x0,0x28,0x0,0x0,0x0,0x0,0x0,0x16,0x0,0x1c,0x0,0x18,0x0,0x17,0x0,0x10,0x0,0xc,0x0,0x8,0x0,0x0,0x0,0x0,0x0,0x0,0x0,0x7,0x0,0x16,0x0,0x0,0x0,0x0,0x0,0x0,0x1,0x18,0x0,0x0,0x0,0x18,0x0,0x0,0x0,0x1,0x0,0x0,0x0,0x0,0x0,0x0,0x7,0x30,0x0,0x0,0x0,0x4,0x0,0x4,0x0,0x4,0x0,0x0,0x0,0x1d,0x0,0x0,0x0,0x73,0x65,0x72,0x76,0x69,0x6e,0x67,0x5f,0x64,0x65,0x66,0x61,0x75,0x6c,0x74,0x5f,0x61,0x75,0x64,0x69,0x6f,0x5f,0x66,0x72,0x61,0x6d,0x65,0x3a,0x30,0x0,0x0,0x0,0x2,0x0,0x0,0x0,0x1,0x0,0x0,0x0,0xe0,0x1,0x0,0x0,0xc,0x0,0x0,0x0,0x84,0x1,0x0,0x0,0x68,0x1,0x0,0x0,0x30,0x1,0x0,0x0,0xc,0x1,0x0,0x0,0xe4,0x0,0x0,0x0,0xd0,0x0,0x0,0x0,0xb4,0x0,0x0,0x0,0xa4,0x0,0x0,0x0,0x78,0x0,0x0,0x0,0x44,0x0,0x0,0x0,0x18,0x0,0x0,0x0,0x4,0x0,0x0,0x0,0x58,0xff,0xff,0xff,0x9,0x0,0x0,0x0,0x5,0x0,0x0,0x0,0x0,0x0,0x0,0x9,0xc8,0xfe,0xff,0xff,0x20,0x0,0x0,0x0,0x8,0x0,0x0,0x0,0x0,0x0,0x0,0x20,0x13,0x0,0x0,0x0,0x53,0x69,0x67,0x6e,0x61,0x6c,0x46,0x69,0x6c,0x74,0x65,0x72,0x42,0x61,0x6e,0x6b,0x4c,0x6f,0x67,0x0,0xf0,0xfe,0xff,0xff,0x20,0x0,0x0,0x0,0x8,0x0,0x0,0x0,0x0,0x0,0x0,0x20,0x1a,0x0,0x0,0x0,0x53,0x69,0x67,0x6e,0x61,0x6c,0x46,0x69,0x6c,0x74,0x65,0x72,0x42,0x61,0x6e,0x6b,0x53,0x71,0x75,0x61,0x72,0x65,0x52,0x6f,0x6f,0x74,0x0,0x0,0x20,0xff,0xff,0xff,0x20,0x0,0x0,0x0,0x8,0x0,0x0,0x0,0x0,0x0,0x0,0x20,0x10,0x0,0x0,0x0,0x53,0x69,0x67,0x6e,0x61,0x6c,0x46,0x69,0x6c,0x74,0x65,0x72,0x42,0x61,0x6e,0x6b,0x0,0x0,0x0,0x0,0x60,0xff,0xff,0xff,0x2,0x0,0x0,0x0,0x0,0x0,0x0,0x2,0x6c,0xff,0xff,0xff,0x41,0x0,0x0,0x0,0x0,0x0,0x0,0x41,0xc,0x0,0x10,0x0,0xf,0x0,0x0,0x0,0x8,0x0,0x4,0x0,0xc,0x0,0x0,0x0,0x35,0x0,0x0,0x0,0x2,0x0,0x0,0x0,0x0,0x0,0x0,0x35,0x7c,0xff,0xff,0xff,0x20,0x0,0x0,0x0,0x8,0x0,0x0,0x0,0x0,0x0,0x0,0x20,0xc,0x0,0x0,0x0,0x53,0x69,0x67,0x6e,0x61,0x6c,0x45,0x6e,0x65,0x72,0x67,0x79,0x0,0x0,0x0,0x0,0xa0,0xff,0xff,0xff,0x20,0x0,0x0,0x0,0x8,0x0,0x0,0x0,0x0,0x0,0x0,0x20,0xa,0x0,0x0,0x0,0x53,0x69,0x67,0x6e,0x61,0x6c,0x52,0x66,0x66,0x74,0x0,0x0,0xc0,0xff,0xff,0xff,0x20,0x0,0x0,0x0,0x8,0x0,0x0,0x0,0x0,0x0,0x0,0x20,0x12,0x0,0x0,0x0,0x53,0x69,0x67,0x6e,0x61,0x6c,0x46,0x66,0x74,0x41,0x75,0x74,0x6f,0x53,0x63,0x61,0x6c,0x65,0x0,0x0,0xc,0x0,0xc,0x0,0xb,0x0,0x0,0x0,0x0,0x0,0x4,0x0,0xc,0x0,0x0,0x0,0x16,0x0,0x0,0x0,0x0,0x0,0x0,0x16,0xc,0x0,0x10,0x0,0xf,0x0,0x8,0x0,0x0,0x0,0x4,0x0,0xc,0x0,0x0,0x0,0x20,0x0,0x0,0x0,0x8,0x0,0x0,0x0,0x0,0x0,0x0,0x20,0xc,0x0,0x0,0x0,0x53,0x69,0x67,0x6e,0x61,0x6c,0x57,0x69,0x6e,0x64,0x6f,0x77,0x0,0x0,0x0,0x0};
