#include <cstdint>

#include "model_post_ssm_int8_model_data.h"

alignas(16) const unsigned char g_model_post_ssm_int8_model_data[] = {0x28,0x0,0x0,0x0,0x54,0x46,0x4c,0x33,0x0,0x0,0x0,0x0,0x0,0x0,0x0,0x0,0x0,0x0,0x0,0x0,0x0,0x0,0x12,0x0,0x18,0x0,0x4,0x0,0x8,0x0,0xc,0x0,0x0,0x0,0x10,0x0,0x0,0x0,0x14,0x0,0x12,0x0,0x0,0x0,0x3,0x0,0x0,0x0,0x50,0x2d,0x0,0x0,0x30,0x24,0x0,0x0,0x68,0x0,0x0,0x0,0x4,0x0,0x0,0x0,0x2,0x0,0x0,0x0,0x38,0x0,0x0,0x0,0x4,0x0,0x0,0x0,0xd8,0xff,0xff,0xff,0x8,0x0,0x0,0x0,0xb,0x0,0x0,0x0,0x17,0x0,0x0,0x0,0x6b,0x65,0x65,0x70,0x5f,0x73,0x74,0x61,0x62,0x6c,0x65,0x68,0x6c,0x6f,0x5f,0x63,0x6f,0x6e,0x73,0x74,0x61,0x6e,0x74,0x0,0x8,0x0,0xc,0x0,0x4,0x0,0x8,0x0,0x8,0x0,0x0,0x0,0x8,0x0,0x0,0x0,0xa,0x0,0x0,0x0,0x13,0x0,0x0,0x0,0x6d,0x69,0x6e,0x5f,0x72,0x75,0x6e,0x74,0x69,0x6d,0x65,0x5f,0x76,0x65,0x72,0x73,0x69,0x6f,0x6e,0x0,0xc,0x0,0x0,0x0,0xbc,0x23,0x0,0x0,0x2c,0x22,0x0,0x0,0x8,0x2,0x0,0x0,0xf4,0x1,0x0,0x0,0xd0,0x1,0x0,0x0,0xbc,0x0,0x0,0x0,0xa8,0x0,0x0,0x0,0x84,0x0,0x0,0x0,0x60,0x0,0x0,0x0,0x3c,0x0,0x0,0x0,0x18,0x0,0x0,0x0,0x4,0x0,0x0,0x0,0x6,0xde,0xff,0xff,0x4,0x0,0x0,0x0,0x4,0x0,0x0,0x0,0x74,0x72,0x75,0x65,0x16,0xde,0xff,0xff,0x4,0x0,0x0,0x0,0x10,0x0,0x0,0x0,0x32,0x2e,0x30,0x2e,0x30,0x0,0x0,0x0,0x0,0x0,0x0,0x0,0x0,0x0,0x0,0x0,0x0,0x0,0x0,0x0,0x36,0xde,0xff,0xff,0x4,0x0,0x0,0x0,0x8,0x0,0x0,0x0,0x3,0x0,0x0,0x0,0x2,0x0,0x0,0x0,0x0,0x0,0x0,0x0,0x0,0x0,0x0,0x0,0x0,0x0,0x0,0x0,0x56,0xde,0xff,0xff,0x4,0x0,0x0,0x0,0xc,0x0,0x0,0x0,0x0,0x0,0x0,0x0,0x2,0x0,0x0,0x0,0x1,0x0,0x0,0x0,0x0,0x0,0x0,0x0,0x0,0x0,0x0,0x0,0x76,0xde,0xff,0xff,0x4,0x0,0x0,0x0,0x10,0x0,0x0,0x0,0x1,0x0,0x0,0x0,0x40,0x0,0x0,0x0,0x1,0x0,0x0,0x0,0xa,0x0,0x0,0x0,0x0,0x0,0x0,0x0,0x96,0xde,0xff,0xff,0x4,0x0,0x0,0x0,0x4,0x0,0x0,0x0,0x40,0x0,0x0,0x0,0xa6,0xde,0xff,0xff,0x4,0x0,0x0,0x0,0x0,0x1,0x0,0x0,0x0,0x0,0x0,0x0,0x1,0x0,0x0,0x0,0x2,0x0,0x0,0x0,0x3,0x0,0x0,0x0,0x4,0x0,0x0,0x0,0x5,0x0,0x0,0x0,0x6,0x0,0x0,0x0,0x7,0x0,0x0,0x0,0x8,0x0,0x0,0x0,0x9,0x0,0x0,0x0,0xa,0x0,0x0,0x0,0xb,0x0,0x0,0x0,0xc,0x0,0x0,0x0,0xd,0x0,0x0,0x0,0xe,0x0,0x0,0x0,0xf,0x0,0x0,0x0,0x10,0x0,0x0,0x0,0x11,0x0,0x0,0x0,0x12,0x0,0x0,0x0,0x13,0x0,0x0,0x0,0x14,0x0,0x0,0x0,0x15,0x0,0x0,0x0,0x16,0x0,0x0,0x0,0x17,0x0,0x0,0x0,0x18,0x0,0x0,0x0,0x19,0x0,0x0,0x0,0x1a,0x0,0x0,0x0,0x1b,0x0,0x0,0x0,0x1c,0x0,0x0,0x0,0x1d,0x0,0x0,0x0,0x1e,0x0,0x0,0x0,0x1f,0x0,0x0,0x0,0x20,0x0,0x0,0x0,0x21,0x0,0x0,0x0,0x22,0x0,0x0,0x0,0x23,0x0,0x0,0x0,0x24,0x0,0x0,0x0,0x25,0x0,0x0,0x0,0x26,0x0,0x0,0x0,0x27,0x0,0x0,0x0,0x28,0x0,0x0,0x0,0x29,0x0,0x0,0x0,0x2a,0x0,0x0,0x0,0x2b,0x0,0x0,0x0,0x2c,0x0,0x0,0x0,0x2d,0x0,0x0,0x0,0x2e,0x0,0x0,0x0,0x2f,0x0,0x0,0x0,0x30,0x0,0x0,0x0,0x31,0x0,0x0,0x0,0x32,0x0,0x0,0x0,0x33,0x0,0x0,0x0,0x34,0x0,0x0,0x0,0x35,0x0,0x0,0x0,0x36,0x0,0x0,0x0,0x37,0x0,0x0,0x0,0x38,0x0,0x0,0x0,0x39,0x0,0x0,0x0,0x3a,0x0,0x0,0x0,0x3b,0x0,0x0,0x0,0x3c,0x0,0x0,0x0,0x3d,0x0,0x0,0x0,0x3e,0x0,0x0,0x0,0x3f,0x0,0x0,0x0,0x0,0x0,0x0,0x0,0xb6,0xdf,0xff,0xff,0x4,0x0,0x0,0x0,0x8,0x0,0x0,0x0,0x1,0x0,0x0,0x0,0x40,0x0,0x0,0x0,0x0,0x0,0x0,0x0,0x0,0x0,0x0,0x0,0x0,0x0,0x0,0x0,0xd6,0xdf,0xff,0xff,0x4,0x0,0x0,0x0,0x1,0x0,0x0,0x0,0x7f,0x0,0x0,0x0,0xe6,0xdf,0xff,0xff,0x4,0x0,0x0,0x0,0x0,0x20,0x0,0x0,0xe4,0xe3,0xf8,0xc5,0xf,0xec,0xe2,0xdf,0x8,0xb9,0xe8,0x40,0xcb,0x14,0xdc,0xf2,0x28,0x93,0x5c,0xe9,0xa3,0xe8,0x5b,0x16,0xeb,0x4,0xd9,0x2b,0x23,0xef,0xfc,0xf6,0xfb,0xb,0x8,0x21,0xa,0x1,0x27,0xe,0x13,0xff,0xd8,0x38,0xdb,0xf5,0xc8,0xa6,0xe4,0xf1,0xf0,0xef,0xb3,0xfe,0xe8,0xe7,0x18,0xa6,0xf0,0xd8,0x2,0x4,0xc6,0x2c,0xe4,0xf4,0xe4,0x45,0xe9,0xce,0xd8,0xf2,0xca,0x1d,0xf7,0xf5,0xe4,0xb5,0xc5,0xf4,0xc7,0x2,0x5,0x1d,0xaa,0x32,0x11,0xf9,0xe4,0x2,0x7,0x0,0x45,0xf2,0x81,0x19,0xc7,0x7,0x2,0xf9,0x11,0xd,0x1f,0xec,0xb1,0x1e,0x4b,0xc,0x20,0xe8,0x63,0x11,0xda,0x2a,0x3f,0xdc,0x12,0x3f,0xdc,0xa,0x0,0x27,0xee,0xee,0x3c,0xb,0xd8,0xe,0xe4,0x1d,0x28,0x1c,0xd7,0xd6,0x10,0xf4,0x7,0x45,0x1a,0xed,0x69,0x20,0xca,0x22,0xfa,0xbe,0xf4,0x12,0xf6,0xdd,0x24,0xfd,0x47,0xe9,0x40,0xe0,0x13,0xce,0xe8,0xb5,0xb4,0xea,0x17,0x12,0x4e,0xfd,0xae,0xa,0xf9,0xd1,0x14,0x15,0x2f,0xf3,0x4a,0x3d,0x21,0xdc,0x3b,0xfe,0x2e,0xf4,0x3a,0x1a,0xf8,0x24,0xe4,0x99,0xda,0xe5,0x4b,0xf7,0xa,0xd8,0x9,0xe3,0xe0,0x2b,0x3f,0xeb,0x20,0xe8,0x27,0x10,0x1b,0x5f,0x3d,0xd4,0x48,0x21,0xd6,0xf9,0xf5,0x1,0xad,0xe1,0xd1,0x19,0xea,0xf1,0xcb,0xef,0x6d,0x10,0x3e,0xf5,0xd2,0xe2,0x19,0xf1,0xe7,0xc4,0x1f,0x6,0xd5,0x19,0xe9,0xd5,0x94,0x6,0xf9,0xc4,0xc8,0x2a,0xe6,0x10,0xc0,0xf4,0x1c,0xf2,0xf2,0x4,0x9d,0xe8,0x9,0x81,0x1e,0xee,0x33,0xb4,0x4,0x21,0xe1,0xcb,0xe7,0xc6,0x12,0x1f,0xc3,0xf,0xd2,0x1e,0xfd,0x2e,0x12,0xba,0xc,0xc5,0x21,0x19,0xaf,0xe,0xaa,0x24,0xf,0xec,0x1,0xfc,0x19,0x39,0xf5,0x40,0x8,0xdf,0x2,0x5c,0x31,0x1c,0xdc,0x48,0xb5,0xed,0x10,0xb6,0xb8,0x2,0xb5,0xe,0x81,0xfb,0x4,0xcf,0x0,0xfb,0x9,0x56,0x16,0x7,0xa9,0x13,0xe5,0xd8,0xc7,0x37,0xed,0xa7,0xfb,0xd5,0xe3,0xe1,0x3,0xc1,0xd5,0x8d,0x84,0xfa,0xc2,0xd3,0xf9,0x2f,0xe5,0x3a,0x47,0xc5,0x31,0xf6,0x42,0x2e,0x4d,0x1,0x9d,0x27,0xcc,0xf9,0xfd,0x29,0x27,0xf,0xbf,0x2,0xbb,0x3a,0xfe,0x4e,0x18,0x19,0x37,0x25,0xd4,0x2b,0x69,0xd3,0xf4,0x51,0xfb,0xf3,0xc0,0xe9,0xff,0x2c,0x15,0xe6,0xcb,0x66,0x20,0x15,0xf5,0x0,0xe9,0xe6,0xe6,0x2b,0xfc,0x47,0x7,0xbf,0x38,0xd,0xfc,0x1c,0x14,0xe4,0xd6,0x20,0x28,0x1b,0xe9,0x47,0x3f,0xf5,0xfb,0xff,0x10,0xeb,0xdd,0xfe,0xf7,0xf0,0xe3,0xe2,0xfa,0x18,0xdd,0x10,0xda,0xdc,0xf4,0xf4,0x3e,0xfb,0x13,0x54,0x4,0xf8,0x3b,0x9,0x46,0x21,0xdd,0x9,0xd8,0x1d,0xe3,0xf0,0x12,0xf2,0x19,0x7,0xf0,0xe8,0x1b,0xfa,0xfc,0x18,0x31,0xf,0x2b,0xed,0x1c,0x18,0xe5,0x4f,0x25,0x5,0x13,0xfb,0xda,0x9,0x3f,0xbc,0xd0,0x15,0xdb,0x1,0xfb,0xdc,0xf,0xb,0x37,0x13,0x17,0x14,0x32,0x1c,0xed,0xf3,0xfb,0xf2,0x1a,0xa,0xf1,0xee,0xe3,0xd1,0x81,0xed,0x22,0xc2,0xf3,0xfa,0xe1,0xb,0x5,0xd9,0xfc,0x7,0xe0,0xff,0xba,0x16,0x13,0xa5,0x7,0x8,0x14,0xe5,0xdf,0xf5,0x1b,0xf,0xc2,0xaf,0xd0,0xa,0xfa,0xfd,0xfb,0xe,0x7,0x22,0xe2,0xdc,0x3b,0xe2,0x2d,0x18,0xd8,0x1a,0xf3,0x15,0xed,0xd1,0x35,0xec,0xc8,0x5,0xfd,0x1f,0xc4,0x2e,0xed,0x1e,0xf8,0x22,0xc8,0x3d,0x81,0xe7,0x5,0xd5,0xb9,0x9,0xe5,0x1,0x99,0xe0,0x7,0xe8,0xed,0x2,0xf1,0x32,0xdb,0x9,0xfd,0x16,0x3,0xcd,0x0,0x18,0xce,0x15,0x37,0xeb,0xde,0x7,0x13,0xfb,0xe4,0xc0,0xbe,0xfd,0x13,0x1,0x10,0xe5,0xe0,0x6,0x13,0xff,0x6,0xfb,0xf1,0xf5,0x2c,0x22,0xd0,0x2e,0x14,0xa,0x1b,0x29,0xfc,0xd,0xe,0x1f,0xbd,0x0,0x21,0x7,0xf2,0xbb,0xc7,0x28,0xce,0xfd,0x3c,0x12,0x1d,0x8,0xeb,0xea,0xf9,0xd0,0x18,0x11,0x35,0xf6,0xeb,0xf7,0xc0,0x46,0x17,0x2b,0xc3,0xf4,0xdc,0x4,0xdf,0xe7,0x22,0xe7,0x3a,0xe4,0xe0,0x17,0xfa,0x96,0xdd,0xf0,0xc4,0xee,0x72,0xdd,0x2b,0xe5,0x42,0xda,0x26,0x3,0xef,0xb9,0xdf,0xc9,0x0,0x15,0x3a,0xdc,0xe1,0xd4,0xf,0xff,0xde,0x22,0x20,0x20,0x1b,0x2c,0xd5,0xf7,0xdf,0xe8,0x21,0x1e,0x2d,0xf4,0x1f,0xf6,0xe,0x81,0x6,0xd1,0x71,0xf4,0xec,0xc3,0xd2,0x9,0xf3,0x63,0x17,0xf2,0xc5,0x38,0x1d,0xd0,0x9,0x2f,0x18,0xef,0x39,0xf1,0x14,0xf8,0xe6,0x52,0xca,0xd,0x9d,0x1b,0xcf,0x25,0xba,0xb,0xe9,0x1b,0x1d,0x2f,0xcc,0xd5,0x23,0x11,0x1a,0xcb,0xe3,0x1a,0xf1,0x7,0x11,0xe4,0x32,0xf9,0xd8,0xdb,0x8,0xc,0xc4,0x25,0xb3,0x17,0xe8,0x1e,0xdf,0xf2,0xf4,0xf1,0xd8,0xad,0x26,0x1d,0x33,0xf2,0x15,0x25,0xd7,0xde,0xe1,0xcb,0xd1,0xff,0xe6,0x26,0xd,0x17,0xf3,0xb,0x50,0xfc,0xea,0xea,0x1a,0x6a,0xde,0xde,0xe5,0x2,0x6,0x4,0x26,0x34,0xb,0x30,0x2f,0x4,0xd5,0x9,0x40,0x30,0x20,0xf7,0xcc,0x8,0x9b,0x2,0xff,0xde,0xeb,0xfc,0xed,0xfd,0xed,0xef,0x10,0xf0,0xf1,0xd8,0xd4,0x4d,0xeb,0xed,0x98,0x23,0xfc,0x19,0xf7,0x27,0xff,0xa8,0xe4,0x9,0xcf,0xe6,0xe8,0x12,0xe9,0x9b,0xd0,0xff,0xfe,0xd8,0x14,0xa,0xed,0xef,0x3a,0xef,0x42,0xf4,0x10,0x6,0x4a,0xf8,0x81,0xa,0xef,0x25,0x22,0x20,0x2a,0x3,0x1b,0xf1,0xbd,0xfa,0x18,0x36,0x1a,0x3,0x4b,0xec,0xf7,0x47,0x52,0xe,0x39,0x12,0x3c,0x13,0xe,0x31,0x13,0xf7,0x33,0x24,0xd1,0x5b,0x1,0xf,0x11,0x1a,0x13,0x6,0x7,0xee,0x9,0x24,0xe,0xe6,0xf5,0xfa,0x1c,0x2,0xee,0x7f,0xec,0xff,0x59,0x3,0xc0,0xcc,0xfa,0xe9,0xf5,0xf9,0xf,0xa,0xe6,0x8,0x7,0xe9,0xe6,0x1e,0x3,0xec,0x2,0x2,0xf2,0x0,0xe,0xca,0xe1,0xfa,0x18,0x9,0xfd,0xf4,0x5,0xc,0xfc,0x16,0xd,0xed,0xef,0x24,0x40,0x3e,0xb,0xf1,0xfc,0xff,0x5,0x6,0x2f,0x6,0xfc,0xe2,0xf8,0x5,0x3,0x1,0xe8,0xc,0xe,0x1,0xf7,0x7,0xe1,0x2,0xfa,0xf1,0x15,0xf9,0x5,0x18,0x47,0xfb,0xe,0xfa,0xd,0xf2,0x3e,0xf5,0x4,0xea,0x18,0x2b,0xfc,0xff,0xf3,0x34,0xfa,0x9,0xe3,0x4,0xfd,0xfe,0xe8,0xc,0xe,0xfe,0xf5,0xf2,0x2d,0xfe,0x3,0x2,0x9,0xf2,0x12,0x1,0xeb,0xa,0xfd,0xfd,0x2,0xb,0x1,0x30,0x29,0x5,0xc,0xfa,0x1b,0xce,0x4,0x1b,0xc4,0xe2,0xb,0x0,0x1b,0x8,0x2d,0xf7,0xd2,0xc,0x18,0xa5,0xd8,0xef,0x25,0xee,0xf2,0x13,0xb,0xf3,0x23,0x6,0x2,0x14,0x2c,0xd8,0x12,0xe4,0xc,0xfc,0x15,0xe3,0x2,0xee,0xd7,0xde,0x1d,0xf4,0xd4,0xb,0xf2,0x15,0x1a,0x12,0x4,0xd8,0xff,0xee,0xf3,0x7,0xfb,0x16,0x3,0xfc,0x1,0xfa,0x2f,0x23,0xf3,0x18,0xe2,0xfd,0xfa,0x13,0x2b,0xd4,0xfc,0x3,0x10,0xa,0xf2,0xfb,0x5,0xef,0x17,0x1b,0x1c,0x19,0x27,0xe6,0xd3,0xfb,0xb5,0xf1,0xcf,0x6,0xd4,0xec,0xf9,0x13,0x8,0x0,0xf0,0xf2,0x8,0xff,0xf9,0x5,0x7f,0xf7,0xef,0xff,0xe4,0x4,0x1,0x2,0xfe,0xec,0x9,0xa,0xf0,0xe9,0x2d,0xd,0xfe,0x54,0xe3,0x2b,0x7,0x26,0xc6,0x15,0x30,0xe9,0xea,0xd6,0x2f,0xe5,0xef,0xed,0xd5,0xfe,0xf1,0x7f,0xe7,0xfc,0x40,0xe0,0xbe,0xbe,0xdc,0xeb,0x41,0xc2,0x0,0xdf,0x6,0xc2,0xe9,0x12,0xf1,0x2d,0x3b,0xea,0xce,0xe5,0x5,0x29,0xe0,0xd0,0xe3,0x35,0x21,0xf0,0x4,0x5,0xed,0x12,0xeb,0xec,0x44,0xd7,0xed,0x2e,0x2a,0x35,0xa,0xa,0x4,0x8,0xf0,0xd0,0x1e,0x9,0xfb,0x29,0xf6,0x2d,0xd,0xf1,0xfe,0xe5,0x28,0xf3,0xf1,0x19,0x25,0xe7,0xf8,0xe1,0x11,0x1c,0xea,0xe7,0x32,0x14,0xd0,0x23,0xd9,0x17,0x3,0x1c,0xc,0x1c,0xd,0x18,0x2,0xa,0xe8,0xfa,0xdc,0xf0,0xea,0x2c,0xf4,0x2,0x1,0x18,0xb5,0xf9,0xd2,0xb,0xef,0x1,0xf8,0x11,0xf9,0xf4,0x1a,0x16,0xff,0xe2,0xe4,0xde,0x1c,0xec,0xc,0xf7,0xe4,0x0,0x3,0xe8,0x2,0x11,0x28,0xea,0x5,0xfe,0x23,0x5,0xe4,0x7f,0xf3,0x27,0x39,0x1e,0xa3,0xd4,0x3e,0x10,0xf5,0xca,0x0,0xfa,0xb,0x16,0x20,0xfb,0xe8,0xfe,0x8,0xd,0xd6,0xd4,0xf1,0x10,0xff,0xd2,0x8,0xf,0x9,0x25,0x5,0x10,0xfb,0xfd,0x33,0xf1,0xee,0xea,0xea,0x18,0x36,0x24,0x9,0x16,0xa,0xea,0xec,0xa,0x24,0x13,0x3,0xe7,0xe1,0x11,0x29,0xe1,0xe7,0xf,0x7,0x1c,0x25,0xe9,0xd7,0x9,0x4,0xe6,0x39,0xf4,0xec,0x13,0x39,0xec,0xe4,0xf5,0x5,0xe8,0x50,0xf6,0xfb,0xeb,0x21,0x17,0x4,0x7,0xf,0x2b,0x2d,0xe7,0xd,0xc,0xb,0xfd,0xd1,0xf7,0x5,0xe9,0xce,0x9,0x9,0xfd,0x1,0xff,0x8,0x11,0x4,0x26,0xf9,0xf4,0x15,0xeb,0xdd,0x30,0x18,0x2,0xfa,0xfe,0xe4,0x3e,0xe9,0x2a,0x36,0xf3,0x22,0xda,0xf0,0x25,0xed,0xae,0xf6,0x23,0xe6,0xfa,0x15,0xfa,0x38,0xf4,0x1,0xa8,0xd5,0xfa,0x4,0xfd,0xcb,0xf3,0xfa,0x12,0x1c,0x19,0x10,0xb4,0x22,0xd1,0x14,0x8d,0x7f,0x1f,0x2c,0x5c,0x17,0x7,0x19,0x2,0x69,0xdc,0x2d,0x44,0xf8,0x19,0x2d,0xa3,0xcc,0xe9,0x41,0x1e,0xf0,0xc9,0xfd,0xef,0x4,0xe0,0xe6,0x19,0x27,0x9,0x10,0xe,0x45,0x58,0x56,0xb,0xed,0xe1,0xd8,0xbe,0x4f,0x11,0xec,0x25,0xd5,0xe5,0xaa,0xd,0x2,0x0,0x7f,0xf6,0x26,0xeb,0x18,0x2,0x9,0xd5,0x13,0xce,0x1b,0xcd,0xf,0xb,0x1a,0x24,0x8b,0x10,0x19,0xb,0xb1,0xe2,0xd9,0x0,0x0,0xb,0x16,0x41,0x1,0x2d,0xa1,0xf7,0xf2,0x98,0x0,0xe8,0x6,0xe3,0x23,0x1,0xfc,0xe9,0xca,0x1c,0xfc,0xe2,0xf4,0x6,0x1f,0xef,0xf4,0x70,0xd4,0x2,0x7f,0xe4,0xa7,0x3b,0x27,0xde,0xdd,0x1b,0xa,0x15,0x2,0x33,0x2c,0xfb,0xf8,0xed,0xc8,0x33,0x13,0x1e,0xf3,0xec,0x8,0xeb,0x9,0xd5,0x2a,0xd,0xe9,0xfb,0x34,0xc,0x1d,0x2d,0xc2,0xdf,0xd5,0x27,0x2b,0x55,0xe5,0x28,0x0,0xd8,0x1f,0x35,0x23,0x4,0x9,0x9c,0x22,0xe0,0x52,0xe6,0x3,0xa,0xcd,0x47,0x9,0x7,0x4,0xf6,0x8,0xf7,0x1e,0xc5,0x31,0xe3,0x70,0xda,0xfd,0xe2,0x27,0x1a,0x6f,0x8,0x2d,0xd8,0x3f,0x44,0xf1,0x20,0xed,0x4c,0x1,0xf4,0xe0,0xf6,0xe6,0xf1,0xdf,0xfe,0x16,0xe9,0x9,0xe9,0x3d,0x18,0x3c,0xf0,0x1d,0xf,0x21,0xe4,0x4,0xf9,0x20,0xf6,0x2,0xed,0x1f,0xef,0x1,0x13,0x10,0x6,0xe7,0xb,0xd8,0xc,0xf8,0x1b,0xda,0x1e,0x22,0x81,0xfc,0xe0,0xd2,0x9,0x77,0x3e,0x21,0x7,0xa,0x2e,0xfb,0xf0,0xfc,0x14,0x5,0xe5,0x1f,0x6,0x10,0x12,0x25,0x28,0x17,0x11,0xf2,0x46,0xf4,0xfe,0x39,0x18,0xdf,0xa,0x25,0x15,0x10,0xf2,0xf3,0x3,0xe3,0xed,0xbe,0xcc,0xb,0xe5,0x4a,0xf7,0xf4,0x7,0xde,0xec,0xf5,0x19,0x36,0xdc,0xdd,0xf1,0x2a,0xf,0xeb,0x37,0x3,0xd,0x1f,0xfa,0x2,0x1e,0xf2,0x4,0xfd,0xd6,0x8c,0x18,0xe5,0xf7,0x1e,0x1a,0xf7,0xb,0xf2,0x11,0x6,0xef,0x19,0xe,0x14,0xe2,0xe7,0xfd,0x21,0x13,0xf2,0xe7,0xb,0x15,0xf3,0xe5,0x13,0x3,0x2,0x10,0x5,0x1d,0x3,0x10,0xef,0xff,0xf3,0x16,0xd3,0xf9,0x33,0xc1,0x8,0xc6,0x4e,0xda,0x5,0xf1,0xd3,0x27,0xce,0x5,0xe5,0x25,0x39,0xe4,0xfe,0x27,0xec,0x37,0x7f,0x1f,0xd6,0x67,0xf9,0xeb,0xb8,0x3c,0xa,0x11,0xec,0x11,0x42,0xee,0xa,0xe5,0xb3,0x4e,0x3a,0xa,0xe5,0xf6,0xfd,0xd,0xe7,0xfe,0xa,0xd,0xee,0x1,0xd,0xe7,0x31,0x11,0xe7,0x18,0xa,0x1f,0xe2,0x44,0x12,0xf8,0xb6,0xf9,0xfa,0x53,0x3d,0x1,0x13,0xbe,0xc1,0xc7,0x2b,0xd6,0xde,0x1d,0xb4,0x24,0xe3,0xfe,0xda,0x29,0xfd,0x29,0x0,0xd6,0x1,0x1e,0x64,0xed,0x46,0xea,0x3b,0x16,0x5d,0xeb,0x2d,0xdc,0x1f,0x4f,0xde,0xf4,0x4,0x2b,0x19,0x13,0x2,0x6,0x27,0xc9,0x8f,0x19,0x3e,0xa,0x4a,0xf1,0x48,0x16,0x4b,0x18,0x12,0x0,0xa,0xe3,0x3d,0x1d,0xf4,0x43,0xf5,0x9,0x15,0x3,0xee,0x11,0x4f,0xd,0xec,0x3,0x17,0xe6,0xf,0xf4,0xe1,0x27,0xf9,0x7f,0xc8,0xee,0x46,0xfa,0x0,0xd8,0x33,0x11,0x16,0xb,0xb,0xf8,0xf1,0xd9,0xf5,0xa,0x2,0x14,0x1c,0xf4,0xdf,0x2d,0x12,0xe6,0xdb,0x2,0xdb,0x14,0x1a,0x19,0xe7,0x19,0x1a,0xb,0xfb,0x1a,0x10,0xe1,0x0,0x32,0xc,0x11,0xb,0xe7,0x23,0xf1,0x16,0xfd,0xf3,0xed,0xf5,0x21,0x31,0xa,0xf2,0xfc,0x11,0xe8,0x8,0xc,0xfa,0x17,0x13,0xfd,0x1,0xf1,0x2,0xf7,0xfe,0xdb,0x2e,0xf7,0xe5,0x1,0x7,0xf1,0x22,0x17,0xb,0x10,0x3,0x27,0xfc,0xc,0xf3,0xf9,0x10,0xef,0xe9,0x19,0xb,0xff,0xd7,0xfe,0xd4,0xdf,0xd3,0xf2,0xe1,0x9,0xb,0x9,0xee,0xfd,0x6,0x5,0xde,0xe3,0xeb,0xde,0x5,0xf0,0x46,0xfd,0xc2,0xea,0xd3,0xc7,0xa9,0x2d,0x31,0xab,0x5e,0x1c,0xc7,0x42,0xea,0x23,0xb3,0xc1,0x5f,0xd5,0xe9,0x4,0x4e,0x20,0xcf,0xe6,0xdf,0xbf,0x13,0xbc,0xe3,0xcf,0x17,0x5b,0xfd,0xed,0xb8,0x1e,0x16,0x4d,0xf6,0x6,0x2a,0x2e,0x28,0xa,0xd4,0x24,0x22,0xa,0x24,0xc4,0x55,0xd0,0xdf,0xd,0x3d,0xee,0x22,0xe1,0x5a,0xdc,0xdb,0xe2,0xf5,0x5a,0xf5,0xd9,0xef,0x33,0xe,0x30,0xe,0xed,0x43,0x4f,0xd8,0x0,0xf5,0xeb,0xed,0xd4,0xfa,0x50,0xd8,0xc0,0xd9,0x17,0xdd,0x4a,0x4a,0x10,0x38,0xed,0x16,0xf4,0x64,0x3b,0x11,0xf6,0xd,0x0,0x6,0x2e,0x3a,0x40,0x18,0xe1,0x81,0xfc,0xd6,0xcc,0xdc,0x24,0xd6,0x5b,0xc6,0xfb,0xff,0xf3,0x8,0x5a,0xc3,0xff,0xe0,0x9e,0x12,0x0,0xee,0x30,0xfb,0x6,0x1e,0xe,0x18,0xda,0x10,0x26,0xf5,0xeb,0xfc,0xe2,0x9,0x3b,0xfe,0xd,0xf4,0xe,0xff,0xb2,0xdb,0x9,0x1b,0x11,0x0,0xe8,0xf8,0xf6,0xf,0x5,0xf,0xfe,0x2a,0xe1,0xf1,0xe9,0xfb,0xfb,0xf9,0xf8,0xd5,0xf4,0xf1,0xce,0xf3,0x11,0x6,0xf4,0xca,0xf0,0x1d,0xf2,0xfb,0xe1,0x18,0x24,0x1,0x13,0xf4,0x18,0x4,0x1d,0xeb,0xfd,0x16,0x29,0xf6,0x3,0xdc,0x12,0xe6,0xee,0xe,0xb8,0xd9,0xe8,0x1b,0xf6,0x0,0xf8,0xf1,0x1a,0x13,0xf8,0x25,0x11,0x22,0xeb,0xdc,0x6,0xbf,0x2,0xf7,0xc,0xe5,0x2,0xee,0x0,0x11,0xf,0xd8,0x13,0xf3,0xf7,0xf4,0x1e,0x7f,0x7,0xf7,0x2,0x3,0xf5,0x13,0x5,0x12,0xff,0xdd,0xf4,0xec,0xfb,0x15,0xe7,0xff,0x2a,0xea,0x2a,0x44,0xc6,0x22,0xfc,0x93,0xd3,0x2,0x1f,0xcf,0x3,0xce,0x1a,0x11,0x4c,0x40,0x81,0x13,0x11,0xec,0xef,0x29,0x75,0xa4,0x20,0x9e,0xf9,0x24,0xd1,0x43,0xe4,0x11,0x28,0x17,0xd1,0xcf,0x56,0xd1,0x26,0xdf,0xfa,0xf2,0x3c,0x85,0xea,0xa,0xb6,0x90,0x32,0x41,0xef,0xee,0x1a,0xe5,0xd6,0xf3,0xf4,0xc9,0x0,0x31,0xd,0xca,0x28,0xe8,0x23,0xda,0x1d,0xd1,0xd5,0xdb,0xa5,0xe7,0x23,0x20,0xdf,0xdb,0x94,0x89,0xf9,0xdd,0x25,0x1c,0x28,0x98,0xda,0xfb,0xcf,0x9,0xdc,0xe,0x13,0xf,0x25,0xa7,0x1c,0x6,0x1,0x34,0x20,0xf,0x22,0xdb,0x21,0x8e,0xfd,0xe,0x36,0x16,0x9a,0x1c,0x11,0xf2,0x28,0x7d,0xe4,0xff,0x2e,0xd6,0x18,0xf,0xe6,0x0,0xd8,0x1d,0x25,0xab,0x6,0x16,0xc,0x6,0x6,0xce,0xdf,0xae,0x21,0x4,0x3,0x7,0xa,0x35,0x25,0xc8,0x5,0xe2,0xd8,0x6,0xcb,0x81,0xf,0xec,0xbc,0x2a,0x1c,0xe,0x9d,0x1c,0xc0,0x18,0xd0,0xbf,0x3,0xf,0x54,0x41,0xc4,0xb3,0xf8,0x14,0x1b,0x1,0xae,0x26,0xf,0xcb,0xb6,0xe5,0xe1,0xfb,0x17,0xc1,0xc7,0x13,0xfd,0xee,0xbb,0x38,0xe0,0xa,0xd3,0x11,0x23,0xe,0xb3,0xe4,0x47,0x11,0xf3,0xbd,0x3,0xf6,0x34,0x1c,0xb2,0x4c,0xea,0xfd,0x4,0xd2,0x5,0xf8,0xbc,0xdb,0x58,0xdc,0xc2,0x9f,0xb,0xcf,0x3c,0x5,0xdf,0xce,0x1c,0xe7,0x1d,0x37,0xc5,0x32,0xeb,0x21,0xb4,0xd9,0x31,0x27,0x7,0x18,0x2,0x25,0xe4,0xcd,0xe0,0xfb,0x1f,0xce,0xf5,0xe0,0x28,0xa5,0xb,0x24,0x52,0xe5,0xe5,0xcd,0x98,0x15,0x18,0x38,0xce,0xde,0xe2,0xd6,0xd,0xfa,0xd7,0x14,0xe6,0xdd,0xf4,0xe7,0xf7,0xe3,0x55,0x1e,0xfd,0x24,0xec,0xf3,0x28,0xd6,0xde,0xdb,0xef,0xe9,0xfe,0x20,0xe7,0xd8,0xe6,0xe3,0x48,0xef,0x15,0xec,0xfb,0x13,0x23,0xd0,0xe9,0x94,0xf7,0xd,0xd3,0xe9,0xed,0xe2,0x9,0xae,0xeb,0x62,0xe1,0x1f,0x5,0x47,0x3e,0xf9,0x2,0xac,0x26,0x20,0x4,0x13,0x67,0xe2,0xc2,0xf8,0xfd,0x3,0xf,0x13,0xcb,0x12,0x81,0xb8,0x27,0xcb,0xd,0x21,0x9,0xf5,0x33,0x28,0xff,0xd,0x1,0x2d,0x31,0x4c,0xe4,0xd8,0x22,0xe1,0xf6,0x3f,0x19,0x1d,0xc,0xd5,0x13,0xb3,0xf,0x39,0x4c,0xc,0x1e,0x16,0x1c,0xd9,0x19,0x4f,0xff,0x2b,0x3e,0xeb,0x28,0xd4,0x9,0x2c,0x29,0x3f,0xeb,0x6,0x31,0xf6,0xe4,0x1c,0x1,0xfd,0x8,0xd9,0x19,0xc,0x3d,0xde,0xd3,0xc,0xa,0x1,0xa,0x17,0x99,0xe,0x2b,0xf7,0x7,0xfb,0x6a,0x1b,0xfb,0xdb,0xef,0xff,0x11,0xf2,0xfe,0xf4,0xf4,0x6,0xe8,0xda,0x35,0x22,0xa,0xef,0xf0,0x1,0x3,0x3c,0xe4,0xd,0x24,0x4,0xe5,0x3,0x4,0x44,0x1a,0xdd,0x12,0xdd,0x3a,0xe8,0xcb,0xf1,0xf8,0x36,0xe8,0xe2,0x19,0x14,0x17,0xe5,0xe8,0xd,0xe3,0x20,0xe5,0xf6,0x0,0xe6,0x3f,0x39,0x7,0xed,0xb,0xef,0xee,0x31,0xd7,0xd4,0xfe,0xcb,0xe3,0x3,0x7,0x1d,0xb,0x3f,0xf2,0xff,0x3,0xfb,0x16,0xfb,0xeb,0x16,0xfa,0x22,0x5,0xd,0x0,0xff,0xf9,0x81,0xe9,0x34,0xf,0xe0,0x17,0xff,0xfd,0xa,0xa,0x8,0x18,0xf3,0xf2,0xdc,0x14,0xf6,0xb7,0xd4,0x17,0xfe,0x8,0xc0,0x1c,0x39,0x26,0xe9,0x12,0xe6,0x9e,0xd,0x2d,0xca,0x2c,0xd9,0x41,0xcd,0xe7,0x56,0xfd,0xf5,0x28,0x5d,0xfc,0x11,0x1c,0xec,0xff,0xfe,0xf1,0xc1,0xf5,0xa,0x2,0x1a,0x37,0xbd,0x4b,0x1,0xeb,0x3,0x1,0xee,0xf3,0x2c,0x5c,0xcd,0xf0,0x2a,0x2c,0xd,0x49,0xe,0xc8,0x8,0x3b,0xe5,0xf5,0xf2,0x9,0x4d,0xfa,0x26,0xf5,0x1a,0xf8,0xd2,0xd,0x26,0xf3,0x1d,0xed,0x21,0x0,0x3,0x70,0x19,0x2d,0x34,0x38,0x17,0xe0,0x13,0x9,0xe2,0xdc,0x5,0x18,0xeb,0xf0,0x39,0xee,0x61,0xfc,0x25,0x23,0xf4,0x42,0xe,0xcb,0xf7,0xe1,0xeb,0xf2,0x1,0x12,0xef,0xfe,0x81,0xfb,0xf8,0xc6,0xe3,0x9,0x8,0xee,0xde,0xfd,0xf8,0xc8,0x18,0x37,0xa9,0xf2,0xe6,0xac,0x1c,0xdc,0xa,0xd4,0xfa,0x4,0x8a,0xf8,0xf5,0x4b,0xf1,0xe9,0x8,0x27,0xec,0x29,0xf3,0x8e,0xf7,0xfe,0xfa,0xb,0xd4,0x62,0x38,0xf4,0xcd,0xe0,0xf7,0x3,0xef,0x0,0xe8,0x9,0x1,0xc9,0xd3,0x25,0x23,0x21,0xf9,0xdf,0x13,0x25,0x4d,0xf1,0x1d,0x3c,0x1f,0x12,0x5,0xe5,0x22,0xd8,0xf6,0x14,0x6,0x29,0xce,0xca,0xff,0xf8,0x1f,0xe7,0xfb,0xa,0xfe,0xfc,0xf,0xbe,0xf5,0xd5,0xe,0x4,0x4,0x0,0xcc,0x49,0x39,0x1c,0xf7,0xf9,0xe,0xe0,0x20,0x3,0xfa,0xf3,0xf6,0x18,0xe1,0x23,0x48,0x12,0x4f,0xf1,0x22,0x8,0x15,0xf4,0xed,0x1d,0xf,0xf8,0x7,0xe6,0x1a,0xfa,0xea,0xf9,0x81,0xef,0x28,0x0,0x1a,0xe7,0xf6,0x2c,0x8,0x1d,0x39,0x20,0xe5,0xc,0xdf,0x1,0x20,0xa9,0xd1,0xeb,0xec,0x32,0xe1,0xa,0x47,0x30,0x1a,0xcc,0xfb,0x48,0xdb,0xfb,0xe,0xef,0x31,0xbc,0x3d,0xd9,0x81,0xc,0x3e,0xc9,0xe1,0x14,0x26,0x15,0xf,0xf2,0xf6,0xf5,0xfe,0xfc,0x18,0xee,0x44,0xe5,0x1b,0xcc,0xf7,0xe,0xef,0xf5,0xf4,0xf5,0xf9,0xcc,0xc,0xe5,0xd0,0x2,0xe8,0xfa,0x11,0x28,0xe8,0xbe,0xd1,0xa9,0xe6,0xfa,0xff,0xe1,0xec,0xed,0x9,0xc1,0x10,0x22,0x16,0xed,0xc2,0x5,0xff,0x27,0xf1,0xb9,0xf2,0xef,0x11,0x3,0x12,0xa,0xc2,0x16,0xfc,0x24,0xb3,0xb,0x16,0xf4,0xc2,0x2,0xb9,0x0,0x3,0xb,0xb6,0x98,0x1a,0xc,0x1c,0xdd,0xd8,0x19,0x1,0xe5,0x1a,0x2b,0x4b,0x4,0xd6,0x4,0xe7,0xa,0xd5,0xd1,0xc9,0x17,0xe1,0xe6,0xd1,0xdd,0x27,0xfc,0x17,0x1e,0xd4,0x2c,0xb,0x10,0xe1,0xfe,0x25,0xb,0x24,0xf5,0x22,0xf3,0x27,0xe2,0xc,0x12,0xea,0x91,0x11,0xd,0xc0,0xe6,0x2d,0xb5,0xf,0x22,0x33,0x1,0x0,0x9,0x17,0xd9,0xeb,0x15,0x10,0xf1,0x42,0xdd,0xe6,0xcd,0x19,0xe9,0x4,0x21,0x59,0x1a,0x9,0x1f,0x5,0x10,0x1,0x19,0x1d,0xa,0x1,0x27,0xf2,0xf4,0xd2,0x81,0xf3,0xe4,0x2a,0x15,0xef,0x4,0xd7,0xdf,0xb,0x2b,0xfc,0xfd,0xcf,0x27,0xf7,0x21,0x2f,0xd,0x2f,0x6,0x39,0xff,0xeb,0x23,0x0,0xef,0xca,0x22,0xb5,0x21,0xc,0xe5,0xbe,0xe7,0xff,0xe2,0xf9,0xf0,0xe4,0xce,0xf7,0xeb,0x14,0xc9,0x1e,0xf8,0xdf,0xfd,0x13,0xf2,0x31,0xe3,0xf8,0xe0,0xcf,0x2f,0xdc,0x12,0xc9,0x24,0xdb,0x6,0xfa,0x8,0x1,0x9,0xc,0xf5,0xa,0x10,0xfc,0xff,0x21,0x18,0xee,0xea,0x5,0xb9,0xf6,0x1a,0xcb,0xfa,0xe,0xfe,0x1d,0xd4,0x22,0x7,0xc4,0x15,0x35,0xf,0xe3,0x1,0x2,0x11,0xec,0xfa,0x16,0xb,0x6,0x9,0x25,0xf0,0xf1,0xc,0x31,0xd7,0xf8,0x16,0xee,0xe7,0xf8,0xed,0xef,0xe0,0x0,0xf2,0xdb,0xf2,0xaa,0xf4,0x14,0x24,0xef,0xb4,0xc8,0xed,0xe8,0xf,0xe9,0x1a,0x22,0xfc,0xf3,0xeb,0x6,0xf1,0xdf,0xf9,0xd4,0x10,0xea,0x5,0xdc,0xa0,0xd9,0xf3,0x12,0xcd,0xec,0xb,0xbc,0xf,0x23,0xef,0xe3,0xf4,0x9,0x1,0xd4,0x16,0x99,0xfd,0xe1,0x24,0xed,0xec,0xc,0xfe,0xc,0x9,0xfd,0x1,0xf6,0x8,0x1d,0x8,0x7f,0xfe,0x8,0xf6,0x1d,0x4,0x34,0xfd,0xf8,0xe5,0xe6,0xfc,0xe2,0xef,0x35,0x10,0xfa,0x32,0xb,0xee,0xfd,0x27,0x3d,0xdf,0xba,0xf7,0x26,0x21,0xe8,0xe8,0xe8,0xf,0x2a,0xe1,0x15,0xca,0xdd,0x25,0xe6,0x5,0xf7,0x49,0x10,0xef,0xec,0xfc,0xd6,0x2f,0xe9,0x38,0x49,0x24,0x2,0xa9,0xb5,0xf2,0x28,0xc7,0x3,0xb4,0x15,0xc2,0x52,0xf0,0x5,0x57,0x53,0xd5,0xfd,0x1c,0x3e,0xdf,0xb8,0x28,0x3,0x27,0xbf,0xee,0xed,0x1,0x23,0x5,0x7,0x3f,0xf7,0xb5,0x2c,0xc6,0xf3,0xe3,0x48,0xf0,0xcb,0x4e,0x37,0x7f,0x56,0xe7,0xb2,0xf1,0x1d,0xb,0x14,0xf0,0x11,0x2e,0xe4,0xef,0xd7,0x2,0xf6,0xf8,0x3a,0xcd,0xc,0xf5,0xdd,0x7,0xda,0xa,0xf0,0x12,0x36,0xc5,0x5,0xc2,0xf3,0x24,0xbb,0xe2,0x1d,0x1a,0xb4,0x24,0xd8,0xe0,0x2c,0xa,0x15,0x34,0x9,0xd0,0xce,0x11,0x22,0xec,0x17,0xf0,0xfe,0x11,0x32,0xf1,0x71,0x2f,0x7,0xd,0x25,0x2a,0xbf,0x14,0x24,0x0,0x1a,0x7f,0x1e,0x3a,0xf,0xd,0xf7,0xc8,0xd1,0xed,0x18,0xf3,0xd9,0xed,0xb,0x4,0x31,0x3b,0x7,0xa6,0x1a,0xf4,0x2e,0xd0,0xdd,0xd9,0x11,0xf1,0xe7,0xeb,0xbc,0xe0,0x2c,0xeb,0xe0,0x1e,0xc4,0x2b,0xb8,0xfe,0xec,0xed,0x18,0x3d,0xe7,0x0,0xc1,0x1f,0x9,0x32,0x4,0xe5,0xfc,0x1b,0xa,0xd0,0x5,0xcb,0x8,0x4d,0xf9,0xc0,0x14,0x11,0x1a,0xb,0x14,0x1e,0x27,0xd8,0x4,0x30,0x30,0x9,0x15,0xd5,0xb8,0xff,0xfb,0xf8,0xd3,0xdd,0xd6,0xd9,0xd3,0x24,0xed,0x8,0xf3,0xed,0xb9,0xca,0xf7,0x3,0x6c,0xf7,0x2a,0x36,0xeb,0xe8,0x4,0xae,0x42,0xdf,0x7,0xf6,0x1,0x11,0x3d,0x1b,0x20,0x55,0x3,0x0,0x7,0x18,0xd8,0xfe,0x34,0xed,0xd2,0x19,0xc,0xce,0x4c,0x8,0xfb,0x36,0x4,0x18,0xe0,0xe2,0x1b,0xdb,0xc,0x8,0x1f,0x7,0x1e,0xfe,0x1b,0xe0,0x6,0xdc,0xe9,0xdc,0xf1,0x17,0xc,0x15,0xbc,0xfe,0xd,0x4,0xd6,0x20,0x15,0x7,0x3a,0x36,0xe,0xeb,0x16,0x9,0x19,0x12,0x25,0xe1,0xee,0x20,0xea,0xdd,0xf9,0xd3,0x22,0x14,0x8,0xe8,0xff,0xee,0xf1,0xb,0x46,0x20,0x19,0x8,0x3,0xf6,0x13,0x29,0x12,0xed,0x1a,0x20,0xf9,0xe0,0x1b,0xe0,0xc1,0xe0,0xd4,0xd,0xc7,0x16,0xf1,0x10,0x48,0xb,0x26,0xeb,0xd9,0x15,0x17,0xf,0x12,0xdf,0x8,0xfb,0xdc,0xfa,0xf3,0xee,0x81,0x18,0xd8,0x0,0xbe,0x12,0xe1,0x16,0xcd,0xfd,0xfd,0xda,0x1,0x2,0xcb,0xe8,0xf2,0xc2,0x12,0xbe,0xfd,0x13,0x2a,0xee,0x9c,0x0,0xe,0x36,0xd1,0x26,0xe1,0xed,0x35,0x9e,0x36,0x8c,0x1c,0x2e,0xd3,0x9,0x20,0x5a,0x20,0x4,0xca,0x15,0xd8,0x2,0xde,0xa,0xfb,0xf4,0xd,0x81,0xc7,0x8,0x40,0xc5,0xd2,0xee,0x23,0xe8,0x46,0xed,0xdf,0x1f,0x66,0x20,0xd6,0x11,0x20,0x0,0xa5,0x25,0xe1,0x14,0x90,0xb0,0xf0,0xc,0x10,0xee,0xf9,0x2d,0x4,0xdc,0x30,0xda,0x1a,0xea,0x15,0xee,0xe6,0x25,0xe1,0x1f,0x3c,0xf3,0xeb,0x3,0xf0,0x1a,0x23,0xb7,0xec,0x31,0xe7,0x1a,0x1a,0xee,0x22,0x17,0x2f,0xdd,0x19,0xce,0xe2,0xd1,0xfe,0x2f,0xf4,0xd5,0x38,0xd4,0xf,0xbc,0x8,0xfb,0x21,0x18,0x4e,0x14,0x11,0x16,0xfa,0xb2,0x28,0xc,0x8,0x38,0xec,0xdb,0x1,0x2c,0x34,0xe7,0xef,0xe3,0xfd,0xd6,0x28,0xfe,0xc5,0x7,0x18,0xa,0xfc,0x4,0xfd,0x18,0xe,0xf8,0xd,0x81,0x28,0x20,0x91,0x19,0x1c,0x50,0xa,0xed,0xe2,0x7,0xe,0x15,0xf5,0x17,0x1f,0xe5,0xff,0xca,0xc6,0x34,0x31,0xf8,0x1,0xf8,0x10,0x1a,0x31,0xd1,0xe,0x18,0xfe,0x8,0xe4,0xef,0x35,0xf8,0xc8,0x2b,0x4,0xef,0xe0,0xdf,0xf4,0xf,0xf6,0xf9,0x2,0x8,0xb,0x14,0x2,0xf9,0xe0,0xc9,0xed,0xe4,0x10,0x3,0xd7,0x1f,0x23,0x11,0xed,0xf,0xfc,0xff,0xe8,0xe4,0x7,0x26,0xb2,0xe8,0x10,0xf7,0x32,0xec,0xfb,0xa,0xf5,0xf8,0x20,0xdf,0xeb,0xf6,0xfe,0xee,0xfd,0xf6,0x26,0xe,0xea,0x6,0xeb,0x10,0x22,0xa,0x21,0xfa,0xf6,0xf3,0xfc,0xfd,0x14,0xe,0x6,0xcf,0x5,0x2f,0xa,0xfb,0x7,0x17,0xdc,0xfa,0x1e,0x2,0x17,0x1e,0x12,0x1b,0xe8,0x15,0x2,0xde,0x15,0x7,0xfc,0x81,0x3d,0x8,0x9e,0x21,0x51,0xf1,0xfd,0x17,0xfa,0x2a,0xfe,0x1f,0xdd,0x1e,0x13,0xf6,0x13,0xad,0xf6,0xf9,0x35,0xdd,0xf3,0xe9,0x15,0x5,0x25,0x8,0xf3,0xff,0x21,0xeb,0x1c,0x6,0x19,0x2c,0xd3,0x49,0xef,0xfa,0xb5,0xa8,0xf7,0xf2,0x2b,0xfe,0xf4,0x28,0xc,0xb7,0x1c,0x2a,0xc,0xed,0xe9,0xfc,0xff,0x22,0xef,0x3e,0x18,0xef,0x6,0x18,0x0,0xb,0x1,0xd5,0xfa,0xd,0xce,0x5,0x1a,0xd1,0xde,0xdf,0x10,0xf5,0xdb,0xf2,0xd6,0xc8,0xe5,0xb,0xb,0xdb,0x26,0xfe,0xda,0xc8,0xe2,0xf8,0x26,0xf3,0x2b,0x14,0xf4,0xff,0xeb,0xd2,0xf8,0xe2,0x15,0x1b,0xea,0xe7,0xfe,0xc,0x1b,0x7,0xfd,0x7,0xe3,0xf9,0x30,0xdd,0xbc,0xf1,0x1e,0x17,0xfd,0x41,0xe5,0xf2,0x16,0xda,0x21,0x2,0xf6,0x18,0xea,0xff,0x81,0x2e,0xdf,0xf7,0xd,0xec,0x1e,0x1,0xf3,0x48,0x5,0xfd,0xfc,0x1,0xd9,0xde,0x11,0xc2,0xfc,0xe5,0x5,0xcc,0xef,0x10,0xe2,0x0,0x27,0xde,0x0,0xdb,0xe3,0xd1,0xd1,0xf1,0x12,0xe3,0xd,0x48,0xfc,0x1f,0x94,0xf4,0xdd,0x3f,0xf3,0x19,0x16,0xd8,0xc4,0xec,0xe0,0xd8,0xcc,0x22,0x15,0xdc,0x16,0xd5,0xfa,0xf4,0x28,0x6,0x23,0xe9,0x17,0x28,0xf,0x6,0x1e,0x13,0x1a,0xe1,0xe9,0xe0,0xe4,0xda,0x3b,0xe7,0x10,0x8,0xd4,0x30,0xe4,0xfd,0x34,0xf4,0x5,0xe8,0x72,0xf3,0x3a,0x3b,0x5,0x19,0x47,0xef,0x1d,0xf8,0x49,0x14,0xf3,0xd1,0x29,0x37,0x2e,0x71,0x6,0xff,0xf1,0x38,0xef,0xe6,0x51,0x9,0xff,0x26,0x28,0xda,0x22,0xd8,0x16,0xf8,0xa,0x7f,0xd9,0xb,0x45,0x4,0xbd,0xb9,0x3d,0xfe,0x59,0xf2,0xef,0x1f,0xb,0xd1,0xf2,0x14,0x9,0x29,0x54,0xe2,0xc6,0xcf,0x2,0x27,0xef,0xda,0x19,0x38,0x13,0x45,0xfc,0xe3,0x2c,0xdf,0x1e,0x1,0x3f,0xf1,0x12,0x24,0x33,0xf4,0xfe,0xed,0xc,0xec,0xed,0xe7,0x34,0xe6,0xec,0x1c,0x21,0x48,0x22,0xfc,0xd,0x12,0x1e,0x55,0x12,0x3,0xb,0x4,0xec,0xe0,0x46,0xf8,0xfe,0xea,0x4e,0x12,0xcb,0xef,0xbc,0xf,0x52,0x12,0x17,0xf3,0xec,0xf9,0xfd,0xe2,0x12,0x27,0x21,0xf6,0xe7,0x1,0x14,0x1,0xb4,0xfa,0xe9,0xf6,0xab,0xf5,0xe5,0xda,0xb,0x3,0xe9,0xdc,0x14,0x34,0xe9,0xda,0xec,0xcd,0x3,0xe9,0x7,0xff,0x10,0x7,0x42,0xfa,0xe6,0x9,0xf5,0x6,0xea,0x18,0x27,0xe2,0xfb,0x7f,0xeb,0x2d,0x5f,0xc,0x9c,0x14,0xea,0xf5,0xd9,0x2,0xf1,0xe,0xe4,0x24,0x3a,0x19,0xe7,0xec,0xd1,0xe,0x29,0x9,0x6,0xf6,0x25,0x0,0xdc,0xd7,0x1c,0x13,0x18,0xe8,0x11,0xa,0x20,0xee,0xc7,0xee,0xe9,0x19,0x3,0x50,0xe6,0x9,0xce,0x9,0xe,0x29,0x36,0xb,0x7,0xe6,0x28,0xf7,0x43,0xef,0x4,0x13,0xf5,0xa,0x1d,0x6,0xfe,0xea,0xe2,0x1a,0xc,0xb5,0x14,0x25,0x62,0xe8,0x25,0xd9,0x18,0xa,0x38,0xd,0xeb,0x7,0xf8,0x18,0xde,0x13,0xc5,0x3c,0x1a,0x0,0x5,0xee,0x1a,0xdf,0xd0,0x4,0x1e,0xfe,0x1,0xf7,0x36,0xea,0x23,0x5,0x39,0xfc,0xe,0x12,0xc,0x12,0x15,0x1d,0xf,0xec,0x1,0x3,0xec,0xee,0x1a,0x0,0xd4,0x1c,0xeb,0xec,0x1,0x26,0x5,0x23,0xef,0x7f,0xe0,0x8,0x45,0xfe,0xbd,0x2d,0x2b,0x2,0xdc,0x6,0x16,0xe,0x11,0x1a,0xfe,0x5,0xf,0xfd,0xd3,0x22,0xf2,0x3a,0xf0,0xb,0xfc,0xf5,0xe3,0x7,0xe,0xf8,0xff,0xfc,0x27,0xa,0xd,0xb,0xff,0xd1,0xed,0x18,0x38,0x5e,0x2,0x15,0xfd,0x9,0x1e,0xf3,0x2b,0x2d,0xe1,0xda,0xe,0xf7,0x40,0xee,0x22,0xfc,0xec,0x2b,0xe1,0x6,0xde,0xed,0x4,0xe4,0xd,0xd9,0x33,0xd2,0x3c,0xe0,0xe4,0x11,0x13,0xc,0x45,0x2,0x25,0x4,0xa,0x40,0x9,0xfb,0xe9,0x2f,0x17,0xed,0xfa,0xfa,0xec,0xee,0xe7,0x1a,0xf4,0x1,0xf,0xf4,0xfe,0xfe,0x28,0xe8,0x22,0xe6,0x13,0x1e,0xf5,0xd,0xd,0x18,0xe9,0xfc,0x8,0xce,0xee,0x4,0x42,0x8,0xa,0xe9,0xfa,0xf,0xf0,0x14,0xc4,0x32,0x8,0xe5,0xff,0xe9,0x1c,0xcc,0x7f,0x3e,0xc8,0xe8,0x18,0xff,0xf2,0xcd,0x22,0xd6,0xd0,0xfa,0xa,0x11,0x2b,0xf4,0xfe,0x39,0xb,0x4,0xf0,0x4c,0xad,0xca,0x29,0xc8,0xdf,0x19,0x2,0x8,0xa9,0x28,0xef,0xef,0xd,0xc6,0xd4,0x23,0xfa,0xe0,0x24,0x1f,0xf2,0xdf,0xc7,0xec,0xca,0x27,0x1d,0xe1,0xf7,0x14,0x19,0xd5,0xea,0xbd,0xb4,0x27,0x1c,0xf8,0x1f,0xc,0xb1,0xf6,0xb,0x4,0xe,0xf2,0x8,0x1c,0x1c,0xf8,0xb1,0x9,0xff,0x23,0x3,0xf9,0xd,0x14,0xec,0xeb,0xca,0x23,0x1d,0xe7,0xdc,0xe6,0x52,0xee,0x7,0x5,0x3e,0x0,0xe7,0xa,0xf1,0x1f,0xd1,0xec,0xa,0xf1,0x18,0xe6,0xd1,0x2,0x2,0xf4,0xf2,0x1b,0x20,0xef,0x43,0x5,0x2d,0xce,0xea,0x25,0xbe,0xf0,0xf2,0xdb,0x2d,0x2e,0x28,0x7,0x4,0x22,0xe,0xe4,0xd0,0xfc,0x9,0x26,0xd,0x15,0xfd,0x26,0x22,0x17,0x9,0xe6,0xa,0xfa,0x1d,0x14,0xeb,0xfa,0x1a,0x2a,0xf6,0xf8,0xf7,0xc6,0xf8,0xf0,0xf3,0x11,0xc2,0x21,0xeb,0xf8,0xff,0xe5,0xe0,0x1d,0xb,0xe,0xe0,0xf,0xf0,0x10,0xdc,0xd6,0x24,0x4,0x7,0x6,0xee,0x15,0xeb,0x26,0xd3,0xad,0xd7,0xfc,0x14,0xc,0xf1,0x24,0xde,0xde,0x7,0x1a,0x36,0xd,0x3,0xd4,0xfe,0xe4,0xb6,0x12,0xd9,0xf7,0xee,0xf0,0xf8,0xf7,0xe4,0x15,0xf7,0xf8,0xd9,0x4,0xeb,0xfe,0x7f,0x3,0x10,0x2d,0x13,0xfc,0x29,0xf2,0x9,0xec,0xff,0xed,0xf4,0xe9,0x1d,0x5,0xff,0x45,0xd0,0x1f,0xda,0x33,0xe1,0xfb,0x3e,0xf3,0xe,0x2f,0x1f,0xcb,0x41,0xf1,0xd6,0xf2,0x7,0xf2,0xd5,0xde,0x14,0xd6,0x34,0xd2,0x39,0xe,0x22,0xf4,0x10,0xd5,0xfb,0xe4,0xbc,0xf5,0x1a,0xec,0x51,0xec,0xe9,0xd3,0xdf,0x4,0x20,0xcb,0x65,0x21,0x2b,0x5c,0x26,0xd9,0x26,0x12,0x60,0x58,0x20,0xe2,0xeb,0x51,0xf0,0xe7,0x1,0xdd,0x70,0xd,0xd6,0xff,0x2c,0xce,0x0,0x39,0x17,0xc,0x16,0xf7,0xe8,0xdd,0x27,0x7f,0x48,0xd0,0x3e,0x13,0xf9,0xe7,0x28,0x19,0xb9,0xef,0xb1,0xfe,0xee,0xe3,0xcc,0x2,0x79,0xdf,0x10,0xc,0x0,0xfd,0x23,0xec,0xd,0xdf,0x10,0x18,0xf5,0x4,0xf1,0xfd,0xcb,0xe,0xda,0xb2,0x9e,0x20,0xce,0xe9,0xe1,0xe1,0xe6,0x1c,0x1b,0x10,0xac,0xf6,0xf1,0xbb,0xdc,0xe,0xe2,0x2d,0xd2,0x22,0xeb,0x19,0xc,0xf5,0xe,0x4a,0xdc,0xed,0x35,0xdf,0xca,0x51,0x12,0xff,0x94,0x25,0xb8,0x87,0x8b,0x1e,0x39,0xb9,0xfa,0x1a,0xd6,0xe,0x12,0xe7,0xef,0x21,0x29,0xb8,0x10,0xcd,0x24,0x3f,0xf8,0xd1,0x7,0x54,0xdf,0xe5,0xe,0xe9,0xd8,0x22,0xc3,0x0,0xa,0x30,0xc,0xb8,0x66,0xff,0xe6,0xc,0xd4,0x16,0x17,0x22,0xee,0xdc,0xea,0xa,0xa5,0x4f,0xe9,0x2c,0xd7,0xfa,0x3c,0xa9,0x2b,0xee,0x6,0xc7,0x1b,0xe3,0x7,0x31,0xd3,0xfb,0xd9,0x2e,0x18,0xf4,0xf8,0xec,0xcb,0xdc,0x4,0x17,0xdf,0xef,0xd6,0xc,0xd0,0xef,0x4,0x6,0xe5,0xc,0x7,0x5,0x7f,0x1b,0xcf,0x4,0xe4,0x18,0xf8,0x12,0x1,0xdf,0xf8,0xb,0xe4,0x1a,0xfc,0x16,0xf4,0x13,0xfb,0xbc,0xe1,0xd6,0x41,0x16,0xf4,0x2,0xf8,0xe0,0xc1,0x37,0xda,0x11,0xf2,0xee,0x37,0xf8,0x18,0x17,0x2f,0x23,0xd8,0x7f,0xdd,0xda,0xad,0x1a,0xe8,0x1c,0xea,0x5d,0x4d,0x37,0x2b,0xd0,0xc1,0x48,0x47,0x38,0x4,0xf6,0x14,0x24,0xb0,0xd1,0xc8,0xbc,0xdb,0xf5,0xd7,0xf4,0xb7,0xd7,0xca,0x12,0x14,0xe7,0xc9,0x2f,0x15,0x10,0x9a,0xdf,0x12,0x1a,0x26,0xea,0xf3,0xeb,0xd6,0xc1,0x14,0xe4,0xf,0x6,0x98,0xb8,0xdb,0xf4,0xfd,0x6,0xe5,0x3c,0x16,0xde,0x40,0x1,0x5c,0xed,0x1d,0x4,0x50,0x29,0xed,0xe0,0xc0,0x2,0x2f,0x39,0xd9,0x1e,0xed,0x33,0xf6,0x1f,0xf1,0x1e,0x23,0x1,0xc2,0x4,0x22,0x1a,0x53,0x2a,0x2c,0x14,0x5c,0xea,0x3d,0x2a,0xf7,0xd6,0x49,0x48,0x2f,0x64,0xf2,0xe,0xf9,0xfd,0xd9,0xeb,0x48,0x6,0xfe,0x1a,0x10,0xec,0x10,0xfe,0xff,0xfb,0xf,0x7f,0xd4,0x14,0x5a,0xea,0xce,0xbb,0x13,0xfa,0x1c,0xf0,0xf,0x13,0xea,0xea,0x10,0xe9,0xb,0x17,0x22,0xf2,0xe7,0x14,0xc,0xf2,0x7,0x1,0xec,0x7,0x32,0x2b,0xfc,0xf0,0xd,0xeb,0x14,0x28,0x3,0xf3,0xf9,0x41,0x1a,0x12,0x9,0xe5,0x8,0xe4,0xa,0xf3,0x1e,0xdb,0x0,0x15,0x18,0x4,0xa,0xee,0x8,0xf0,0xf7,0x34,0xf7,0xf2,0x17,0x16,0xfb,0xea,0x9,0xce,0x3,0xf2,0x25,0xe3,0xfe,0xf0,0x15,0xa,0x32,0x11,0x23,0xea,0xa,0x25,0x1,0x1,0xf6,0x22,0x11,0x9,0xcb,0xe9,0xf3,0xe8,0xe0,0x4,0x0,0xd6,0xcb,0xf1,0x1,0xe8,0x1,0xff,0x10,0xd7,0x11,0x18,0xe8,0xef,0x16,0x6,0xe4,0x6,0xf2,0xe8,0xf7,0xf0,0xbc,0x3,0x6,0xf,0xff,0xa,0xff,0xf1,0xfc,0xf6,0xf,0x81,0x2e,0xf2,0xb2,0x7,0x29,0x3e,0xf,0xf8,0x6,0x1,0xed,0x7,0xfd,0xb,0xe1,0xf5,0x10,0xff,0xeb,0x16,0xfd,0xf3,0xa,0xf9,0xf9,0x22,0xf,0xfe,0xed,0x7,0xfb,0xf0,0x3,0xe6,0x1e,0xd6,0xf6,0x22,0xfc,0xd9,0xdf,0xa5,0xed,0xf9,0x6,0xf1,0xea,0x0,0xe0,0xf8,0xfc,0xeb,0xd1,0xf4,0xd5,0xd,0xe9,0x9,0xe7,0x1d,0xd,0xf8,0xe8,0xf5,0xec,0xfd,0xf9,0x27,0xd3,0xfe,0xd6,0xf8,0xed,0xb,0x0,0xee,0xd8,0xf,0xf8,0x4,0xf3,0xbd,0xf2,0x1a,0x10,0xe9,0xfc,0x9,0x25,0x3,0x11,0xa,0x22,0xfb,0xf,0xd,0x6,0x13,0xe5,0x6,0xdf,0x1,0xf7,0x15,0xe2,0xf1,0xa,0x2,0xf,0xdf,0xee,0xf7,0xf2,0xf3,0xfe,0xe,0xde,0xf8,0xf4,0xf,0xe1,0xfe,0x20,0xd,0xb,0xa,0x0,0x81,0x12,0xf5,0xe8,0xfa,0x7,0x4e,0xc,0xf9,0xe4,0x11,0xf9,0x1,0xc,0xef,0xe4,0xe8,0x7,0xeb,0xfa,0x26,0xf9,0x1b,0xa,0xe3,0xb,0x18,0x34,0xf2,0xb,0x2e,0xff,0xf2,0x18,0x1,0x30,0x7,0xd9,0x18,0x4,0x1,0xc2,0xd8,0x3,0xeb,0x24,0xb,0xfa,0xf7,0x0,0xfe,0xf5,0xa,0xe,0x3,0xf4,0xf7,0xff,0xa,0xea,0x44,0x21,0xff,0x2,0x1e,0xeb,0xf2,0x9,0xf9,0xe7,0x18,0xda,0xfb,0xf7,0x12,0x11,0xf7,0xb,0xee,0x5,0xfb,0x7,0xf9,0x10,0x0,0x12,0xdd,0x1b,0xfe,0xfb,0xfd,0xfc,0xe1,0xd2,0x5,0xc,0x8,0xf4,0x8,0xe0,0xf6,0xe9,0xf4,0xfa,0x22,0xee,0xeb,0xef,0x20,0xb,0xd7,0x1c,0xb,0x1,0xb,0xff,0xb,0x21,0xe4,0xe3,0xfa,0x2,0xf4,0xdf,0x0,0xee,0xf,0xa,0x7f,0xfb,0x8,0x49,0xf8,0xd1,0xde,0xd8,0xfc,0xfa,0xf5,0x18,0xa,0x4,0xf,0x1b,0x1,0x4,0x14,0x18,0xf8,0xdd,0xff,0x11,0x20,0xfc,0xf2,0xd1,0xf,0xf2,0xef,0xee,0x2,0xed,0xfe,0xc6,0x1b,0x1c,0xda,0x4,0xd,0x47,0x30,0x7,0x8,0xd8,0xf,0xf8,0xfc,0xd,0xfa,0xa,0xe3,0x16,0x10,0x15,0xfd,0x15,0xb,0x12,0xdb,0xf6,0xb,0xfe,0xe2,0xff,0x11,0xf9,0x3,0x2b,0xe7,0x26,0xee,0xe,0x11,0xf9,0x4,0xf7,0xf9,0x1b,0x0,0x2,0x24,0xfb,0xe8,0xed,0x13,0xea,0x2,0xf3,0x12,0x6,0x7,0xef,0x7,0xf0,0x13,0xf8,0xe9,0x23,0x6,0x5,0x13,0xfb,0xde,0x1d,0x18,0x8,0xe6,0xff,0x27,0x13,0xf2,0xef,0xff,0x5c,0xf3,0x37,0x1b,0x3c,0xc,0xe9,0x44,0x8b,0xf9,0x26,0xb0,0x3e,0x49,0x3b,0x12,0xe2,0xf4,0x1f,0xd6,0xa2,0xf6,0x14,0x48,0xc,0xfa,0xcb,0x29,0x6,0x2e,0xeb,0xe5,0x17,0xe5,0x41,0xe7,0xfa,0x4,0x33,0xb,0xcf,0xbe,0xba,0xa0,0xb,0xdb,0xbe,0xe6,0xc4,0x23,0xa3,0xf9,0x1a,0xe1,0xa2,0x37,0x5,0x1c,0xc0,0xfa,0xfe,0x26,0xd0,0xc5,0x6,0x2c,0xeb,0xe,0xf2,0x6,0xf7,0x9,0xf5,0xa0,0x5,0xe2,0x46,0x2c,0x6,0x31,0xdf,0xb1,0x3b,0x3d,0x5d,0x1d,0xff,0xf0,0x1,0xed,0xa0,0xd0,0xd9,0x1e,0xab,0xf3,0xe0,0xf6,0xe1,0x22,0xd8,0xe6,0xd5,0xb5,0xeb,0x33,0x7f,0x17,0x2d,0x2b,0xe4,0x1a,0x56,0xb5,0x21,0x18,0x10,0x2e,0xcf,0xeb,0x52,0x1b,0x26,0x72,0xa,0xe,0xfb,0x23,0xd4,0x5,0xff,0xfc,0x9,0xd8,0x12,0xfd,0xff,0xeb,0xfe,0xd,0xe9,0x7f,0xda,0xf4,0x41,0xef,0xd8,0xd1,0xdf,0xfc,0x2c,0xe1,0xa,0xf0,0x13,0xec,0xf4,0xa,0x7,0x17,0x1b,0xd9,0xd3,0xf0,0xee,0x6,0x3,0xf2,0xc6,0xe,0xf0,0xe3,0xeb,0x8,0x1,0xf2,0xc2,0xe2,0x1c,0xf4,0x1,0xee,0x2d,0x33,0xe,0xec,0xd0,0xf5,0xc,0xe0,0x9,0xb,0xef,0x2,0x7,0x2d,0x1,0xfa,0xf2,0x2,0x24,0xce,0xe5,0x8,0xb,0xfd,0xf7,0xe3,0xf6,0x22,0x11,0xde,0x2b,0x7,0x6,0xf4,0xd8,0xf5,0xdf,0x4,0xf0,0xf2,0x6,0x21,0xf5,0xfe,0xee,0xb,0xf5,0xc,0xf5,0x10,0xfa,0x4,0x11,0x2,0xdd,0xea,0xf5,0x1,0x16,0xf9,0xea,0xf1,0xe8,0xdc,0x13,0x1b,0x6,0xe5,0xf9,0x18,0x17,0xf6,0xea,0xfc,0xf2,0xf9,0x44,0xf9,0xf6,0xf1,0xf9,0xe,0xff,0x10,0x10,0x13,0xfc,0x7f,0xd7,0x9,0x48,0x3,0xcf,0xdc,0x4,0x10,0x5,0x1c,0x10,0x2,0xfc,0xf6,0x25,0xf9,0x3,0x3,0x0,0xe1,0x2,0x16,0xfc,0x3,0x3,0xfb,0xdb,0xb,0xff,0xf6,0xf4,0x5,0x2,0xf9,0xe5,0xf,0xf5,0xfd,0x2,0x16,0x2f,0x2f,0xf1,0x12,0x2,0x10,0xfe,0xfb,0x1f,0xdb,0xf4,0x1f,0x30,0x10,0x6,0x1,0xfa,0x0,0xf,0x9,0xf1,0x11,0xd,0x7,0x9,0xec,0x1b,0xd1,0x7,0xf6,0x3f,0xfe,0xfd,0xf8,0xfb,0xf7,0x11,0xf5,0x8,0x1,0xfd,0x2a,0xea,0xa,0xd9,0x1c,0xe,0xe9,0xce,0xfa,0xee,0x4,0xf4,0xf2,0xf6,0xfa,0xdd,0x15,0x1c,0xe4,0x10,0xfc,0x1e,0xe6,0x1d,0x1a,0xf6,0x2,0xf3,0x31,0xc,0xf3,0xcc,0x2d,0x13,0x24,0x32,0x0,0xe,0x6e,0xc6,0xb4,0xf6,0xc,0x38,0xd9,0xf8,0x5a,0xa9,0x56,0x63,0x43,0xc5,0x37,0x36,0xf6,0x35,0x12,0xcc,0x3b,0x17,0x30,0xf9,0xcc,0xda,0xb2,0xc6,0x1b,0x1b,0x9,0xe0,0xc6,0x18,0x1f,0x19,0xc5,0xf9,0x59,0x1d,0xd5,0x22,0x27,0x61,0x1b,0xc2,0xee,0xd6,0x53,0xf6,0x19,0xeb,0x4,0x13,0x1d,0xf5,0x7,0x41,0xd8,0x2e,0x3f,0x34,0xd6,0x4e,0xc7,0xd3,0x3e,0xff,0x75,0x49,0xd4,0x22,0x3d,0x21,0x11,0x67,0x93,0xf0,0x20,0x18,0xe8,0xf3,0xe2,0x2,0x3,0x57,0x0,0xd,0xe1,0xf1,0x1b,0x9,0xec,0xd9,0xc,0x2c,0xc3,0x8d,0xde,0xe8,0xe5,0x81,0xde,0x50,0x1c,0x93,0xe1,0x22,0xd1,0x1d,0x9,0x59,0xf2,0xd5,0xe3,0xc2,0x3c,0x46,0xec,0xe1,0xe8,0xc,0xd5,0x2c,0x20,0x18,0x4,0xd8,0x99,0x0,0x37,0x94,0xe1,0x15,0xf1,0xfa,0x17,0x16,0xcd,0x0,0x1e,0x1b,0x2c,0xac,0x18,0xb4,0x11,0xe8,0xd3,0xf,0x19,0xe2,0x37,0x36,0xd5,0xb2,0x18,0x8,0x3a,0x10,0xd8,0xf,0x57,0xa0,0xc8,0xe6,0x9e,0xd9,0x2e,0xd7,0x16,0x9f,0x12,0xff,0xf6,0x1c,0xb6,0xbc,0x4d,0x3,0x5,0xc2,0x18,0xee,0xfe,0x5,0x28,0xe7,0xd6,0xfd,0xbe,0x8,0xd9,0x1b,0xc4,0xb0,0x81,0xcb,0x2,0xed,0xf5,0xea,0x34,0xd2,0xfe,0x2c,0xfd,0x20,0x1d,0x3a,0xe8,0x8,0x24,0xc1,0x2b,0xd7,0x2a,0x13,0x2,0x5,0x5,0xca,0xf4,0xd2,0xe8,0xf1,0x35,0x33,0xf6,0x24,0x2d,0xc5,0x30,0x40,0xe,0x3f,0x3a,0x11,0x8,0xd8,0xd7,0x21,0xf1,0x24,0x11,0xe0,0x50,0x8,0xef,0x2,0xee,0x14,0x16,0xf9,0xe7,0x1e,0xd7,0xe8,0x13,0xf7,0xe0,0xe6,0xde,0x3a,0xb4,0x6e,0x11,0xc4,0x1c,0x61,0x54,0xba,0x24,0xa6,0x5f,0xec,0xe9,0x26,0x16,0x20,0x1d,0x18,0x3,0xb4,0x2a,0x43,0x38,0x28,0xf,0x1c,0x4e,0xfa,0xba,0xfa,0xc7,0xe,0xc,0xb8,0xfb,0xc4,0xd1,0x8,0xfd,0xe5,0xd1,0xd1,0xdb,0x11,0x32,0xb9,0x20,0xfd,0x17,0xf0,0x11,0xfb,0x0,0xda,0xf5,0xc1,0xfa,0xf3,0xe9,0xf0,0xc5,0xbf,0x16,0x0,0xf4,0x28,0x28,0xee,0xd9,0x3c,0xf5,0xf2,0x13,0x10,0xa,0x18,0x8,0x81,0xef,0xbb,0xde,0xfc,0xfa,0x15,0xf8,0xfb,0xe5,0xcd,0x8,0x2f,0xc,0xf7,0x14,0x44,0xe0,0x14,0x12,0x43,0xec,0xd,0x37,0x16,0x1a,0xf3,0x3c,0x12,0xc9,0x43,0x24,0x8,0x30,0x26,0xea,0xf4,0xfe,0xc,0xf9,0xf9,0xe3,0xc,0xea,0x2f,0x41,0xa5,0x5,0x6,0xbd,0x25,0x53,0x35,0x14,0xe7,0xb,0xc2,0xd7,0xe3,0xf3,0xee,0xe1,0xfa,0x24,0xd9,0x11,0x19,0x16,0xf5,0xe2,0xe6,0xd4,0x20,0xae,0xec,0x26,0x5,0xcc,0xf0,0xf6,0xd3,0xc2,0xfe,0xb,0xcb,0x4,0xec,0x26,0x18,0x17,0x1a,0xdf,0x22,0x20,0xee,0x2,0xb0,0xfc,0xf7,0x39,0xf2,0xe5,0x13,0xc1,0xd3,0x4,0xfe,0x9,0xdf,0x10,0x19,0xc6,0xde,0x6,0xe4,0xbd,0xec,0x25,0x12,0xf5,0x2f,0x1b,0x23,0xdf,0x30,0xd8,0xed,0xf7,0xc3,0xfc,0xd7,0xc,0x0,0x2,0xe7,0x25,0xa,0x31,0xf3,0xe2,0x6,0x1d,0xff,0x11,0x7f,0xe0,0x32,0x24,0x16,0x3,0x11,0xfb,0x3b,0x3,0xe8,0x29,0xfb,0xe4,0x23,0x27,0xfb,0x52,0xf1,0xfe,0xfa,0x1,0x8,0xeb,0x2e,0x11,0x16,0xe1,0xef,0xfd,0xb,0x15,0x1,0x1,0xf5,0x81,0x1d,0xff,0xdc,0xe8,0x6d,0x22,0x7,0x17,0x1b,0x14,0x17,0xdc,0xfe,0xe0,0xd5,0xfe,0xc,0x14,0x2e,0xf8,0xf2,0x18,0xa,0x16,0xf3,0x26,0xee,0xf2,0xb,0xe5,0xe9,0xfc,0xed,0xf4,0xfb,0x20,0x18,0x2,0x10,0xc2,0xc0,0xde,0x3,0x3,0x1a,0xef,0x6,0xea,0xc3,0x16,0xfa,0x25,0xa,0xe3,0xf2,0x10,0xff,0xd7,0xfe,0xf3,0xe6,0xef,0x2b,0x1c,0xeb,0x21,0xdd,0x14,0xe5,0xde,0xca,0x5,0xf5,0xf5,0xa,0xc,0xdf,0xb,0x1,0x15,0xfb,0xe5,0x17,0xfd,0x16,0xd9,0xeb,0x1f,0x5,0x8,0xf2,0xd,0xfc,0x15,0xed,0xfe,0x5,0x2,0xd0,0x11,0xd4,0x5,0xeb,0xa,0xef,0x8,0xd,0xe4,0xeb,0xff,0xa,0x36,0x41,0xf9,0xca,0x20,0x94,0x12,0xd8,0xb0,0x47,0x8,0x24,0x26,0x6,0x7,0xce,0x3f,0x5,0xc1,0x81,0xf1,0xea,0x89,0xbe,0xe3,0x16,0xd1,0x1d,0xe0,0x0,0xe9,0xcd,0x15,0xe8,0x56,0x19,0xce,0xd0,0xee,0x16,0x3b,0xfc,0xb7,0xec,0x20,0xd9,0xd0,0x11,0x2b,0xd9,0x24,0xdf,0xbb,0x1e,0xfa,0x32,0xdc,0x51,0x11,0xd9,0xe0,0xef,0x2d,0xf4,0xd4,0xed,0x1c,0xa,0xab,0xe0,0x16,0xd6,0xfb,0x1b,0xeb,0x43,0xa9,0xf5,0xee,0x1,0xc6,0x35,0xda,0xdf,0x54,0xfb,0xd9,0xb2,0x11,0xdb,0x1,0xe1,0x1f,0xa0,0xee,0xea,0xf5,0xf,0xdb,0x20,0x31,0xf,0xb7,0xe1,0x2e,0x17,0x1a,0x7,0x49,0x7d,0xf1,0xf4,0xe1,0x29,0x2,0x1e,0xfe,0xf1,0x25,0xcc,0x18,0xea,0x55,0xda,0xda,0xc0,0xf0,0xf8,0xf3,0xdd,0xe8,0x3e,0xe9,0xc3,0x12,0x2d,0xc6,0xc2,0x30,0xb2,0x8,0x17,0x18,0x38,0x82,0x67,0x22,0x97,0x20,0x49,0x45,0xa7,0xe5,0xc7,0x42,0x6,0xf4,0xf8,0x23,0xfa,0x2c,0xff,0xbc,0xbd,0x33,0x3f,0x18,0x9,0xe3,0xef,0x26,0xeb,0xc8,0xcf,0xe0,0xdf,0xf7,0xbf,0xee,0xe5,0xef,0xb9,0xfd,0x0,0xa3,0xab,0xe7,0xec,0x2f,0xbb,0x3,0xf4,0x1c,0xe0,0xf2,0x1e,0xc5,0xb7,0xbd,0xd6,0xf3,0xc,0x29,0x9a,0xd3,0xfd,0xfc,0xcd,0xf6,0xf,0x3a,0xf6,0xca,0x1a,0x32,0xd4,0x21,0x38,0x17,0x4d,0x21,0x81,0x5,0xba,0xa,0xb,0xf0,0x0,0xf,0xe3,0xfb,0xcb,0x20,0x28,0xf6,0x22,0xe6,0x71,0x8,0x25,0x27,0x57,0x13,0x18,0xe4,0xe,0xe2,0xf8,0x8,0xf9,0xdb,0x3d,0x2f,0xe4,0x31,0x4,0xf9,0xd,0xee,0xfe,0xf2,0xac,0xf6,0xf1,0xde,0x16,0x4,0x15,0x1b,0xfe,0xe4,0xb,0x98,0x42,0xd8,0x81,0x8,0x25,0x26,0xeb,0xec,0xe0,0xfc,0xf4,0xde,0xfc,0xe9,0xe3,0x18,0xec,0xc,0xe9,0xea,0xeb,0xfd,0xf,0x10,0xe1,0x4,0x1d,0x10,0xd6,0xe8,0x15,0xf9,0xcf,0xe7,0x1,0xdb,0x26,0xc,0x1e,0xd4,0xf8,0xc6,0x1,0xfd,0x11,0xec,0xef,0xf8,0xc7,0x20,0x17,0xdb,0xc5,0xfb,0xe5,0x24,0x1b,0xe3,0xf5,0xd8,0xf0,0xf0,0xcd,0xe4,0xfd,0x1e,0xdb,0x1f,0xdf,0x4,0xb7,0xc,0xec,0x3,0x18,0x1,0xaf,0xc,0xe6,0x1f,0x7,0xd8,0x18,0x16,0x9,0xeb,0xd3,0x4,0x48,0x11,0xf3,0x4,0x22,0x17,0x0,0x1,0x13,0xe9,0xd7,0xd,0xdb,0x16,0xd2,0x22,0xfb,0xe0,0x1,0xf3,0x4,0xe4,0xe7,0xde,0xe1,0x11,0x14,0xe0,0xd6,0xf5,0x2d,0xe6,0xc,0x16,0xcc,0x12,0x18,0xdc,0xf4,0xeb,0x59,0x7,0xb9,0xe7,0x2,0xcb,0xce,0xb,0x3,0xfa,0x21,0x20,0x17,0x1e,0xf8,0xfb,0x1e,0x18,0xd,0xfc,0x3d,0xb6,0xf0,0x22,0x16,0x7,0xff,0xf0,0xb8,0xbc,0x17,0xf,0xce,0xf5,0xc4,0xe2,0x1c,0xf4,0x15,0xaf,0x6,0x12,0xee,0x0,0xd3,0x12,0x3,0x17,0xfb,0xf,0x21,0xe8,0xc9,0xfc,0xd3,0xfb,0xe9,0xf2,0x14,0xca,0xfa,0x10,0xc6,0xfa,0xef,0x15,0xc4,0x21,0xf,0x1f,0xe8,0xf3,0x22,0x0,0xfd,0x14,0xb0,0x1c,0xed,0xfd,0x2,0x3,0x3,0x19,0xf1,0x14,0xd3,0x19,0x44,0x2c,0x20,0x37,0x7f,0xf3,0xde,0x3b,0x50,0x2,0x11,0x16,0x1,0x19,0xef,0x25,0x0,0xe,0x2a,0xf4,0xf7,0x49,0xe9,0xe8,0x0,0xf6,0xd9,0x18,0xf2,0xfc,0xeb,0x1b,0x3a,0xdb,0x31,0xf3,0xb,0xee,0xc3,0x62,0xec,0xf5,0x4a,0xfb,0xd2,0x11,0x51,0xee,0x2,0xf6,0xf,0x1,0x19,0xff,0xeb,0xc4,0xe9,0x47,0xfc,0x25,0xb0,0x1c,0xfe,0xed,0xeb,0xdf,0xeb,0x12,0x3c,0x30,0xfa,0xe5,0x30,0xe3,0x2d,0xe0,0x2f,0xce,0xfe,0x4f,0x37,0xe8,0xa,0xf9,0x11,0xf8,0x1a,0xce,0x23,0x18,0xe9,0xdd,0xd2,0x2d,0xff,0xe3,0xdd,0xdb,0x34,0x43,0xfd,0xa,0xf4,0x8,0xa,0xaf,0x1d,0x0,0xa,0xf5,0x11,0x4,0xd0,0x28,0x30,0x1d,0x6b,0x22,0xa,0xee,0x2e,0x9,0x7,0x20,0x5,0xe6,0x23,0xd,0xf6,0xe,0xf8,0xf9,0x81,0xe7,0x5,0xd3,0xf9,0xd,0xe5,0xc,0xd2,0xe4,0xed,0x0,0x2d,0x12,0xd9,0xd1,0x0,0x8a,0x27,0xe0,0x9,0xfd,0x46,0xf8,0x67,0xfc,0x26,0x2b,0xe4,0xd1,0xd4,0xf8,0xf,0x0,0x1a,0xd6,0xe4,0x9,0x7f,0xff,0xfd,0x3d,0xf9,0xf3,0xda,0x58,0xe6,0x22,0xdf,0x4d,0x34,0xf8,0x14,0xdb,0xed,0x38,0x46,0x21,0x5,0xe7,0x3c,0x2b,0xe6,0xbf,0x2e,0x11,0xf1,0xe1,0x6,0xe9,0x0,0x1,0xc8,0x15,0xf7,0x46,0x9a,0x2a,0xf2,0x14,0x1a,0x17,0x11,0x1c,0x3f,0xfd,0x24,0x39,0x21,0xd6,0xfb,0xe5,0x20,0x2f,0xcb,0x5e,0x11,0xf8,0x2c,0x1a,0xdf,0x39,0x49,0xa5,0x31,0x1f,0x29,0xf5,0x1c,0x9,0x18,0xe8,0x2d,0xf8,0x1c,0xe7,0xfa,0xfb,0xf,0xe9,0xf4,0x4d,0x1c,0xcf,0xc2,0xf3,0xd8,0xe8,0xa5,0xdf,0x1b,0xf7,0x17,0x2,0xc,0xf2,0x2e,0xd9,0x29,0x10,0xd9,0xdb,0xf6,0x42,0x36,0x46,0x1d,0x18,0x29,0xfa,0xd4,0xe7,0xf1,0xfa,0xcc,0x16,0xf0,0xca,0x33,0x9,0xe2,0x11,0xd0,0xfb,0xcd,0xf,0x34,0x14,0xea,0x49,0x17,0x9,0x1,0x8,0x3,0xe5,0x15,0x4,0xef,0xe8,0x7,0x28,0xd9,0x28,0xd0,0xf,0xf9,0xea,0xee,0x1,0x7,0x27,0x27,0x42,0xdf,0x11,0x31,0x13,0x33,0x7,0x5,0x6,0xed,0x2c,0x33,0xef,0xc,0xf3,0x18,0xfb,0x5,0xf3,0xf,0x17,0x9,0xe1,0x15,0xf7,0x19,0x10,0xef,0xed,0xe4,0x2b,0xf,0x7,0xe4,0xe7,0x11,0xc9,0x6,0xe3,0xd6,0xe5,0xf3,0xe2,0xc7,0xd,0x28,0xeb,0x4a,0x0,0x2d,0xc,0x16,0x34,0xec,0xef,0xe1,0x6,0x11,0xf,0x13,0xa,0xe6,0xe5,0x81,0xfa,0xde,0xc8,0xd9,0xeb,0xfd,0x19,0xec,0x16,0x5,0xef,0x22,0xf8,0xca,0xe5,0xe7,0xc0,0xe2,0xfb,0xf7,0xf0,0x1,0xec,0xf9,0xf2,0xf5,0x22,0xc,0xe4,0x25,0x6,0xf1,0x11,0x1,0xd7,0xdb,0xed,0x2b,0x7,0x5,0x2a,0x27,0xee,0xef,0xd,0xf,0xf6,0x6,0xf1,0xe8,0xfd,0xf8,0x23,0x2,0x2,0xf6,0x3d,0x2,0x8,0xec,0x21,0xf0,0x17,0x1f,0x14,0x6,0xec,0x1a,0xee,0x21,0x1a,0xc,0xfd,0x3,0x12,0xf9,0xf8,0xf2,0xf9,0x42,0xfc,0xf,0xf3,0x15,0xf9,0xe4,0xfa,0x41,0xa,0x16,0x13,0xc,0xee,0x3,0x44,0x1a,0x8,0xf9,0x1d,0xfa,0xe5,0x8,0xfa,0xd7,0x3,0xf8,0xed,0xda,0xfb,0x24,0xf5,0x33,0x7,0x20,0x6,0xf5,0xa,0x2,0xf6,0x13,0xe9,0xfa,0x16,0x16,0x1b,0xfb,0x1,0x81,0xf1,0xee,0x3,0xf6,0xed,0xd5,0xa,0xe3,0x3,0xf9,0xe0,0x1a,0x16,0xed,0xe1,0x8,0xcc,0xfb,0xe9,0xf7,0xde,0x11,0x2,0xd9,0xef,0x15,0x22,0xe5,0xfc,0x29,0xf6,0x4,0xf0,0x2,0x81,0x1d,0xfa,0xcc,0xe,0x1b,0x4a,0x17,0xf,0xcd,0x10,0xee,0xf6,0x1,0x17,0xd,0xf,0x16,0xf1,0xd3,0x1b,0x17,0x16,0xf,0xf1,0xf,0xf,0x2e,0xf1,0x1b,0x33,0xf8,0x0,0xe,0xe,0x16,0xec,0xda,0x18,0xfd,0xf7,0xc9,0xc4,0xd,0xf3,0x2c,0xef,0xe8,0xf5,0xf1,0xf8,0x3,0xe3,0xe8,0xf6,0xf4,0xf2,0x1,0xfd,0xec,0x33,0xf,0xf2,0xda,0x3,0xf4,0xf,0xf6,0xfd,0xef,0xc,0xe0,0xb,0x9,0xfc,0x10,0xff,0x7,0x2,0xd,0xf6,0xe,0xd9,0x0,0xf3,0x6,0xe6,0x5,0xef,0x16,0xf9,0x0,0xf6,0xd4,0xfb,0x28,0xa,0x22,0x12,0xea,0x2,0x2,0xff,0x27,0xb,0x7,0xea,0xfd,0xfc,0x10,0xec,0x2,0x12,0x1,0x6,0x23,0xe8,0x30,0xfe,0x2c,0xe0,0xe7,0x2f,0xb0,0xd6,0x5,0xf1,0x23,0x1c,0xd,0x8,0xc0,0x16,0x39,0xb9,0xd5,0xfb,0xff,0x18,0xec,0x19,0xdc,0x24,0x10,0x2d,0xc,0xe0,0x4,0xe4,0x32,0xc9,0xee,0xcd,0x2,0x13,0xf4,0xe0,0xe3,0xc8,0x2c,0xeb,0xed,0xd,0xd5,0x15,0xf3,0x3a,0xff,0xe2,0xc3,0xf7,0xf6,0x17,0xd1,0xfd,0xec,0x11,0x12,0xa7,0x1c,0x12,0x3,0x9,0xd6,0x4,0xda,0xf,0xe7,0xc5,0x1a,0xee,0x2,0x10,0xe5,0x3f,0x14,0xee,0x1e,0x11,0x39,0xf7,0x21,0xd6,0xdc,0xe6,0xb9,0xde,0xf5,0xf7,0xac,0xfb,0xf3,0x1a,0xd,0x22,0xe,0x8,0xe3,0x2,0x9,0x2,0x7f,0x19,0x32,0x28,0xf9,0xc,0x2d,0xf7,0x11,0xec,0x18,0x6,0xee,0xc4,0x3c,0xfc,0xfd,0x65,0x0,0x0,0x0,0x0,0x0,0x0,0x0,0x0,0x0,0x0,0x0,0x0,0x0,0x0,0x6,0x0,0x8,0x0,0x4,0x0,0x6,0x0,0x0,0x0,0x4,0x0,0x0,0x0,0x80,0x1,0x0,0x0,0x14,0xab,0xe,0xcc,0xfc,0xd0,0x1c,0x46,0x43,0xe2,0x17,0xd0,0x3f,0xe2,0x2d,0xdb,0xe2,0x39,0xe9,0xad,0xf1,0xde,0xe8,0x1b,0xe7,0xc5,0x13,0x19,0x25,0xbd,0xf,0x7,0xb,0x48,0x0,0x3b,0x4b,0xdb,0x51,0xbe,0x16,0x45,0x1,0xb3,0xa2,0x28,0x48,0x5,0x7f,0xfe,0x2e,0x3,0x48,0xce,0xe0,0x1f,0xdd,0x16,0xcf,0x35,0xce,0xd6,0xde,0x28,0x18,0xb,0xc8,0xf1,0xa9,0x1f,0xe2,0xc7,0x67,0x9a,0xcf,0x40,0xa5,0xf8,0x3,0x96,0xd6,0xfc,0xc2,0xca,0xb3,0x11,0xc5,0x44,0x6b,0x6a,0x19,0x3b,0x2c,0xc4,0x32,0x63,0x7a,0x49,0xe0,0xde,0x81,0xbe,0x10,0xf3,0x34,0xc,0xaa,0x5d,0x3d,0xc1,0x2a,0xb6,0xca,0xf8,0x10,0xf,0x2f,0xf6,0xe5,0x2e,0x30,0x13,0xb2,0x31,0xbc,0xe5,0x49,0x29,0xa5,0x1f,0xae,0x38,0xc1,0xfd,0xc1,0x3e,0xe0,0xd2,0x71,0x5e,0x58,0xe0,0x2d,0xea,0x6,0xa6,0xc2,0xa2,0xb6,0x43,0x3d,0x57,0x81,0x16,0xd9,0x45,0x1e,0x19,0x26,0x30,0x26,0x37,0x5e,0x2e,0x7a,0xac,0xbd,0x3d,0xfb,0xf9,0x36,0xd9,0x43,0xe6,0xf7,0xc2,0x35,0x53,0xec,0x99,0xee,0xbb,0xc6,0x83,0xc2,0x91,0x2c,0x50,0x35,0x1e,0x30,0xdb,0x39,0x4,0x28,0xd8,0xff,0x50,0xf,0x1b,0xfa,0x7f,0x1c,0x1a,0xcd,0xd7,0xc0,0xe0,0x50,0x20,0xdb,0x5b,0x56,0xd7,0xfe,0x24,0xe9,0xfd,0xfa,0xc2,0xf3,0x3,0xa8,0xcc,0xc4,0x28,0x5a,0xbf,0xe,0xf5,0xb8,0x8,0x29,0xb4,0xde,0x13,0xd0,0x12,0xc6,0x6b,0xd9,0xac,0x27,0xee,0xed,0x28,0x57,0xab,0x3a,0x28,0x40,0xc6,0x16,0x30,0xba,0xad,0x71,0xe3,0x4d,0xd8,0x66,0x43,0x5c,0xe,0xa0,0xf8,0xe5,0xeb,0xff,0x36,0x21,0xc4,0x59,0xcd,0x64,0xfc,0x71,0x18,0x19,0x51,0xb8,0xc9,0xf9,0xb7,0xe9,0xff,0xa4,0x59,0xb8,0x3c,0x81,0xcf,0x44,0xf,0xbd,0xca,0x89,0x35,0xbf,0x26,0x16,0xb,0xc2,0xcf,0xbc,0xaa,0x62,0x40,0xcf,0x3e,0x16,0x75,0x4c,0x28,0x31,0x21,0x2f,0x3b,0x4a,0x96,0xe1,0x41,0xfc,0xfe,0x2,0x67,0x8c,0xeb,0x5c,0x48,0xaf,0xf8,0xbc,0x4b,0xa6,0x6b,0x4,0x43,0xab,0xaf,0xa2,0xc1,0x52,0xa,0x78,0x76,0xf8,0xb4,0x1e,0x30,0xa1,0xc4,0x70,0xc4,0x7f,0xcf,0xcd,0x29,0x52,0x66,0xf1,0xae,0x54,0xd4,0xd0,0xf7,0x29,0xa,0x66,0x2,0x2e,0xf0,0xdf,0x64,0xaf,0x9f,0xb8,0xc2,0xa7,0x58,0xd2,0x2d,0x98,0x4c,0x90,0xf9,0xff,0xff,0x1,0x0,0x0,0x0,0x10,0x0,0x0,0x0,0xc,0x0,0x14,0x0,0x4,0x0,0x8,0x0,0xc,0x0,0x10,0x0,0xc,0x0,0x0,0x0,0x68,0x2,0x0,0x0,0x58,0x2,0x0,0x0,0x4c,0x2,0x0,0x0,0x4,0x0,0x0,0x0,0xb,0x0,0x0,0x0,0x24,0x2,0x0,0x0,0xe4,0x1,0x0,0x0,0x8c,0x1,0x0,0x0,0x54,0x1,0x0,0x0,0x20,0x1,0x0,0x0,0xec,0x0,0x0,0x0,0xb8,0x0,0x0,0x0,0x90,0x0,0x0,0x0,0x68,0x0,0x0,0x0,0x40,0x0,0x0,0x0,0x4,0x0,0x0,0x0,0x52,0xfe,0xff,0xff,0x0,0x0,0x0,0x8,0x2,0x0,0x0,0x0,0x1c,0x0,0x0,0x0,0x10,0x0,0x0,0x0,0x4,0x0,0x0,0x0,0x96,0xfe,0xff,0xff,0x0,0x0,0x0,0x1,0x1,0x0,0x0,0x0,0x15,0x0,0x0,0x0,0x3,0x0,0x0,0x0,0x14,0x0,0x0,0x0,0x2,0x0,0x0,0x0,0xff,0xff,0xff,0xff,0xe,0xff,0xff,0xff,0x4,0x0,0x0,0x0,0x10,0x0,0x0,0x0,0x4,0x0,0x0,0x0,0x1,0x0,0x0,0x0,0x14,0x0,0x0,0x0,0x2,0x0,0x0,0x0,0x13,0x0,0x0,0x0,0x5,0x0,0x0,0x0,0x32,0xff,0xff,0xff,0x6,0x0,0x0,0x0,0x10,0x0,0x0,0x0,0x4,0x0,0x0,0x0,0x1,0x0,0x0,0x0,0x13,0x0,0x0,0x0,0x2,0x0,0x0,0x0,0x12,0x0,0x0,0x0,0x6,0x0,0x0,0x0,0x56,0xff,0xff,0xff,0x4,0x0,0x0,0x0,0x10,0x0,0x0,0x0,0x4,0x0,0x0,0x0,0x1,0x0,0x0,0x0,0x12,0x0,0x0,0x0,0x2,0x0,0x0,0x0,0x11,0x0,0x0,0x0,0x7,0x0,0x0,0x0,0xf6,0xfe,0xff,0xff,0x0,0x0,0x0,0x15,0x1,0x0,0x0,0x0,0x18,0x0,0x0,0x0,0xc,0x0,0x0,0x0,0x4,0x0,0x0,0x0,0xa8,0xfa,0xff,0xff,0x1,0x0,0x0,0x0,0x11,0x0,0x0,0x0,0x2,0x0,0x0,0x0,0x10,0x0,0x0,0x0,0x4,0x0,0x0,0x0,0x26,0xff,0xff,0xff,0x0,0x0,0x0,0x1b,0x5,0x0,0x0,0x0,0x18,0x0,0x0,0x0,0xc,0x0,0x0,0x0,0x4,0x0,0x0,0x0,0xd8,0xfa,0xff,0xff,0x1,0x0,0x0,0x0,0x10,0x0,0x0,0x0,0x2,0x0,0x0,0x0,0xf,0x0,0x0,0x0,0xa,0x0,0x0,0x0,0xda,0xff,0xff,0xff,0x4,0x0,0x0,0x0,0x10,0x0,0x0,0x0,0x4,0x0,0x0,0x0,0x1,0x0,0x0,0x0,0xf,0x0,0x0,0x0,0x2,0x0,0x0,0x0,0xe,0x0,0x0,0x0,0x8,0x0,0x0,0x0,0x0,0x0,0xa,0x0,0x10,0x0,0x4,0x0,0x8,0x0,0xc,0x0,0xa,0x0,0x0,0x0,0x3,0x0,0x0,0x0,0x10,0x0,0x0,0x0,0x4,0x0,0x0,0x0,0x1,0x0,0x0,0x0,0xe,0x0,0x0,0x0,0x2,0x0,0x0,0x0,0xd,0x0,0x0,0x0,0x9,0x0,0x0,0x0,0x0,0x0,0xe,0x0,0x1a,0x0,0x8,0x0,0xc,0x0,0x10,0x0,0x7,0x0,0x14,0x0,0xe,0x0,0x0,0x0,0x0,0x0,0x0,0x8,0x2,0x0,0x0,0x0,0x28,0x0,0x0,0x0,0x1c,0x0,0x0,0x0,0x10,0x0,0x0,0x0,0x0,0x0,0xa,0x0,0x8,0x0,0x0,0x0,0x0,0x0,0x7,0x0,0xa,0x0,0x0,0x0,0x0,0x0,0x0,0x1,0x1,0x0,0x0,0x0,0xd,0x0,0x0,0x0,0x3,0x0,0x0,0x0,0xc,0x0,0x0,0x0,0x3,0x0,0x0,0x0,0xff,0xff,0xff,0xff,0x0,0x0,0xe,0x0,0x18,0x0,0x8,0x0,0xc,0x0,0x10,0x0,0x7,0x0,0x14,0x0,0xe,0x0,0x0,0x0,0x0,0x0,0x0,0x15,0x1,0x0,0x0,0x0,0x18,0x0,0x0,0x0,0xc,0x0,0x0,0x0,0x4,0x0,0x0,0x0,0xc0,0xfb,0xff,0xff,0x1,0x0,0x0,0x0,0xc,0x0,0x0,0x0,0x2,0x0,0x0,0x0,0x0,0x0,0x0,0x0,0xb,0x0,0x0,0x0,0x0,0x0,0xa,0x0,0xc,0x0,0x0,0x0,0x4,0x0,0x8,0x0,0xa,0x0,0x0,0x0,0x10,0x0,0x0,0x0,0x4,0x0,0x0,0x0,0x1,0x0,0x0,0x0,0xb,0x0,0x0,0x0,0x1,0x0,0x0,0x0,0x1,0x0,0x0,0x0,0x1,0x0,0x0,0x0,0x15,0x0,0x0,0x0,0x2,0x0,0x0,0x0,0x0,0x0,0x0,0x0,0x1,0x0,0x0,0x0,0x16,0x0,0x0,0x0,0x4c,0x6,0x0,0x0,0xec,0x5,0x0,0x0,0x94,0x5,0x0,0x0,0x38,0x4,0x0,0x0,0x0,0x4,0x0,0x0,0xc0,0x3,0x0,0x0,0x8c,0x3,0x0,0x0,0x68,0x3,0x0,0x0,0x44,0x3,0x0,0x0,0x20,0x3,0x0,0x0,0xfc,0x2,0x0,0x0,0xb4,0x2,0x0,0x0,0x70,0x2,0x0,0x0,0x2c,0x2,0x0,0x0,0xe8,0x1,0x0,0x0,0x9c,0x1,0x0,0x0,0x58,0x1,0x0,0x0,0x14,0x1,0x0,0x0,0xd8,0x0,0x0,0x0,0x8c,0x0,0x0,0x0,0x48,0x0,0x0,0x0,0x4,0x0,0x0,0x0,0x22,0xfa,0xff,0xff,0x0,0x0,0x9,0x1,0x2c,0x0,0x0,0x0,0x4,0x0,0x0,0x0,0xc,0xfa,0xff,0xff,0x18,0x0,0x0,0x0,0x4,0x0,0x0,0x0,0x1,0x0,0x0,0x0,0xd9,0xff,0xff,0xff,0xff,0xff,0xff,0xff,0x0,0x0,0x0,0x0,0x1,0x0,0x0,0x0,0xce,0xeb,0x7a,0x3e,0x2,0x0,0x0,0x0,0x1,0x0,0x0,0x0,0x6,0x0,0x0,0x0,0x62,0xfa,0xff,0xff,0x0,0x0,0x9,0x1,0x2c,0x0,0x0,0x0,0x4,0x0,0x0,0x0,0x4c,0xfa,0xff,0xff,0x18,0x0,0x0,0x0,0x4,0x0,0x0,0x0,0x1,0x0,0x0,0x0,0xfd,0xff,0xff,0xff,0xff,0xff,0xff,0xff,0x0,0x0,0x0,0x0,0x1,0x0,0x0,0x0,0x2f,0x1c,0x17,0x3e,0x2,0x0,0x0,0x0,0x1,0x0,0x0,0x0,0x40,0x0,0x0,0x0,0xa2,0xfa,0xff,0xff,0x0,0x0,0x9,0x1,0x2c,0x0,0x0,0x0,0x4,0x0,0x0,0x0,0x8c,0xfa,0xff,0xff,0x18,0x0,0x0,0x0,0x4,0x0,0x0,0x0,0x1,0x0,0x0,0x0,0xfd,0xff,0xff,0xff,0xff,0xff,0xff,0xff,0x0,0x0,0x0,0x0,0x1,0x0,0x0,0x0,0x2f,0x1c,0x17,0x3e,0x4,0x0,0x0,0x0,0x1,0x0,0x0,0x0,0x40,0x0,0x0,0x0,0x1,0x0,0x0,0x0,0x1,0x0,0x0,0x0,0xea,0xfa,0xff,0xff,0x0,0x0,0x9,0x1,0x28,0x0,0x0,0x0,0x4,0x0,0x0,0x0,0xd4,0xfa,0xff,0xff,0x14,0x0,0x0,0x0,0x4,0x0,0x0,0x0,0x1,0x0,0x0,0x0,0xfd,0xff,0xff,0xff,0xff,0xff,0xff,0xff,0x1,0x0,0x0,0x0,0x2f,0x1c,0x17,0x3e,0x1,0x0,0x0,0x0,0x40,0x0,0x0,0x0,0x22,0xfb,0xff,0xff,0x0,0x0,0x9,0x1,0x2c,0x0,0x0,0x0,0x4,0x0,0x0,0x0,0xc,0xfb,0xff,0xff,0x18,0x0,0x0,0x0,0x4,0x0,0x0,0x0,0x1,0x0,0x0,0x0,0xfd,0xff,0xff,0xff,0xff,0xff,0xff,0xff,0x0,0x0,0x0,0x0,0x1,0x0,0x0,0x0,0x2f,0x1c,0x17,0x3e,0x2,0x0,0x0,0x0,0x1,0x0,0x0,0x0,0x40,0x0,0x0,0x0,0x62,0xfb,0xff,0xff,0x0,0x0,0x9,0x1,0x2c,0x0,0x0,0x0,0x4,0x0,0x0,0x0,0x4c,0xfb,0xff,0xff,0x18,0x0,0x0,0x0,0x4,0x0,0x0,0x0,0x1,0x0,0x0,0x0,0xfd,0xff,0xff,0xff,0xff,0xff,0xff,0xff,0x0,0x0,0x0,0x0,0x1,0x0,0x0,0x0,0x39,0xe3,0xbc,0x3f,0x2,0x0,0x0,0x0,0x1,0x0,0x0,0x0,0x40,0x0,0x0,0x0,0xa2,0xfb,0xff,0xff,0x0,0x0,0x9,0x1,0x2c,0x0,0x0,0x0,0x4,0x0,0x0,0x0,0x8c,0xfb,0xff,0xff,0x18,0x0,0x0,0x0,0x4,0x0,0x0,0x0,0x1,0x0,0x0,0x0,0xfd,0xff,0xff,0xff,0xff,0xff,0xff,0xff,0x0,0x0,0x0,0x0,0x1,0x0,0x0,0x0,0x69,0xb2,0xe2,0x3e,0x4,0x0,0x0,0x0,0x1,0x0,0x0,0x0,0x40,0x0,0x0,0x0,0x1,0x0,0x0,0x0,0xa,0x0,0x0,0x0,0xea,0xfb,0xff,0xff,0x0,0x0,0x9,0x1,0x28,0x0,0x0,0x0,0x4,0x0,0x0,0x0,0xd4,0xfb,0xff,0xff,0x14,0x0,0x0,0x0,0x4,0x0,0x0,0x0,0x1,0x0,0x0,0x0,0xfd,0xff,0xff,0xff,0xff,0xff,0xff,0xff,0x1,0x0,0x0,0x0,0x69,0xb2,0xe2,0x3e,0x3,0x0,0x0,0x0,0x1,0x0,0x0,0x0,0x40,0x0,0x0,0x0,0xa,0x0,0x0,0x0,0x2a,0xfc,0xff,0xff,0x0,0x0,0x9,0x1,0x28,0x0,0x0,0x0,0x4,0x0,0x0,0x0,0x14,0xfc,0xff,0xff,0x14,0x0,0x0,0x0,0x4,0x0,0x0,0x0,0x1,0x0,0x0,0x0,0xfd,0xff,0xff,0xff,0xff,0xff,0xff,0xff,0x1,0x0,0x0,0x0,0x69,0xb2,0xe2,0x3e,0x3,0x0,0x0,0x0,0x1,0x0,0x0,0x0,0xa,0x0,0x0,0x0,0x40,0x0,0x0,0x0,0x6a,0xfc,0xff,0xff,0x0,0x0,0x9,0x1,0x28,0x0,0x0,0x0,0x4,0x0,0x0,0x0,0x54,0xfc,0xff,0xff,0x14,0x0,0x0,0x0,0x4,0x0,0x0,0x0,0x1,0x0,0x0,0x0,0x80,0xff,0xff,0xff,0xff,0xff,0xff,0xff,0x1,0x0,0x0,0x0,0x5d,0x12,0x14,0x3f,0x3,0x0,0x0,0x0,0x1,0x0,0x0,0x0,0xa,0x0,0x0,0x0,0x80,0x0,0x0,0x0,0xaa,0xfc,0xff,0xff,0x0,0x0,0x9,0x1,0x2c,0x0,0x0,0x0,0x4,0x0,0x0,0x0,0x94,0xfc,0xff,0xff,0x18,0x0,0x0,0x0,0x4,0x0,0x0,0x0,0x1,0x0,0x0,0x0,0x80,0xff,0xff,0xff,0xff,0xff,0xff,0xff,0x0,0x0,0x0,0x0,0x1,0x0,0x0,0x0,0x3,0x9e,0x92,0x3c,0x3,0x0,0x0,0x0,0x1,0x0,0x0,0x0,0xa,0x0,0x0,0x0,0x80,0x0,0x0,0x0,0x9e,0xfd,0xff,0xff,0x0,0x0,0x2,0x1,0x10,0x0,0x0,0x0,0x9,0x0,0x0,0x0,0x4,0x0,0x0,0x0,0x50,0xff,0xff,0xff,0x1,0x0,0x0,0x0,0x2,0x0,0x0,0x0,0xbe,0xfd,0xff,0xff,0x0,0x0,0x2,0x1,0x10,0x0,0x0,0x0,0x8,0x0,0x0,0x0,0x4,0x0,0x0,0x0,0x70,0xff,0xff,0xff,0x1,0x0,0x0,0x0,0x3,0x0,0x0,0x0,0xde,0xfd,0xff,0xff,0x0,0x0,0x2,0x1,0x10,0x0,0x0,0x0,0x7,0x0,0x0,0x0,0x4,0x0,0x0,0x0,0x90,0xff,0xff,0xff,0x1,0x0,0x0,0x0,0x4,0x0,0x0,0x0,0xfe,0xfd,0xff,0xff,0x0,0x0,0x2,0x1,0x10,0x0,0x0,0x0,0x6,0x0,0x0,0x0,0x4,0x0,0x0,0x0,0xb0,0xff,0xff,0xff,0x1,0x0,0x0,0x0,0x1,0x0,0x0,0x0,0x1e,0xfe,0xff,0xff,0x0,0x0,0x2,0x1,0x10,0x0,0x0,0x0,0x5,0x0,0x0,0x0,0x4,0x0,0x0,0x0,0xd0,0xff,0xff,0xff,0x5,0x0,0x0,0x0,0x1,0x0,0x0,0x0,0x40,0x0,0x0,0x0,0x1,0x0,0x0,0x0,0x1,0x0,0x0,0x0,0x1,0x0,0x0,0x0,0x4e,0xfe,0xff,0xff,0x0,0x0,0x2,0x1,0x14,0x0,0x0,0x0,0x4,0x0,0x0,0x0,0x8,0x0,0x0,0x0,0x4,0x0,0x4,0x0,0x4,0x0,0x0,0x0,0x1,0x0,0x0,0x0,0x2,0x0,0x0,0x0,0x0,0x0,0x16,0x0,0x10,0x0,0x0,0x0,0x6,0x0,0x8,0x0,0x0,0x0,0xc,0x0,0x0,0x0,0x0,0x0,0x0,0x0,0x7,0x0,0x16,0x0,0x0,0x0,0x0,0x0,0x9,0x1,0x3,0x0,0x0,0x0,0x4,0x0,0x0,0x0,0xc4,0xfd,0xff,0xff,0x18,0x0,0x0,0x0,0x4,0x0,0x0,0x0,0x1,0x0,0x0,0x0,0x80,0xff,0xff,0xff,0xff,0xff,0xff,0xff,0x0,0x0,0x0,0x0,0x1,0x0,0x0,0x0,0x67,0x9a,0xcd,0x39,0xbe,0xfe,0xff,0xff,0x0,0x0,0x9,0x1,0x2c,0x1,0x0,0x0,0x2,0x0,0x0,0x0,0x4,0x0,0x0,0x0,0xfc,0xfd,0xff,0xff,0x18,0x0,0x0,0x0,0x4,0x0,0x0,0x0,0x1,0x0,0x0,0x0,0x0,0x0,0x0,0x0,0x0,0x0,0x0,0x0,0x0,0x0,0x0,0x0,0x40,0x0,0x0,0x0,0x7a,0xf8,0x29,0x3b,0x67,0x5,0x17,0x3b,0x59,0xdb,0x3,0x3b,0x28,0x7c,0x30,0x3b,0x4a,0xce,0x16,0x3b,0xc3,0xce,0x28,0x3b,0xe4,0x87,0x18,0x3b,0x53,0xc2,0x83,0x3b,0xb1,0xdc,0x63,0x3b,0x50,0x4e,0x5c,0x3b,0x22,0x44,0x69,0x3b,0xf7,0x24,0xfc,0x3a,0xe0,0xcd,0x33,0x3b,0x13,0x88,0x53,0x3b,0x70,0x74,0xa,0x3b,0x61,0x50,0x76,0x3b,0x3d,0xa7,0x8,0x3b,0x59,0xa1,0x78,0x3b,0x90,0x2b,0xe6,0x3a,0x6a,0x86,0xa,0x3b,0x7c,0xe1,0x2a,0x3b,0xf0,0x4,0x52,0x3b,0xe,0x78,0x13,0x3b,0xae,0x15,0x2d,0x3b,0xc2,0xff,0x2f,0x3b,0xda,0x37,0x39,0x3b,0xd1,0x88,0x2a,0x3b,0xd0,0xc2,0xa,0x3b,0x51,0x67,0x18,0x3b,0x90,0xd5,0x48,0x3b,0x7,0xa,0x1b,0x3b,0xa6,0x2,0x79,0x3b,0x82,0x58,0x4b,0x3b,0x4f,0x51,0xe,0x3b,0x2,0x18,0x36,0x3b,0xcd,0xf2,0x48,0x3b,0xa4,0x25,0x69,0x3b,0x29,0xc2,0x23,0x3b,0x7b,0x90,0x58,0x3b,0xa0,0x7c,0x11,0x3b,0x65,0xf7,0x7,0x3b,0x8b,0x4,0x12,0x3b,0x8e,0x35,0x73,0x3b,0x16,0x60,0x8e,0x3b,0x1b,0xb9,0x90,0x3b,0x4a,0x6d,0x95,0x3b,0xf7,0x3d,0xa,0x3b,0x3e,0xe2,0x85,0x3b,0xa7,0x49,0x92,0x3b,0xe7,0x88,0x3,0x3b,0xd,0x99,0x5,0x3b,0x59,0xaf,0x16,0x3b,0x31,0x2,0x3e,0x3b,0x9f,0x39,0x78,0x3b,0x8b,0x3b,0x1,0x3b,0xef,0xa0,0x1d,0x3b,0x59,0x5d,0x4f,0x3b,0x33,0x50,0x36,0x3b,0x71,0x70,0x23,0x3b,0x12,0xd8,0x18,0x3b,0x11,0x14,0x3c,0x3b,0x3c,0x16,0x6a,0x3b,0xd7,0x86,0x88,0x3b,0x12,0x85,0x30,0x3b,0x2,0x0,0x0,0x0,0x40,0x0,0x0,0x0,0x80,0x0,0x0,0x0,0x0,0x0,0x16,0x0,0x14,0x0,0x8,0x0,0x6,0x0,0xc,0x0,0x0,0x0,0x10,0x0,0x0,0x0,0x0,0x0,0x0,0x0,0x7,0x0,0x16,0x0,0x0,0x0,0x0,0x0,0x9,0x1,0x40,0x0,0x0,0x0,0x1,0x0,0x0,0x0,0x4,0x0,0x0,0x0,0x54,0xff,0xff,0xff,0x14,0x0,0x0,0x0,0x4,0x0,0x0,0x0,0x1,0x0,0x0,0x0,0x0,0x0,0x0,0x0,0x0,0x0,0x0,0x0,0x6,0x0,0x0,0x0,0xed,0x73,0x28,0x3b,0x2d,0x41,0xe7,0x3a,0xf3,0xc1,0xf7,0x3a,0x71,0x46,0xc1,0x3a,0xd2,0xb0,0xa3,0x3a,0x70,0x6b,0x91,0x3a,0x2,0x0,0x0,0x0,0x6,0x0,0x0,0x0,0x40,0x0,0x0,0x0,0xba,0xff,0xff,0xff,0x0,0x0,0x9,0x1,0x2c,0x0,0x0,0x0,0x4,0x0,0x0,0x0,0xa4,0xff,0xff,0xff,0x18,0x0,0x0,0x0,0x4,0x0,0x0,0x0,0x1,0x0,0x0,0x0,0xf1,0xff,0xff,0xff,0xff,0xff,0xff,0xff,0x0,0x0,0x0,0x0,0x1,0x0,0x0,0x0,0xe2,0xe9,0x3,0x3d,0x3,0x0,0x0,0x0,0x1,0x0,0x0,0x0,0xa,0x0,0x0,0x0,0x80,0x0,0x0,0x0,0x0,0x0,0x16,0x0,0x10,0x0,0x8,0x0,0x6,0x0,0x0,0x0,0x0,0x0,0xc,0x0,0x0,0x0,0x0,0x0,0x0,0x0,0x7,0x0,0x16,0x0,0x0,0x0,0x0,0x0,0x9,0x1,0x34,0x0,0x0,0x0,0x10,0x0,0x0,0x0,0xc,0x0,0xc,0x0,0x0,0x0,0x0,0x0,0x4,0x0,0x8,0x0,0xc,0x0,0x0,0x0,0x14,0x0,0x0,0x0,0x4,0x0,0x0,0x0,0x1,0x0,0x0,0x0,0x80,0xff,0xff,0xff,0xff,0xff,0xff,0xff,0x1,0x0,0x0,0x0,0xc5,0x5b,0xca,0x3e,0x3,0x0,0x0,0x0,0x1,0x0,0x0,0x0,0xa,0x0,0x0,0x0,0x80,0x0,0x0,0x0,0x7,0x0,0x0,0x0,0x80,0x0,0x0,0x0,0x64,0x0,0x0,0x0,0x50,0x0,0x0,0x0,0x34,0x0,0x0,0x0,0x24,0x0,0x0,0x0,0x14,0x0,0x0,0x0,0x4,0x0,0x0,0x0,0xa8,0xff,0xff,0xff,0x0,0x0,0x0,0x6b,0x6b,0x0,0x0,0x0,0xb4,0xff,0xff,0xff,0x0,0x0,0x0,0x4a,0x4a,0x0,0x0,0x0,0xc0,0xff,0xff,0xff,0x0,0x0,0x0,0x16,0x16,0x0,0x0,0x0,0xcc,0xff,0xff,0xff,0x0,0x0,0x0,0x27,0x27,0x0,0x0,0x0,0xc,0x0,0x10,0x0,0x7,0x0,0x0,0x0,0x8,0x0,0xc,0x0,0xc,0x0,0x0,0x0,0x0,0x0,0x0,0x9,0x5,0x0,0x0,0x0,0x9,0x0,0x0,0x0,0xf4,0xff,0xff,0xff,0x0,0x0,0x0,0x12,0x12,0x0,0x0,0x0,0xc,0x0,0xc,0x0,0x7,0x0,0x0,0x0,0x0,0x0,0x8,0x0,0xc,0x0,0x0,0x0,0x0,0x0,0x0,0x13,0x13,0x0,0x0,0x0};
