#include <cstdint>

#include "model_post_ssm_int8_har_model_data.h"

alignas(16) const unsigned char g_model_post_ssm_int8_har_model_data[] = {0x28,0x0,0x0,0x0,0x54,0x46,0x4c,0x33,0x0,0x0,0x0,0x0,0x0,0x0,0x0,0x0,0x0,0x0,0x0,0x0,0x0,0x0,0x12,0x0,0x18,0x0,0x4,0x0,0x8,0x0,0xc,0x0,0x0,0x0,0x10,0x0,0x0,0x0,0x14,0x0,0x12,0x0,0x0,0x0,0x3,0x0,0x0,0x0,0x50,0x2d,0x0,0x0,0x30,0x24,0x0,0x0,0x68,0x0,0x0,0x0,0x4,0x0,0x0,0x0,0x2,0x0,0x0,0x0,0x38,0x0,0x0,0x0,0x4,0x0,0x0,0x0,0xd8,0xff,0xff,0xff,0x8,0x0,0x0,0x0,0xb,0x0,0x0,0x0,0x17,0x0,0x0,0x0,0x6b,0x65,0x65,0x70,0x5f,0x73,0x74,0x61,0x62,0x6c,0x65,0x68,0x6c,0x6f,0x5f,0x63,0x6f,0x6e,0x73,0x74,0x61,0x6e,0x74,0x0,0x8,0x0,0xc,0x0,0x4,0x0,0x8,0x0,0x8,0x0,0x0,0x0,0x8,0x0,0x0,0x0,0xa,0x0,0x0,0x0,0x13,0x0,0x0,0x0,0x6d,0x69,0x6e,0x5f,0x72,0x75,0x6e,0x74,0x69,0x6d,0x65,0x5f,0x76,0x65,0x72,0x73,0x69,0x6f,0x6e,0x0,0xc,0x0,0x0,0x0,0xbc,0x23,0x0,0x0,0x2c,0x22,0x0,0x0,0x8,0x2,0x0,0x0,0xf4,0x1,0x0,0x0,0xd0,0x1,0x0,0x0,0xbc,0x0,0x0,0x0,0xa8,0x0,0x0,0x0,0x84,0x0,0x0,0x0,0x60,0x0,0x0,0x0,0x3c,0x0,0x0,0x0,0x18,0x0,0x0,0x0,0x4,0x0,0x0,0x0,0x6,0xde,0xff,0xff,0x4,0x0,0x0,0x0,0x4,0x0,0x0,0x0,0x74,0x72,0x75,0x65,0x16,0xde,0xff,0xff,0x4,0x0,0x0,0x0,0x10,0x0,0x0,0x0,0x32,0x2e,0x30,0x2e,0x30,0x0,0x0,0x0,0x0,0x0,0x0,0x0,0x0,0x0,0x0,0x0,0x0,0x0,0x0,0x0,0x36,0xde,0xff,0xff,0x4,0x0,0x0,0x0,0x8,0x0,0x0,0x0,0x3,0x0,0x0,0x0,0x2,0x0,0x0,0x0,0x0,0x0,0x0,0x0,0x0,0x0,0x0,0x0,0x0,0x0,0x0,0x0,0x56,0xde,0xff,0xff,0x4,0x0,0x0,0x0,0xc,0x0,0x0,0x0,0x0,0x0,0x0,0x0,0x2,0x0,0x0,0x0,0x1,0x0,0x0,0x0,0x0,0x0,0x0,0x0,0x0,0x0,0x0,0x0,0x76,0xde,0xff,0xff,0x4,0x0,0x0,0x0,0x10,0x0,0x0,0x0,0x1,0x0,0x0,0x0,0x40,0x0,0x0,0x0,0x1,0x0,0x0,0x0,0xa,0x0,0x0,0x0,0x0,0x0,0x0,0x0,0x96,0xde,0xff,0xff,0x4,0x0,0x0,0x0,0x4,0x0,0x0,0x0,0x40,0x0,0x0,0x0,0xa6,0xde,0xff,0xff,0x4,0x0,0x0,0x0,0x0,0x1,0x0,0x0,0x0,0x0,0x0,0x0,0x1,0x0,0x0,0x0,0x2,0x0,0x0,0x0,0x3,0x0,0x0,0x0,0x4,0x0,0x0,0x0,0x5,0x0,0x0,0x0,0x6,0x0,0x0,0x0,0x7,0x0,0x0,0x0,0x8,0x0,0x0,0x0,0x9,0x0,0x0,0x0,0xa,0x0,0x0,0x0,0xb,0x0,0x0,0x0,0xc,0x0,0x0,0x0,0xd,0x0,0x0,0x0,0xe,0x0,0x0,0x0,0xf,0x0,0x0,0x0,0x10,0x0,0x0,0x0,0x11,0x0,0x0,0x0,0x12,0x0,0x0,0x0,0x13,0x0,0x0,0x0,0x14,0x0,0x0,0x0,0x15,0x0,0x0,0x0,0x16,0x0,0x0,0x0,0x17,0x0,0x0,0x0,0x18,0x0,0x0,0x0,0x19,0x0,0x0,0x0,0x1a,0x0,0x0,0x0,0x1b,0x0,0x0,0x0,0x1c,0x0,0x0,0x0,0x1d,0x0,0x0,0x0,0x1e,0x0,0x0,0x0,0x1f,0x0,0x0,0x0,0x20,0x0,0x0,0x0,0x21,0x0,0x0,0x0,0x22,0x0,0x0,0x0,0x23,0x0,0x0,0x0,0x24,0x0,0x0,0x0,0x25,0x0,0x0,0x0,0x26,0x0,0x0,0x0,0x27,0x0,0x0,0x0,0x28,0x0,0x0,0x0,0x29,0x0,0x0,0x0,0x2a,0x0,0x0,0x0,0x2b,0x0,0x0,0x0,0x2c,0x0,0x0,0x0,0x2d,0x0,0x0,0x0,0x2e,0x0,0x0,0x0,0x2f,0x0,0x0,0x0,0x30,0x0,0x0,0x0,0x31,0x0,0x0,0x0,0x32,0x0,0x0,0x0,0x33,0x0,0x0,0x0,0x34,0x0,0x0,0x0,0x35,0x0,0x0,0x0,0x36,0x0,0x0,0x0,0x37,0x0,0x0,0x0,0x38,0x0,0x0,0x0,0x39,0x0,0x0,0x0,0x3a,0x0,0x0,0x0,0x3b,0x0,0x0,0x0,0x3c,0x0,0x0,0x0,0x3d,0x0,0x0,0x0,0x3e,0x0,0x0,0x0,0x3f,0x0,0x0,0x0,0x0,0x0,0x0,0x0,0xb6,0xdf,0xff,0xff,0x4,0x0,0x0,0x0,0x8,0x0,0x0,0x0,0x1,0x0,0x0,0x0,0x40,0x0,0x0,0x0,0x0,0x0,0x0,0x0,0x0,0x0,0x0,0x0,0x0,0x0,0x0,0x0,0xd6,0xdf,0xff,0xff,0x4,0x0,0x0,0x0,0x1,0x0,0x0,0x0,0x7f,0x0,0x0,0x0,0xe6,0xdf,0xff,0xff,0x4,0x0,0x0,0x0,0x0,0x20,0x0,0x0,0xe9,0x17,0x25,0xe1,0xcc,0xfa,0xcb,0x3,0xe5,0xeb,0xfe,0x1e,0xc,0x26,0xca,0xd5,0xf5,0x39,0x21,0xde,0xc9,0xf9,0xd1,0xee,0x20,0x9d,0xd4,0xf0,0x1d,0xed,0x2e,0xc2,0xfb,0xc8,0x2e,0xe9,0xa,0xeb,0x23,0xf1,0xf2,0xf1,0xb,0x11,0x40,0xec,0xed,0x1f,0x4e,0xf1,0xd0,0x2,0xee,0x1e,0xfd,0xd4,0xf1,0xb9,0xd1,0xec,0xfc,0xf0,0x3,0xee,0xd8,0x2e,0xf9,0x81,0xfc,0xe7,0x41,0xc6,0x42,0x3b,0xd,0xdb,0x27,0x31,0x1d,0xf3,0xfa,0x1,0x30,0xa3,0xd9,0xe7,0x11,0xb,0x2a,0xe7,0xe9,0x1e,0xa,0x25,0x19,0x2b,0x2e,0xe3,0xe4,0x2c,0x48,0x33,0xd5,0x34,0xeb,0x44,0xba,0x9e,0x28,0x24,0x1f,0x19,0xbd,0xf2,0x21,0x38,0xe6,0x24,0x1b,0x8,0xf0,0x16,0x3e,0xe3,0xb4,0x4a,0x33,0x33,0xda,0x4,0x31,0xde,0xd3,0xf2,0xef,0x26,0x36,0xfb,0xdc,0x5b,0x4d,0xf7,0xf5,0x53,0xb,0xf0,0x27,0x33,0x11,0x25,0x6,0x13,0x42,0xfc,0xe0,0x1a,0xe1,0x38,0xe3,0x3,0xf0,0xed,0x26,0x7f,0x13,0xcf,0x0,0x99,0x1,0xfa,0x28,0x1b,0x4c,0x35,0xe,0xff,0x32,0xfd,0xc3,0x2f,0xd6,0xd7,0x21,0x33,0xf,0xf0,0x44,0xe5,0x24,0xf6,0x4,0xd7,0x2,0xe5,0x1f,0xab,0xf3,0x8,0xf0,0xc5,0xea,0xa7,0x15,0x53,0x2,0x13,0xff,0x37,0xa,0x17,0xda,0xb4,0xff,0x5a,0x1,0xe0,0x4,0xee,0x32,0xea,0xfe,0xdf,0x4,0xe7,0xf6,0x3b,0x2,0xf7,0xa,0xb3,0x29,0xf3,0xc,0x36,0x3d,0xf0,0x30,0x27,0xf8,0x2a,0xf8,0x14,0x2,0xf,0x2c,0x16,0x55,0xe8,0x2,0xfa,0xb,0x46,0x53,0xf1,0xe2,0x2b,0xca,0x4,0xfd,0x27,0x5,0xe7,0x5,0xf,0xf0,0x2,0x9,0x2f,0x4b,0xfa,0xa2,0xce,0xb6,0x3f,0xe3,0xd9,0xfa,0x29,0xdd,0xed,0x10,0xd2,0xf7,0x19,0x1b,0x13,0x3a,0xe2,0x25,0xfa,0xed,0x11,0xe,0xe1,0x19,0xf,0xfe,0xdf,0xcf,0x26,0x2a,0x36,0x17,0x1b,0xe,0x1,0xce,0x19,0xc6,0x27,0xd,0xe7,0x3,0xe1,0xf9,0xd2,0xf3,0xe5,0xec,0xe4,0xfc,0x34,0x1c,0xb0,0xd1,0xff,0x1f,0x7,0x22,0x33,0x26,0x17,0x2f,0x0,0x17,0xe0,0x4e,0xff,0x2,0xc8,0x20,0x24,0x1a,0xe8,0xfa,0x6,0xfd,0x14,0xe8,0x4,0x6,0xe5,0x13,0x54,0x5,0x8,0x56,0xc5,0xea,0xb,0x1,0x58,0xc3,0xdd,0xb,0x20,0x13,0x1d,0xa9,0x2c,0xe,0x16,0xe5,0x20,0xdc,0x2d,0x21,0xfd,0x3a,0x81,0xbc,0x66,0x2b,0x42,0xff,0xf0,0x3,0x11,0x14,0xb,0xdd,0x36,0x1f,0xd2,0x14,0xeb,0x40,0x4,0xdd,0xdb,0xe7,0x2f,0xee,0x14,0xf7,0x1e,0x4,0xe2,0xb,0xec,0xe8,0x6,0xfd,0x7f,0x1f,0xe1,0xf6,0xe1,0xc9,0x24,0xe5,0xe3,0x7,0x3a,0xcf,0x0,0xe3,0xf1,0x2f,0x11,0x4,0x10,0x2d,0xe6,0xa,0x38,0xdf,0x5,0x24,0xd9,0x1c,0xea,0xe6,0xde,0xde,0xe7,0xb,0x8,0xd0,0xfe,0xf4,0xa3,0xee,0x11,0x2d,0x37,0x24,0x4,0x1f,0x3a,0xc,0xdd,0xf,0xc7,0x2a,0x15,0x18,0xb3,0xfd,0xff,0xfd,0x25,0x1e,0xec,0xe3,0x3,0x11,0x18,0xef,0x1,0x4,0x70,0xef,0x6,0x21,0xc2,0xfd,0x29,0xe5,0xe6,0x3,0x5,0xe7,0x1f,0xf0,0xc,0x7,0xe,0x18,0x2c,0xd2,0x23,0xfa,0x6,0xe,0x24,0x22,0xc7,0xd3,0x38,0xf2,0x41,0x17,0x5,0xf8,0xf2,0xc9,0xe6,0xd4,0x49,0x4c,0x28,0x2b,0x69,0x63,0x1a,0xb7,0x2f,0x18,0x19,0xdc,0x30,0x2,0x34,0xab,0xd1,0x30,0xb1,0xef,0x30,0xfc,0x21,0x36,0xba,0x34,0xf5,0xdd,0x5e,0xe,0xf2,0x1d,0x92,0xfa,0x2,0xe2,0x3,0x4b,0x2e,0xe3,0x7,0x24,0xe4,0xe4,0x1b,0xb6,0xe1,0xf8,0xe6,0x29,0x10,0xc5,0x5,0xff,0xcf,0x35,0xed,0x1,0x13,0x3,0xc7,0xb9,0xea,0xfa,0xbe,0x13,0xaf,0x14,0x55,0x2b,0x44,0xec,0xd0,0x38,0x1,0x0,0xe0,0x1a,0x28,0xfe,0xeb,0x1a,0x43,0x46,0x31,0x25,0x2d,0xe8,0xe3,0xfe,0x1c,0xfb,0x1,0x39,0xbe,0xc4,0xfb,0x1d,0x3c,0xe4,0x1,0x7f,0x1e,0x33,0x11,0xa7,0x27,0xfb,0xfd,0x27,0x2b,0x36,0x36,0xe9,0x3f,0x44,0xf1,0xdd,0x30,0x37,0x33,0xdb,0xf2,0xaf,0xdf,0x8,0x1b,0xcf,0xc2,0x86,0x19,0xe6,0xb8,0xd0,0xe3,0x20,0xc5,0xc,0xe8,0xf4,0xfe,0xe0,0x19,0xe4,0xe4,0xe9,0xf5,0xec,0xd4,0xea,0xc6,0xcb,0x22,0x2,0xf5,0x12,0xac,0xe0,0x16,0xe5,0x73,0xc9,0xfe,0xf5,0xdd,0xd7,0xa5,0x1b,0xe5,0xf2,0xff,0x3a,0xec,0xd6,0xee,0xec,0x22,0xe8,0x17,0xd2,0xd6,0xde,0xeb,0x9,0x45,0xd4,0xf5,0x11,0x53,0x0,0xc,0xf,0xf5,0x1d,0x5f,0x22,0xa2,0xfe,0x87,0x10,0xed,0xc3,0xdd,0x28,0x4c,0xdb,0xce,0xfc,0x11,0xec,0xe,0x9b,0x21,0x1,0xf0,0x32,0x11,0x23,0x16,0x1f,0xf5,0xef,0x2d,0xfd,0xc4,0xe9,0x81,0xc0,0xa,0x83,0xac,0x2a,0xdd,0xe6,0x7,0x1,0x37,0xf6,0x17,0x9a,0x2d,0x25,0xfb,0xdf,0xd0,0xc4,0xd6,0x6,0xd4,0x1d,0xea,0x11,0xa9,0xa9,0xf7,0xfe,0x2a,0xef,0xdb,0xd,0xcc,0xe7,0xf5,0x48,0x19,0xf1,0x23,0x29,0xe4,0xf5,0xd,0xef,0xd0,0xea,0xe4,0xcf,0xfb,0x10,0x1e,0xbe,0x4,0x1b,0x2,0x5b,0xf4,0x8,0xda,0x21,0xea,0xe1,0xcd,0xd8,0xf6,0x5a,0xa1,0x11,0x22,0x29,0xe8,0xd5,0xe7,0xfe,0x8,0x22,0xdf,0xff,0x3,0x5,0xee,0xd5,0xf4,0xfd,0xd,0xff,0x8,0xfb,0xa4,0xeb,0x1e,0x3,0x95,0x14,0xe4,0xfa,0xe4,0xf7,0x38,0x23,0xee,0x9e,0xfc,0xef,0xdc,0xeb,0xa,0xeb,0x13,0x25,0xf7,0xe8,0xe4,0x2c,0xa,0xf0,0x23,0x3e,0xfb,0xd,0x37,0xed,0x27,0xe,0x7f,0x5,0xcd,0xc3,0xb0,0xe2,0x32,0xfe,0x1,0xe4,0xdf,0xf4,0x22,0x4,0x15,0x26,0xe4,0x24,0x25,0x26,0x36,0xf2,0x2a,0x22,0x8,0xa,0x24,0x12,0xf4,0xf1,0xfd,0x15,0x2f,0xf7,0xe4,0x9,0x96,0xf2,0x2e,0x40,0xf2,0xa,0xfb,0x1,0x6,0xdf,0x30,0x33,0x20,0x0,0x32,0xed,0x1a,0xd8,0xd,0x88,0x1e,0x1,0x1,0x13,0x4,0xf7,0xb9,0xd8,0x10,0x1f,0x12,0xfa,0x1c,0xd8,0xa9,0xe0,0xb,0xfa,0xe4,0xe0,0x9,0xd8,0x2f,0xe,0xe2,0x2a,0x4f,0x43,0xd,0xec,0x18,0x1c,0xca,0xd6,0x13,0x21,0xfb,0xfa,0xe1,0x2d,0x7,0x16,0xe5,0xce,0x98,0xe,0xeb,0xfa,0x1c,0xc9,0xc,0xfd,0x13,0x3,0xd5,0xba,0xdd,0xfe,0xdf,0xa2,0xfb,0xff,0xe8,0xff,0x18,0xd8,0x63,0xc,0x3,0xc,0xcb,0xc,0x15,0xd,0x81,0x23,0xef,0xa9,0xc,0x27,0x2e,0x7,0xda,0x25,0x37,0xd9,0xff,0xb9,0xeb,0x14,0xf3,0x12,0xe6,0x38,0xf0,0x2a,0x17,0x5,0x14,0xe6,0x5b,0x36,0xcd,0x18,0xcf,0xfe,0x33,0xe8,0x4f,0xa,0x1c,0x81,0xf8,0xe9,0xcb,0x9e,0xf,0x2e,0xc0,0x6,0x30,0xd6,0x6,0x13,0x1e,0xe,0xa7,0x4f,0x20,0x1,0x9,0xec,0x15,0xe4,0x12,0xf6,0x22,0x6,0x34,0x11,0xfa,0xa0,0x52,0xee,0xec,0xa9,0x33,0x4,0xec,0x3a,0xeb,0xcd,0xf7,0xe9,0xf3,0xe,0x2c,0x30,0x1c,0xda,0xfe,0xd,0x3a,0xfa,0x1d,0x9,0x1c,0xeb,0x45,0xff,0x59,0xe4,0x18,0xda,0x17,0xce,0xf5,0x68,0xd,0x27,0x4f,0x2f,0x40,0x19,0x19,0xf0,0x3,0x3b,0xfc,0xc8,0xd,0xf1,0xdd,0xc3,0xcf,0xe9,0xd1,0xde,0x3a,0x14,0x84,0xf6,0x43,0xa,0x27,0x4c,0xc0,0xf6,0xa1,0x15,0xd,0xd3,0xfc,0xfb,0x3,0x8,0xcd,0xf8,0xe6,0xfa,0xe8,0x1b,0x97,0x16,0x1,0x1,0xf7,0xe9,0xb,0xc7,0xfc,0xc,0x2,0x5d,0x2a,0x2f,0x6e,0x25,0xe4,0xfd,0x2c,0x27,0xe0,0xc,0x3,0xd,0x14,0xd0,0xf1,0xf5,0xd1,0x18,0xf6,0x17,0x76,0x5,0xf3,0x2,0x16,0x1a,0x4e,0x33,0xfe,0x2b,0x81,0xf4,0xe2,0x1e,0x2d,0x51,0x54,0x7,0x3,0x26,0xe,0xcc,0x27,0x9,0x26,0x12,0xf5,0x22,0xd2,0xf0,0x15,0xd1,0x12,0x3e,0x3,0x24,0xeb,0x34,0xbe,0x7,0xf3,0xff,0xd3,0xd6,0xc9,0x4,0x3f,0xf,0x26,0xea,0xed,0xd9,0xa,0xe7,0xb1,0x3,0x61,0x56,0x1,0xd7,0x1f,0x32,0xcf,0x13,0x3,0xea,0x2c,0xca,0x66,0xf,0xc,0x31,0xa8,0xf6,0x0,0xa,0x49,0xb,0x1,0x5a,0xfc,0xec,0x2a,0xec,0xf7,0xf1,0x0,0x26,0xfd,0x61,0x14,0x28,0x22,0xe1,0x18,0x17,0x18,0x31,0x5a,0x1f,0xe1,0xe7,0xf,0x31,0xc9,0xef,0xd6,0x0,0x2f,0x2,0x3b,0xcb,0x13,0xab,0x7,0xe6,0xd1,0xe5,0xb,0xd,0xef,0x17,0x2,0xd,0x16,0xf7,0x28,0xed,0xe4,0x58,0x21,0xf0,0x19,0xe1,0xdd,0xca,0x22,0xfe,0x44,0x12,0x11,0xfb,0xff,0xb5,0x45,0x0,0x9,0xac,0xd,0x16,0xc7,0x2a,0xfc,0xfe,0xf9,0xf6,0x1e,0xdb,0x22,0xfa,0xf9,0xea,0x1e,0xf,0x7,0xed,0x5c,0xe,0xdd,0xde,0x52,0xcf,0x4e,0xd,0x18,0x3,0xfc,0xfd,0xf9,0x30,0xf5,0x26,0x43,0x14,0x16,0x18,0xe9,0xfc,0xc,0x4b,0x13,0xf4,0xf5,0x4,0xe8,0xe9,0xba,0xc,0xf5,0xc5,0x12,0x8,0x81,0x1b,0x40,0x20,0x20,0x39,0xe7,0xe1,0xf0,0x38,0xf4,0xf,0xd8,0xef,0xe2,0x13,0xe1,0xf,0xcf,0xc7,0xe5,0x1d,0xb4,0x18,0xe3,0x15,0x2,0xff,0x27,0x16,0xe8,0x16,0xb6,0x8a,0xdf,0x1b,0xe0,0xa,0x2d,0xcd,0xfb,0xfd,0xeb,0x18,0xe0,0x13,0x4,0xfd,0x2b,0x18,0xdf,0x10,0xf6,0xda,0xd4,0xd2,0xe9,0x12,0xe3,0x3f,0xa7,0xdb,0xe6,0x20,0x67,0xf3,0xfa,0xd,0xd,0xa7,0xbb,0x25,0xd6,0x2a,0x23,0x16,0x9,0x6,0xf5,0x6,0xe5,0xc0,0x9,0x15,0x1b,0x2c,0x12,0xe4,0x44,0xc2,0x24,0xe9,0x70,0xd2,0xe8,0x23,0xdc,0xfb,0x7f,0xe9,0xe3,0x0,0xa,0xe0,0xfa,0xc9,0x24,0x50,0x40,0xf6,0xd8,0xfd,0x1c,0xe5,0x4,0xd3,0x2a,0xd9,0xc,0x11,0xf1,0xfd,0xf8,0xee,0x21,0xf9,0x1d,0x2f,0xf4,0xb,0xca,0x15,0xc3,0xde,0xab,0x28,0xc8,0xaa,0xe4,0xfc,0xf7,0x14,0xe3,0x1d,0x17,0xe,0xe1,0x1a,0x37,0x8,0x90,0x2b,0xdd,0x2e,0xd8,0x15,0x12,0xd8,0xe5,0xb,0xcb,0xa4,0xd,0xf8,0x3c,0x6,0x17,0xef,0x30,0x31,0x2,0xd6,0xfb,0xfa,0xc7,0x16,0x25,0x21,0xfb,0x31,0x2f,0xfc,0x93,0x1b,0x35,0xd9,0x2b,0x6d,0xf2,0x2f,0x21,0x17,0x11,0x6,0xfe,0xf1,0xdb,0xd2,0x2e,0x1a,0xf5,0x29,0xf9,0x23,0xa8,0x2,0x7,0xd0,0xfb,0xb9,0x12,0x23,0xf7,0x29,0x15,0xbc,0x2e,0x1c,0xf5,0xd2,0x18,0xeb,0x1c,0xc4,0xbd,0xf6,0x15,0xec,0x31,0xc8,0x41,0xe5,0x4c,0x1f,0x1f,0x1f,0x2,0xec,0x49,0x2a,0xa,0xde,0xeb,0x35,0xd,0x0,0xe7,0xd0,0xd9,0x1c,0x81,0x7,0xf1,0xbc,0x49,0x31,0xc7,0x21,0x49,0xfa,0xca,0x48,0xaa,0xf6,0xcc,0xd5,0xe8,0xcf,0xd2,0x3c,0xe6,0x49,0xbc,0xef,0xbf,0xea,0x5e,0x51,0x92,0x2b,0xb8,0xf9,0xfc,0x2e,0x24,0xe5,0xc0,0xdd,0xeb,0x46,0xf7,0xdd,0x2f,0x11,0x9,0x81,0x16,0xd1,0x1d,0xc8,0x42,0x1a,0xee,0xd8,0x1,0xe,0xee,0xa,0x20,0xed,0x6,0x2f,0xda,0xf8,0xd8,0xe1,0x4c,0xe6,0xe4,0x1b,0xe8,0xf,0x17,0xde,0xf9,0x25,0x4a,0xdb,0x7,0xe3,0x11,0xb,0xf9,0xa,0x0,0xee,0xe0,0xe1,0xf4,0xf5,0x7,0xa,0xdd,0x23,0xed,0x34,0xa,0x23,0xdc,0xe2,0xf1,0x1c,0xf1,0x4,0x10,0x16,0x58,0xfe,0xc,0xa,0xed,0x1f,0xfa,0x1b,0xf9,0x16,0x2f,0xa,0x16,0xf4,0x1a,0x48,0x13,0x9,0xf5,0xd,0xfe,0x1d,0xb,0xf,0x6,0xe7,0x19,0xf0,0xd1,0xe9,0x3b,0x19,0xe,0x5a,0x2,0xf5,0xbf,0xfd,0x7,0xdc,0xfa,0x10,0xed,0x31,0xa,0xff,0xe5,0xec,0xb7,0x2,0xe7,0x1c,0x21,0xf6,0xf2,0xfd,0xb,0x28,0xf7,0xea,0x14,0xe4,0x1b,0xef,0xa9,0x40,0xf3,0x10,0xfc,0xf4,0x15,0xd5,0xd1,0x0,0xe7,0x7,0xf,0x3a,0x2f,0x2c,0x0,0xd9,0x23,0xb8,0x1f,0xd9,0xfb,0xfa,0xf7,0xfb,0xa1,0x26,0x38,0xe7,0x1d,0xea,0xf,0xc6,0x81,0xa,0x4,0xec,0x17,0xe2,0x45,0x1a,0xe6,0xc,0x3a,0x2e,0x27,0x13,0x1f,0xe8,0xd7,0xef,0xe,0xcb,0xf8,0xe6,0x39,0x12,0xcd,0x2c,0x14,0x37,0xeb,0xf4,0x92,0xf8,0xbb,0x29,0x20,0xbc,0xf9,0x4,0x7,0xfc,0xd7,0xf1,0xfd,0xd,0xb9,0xe7,0x26,0xf6,0xb,0x0,0xd7,0xd9,0x78,0xe8,0xe4,0x25,0xba,0x1d,0x9,0xe8,0xbf,0x21,0xe6,0xa3,0xb7,0xe3,0xe7,0xe4,0xd7,0x39,0xe0,0xd3,0x4,0xcc,0x12,0x1,0xda,0xdd,0xf4,0x1f,0xf0,0xdc,0xd7,0xe6,0xdd,0x1f,0xf5,0xc5,0x10,0x8,0xf0,0x62,0x33,0xf5,0x2e,0xe7,0xf3,0x3,0x5c,0x55,0xe1,0xe0,0x1a,0xe1,0x1f,0x22,0x3f,0x4,0xf9,0x3,0xf0,0xd8,0xf9,0xff,0x3,0xf5,0x32,0x22,0x7f,0x44,0xd,0xda,0xbf,0x58,0x2e,0x2c,0xe0,0xf8,0x5,0x0,0xdc,0xeb,0x3b,0x11,0xb3,0x46,0xea,0xfb,0x19,0xfa,0x41,0x5a,0xf6,0x8,0x65,0xfe,0x2c,0x42,0x8e,0x3,0x13,0x2,0x5,0xd8,0xec,0x9d,0x9e,0xbd,0x29,0xd4,0x3b,0x18,0x5d,0xf7,0x3,0xba,0x6,0x28,0x46,0x45,0xd0,0xf1,0xf5,0x69,0xe9,0x21,0xd5,0x2,0xe9,0x9,0x15,0xd6,0xf6,0xc5,0x23,0x0,0xc,0x23,0x45,0x5,0x33,0x76,0x5,0x23,0xf6,0x23,0xfa,0xcb,0xd8,0x5d,0xd1,0x60,0xb9,0xe7,0xcd,0xfb,0x6a,0x7b,0xa3,0xd1,0xe7,0xe8,0x32,0x3,0xfb,0xe8,0x1,0xec,0xe6,0xca,0xf3,0xd,0xb6,0xd4,0x30,0x7f,0xc1,0xe3,0xff,0x2f,0xd0,0xf4,0xfe,0x22,0x5,0xeb,0x39,0xc,0xe3,0xf5,0xed,0xe8,0x32,0x26,0x10,0x4f,0xb9,0xf7,0x15,0xde,0x56,0xdb,0xec,0x2c,0x2e,0xf3,0x9e,0x38,0x5,0xa,0xe2,0x1d,0xf7,0xe1,0xf,0x18,0x1e,0xf5,0x21,0xd2,0x1e,0xe5,0xd6,0xee,0x30,0xfa,0x11,0x1f,0x36,0xe8,0x1a,0x12,0xb,0xf4,0xc,0xe,0x89,0x1c,0xd9,0x28,0xdf,0xd0,0x2d,0xc3,0x3e,0xc8,0xbf,0xd2,0xef,0xef,0xfd,0xe4,0xfc,0x23,0xd0,0x13,0xe6,0x19,0xb7,0x1e,0xf8,0xdb,0x5f,0xd4,0x26,0x21,0x8e,0xe5,0xbb,0x89,0x10,0xe9,0x43,0xfe,0xfd,0xed,0xff,0xfb,0x1d,0x81,0xeb,0x24,0x1a,0x29,0x15,0xe0,0xf3,0xee,0xb9,0xe1,0xea,0xf5,0x15,0xd,0xc9,0x20,0x2b,0x78,0xf3,0xf6,0x21,0x23,0xd3,0xac,0xff,0x2b,0xd7,0xd2,0x5f,0x43,0xf7,0xf,0x6,0xd0,0x3b,0x17,0xd,0xdb,0x17,0x65,0x2,0xe8,0x2b,0xb9,0x64,0xb,0x40,0xe8,0xa5,0x3d,0x20,0x10,0xf9,0xe1,0x6b,0xd1,0x29,0xd1,0x29,0xe7,0xe7,0x17,0xf2,0xd7,0x4a,0x1d,0xcf,0x32,0x25,0xee,0x55,0x1,0xea,0x14,0xed,0x23,0x15,0x33,0xb,0xe2,0x42,0xf1,0x86,0xba,0x49,0x5,0x5,0xd8,0x37,0x36,0xf0,0x6,0xf8,0x3e,0x65,0x43,0xef,0x8,0x12,0x55,0xc2,0xd1,0xea,0xec,0x1a,0x1f,0x12,0x20,0xe7,0xed,0xa7,0x21,0x81,0xc,0x27,0x4,0x54,0x57,0x36,0x9,0xfa,0x1f,0xb,0xec,0xbd,0xf0,0xfb,0x5a,0xed,0xf2,0xed,0xfb,0x2d,0x13,0xf4,0x2,0xe7,0xd9,0x13,0x4,0x13,0xee,0xf3,0xc5,0xe,0x89,0xc6,0xfa,0xf0,0x1a,0x0,0x81,0x7,0xf4,0xef,0xe7,0xa,0xc7,0x9,0xca,0xc7,0x35,0xe9,0xdc,0xff,0x22,0xe1,0x3f,0xc0,0xee,0xd3,0xfb,0xd7,0xee,0xd7,0x10,0x57,0xd4,0xfd,0xd6,0xf4,0x6,0xfc,0xf0,0x2c,0x18,0xc5,0xe,0x14,0xbd,0xd,0x1a,0xc2,0xae,0xcd,0xfb,0xdc,0xd6,0xd2,0xf9,0xeb,0xe5,0x4b,0x37,0x8d,0xbb,0x1c,0x44,0xbe,0x37,0x63,0x23,0xe7,0x21,0xe7,0xd,0xdc,0xb,0xfc,0x59,0xa3,0xfd,0x3,0xdd,0x2f,0x1b,0xdf,0x9,0x29,0x14,0x7,0xd,0x19,0x18,0x5,0xfa,0x12,0x10,0x2d,0xdf,0x15,0x18,0x34,0xfa,0x8b,0xed,0xe6,0x24,0xdf,0x95,0xe9,0x2e,0xb,0x1,0xeb,0xed,0x2a,0xfe,0xeb,0x30,0xba,0xd3,0x1e,0x1b,0x2,0xf0,0xe5,0xfa,0x43,0x31,0xa7,0xf4,0xe4,0x57,0xec,0xc1,0x3e,0xfc,0xe4,0x81,0x17,0xba,0xda,0xa7,0x4f,0x17,0xe0,0x7,0xec,0xd8,0x11,0x5,0x33,0xef,0xc,0x70,0xfe,0xd0,0xf9,0xe4,0x3c,0xa,0x25,0xe6,0xfd,0xfa,0x26,0xfe,0xec,0xda,0x39,0xe7,0x17,0xd6,0x1f,0x19,0xd4,0x1,0xfd,0xfa,0xfe,0x5,0xcf,0xe3,0xef,0xeb,0xa,0x27,0x2,0x37,0x25,0x41,0xb,0xf8,0xfc,0xd,0x45,0xd8,0x32,0xe1,0x49,0x7,0x2,0xf3,0xfb,0x35,0xe9,0x17,0x30,0x24,0x22,0xd,0xda,0xc7,0x44,0x24,0xf9,0xe1,0x26,0x14,0xfd,0x2d,0xaa,0xd0,0xd9,0xe1,0x3a,0x0,0x88,0xc,0x52,0xe8,0x42,0x39,0x0,0xc5,0xc0,0x1b,0x11,0xd1,0xfa,0xd6,0xef,0x1a,0xe9,0x6,0xb,0xbf,0xd7,0xd5,0xf,0xeb,0xfe,0xf0,0x26,0x5,0xeb,0x20,0xef,0x2e,0x23,0x76,0xfa,0xf7,0xe5,0xf9,0xf9,0x67,0x39,0x44,0xe3,0x7,0xec,0xd,0xda,0x3d,0x14,0xec,0x6a,0x3a,0x1,0xd6,0x39,0x96,0x4c,0xde,0x17,0x29,0xf1,0x1,0x36,0x10,0xf6,0x3d,0x2f,0xf7,0xe7,0x24,0xd,0xe0,0xd8,0xcc,0x3c,0xe7,0xeb,0x43,0xd6,0x10,0x5c,0x46,0x67,0x10,0x3d,0x14,0x15,0x12,0xde,0x7,0xdf,0xc8,0x7f,0x34,0x14,0xb8,0x37,0x0,0xa7,0xdb,0xcc,0x6,0xe8,0xea,0x4c,0xd9,0xf4,0xa2,0x4b,0x13,0x12,0x10,0xf7,0xe1,0xe3,0xe3,0xdc,0xf1,0xf9,0xe4,0x2,0x9,0x8,0xfd,0x15,0xd9,0xc1,0x45,0xdf,0xf2,0xaf,0x2f,0x5d,0xde,0xc,0xfb,0x39,0x41,0xe2,0xf3,0xe5,0x15,0xe2,0x25,0xc6,0xf2,0x19,0xb5,0x7d,0x63,0xd6,0xf9,0xb7,0xe4,0x22,0x21,0xfa,0x2e,0xf0,0x1a,0xef,0x24,0xbe,0xf1,0x24,0xe5,0x21,0x95,0xc6,0xf0,0xee,0xcd,0xdd,0xfc,0x24,0x1c,0xb8,0xc6,0xce,0xe5,0x3e,0x45,0x3,0x6c,0xa,0xea,0xf3,0x20,0xe,0xf2,0x28,0x20,0x1a,0xc4,0xbd,0xe0,0xf8,0xf8,0x52,0xa,0xd3,0xa6,0xef,0x26,0xd2,0xbc,0x23,0x9,0xab,0xdc,0xc1,0xb5,0xd7,0xcb,0xd5,0x45,0x5,0x0,0x44,0xd9,0x1b,0xbb,0x0,0xf0,0x30,0x1d,0xec,0x3,0x7f,0xcc,0x49,0xfd,0x9c,0x6a,0xc9,0x36,0x1d,0xcf,0x4,0x22,0x3b,0x18,0x22,0x6a,0xce,0xdf,0x2f,0x23,0x3b,0x23,0x92,0xd5,0x20,0x6,0x1a,0xf1,0xb4,0x12,0x52,0xac,0x20,0x2d,0xe,0x11,0xbb,0x50,0x1b,0xf9,0x22,0xe3,0x2f,0x6,0xf2,0xcd,0xeb,0xfb,0xc5,0xb7,0x3c,0xd4,0x36,0xf4,0xc6,0xc1,0xd5,0x62,0x4,0x65,0xc6,0xd2,0x4f,0xc2,0x87,0xf3,0xd2,0x59,0x4c,0x1e,0xbd,0xe5,0x5,0x2f,0xcd,0x5b,0x3d,0x32,0x65,0x1d,0xd5,0xbb,0xf6,0x82,0x64,0x12,0x26,0xda,0xbf,0x36,0xa0,0xf9,0xc,0x50,0x67,0x1f,0x20,0xa3,0xee,0xc2,0xdd,0x30,0x28,0x22,0xf0,0x68,0xc8,0xc5,0x27,0x27,0x54,0x5a,0x5e,0x55,0x5b,0xd4,0x10,0x11,0xb2,0xb3,0x62,0x2,0xfb,0xe0,0x77,0x1c,0xd4,0xc4,0xa4,0x1,0xb4,0x1f,0x39,0xd9,0xfd,0x99,0x5f,0xff,0xbe,0x96,0xba,0xc7,0xee,0xfc,0xbd,0xe0,0x8,0x1e,0x1d,0xb2,0x6c,0xd2,0xa0,0xac,0xcf,0x5b,0xf7,0x2e,0x88,0x9,0xe6,0x8a,0xca,0xc5,0x45,0x40,0xd,0xd4,0xec,0x49,0xaf,0xd7,0xfb,0xca,0xff,0x8e,0x43,0x6b,0xb3,0xbe,0x81,0xe5,0xd9,0xef,0xe4,0xd9,0x7,0xfc,0xfc,0x8,0xd3,0xb,0x5c,0xfb,0xe,0xd2,0xd5,0xf7,0x2c,0xf7,0x18,0x0,0x2a,0xa9,0xe0,0xe5,0x94,0xef,0x20,0x6,0xc6,0x3e,0xbf,0x1d,0xc6,0x45,0x21,0x1e,0xff,0x7,0xe5,0xd0,0xcf,0xc9,0xee,0x37,0x46,0x7,0x2,0x3b,0x6,0xce,0xe0,0xf7,0x13,0x36,0xeb,0xae,0xde,0xf1,0xe5,0xd4,0xae,0x2e,0xe8,0x0,0x18,0x3b,0x8c,0xbb,0xea,0x3c,0x81,0xed,0x1f,0x20,0x32,0x10,0x7c,0x1d,0xc9,0x48,0x15,0x1b,0xd6,0x15,0x3c,0x13,0x20,0x10,0xc,0x33,0xf6,0xf5,0x11,0xf8,0xfb,0x2c,0xd9,0x1b,0x15,0x15,0x4e,0xd4,0x17,0xeb,0x56,0xcb,0xf8,0x61,0xf2,0x19,0xc,0xce,0x1,0x5,0x1b,0x20,0x2f,0x44,0x10,0xe5,0x39,0x48,0xc3,0xcf,0x44,0x20,0x3d,0x1f,0x6,0xf1,0xe4,0xee,0xf5,0xfd,0xb8,0xa0,0xce,0x25,0xda,0x21,0x12,0xec,0x1,0xd5,0x5,0x15,0xe2,0x14,0x5,0xe2,0xf4,0x33,0xd9,0xe9,0x7,0x21,0xd0,0xd2,0xe7,0x8,0xf2,0x2f,0xe4,0xeb,0x4,0x22,0x24,0xd3,0xd9,0xf9,0xf5,0x3,0xc9,0xf5,0xf1,0x17,0x10,0x2,0xfe,0xdc,0x0,0xf2,0xd7,0xc6,0xd2,0xda,0xb,0xfe,0xf4,0xd2,0x23,0xe0,0x38,0x18,0xc3,0xea,0x1f,0x1e,0x8f,0xd,0x6c,0xee,0xd1,0xec,0x30,0xf9,0xd4,0xb1,0xf9,0x3e,0xaa,0xd5,0xef,0xfb,0x2d,0x8,0x3,0xf5,0x4,0xfc,0x1,0xf1,0xf5,0xf7,0xed,0xf5,0xeb,0x30,0x2d,0x8,0xf8,0x17,0xe4,0x5,0x81,0xb9,0xb8,0x2f,0x7,0x8d,0xfd,0xe4,0xf7,0x37,0x1e,0xf,0x11,0xff,0x7,0x35,0xcc,0xe8,0x5,0x2e,0x32,0xf7,0xf1,0x22,0xdc,0xd9,0x31,0xe0,0xc,0x49,0xc5,0x32,0xc1,0xf4,0x23,0x3c,0x29,0x18,0xfb,0x47,0xfe,0xdc,0xfc,0xca,0xef,0x18,0xea,0xe3,0xd2,0x11,0x1e,0xca,0x1,0x1e,0xff,0x30,0x2e,0x2,0xea,0xf4,0x96,0x8,0xd1,0x0,0xf1,0x49,0xdf,0xed,0xfb,0x1d,0xda,0xc9,0x2d,0xe6,0x13,0xef,0xf5,0x1d,0xe7,0xfd,0xc,0xdd,0xcc,0x36,0xea,0xd6,0xd1,0xf,0x81,0xee,0x25,0xfe,0xaf,0xf7,0xc5,0xfa,0xb7,0x1,0xe,0x2f,0x1,0xac,0xfd,0xd6,0xc1,0xf6,0xee,0xc2,0xa,0xf6,0xd5,0xe7,0xf6,0x17,0xf5,0xf4,0xf1,0x2a,0xf2,0xff,0xfb,0x18,0x6,0xe0,0x6a,0xd4,0xec,0xdf,0x1,0x3,0x39,0x2d,0x2e,0x2,0xe0,0xef,0x17,0x14,0x8,0x34,0x21,0xf0,0x15,0x12,0xe5,0x18,0x5f,0xeb,0x37,0xcc,0xe4,0xd8,0x36,0x6,0xd7,0xf6,0x4c,0x5d,0xfb,0x3,0x15,0xb3,0xd4,0xf6,0xb5,0xea,0x31,0xdb,0xe4,0x37,0x4,0xf3,0xd4,0xee,0xe0,0xeb,0xe9,0xe8,0x30,0x72,0xf7,0xfc,0x2,0xb8,0x11,0xff,0x3,0x16,0x1a,0xf3,0xe5,0xb,0xe0,0x39,0x4f,0x7,0xec,0xdc,0x11,0xe4,0xea,0x6,0x1e,0x14,0xe3,0x1b,0xfa,0xed,0xfb,0xf4,0xdb,0x4b,0xbd,0x20,0xff,0x5,0x41,0x2f,0x37,0x6,0x6f,0xef,0xd0,0x11,0x41,0xda,0x13,0x24,0xc,0x7f,0xee,0xd9,0x15,0xf7,0xf5,0x49,0xd4,0x10,0x5f,0xf3,0xd,0x20,0x15,0xe,0x23,0x4f,0x14,0x23,0x28,0xf4,0xce,0x1b,0xf3,0xc0,0x29,0xb,0x4c,0xf9,0x67,0x5,0x7,0x4b,0xf5,0x5,0xf,0xab,0x5,0xdf,0xe4,0xf5,0x10,0xf8,0xad,0xc6,0x4a,0xf2,0xe4,0xfb,0xdb,0x3b,0xaf,0xf0,0x13,0xec,0x46,0x45,0xd0,0x7,0xc1,0x1e,0x1e,0x56,0x3b,0x4c,0xf4,0x28,0xd6,0xd,0x22,0xfa,0xc,0x28,0x28,0xf2,0xdb,0xd5,0x1e,0x88,0xe1,0x4,0x17,0x45,0xea,0x27,0xf8,0xed,0xb0,0x1f,0xdd,0xda,0x8,0x1,0x93,0xe8,0x28,0x2e,0xd0,0x4,0x35,0x18,0xd6,0x18,0xf5,0x21,0xb,0x3d,0x1,0xe,0x21,0x40,0xe4,0xbe,0xf4,0x12,0xce,0x9,0x6,0xde,0xb6,0xe8,0xce,0x16,0xa6,0x9,0xfd,0xf1,0x2e,0x81,0xd7,0xcc,0xd0,0xe3,0xc3,0xa,0x16,0x21,0xa1,0xc1,0xc,0x32,0xda,0xf3,0x27,0x11,0x14,0xee,0x1e,0x17,0xbc,0xc,0x24,0x10,0xdd,0xfc,0xc4,0xf7,0x3e,0xfa,0x13,0x2d,0xec,0xea,0xfd,0x8,0x2b,0x26,0x17,0x15,0xf6,0xd8,0x6c,0x1e,0xf9,0xf2,0x1c,0x20,0x15,0x14,0xf,0xe,0x29,0x4a,0xd0,0xbd,0x12,0xf9,0xd1,0x37,0xa,0xf6,0x3e,0x32,0xe4,0xc6,0x20,0xdd,0xf5,0xfd,0x33,0x32,0x23,0x2e,0x29,0xf7,0xf3,0xc3,0x37,0x0,0x1f,0x2b,0xff,0x20,0xd1,0xc8,0xc1,0xd,0x1e,0x2,0x10,0xc3,0xc0,0x0,0xc4,0x1f,0x0,0x28,0x31,0x24,0x4,0xf6,0x1a,0x2f,0x2a,0x39,0x3,0x38,0x33,0xa8,0x1f,0xf4,0x19,0xd6,0x26,0x1,0x5,0xbe,0x13,0xc2,0xb,0xea,0xce,0xfb,0xd6,0x13,0x28,0xcc,0xff,0xe6,0x3,0x15,0x14,0x6,0x3,0xd8,0xbc,0x13,0xd6,0xf5,0xd7,0xe2,0xd8,0xda,0x50,0xdc,0xc1,0xd4,0xb4,0x3d,0xee,0x2a,0xd8,0x4d,0xb7,0x1f,0x81,0xbd,0xd8,0xe2,0xfb,0xfb,0xd3,0x41,0xe7,0x25,0xf3,0xf4,0xdc,0x7,0x51,0x63,0xc8,0xe2,0xd9,0x28,0xe8,0xee,0xec,0x18,0x26,0xfc,0xaf,0x81,0xfe,0xa,0xd5,0x3,0xe9,0xfc,0x1,0x33,0x1a,0x1a,0x6,0xd2,0xe2,0xe1,0x13,0x13,0x9,0xf,0xe7,0xf7,0x9b,0xcf,0x1e,0xe3,0x5,0x43,0xde,0x4,0x15,0xde,0xf,0x29,0xed,0x0,0xd9,0xfc,0xaf,0x7,0xf4,0xff,0xfe,0x16,0xe1,0x26,0xe4,0xf1,0xeb,0xf0,0xa,0xa,0x14,0xa,0xf4,0xcf,0xfa,0xe0,0xfd,0xd7,0xc3,0x7,0xcd,0xf3,0x9f,0x2,0x44,0xec,0xe6,0xd9,0xfe,0x16,0x29,0x9b,0x21,0x7,0xf7,0xf7,0xe3,0xd1,0xe1,0x1e,0xd8,0x1,0xf4,0x10,0xf6,0xd8,0x0,0x9,0x2,0x1e,0x25,0xf4,0x3b,0xd,0xb,0x29,0xef,0xeb,0xbc,0xf1,0x93,0xf9,0xd2,0xbb,0x25,0x1,0xf3,0x35,0xdd,0x36,0x2,0xe5,0xd6,0xf9,0x17,0x12,0xac,0xf8,0x1a,0xf2,0xb2,0x23,0xf,0xb2,0xe0,0x36,0x16,0x2b,0x2e,0xf9,0x4b,0x37,0x17,0xc7,0x38,0x15,0xd2,0xe4,0x20,0xfa,0xd1,0xf5,0x19,0x2b,0xe8,0xf2,0x32,0x18,0xf7,0xd2,0x24,0xf,0x2b,0x32,0x6d,0x1e,0xfe,0xdd,0xbd,0x2f,0xf9,0xe,0xc,0x2b,0x24,0x11,0xd6,0x1c,0xf2,0xfa,0x5,0xe,0xd0,0xc2,0x18,0x32,0xea,0xf6,0x35,0xf7,0x2f,0xe7,0xbd,0x5,0xdc,0xef,0xce,0xf4,0xe8,0xdd,0xdd,0xfd,0xb5,0xe4,0x21,0xeb,0x5b,0x14,0xf7,0xf4,0xf7,0x9,0xce,0xe,0x3d,0xb,0xd8,0xf1,0xfb,0x25,0xce,0xdc,0xc0,0xcc,0xfb,0xc8,0x4e,0xed,0xc8,0xee,0xc7,0x11,0xf0,0x14,0x38,0x3a,0xfa,0x5f,0xd1,0x0,0x22,0xb9,0xff,0xf,0xa,0xfd,0xc6,0x7f,0xd5,0x18,0xd9,0xb,0x4,0x1d,0xc0,0x1c,0xeb,0x7,0x0,0xfa,0xf0,0x25,0x26,0xdf,0xf9,0xbf,0x1a,0xe6,0xe5,0x2b,0xe3,0x24,0xf1,0x22,0xf3,0xe4,0x0,0xc5,0xf1,0x19,0xf4,0x14,0x15,0x10,0xf2,0xf7,0x8,0x91,0x10,0xe6,0x2e,0xe6,0xec,0x1a,0xc7,0x1d,0x9,0x1f,0xf9,0x19,0xde,0xd2,0x97,0xc8,0x11,0x19,0x6,0xee,0xc,0x36,0x1b,0xdd,0x25,0x1d,0x4b,0x4b,0xf8,0xe5,0xfd,0x8,0xc8,0xfb,0xe,0xed,0x9,0x2a,0xed,0xdf,0x26,0xfd,0x7,0x13,0xda,0xe3,0xad,0x22,0x1,0xde,0x6,0x18,0x1b,0x1e,0xc8,0xcf,0xf2,0x18,0xd5,0xe6,0x12,0x2e,0x22,0x0,0x8,0xf3,0x7f,0xdc,0xfe,0xfd,0xaa,0xb,0xfa,0xe8,0xab,0x41,0xce,0xa0,0xb9,0xff,0xd7,0x7,0xe5,0xe,0x2,0xd1,0xce,0xe3,0xe5,0xa,0x8,0xe8,0x35,0x48,0x0,0xd1,0xfe,0x24,0x6,0xd6,0xb,0x55,0x7,0x24,0x4,0xd7,0xf,0x13,0x99,0x97,0xd,0x3f,0xba,0xe0,0xe3,0xd8,0xe5,0x12,0xe5,0x12,0xe8,0xd8,0x47,0xf4,0xee,0xf0,0xb1,0xf0,0x5,0xd1,0x22,0x13,0x97,0xe5,0x13,0xf0,0x72,0x1,0xfb,0xd,0x7,0xc5,0xd5,0xf2,0xfc,0xb6,0xf,0xef,0xe3,0x3a,0xdf,0xea,0x28,0xe2,0x28,0x11,0x1b,0xdf,0x5,0xea,0x36,0xe5,0x0,0x10,0x6c,0x20,0x11,0x1c,0x42,0xf3,0x48,0xf3,0xaf,0xe3,0x86,0x11,0x4,0xc9,0xea,0xc,0x43,0xdb,0xd2,0xd4,0xfd,0xe6,0xd3,0xcf,0xe6,0x19,0xd8,0x18,0x8,0xdb,0xa,0xed,0xda,0x1,0x15,0x3,0xc5,0xe6,0xbb,0xeb,0xf7,0x81,0xeb,0x0,0xdf,0x2c,0xef,0xfd,0x24,0xbc,0xd,0xbc,0x6,0xec,0xdb,0xd4,0xff,0xda,0xd9,0xf,0xc1,0xf7,0xe4,0x17,0xe5,0xba,0x23,0xe,0xca,0xdf,0xd4,0xce,0x19,0x19,0x8,0xee,0x16,0x17,0x19,0xf,0xe9,0xff,0xee,0xbd,0x7,0x39,0xe6,0x24,0x12,0x26,0xd6,0xe1,0xe8,0xf4,0xa,0x7f,0xd7,0xe,0x18,0xf8,0xe2,0x1c,0xf6,0xcf,0xdd,0x45,0xed,0xf9,0xf2,0x5b,0xda,0xed,0x1,0xf1,0x17,0x27,0xed,0xae,0xd0,0xdf,0x1e,0x1f,0xc8,0x1,0x0,0xbc,0xf5,0xca,0xd1,0xd2,0x1a,0xe9,0x91,0x1a,0x13,0x4,0xd3,0x10,0x67,0x1a,0xfb,0xde,0x23,0x2e,0xbd,0xf9,0x13,0xf8,0x20,0xee,0xcb,0x40,0x29,0xdb,0xed,0x9,0x9,0xd3,0xb4,0xea,0x29,0x33,0x63,0x11,0x54,0x31,0x13,0xcf,0x97,0x33,0x8d,0x15,0xba,0xa3,0x36,0x5,0x10,0x5b,0xf8,0x39,0x19,0xfa,0x6,0x37,0x2d,0xe5,0xf4,0x37,0x1d,0xf5,0xee,0x9,0xd0,0xe4,0x7,0x29,0x26,0x3f,0xdd,0x26,0xe7,0xe4,0xf6,0x7d,0xd,0x46,0xe8,0x15,0x3,0xd2,0xe2,0x15,0x21,0x26,0x21,0x5,0x10,0x22,0x16,0xb2,0xeb,0x15,0xf6,0x38,0xa,0x37,0xe6,0x2a,0xb5,0xf3,0x24,0xee,0x0,0x12,0x94,0xe6,0xfa,0x31,0x11,0x1f,0x15,0xed,0x16,0xec,0xd8,0x1e,0xf3,0xa,0xe5,0xe4,0x16,0x12,0x18,0xbd,0xdb,0xd7,0xa4,0xf9,0x23,0xe5,0xb2,0xf8,0xc4,0xdd,0x97,0x0,0x16,0x7,0x2,0x81,0x11,0xcb,0xd0,0xda,0xec,0xbd,0xe7,0x9,0xe4,0xfe,0xf3,0xe4,0xdd,0xdf,0xd4,0x10,0xfb,0x15,0x21,0xe1,0x2,0x1a,0x5a,0x7,0x9e,0x9,0xfd,0x6,0x56,0x6,0x0,0x33,0x17,0xf8,0xf3,0x36,0xef,0x0,0x1a,0xe6,0x6,0x9,0x11,0x41,0x47,0xef,0xe6,0xc7,0xf,0xd,0x1,0xd6,0x1a,0xfb,0x28,0x7f,0xc,0x2a,0xe3,0x21,0x1b,0x13,0xe7,0xef,0x1f,0x17,0x14,0x1b,0x35,0xd5,0xf8,0x15,0xec,0xf8,0x3,0xe2,0x7d,0x13,0x1a,0x15,0xe9,0xee,0x56,0xd4,0xfc,0x9,0xd6,0xff,0xe9,0xfa,0x23,0x46,0x42,0xe0,0xd,0xe9,0xf1,0x0,0x13,0xe0,0xe,0xb,0x14,0x2a,0xf9,0xd8,0xf,0xa,0xdd,0x31,0xcc,0xee,0xe4,0x13,0xca,0xfc,0xfc,0xeb,0x44,0x2e,0xcf,0xef,0x28,0xc,0xeb,0x21,0xe3,0x19,0xdb,0xb,0xb4,0x1e,0x2a,0xf,0x27,0xef,0x20,0x9,0xe6,0x23,0xfa,0xa,0xa,0xfb,0x41,0xeb,0xdb,0xb,0xd1,0xea,0xff,0xb,0x4,0xf4,0x42,0x4,0x4b,0x7,0x2,0x3e,0xfc,0x2c,0xfa,0xd6,0xfa,0xec,0x1f,0xf8,0xf5,0xfc,0xc3,0xce,0x32,0xf7,0x10,0xf6,0x1c,0xf8,0xe6,0x47,0x30,0x4a,0xd7,0xff,0x36,0xe5,0x4,0x2a,0x1b,0x30,0x67,0x41,0xc,0xb,0x7,0x2b,0xde,0x48,0x4c,0xee,0x43,0xf6,0x1,0xda,0xfc,0xba,0x12,0x24,0x1c,0xf3,0xf9,0x4,0x3,0x15,0x7,0x23,0x49,0x24,0xcd,0xdd,0xf4,0x12,0xd,0xeb,0x19,0xe6,0x0,0xc,0x15,0xf3,0x15,0x1d,0x23,0x63,0x3a,0x14,0x39,0xfb,0x25,0xee,0xbb,0xdc,0x25,0x31,0xef,0xd1,0x1e,0xdf,0xcd,0x0,0xe3,0xdd,0xb8,0xd0,0x17,0xae,0x2b,0xd6,0x3d,0x16,0xfb,0xc,0xf4,0xd1,0xdc,0xb9,0xee,0x16,0xd0,0x18,0xd7,0xd5,0x7f,0x1c,0xd3,0xf3,0xbf,0x1,0xc5,0xf2,0xb8,0x44,0x4,0xe2,0x94,0x8,0x7,0x24,0xfa,0x27,0xed,0xf2,0xc0,0xa,0xc8,0xf3,0xe4,0xcd,0x74,0x7f,0xcf,0xf5,0xbd,0xef,0x2d,0xf4,0xf5,0x24,0xf1,0xe7,0x0,0xd2,0xc9,0xf4,0xba,0xd8,0xec,0xfc,0xa8,0xdb,0xf2,0x1c,0xca,0x14,0xe5,0x12,0xce,0xf1,0xfe,0xfb,0x2,0x13,0xa1,0xff,0x18,0xe1,0xd4,0x5,0xa0,0xf4,0x32,0xf2,0x62,0xff,0xe8,0xf9,0x27,0xe9,0xeb,0xfc,0xeb,0xdf,0xe8,0x24,0xfd,0xdd,0x2d,0x3,0xd8,0xd9,0x1b,0xbf,0x11,0xf8,0xde,0xf3,0x2a,0xda,0x1d,0xf5,0x24,0xfd,0xea,0x10,0xf2,0x2a,0x4f,0x5,0xd8,0xf1,0xff,0xc,0xc5,0xf4,0xed,0x1c,0x8,0xa,0xd7,0xff,0xf1,0x11,0xd6,0xec,0xe5,0x5,0xe0,0x1a,0x1f,0xfe,0xd0,0xf1,0x3,0x11,0x4d,0xf1,0xf1,0x11,0xd8,0xd1,0x1e,0xd7,0xf5,0xd,0x18,0x16,0xff,0x1b,0x3,0x3,0x20,0x81,0xf4,0xef,0x22,0x1a,0xe7,0xcb,0x2c,0xe8,0xfb,0xd9,0x1a,0xde,0xcb,0x16,0x1a,0x14,0xfb,0x81,0xdb,0xe0,0x9d,0xfa,0x20,0xf8,0xf0,0x26,0x1a,0x23,0xcd,0xcb,0xfb,0x3,0xef,0x1d,0x11,0x3,0xd2,0xde,0xcb,0xb2,0x11,0xfc,0x26,0x10,0xbf,0xdc,0xb1,0x11,0xfa,0x21,0x2c,0x3a,0xf0,0xca,0x9c,0x15,0x1f,0xe5,0x4,0x0,0xf1,0x34,0xfb,0xdb,0x8,0x24,0x57,0x4a,0xf9,0xe7,0x25,0xd2,0xd3,0xb8,0x31,0xf9,0x35,0x1e,0xd,0xe3,0x44,0x2d,0x29,0xe7,0x9f,0xfd,0xa1,0xe7,0xf9,0xa4,0xea,0xfd,0x3a,0xed,0xd9,0xdf,0xf7,0xe4,0xc0,0xde,0xe6,0x20,0xcb,0xff,0x13,0xe3,0x21,0x16,0xd9,0xe2,0xc2,0x1a,0xe0,0xa,0x90,0xf1,0xe7,0x90,0xda,0xc,0xe4,0xde,0xce,0xdf,0x13,0x8,0xe8,0x9d,0xdb,0xde,0xb,0xef,0x45,0x39,0xca,0x13,0xd0,0x1c,0xfc,0xf8,0x45,0x24,0xd8,0xf1,0xea,0x14,0x11,0xe7,0x20,0xfb,0xdc,0xb5,0xf7,0xfd,0xd,0xa7,0x42,0xfe,0x1a,0x45,0x18,0x13,0x14,0x1e,0x1f,0x1e,0xf8,0x13,0xf0,0x14,0x0,0xc4,0x23,0xda,0xeb,0xe3,0x19,0x4,0x27,0x1c,0xe4,0xcb,0x50,0xd0,0xf3,0xb0,0x12,0x1f,0xf8,0x2b,0xf0,0xef,0x25,0x1c,0x24,0x28,0x27,0x1e,0x13,0xd,0xdd,0x2e,0xe,0x6,0x5f,0xf5,0xfe,0xf2,0x5a,0xd,0xdf,0xd4,0x16,0x9,0xd9,0xd6,0xf5,0x2f,0x18,0x9,0x25,0x22,0x1b,0x3a,0xe6,0x6,0x30,0xfa,0x1c,0xed,0xf3,0xfc,0xa,0xf8,0x25,0xdd,0xdb,0x1,0xc1,0xef,0x81,0xdf,0xff,0x3a,0x33,0x15,0xcd,0xfd,0xef,0x48,0xf1,0x19,0xe0,0xe1,0xd8,0xe,0x2,0x3,0x4,0xce,0xe4,0xb,0xed,0x6,0xdb,0xc6,0xde,0xd5,0x1b,0xc3,0x1f,0xb4,0x25,0x9e,0xf8,0x48,0x18,0x4a,0x30,0xa7,0x11,0xf5,0x44,0x17,0xc6,0xd6,0xe,0x9e,0xe7,0x48,0xd3,0xe7,0xcf,0x26,0xef,0x18,0xb7,0x16,0xc4,0xfa,0x23,0xe2,0xe5,0x16,0xfa,0xca,0xd,0xcb,0x8,0x10,0xef,0x9,0x1a,0xa,0xb5,0xc6,0x2c,0xe4,0x39,0x35,0xa9,0xd1,0xa0,0xcd,0xd7,0xf8,0xa5,0x1c,0xa,0xd8,0x4a,0xf,0x81,0xc0,0xd3,0x6,0xd4,0x35,0x49,0x2e,0x27,0x23,0xf7,0x37,0xcb,0xf,0x19,0x54,0xb2,0x13,0xf2,0xe1,0x41,0x1c,0xe3,0xdf,0x6,0xdf,0x36,0x7,0x11,0xe6,0x7a,0xfe,0x6,0x5a,0xad,0xaf,0xf6,0xed,0x2b,0xda,0xcd,0x38,0xda,0x3a,0x21,0x8d,0x18,0xf4,0x1,0xd6,0x34,0xda,0x46,0x24,0x9,0x48,0xa6,0xba,0x11,0xeb,0x3f,0x1e,0xd9,0xfb,0x21,0x16,0xf4,0x8,0xd0,0x69,0x2,0xc4,0x5c,0x14,0xc,0xdd,0x37,0xf3,0xd7,0x0,0x4d,0x30,0xf,0xf5,0x2c,0xf2,0xf2,0x12,0x28,0xfe,0x20,0x53,0x0,0xf2,0x6,0xee,0x2d,0xe6,0x39,0x13,0xbf,0x1a,0x9,0xe7,0x4,0xe,0x6d,0xed,0xa,0xfd,0x3d,0x0,0xd6,0xd,0xd3,0x3,0x9,0xf2,0xfe,0xfa,0x2a,0x0,0x7,0xe9,0xe4,0x5,0xd5,0x19,0xf0,0x13,0xf7,0xdd,0xf2,0xdb,0xe3,0xe8,0x4b,0xd6,0x3d,0xe8,0x27,0x7,0x11,0xf1,0xd,0x21,0x56,0x3b,0x16,0xdd,0xe,0x54,0xfb,0xd4,0xf3,0xe8,0xde,0x18,0xe7,0x13,0xa,0x2,0x14,0x30,0xf0,0x1d,0x4a,0xfd,0x39,0x63,0xf6,0xc,0xd,0x0,0xf2,0xc9,0xd7,0x25,0xe3,0x7f,0xe3,0x18,0xdb,0xe8,0xa,0xc,0xf3,0xe0,0xf,0x1,0xf0,0x22,0xf,0xdb,0xfb,0x10,0x34,0x63,0xf9,0x6,0xfa,0x4,0xe,0x7f,0x27,0x2c,0x14,0x3,0xb,0x18,0xe0,0x3b,0x1,0xe4,0x6,0xb,0xeb,0xff,0x4b,0xb5,0x1b,0x7,0x1a,0xf0,0x48,0x39,0xee,0xde,0xc2,0xf1,0x12,0x14,0x10,0xfc,0xca,0x1c,0xe9,0xfd,0xec,0x25,0xe4,0xf6,0xf9,0xfd,0x15,0x4b,0x21,0x1,0x2c,0xfc,0x3f,0xfc,0x0,0x3,0xb5,0xd2,0x8,0x42,0x22,0x4,0x6,0xe7,0xae,0xec,0xe1,0xe0,0xf4,0xe4,0x2e,0xcf,0xe2,0xc0,0x19,0x25,0x2,0x14,0xda,0xd9,0xf0,0xf8,0x6,0xf9,0xe6,0xe8,0xb,0x1,0xff,0xed,0x2,0xdf,0xbe,0xf7,0x1a,0xc,0xac,0x3f,0x33,0xd8,0x3e,0x15,0x8,0x56,0xfd,0x1b,0xef,0x2b,0xff,0x36,0xd,0xf4,0xf,0xeb,0x38,0x42,0x18,0x8,0x11,0x2a,0xdd,0x47,0x9e,0xa8,0x5a,0xec,0x3d,0xec,0xce,0xc,0xad,0x4b,0xfb,0x1f,0x7,0x15,0x29,0x2d,0xed,0xe4,0x41,0xe6,0xf1,0x4d,0x7,0xf2,0xdb,0xe9,0x22,0xa8,0xd8,0x16,0xde,0x47,0xdd,0x38,0xbc,0x2f,0xa1,0xfa,0x1,0xf5,0x12,0x3b,0xb5,0xc,0x27,0x54,0xf0,0xcd,0x57,0xea,0xfc,0x1b,0xf8,0xa,0x15,0xf4,0x10,0xa,0x8,0xf7,0xc7,0xbe,0xbc,0xf8,0xa7,0xca,0xe5,0xec,0x8f,0x20,0xcc,0x23,0xb0,0xfb,0x3,0xc,0x29,0xab,0xfb,0xfa,0xb7,0xf,0xa,0xea,0xe,0x7,0xe5,0xea,0xec,0x12,0xe2,0x14,0x1d,0xca,0x3e,0x20,0x25,0xb,0xce,0xdf,0x7f,0x2a,0xbe,0xde,0x91,0xd2,0x1f,0x27,0x1d,0xdc,0xb,0x4,0x3a,0x42,0x1e,0x2f,0x16,0x18,0xfd,0x21,0x2,0x1,0xea,0x15,0x2d,0xea,0x3,0xfa,0x36,0xd8,0x4,0x2a,0xa9,0xba,0x32,0xca,0x7c,0x13,0xde,0x9c,0x2a,0x2c,0x14,0x0,0x11,0xd7,0xdf,0x9e,0xfc,0x37,0xc4,0xd3,0xf8,0x31,0x9b,0x1a,0xe4,0xf7,0xee,0x1b,0x14,0x5,0x9,0x0,0x3,0x23,0xb,0xc7,0xf5,0x8,0x25,0xf8,0x2c,0x4,0xe1,0xc1,0x2f,0xbd,0x14,0xd3,0x8,0xe1,0xc6,0xe5,0xf7,0xde,0x21,0xa8,0xfb,0x36,0x1a,0x21,0x8d,0xde,0xd0,0x1f,0x81,0x27,0x72,0xd1,0x61,0xf2,0x4c,0x18,0x1f,0x2,0xef,0x4e,0xe3,0x39,0x4c,0xfe,0xdc,0xe7,0x1b,0x3c,0xfb,0xe8,0xcc,0xe4,0x2,0xb6,0x30,0x1d,0xf8,0x38,0x34,0xef,0xd5,0x26,0x64,0xcd,0xd4,0x5a,0xdf,0x2f,0xac,0xc3,0x3,0xfe,0xfe,0x26,0xcc,0x7c,0x21,0xf6,0xf,0x3f,0x20,0xf5,0xd0,0x9,0x47,0xf2,0x3d,0xe5,0xf3,0x53,0x30,0xb,0xb2,0xb8,0x5,0xe1,0xa8,0xab,0x18,0x6d,0xc3,0x3e,0xff,0x37,0xbc,0x12,0xd6,0x52,0xf0,0xd4,0x4b,0x23,0x3,0xf3,0xb6,0x83,0x37,0x4,0x34,0x2c,0x8b,0x11,0xf,0xfb,0x34,0x35,0x28,0x2a,0xf3,0x9d,0x98,0x27,0x13,0xfd,0x2d,0xff,0xf8,0x2a,0x3,0x12,0x8,0x17,0x3b,0x28,0x28,0x6,0xff,0xe,0x3,0x5,0x2,0xb1,0x4a,0x36,0x3,0xcc,0x22,0xf7,0x42,0xd1,0xba,0xb,0xa1,0xec,0x37,0xbd,0xf3,0xc5,0x14,0xe8,0xd4,0xda,0x18,0x1e,0xd4,0xc2,0xfe,0x2c,0xd4,0xd,0x16,0xc5,0xc3,0x1e,0xdd,0xb0,0x3,0x34,0xf7,0x16,0xc1,0x30,0xf2,0x81,0xed,0xfb,0xf2,0x40,0xe1,0x11,0xf0,0xfe,0xd5,0xbc,0xf0,0x11,0xc2,0xf8,0x49,0x42,0xae,0xfe,0xb4,0x0,0x29,0xe0,0x22,0xfb,0xfc,0xf5,0xea,0xa7,0xb,0xef,0xd5,0xf1,0x0,0x27,0xc2,0x8,0xd7,0xe6,0xbd,0x5,0x11,0x24,0xca,0x13,0xea,0xd1,0xc8,0xf8,0x9f,0xa5,0x11,0xdb,0xd8,0x2b,0x98,0xfd,0xf,0x11,0x5a,0xd8,0xf0,0xe8,0x4,0xdc,0x9c,0x2e,0xef,0xff,0xed,0xfd,0xf7,0x5,0xed,0x11,0xf1,0xc9,0x21,0xdc,0x19,0xed,0xbd,0xd0,0x20,0xd0,0x1c,0xeb,0x1b,0xdc,0xc7,0x2e,0xdf,0x12,0x43,0x19,0xdb,0xe3,0xcc,0x1a,0xe3,0xbe,0x30,0x10,0x2e,0xda,0xe3,0x0,0xfe,0xeb,0xca,0xb7,0xf,0x15,0xdf,0x28,0x16,0xe6,0xd,0x18,0x1a,0xe8,0x4e,0xd8,0x2a,0x2b,0xbc,0xe9,0xc9,0xc4,0xf8,0x21,0xfb,0xfb,0xdc,0x18,0x1e,0x3,0x1c,0x81,0xd,0x11,0xd4,0x5,0x6,0x5,0xce,0x37,0x24,0x16,0x12,0x2a,0xea,0x26,0xe4,0x0,0x6b,0x71,0xde,0x11,0xe9,0xc7,0xc4,0x7f,0xe7,0x3d,0x3,0xda,0x52,0x16,0xfd,0x21,0xfc,0xe9,0x2f,0x2d,0x1f,0xb,0x49,0xc7,0x4c,0xd8,0xda,0xa8,0x2b,0xd6,0x36,0xda,0x98,0x26,0x27,0x26,0xcf,0xf5,0xa,0xf9,0x2b,0xa0,0x1b,0x32,0x2c,0x55,0xed,0xd5,0x33,0x74,0x4c,0x1b,0x11,0xf9,0x59,0x36,0xd4,0x4e,0x92,0xc3,0x54,0x13,0x7,0xdb,0x73,0xdb,0xb4,0xee,0x3b,0x23,0xd5,0xf0,0xf6,0x59,0xc4,0xa2,0x47,0x9,0xd7,0x15,0xd6,0xd5,0x4e,0x2d,0x22,0x0,0x1f,0xf1,0x19,0x28,0x1a,0xe4,0x3,0xbe,0xaa,0x42,0x1d,0x1c,0xb6,0x53,0x7f,0xb,0x52,0xfd,0x4c,0x67,0xd,0xdb,0x2,0xf4,0x23,0xc5,0xd,0xe7,0x1c,0xa3,0x30,0x3c,0x20,0xba,0xbc,0xdc,0xd1,0x35,0x29,0xc1,0xcb,0xd5,0x1a,0x28,0xee,0xd,0x3c,0x4a,0x8,0xb4,0x29,0xd5,0xfe,0xe6,0x23,0x27,0xf3,0xe0,0x11,0xf1,0xd7,0xe6,0x1c,0x21,0x20,0x74,0xfe,0x3,0xf0,0xed,0x62,0x10,0x11,0xf3,0xa1,0x22,0x2,0x20,0xee,0x60,0x62,0xef,0x2d,0x21,0x10,0xd7,0x18,0xdc,0x1b,0xb,0xe3,0xf6,0xd9,0xf7,0x5,0x9,0x19,0x34,0xdc,0x58,0x21,0x2d,0xe5,0xc,0xfa,0xe8,0xdb,0x24,0xbf,0xdc,0x56,0xf1,0x45,0xe8,0xf7,0x50,0xec,0x3f,0xb6,0x2c,0x41,0xa,0xf,0xfe,0x3f,0x3b,0x13,0x18,0x35,0xdd,0x2c,0xc7,0x1c,0x20,0xeb,0x4,0xbf,0xd2,0x5,0xb,0x40,0x1a,0xed,0x75,0xd4,0xe7,0xcd,0xd5,0x1a,0xe3,0xe9,0x23,0x0,0x7f,0x35,0xe2,0x1a,0xfc,0x7,0xd,0xe1,0x27,0x4a,0xec,0xe8,0x3,0xec,0xd0,0xe,0x7,0x35,0xa,0xd9,0xfb,0xac,0xff,0xf7,0x7f,0x8,0xf5,0xf5,0x4b,0xd3,0xdb,0x19,0x9,0xfc,0x4,0x7,0xe1,0xee,0x3,0x33,0xa8,0xf1,0x8,0xf,0x15,0xc,0xfc,0xe,0x17,0xdd,0xf,0xdc,0xe4,0x3,0x3c,0xbb,0xe1,0x4,0x19,0xe7,0xdf,0x27,0xd2,0x9,0xec,0xdd,0x1c,0xd9,0xda,0xf3,0xfb,0xe4,0xa,0x8,0xdd,0xf0,0xf5,0xf2,0xf4,0xf8,0x25,0xcd,0x23,0xdb,0xfd,0xc1,0xc,0xf8,0xb,0xe,0xb7,0xff,0xed,0xfd,0xeb,0xc2,0x3,0xe9,0x1d,0x0,0xe6,0x12,0x1b,0xf5,0x23,0x4,0x35,0xf5,0x17,0xfd,0x1f,0xdd,0xfb,0x62,0xb,0xc5,0xea,0xfd,0xcf,0x37,0x16,0x2f,0xf3,0x18,0x1d,0xfd,0x4,0xb,0xf9,0x14,0x20,0x25,0xec,0x2c,0xd8,0x5a,0x16,0x12,0xe4,0xef,0x6,0xd7,0xe0,0xea,0x6,0xf7,0x6f,0xef,0xfc,0xf,0xc1,0x12,0xf0,0xd1,0xce,0x36,0xf0,0xf,0xfc,0xe4,0xbb,0xd4,0x11,0xe3,0xf1,0x27,0x1d,0x3f,0x6c,0xee,0x26,0xc0,0xf8,0x1b,0x10,0xfc,0xf,0xf7,0x5,0xc6,0xdc,0xf9,0x29,0x22,0xe7,0x17,0x4,0xc9,0xef,0xed,0xe5,0x2,0xf3,0xcc,0xf,0xc1,0xa2,0xb7,0x7,0xcc,0x8,0xd1,0xf9,0xe1,0x28,0xe2,0xe2,0x1d,0x2f,0xd2,0xfd,0xe7,0x1a,0x4e,0xdb,0x4c,0x33,0xfa,0x56,0x12,0xf7,0xc2,0x0,0x55,0x2b,0x20,0xe9,0x10,0x3f,0xdb,0xe5,0x2e,0x1e,0xf6,0x2f,0xad,0xff,0x39,0x8,0x22,0xf6,0x34,0xc7,0x30,0xba,0x2f,0x56,0x7f,0x2,0x1c,0x5,0xfc,0xe7,0x1c,0xc7,0xec,0xf,0xf0,0x5,0x3d,0xd,0x93,0xa1,0x30,0x25,0x28,0x24,0xc5,0x29,0xe0,0xba,0xce,0xfd,0xb4,0xc6,0x2b,0xe6,0xe,0x3d,0x1,0xe,0x65,0x30,0xe6,0x3a,0xfd,0xfb,0x10,0xdc,0x1c,0x27,0xe6,0x1e,0x3b,0x12,0xc6,0xe8,0xa,0x10,0xf4,0x47,0x7,0x9,0x32,0xd5,0xd4,0x2d,0x0,0xf1,0x21,0xd9,0xb,0x20,0x15,0x1c,0xed,0xe8,0x13,0x23,0x27,0xe7,0x1f,0xb5,0xf5,0xe,0x1f,0x27,0xfe,0xfa,0x9,0x5,0xef,0xd0,0xe6,0x12,0x10,0xf8,0x81,0x4,0x55,0xe,0xe8,0xe5,0x21,0xff,0x33,0xbf,0x20,0x43,0xd4,0xda,0x8,0xce,0xf,0x1,0xe5,0xa,0xe4,0x2,0xdd,0xed,0x10,0xd1,0xce,0x1,0x5,0xdf,0x36,0xee,0x39,0x28,0xfa,0x8,0xb4,0x41,0xac,0x26,0xce,0xb8,0x4,0xe1,0xdd,0x5f,0xdf,0x52,0xe8,0xe1,0xcb,0xf7,0x54,0x4f,0xb4,0x1b,0xfc,0x5,0xd0,0x16,0x8,0xf4,0x18,0x2a,0x28,0x67,0x3b,0xfa,0xd4,0xf2,0x16,0x33,0x70,0x55,0xaf,0xf1,0x2f,0xfc,0xa,0x4f,0x2e,0xdc,0x3e,0x4d,0x1a,0xfd,0x2f,0xd5,0x26,0xdd,0x1d,0x0,0xec,0x30,0x2e,0xdb,0xa3,0x44,0x38,0x2a,0x16,0x5,0xcb,0xd3,0xbe,0xf5,0x29,0x3c,0xa,0x1d,0xdb,0xb8,0x53,0x26,0x54,0x30,0x13,0x32,0x69,0xf6,0x2b,0x14,0x9f,0xce,0x59,0x3a,0xe8,0x99,0x3a,0xa6,0xaa,0xba,0xdb,0xd,0xde,0xc,0x69,0xcd,0xf4,0xc8,0x14,0x43,0x31,0x28,0xf1,0xed,0xef,0x1f,0xdc,0xf5,0xf3,0xe5,0xf0,0x0,0x42,0xd6,0xf8,0xd9,0xae,0x1f,0xfd,0x10,0xe3,0x4b,0x35,0xe,0xc4,0xe1,0xb,0x44,0xc2,0xe0,0xc8,0x4b,0xd4,0x17,0xe4,0xf3,0xba,0xce,0x7f,0x7e,0xcb,0xd8,0xb5,0x2,0xe3,0xe2,0x2e,0x29,0xe8,0x11,0x17,0x44,0xb,0xf9,0x37,0x6,0x11,0xfa,0x1b,0x37,0x11,0xc0,0xc,0x8,0xe6,0x3d,0x2,0x10,0xe,0x1d,0x3,0xe1,0x50,0xee,0xfc,0xf6,0x28,0xc7,0xf2,0xed,0xff,0xda,0xc4,0xfd,0x4,0x2f,0xce,0xfb,0x55,0xcb,0xde,0xd2,0x0,0xed,0xda,0x3f,0xca,0xe6,0x3c,0x2c,0x5,0x4e,0x41,0xff,0x30,0x39,0xe6,0x28,0xb9,0xf3,0x3d,0xf2,0x13,0xe9,0x7f,0xc9,0xb4,0xed,0x27,0x2,0xff,0xcf,0x36,0x5f,0xdc,0x3,0x35,0xfc,0x25,0x14,0xf6,0xd5,0x1a,0xfe,0xe3,0xf,0xef,0xfc,0x13,0xee,0x23,0x1d,0xef,0xfe,0xb4,0x34,0xbc,0x14,0x2d,0x48,0x6c,0x22,0xf5,0xd4,0x22,0x49,0x3,0xd,0xfb,0xc8,0xee,0x15,0xf7,0xf6,0xd4,0xee,0x21,0xe,0xc1,0xc6,0xb2,0xca,0x26,0xeb,0xf7,0xa8,0x26,0xe0,0x52,0x78,0xe4,0x2d,0x90,0x1d,0x1c,0x54,0xe2,0xec,0x17,0x50,0xf3,0xc7,0xfc,0xca,0x1,0xf3,0x29,0xfa,0xbf,0xeb,0x6b,0xc8,0x17,0x22,0xbc,0xff,0x52,0x24,0x2c,0x38,0x9f,0xde,0xdf,0xec,0xf5,0x72,0x99,0xea,0x34,0x2d,0xdc,0xd6,0x1e,0xe4,0xa,0x4,0xd9,0x53,0xef,0x9,0xc7,0x15,0xb6,0x38,0xf9,0xe4,0xf8,0xfe,0xc5,0x2,0x11,0xc,0x2,0x6,0x8f,0xe3,0xdd,0x25,0x1,0x1d,0xbe,0x9d,0xed,0xc5,0x86,0x20,0xe4,0xc4,0x1f,0xf4,0xf3,0xbf,0xef,0xe1,0xb,0xfe,0x2a,0x14,0x3a,0x0,0x33,0x8,0xad,0xef,0x2f,0xc6,0xac,0xd2,0x29,0xc4,0x7f,0x0,0x48,0xf0,0xf0,0xa,0xe1,0x16,0xfd,0xd,0x36,0xed,0x39,0x1b,0xfd,0xdb,0x72,0xde,0xe,0xdf,0x24,0xe0,0x5b,0x22,0xf3,0x2f,0xca,0x48,0x2c,0xd7,0x41,0xad,0xe6,0xf0,0xc,0xdc,0xfe,0xbe,0x5,0x29,0x12,0x25,0x1,0xf5,0x2e,0x13,0x40,0xef,0x24,0x47,0xed,0xea,0xda,0xc8,0x48,0xe2,0x24,0x11,0x14,0xe1,0x15,0x25,0xf5,0xf4,0x3e,0xe5,0x2,0x92,0x2f,0xfb,0xf4,0x7,0xf9,0xd6,0x2c,0xef,0xdf,0xd1,0xf,0x11,0xe3,0xfa,0x1,0x69,0xec,0x17,0x28,0xec,0x6,0x16,0x2d,0xfb,0xf8,0x22,0x26,0xd,0x0,0xfc,0xf7,0x7f,0xea,0xe1,0x36,0x4,0x22,0x1d,0xd2,0xea,0x68,0x35,0xe5,0xca,0xf6,0x26,0x25,0x37,0xba,0x6,0xec,0xe,0x57,0x29,0xdc,0xdb,0x32,0xe4,0x6c,0x39,0x1b,0xe9,0xfd,0x34,0x2f,0x1d,0xf9,0xdd,0xd7,0x2d,0xd3,0x0,0x19,0xe2,0xfe,0xe1,0xe0,0x26,0xfd,0xe,0xe0,0x22,0x40,0xfe,0xef,0x1f,0x19,0xc3,0x3d,0x24,0x59,0x41,0x20,0x81,0x18,0xfc,0xd,0xb9,0xa,0x26,0xf9,0xd6,0xc,0x18,0x16,0xe5,0xfd,0x27,0xf5,0x36,0x19,0x13,0xf4,0x3,0xe5,0x15,0x8,0x0,0x45,0x2f,0x20,0xe0,0xe5,0xf6,0x42,0xfd,0xee,0x15,0x1b,0xe,0x25,0xf9,0xfe,0xd2,0x30,0xcb,0x4,0xe6,0x2c,0x31,0x2b,0xea,0x16,0x9,0x25,0xe1,0x31,0xdd,0xe5,0xc,0xf8,0xe5,0x4a,0xf3,0x50,0xe1,0xfc,0xf3,0xf9,0x2d,0xd6,0x17,0xec,0xf0,0x31,0x7,0xf5,0x0,0x1e,0x56,0x26,0x25,0x13,0xd9,0x12,0xbc,0x30,0x26,0x19,0xdc,0xd0,0xe7,0x9e,0xe3,0x62,0x3e,0xb,0x2e,0xae,0xfc,0xc5,0xf0,0xe0,0x6,0x23,0xfc,0xda,0x3e,0x7,0xf4,0xe6,0x32,0xef,0x2e,0x93,0xe8,0x15,0x1,0x4,0xff,0x3b,0x1f,0x1,0xa,0xbc,0x2b,0xf9,0xf0,0x1c,0xab,0xf1,0xb8,0xc6,0xd8,0x16,0xe7,0xf9,0x23,0xec,0x11,0x11,0xf7,0x20,0x23,0x3e,0x2a,0xe3,0x6c,0xd,0x12,0xd7,0xcc,0xe9,0xe8,0x19,0x26,0x5e,0xd7,0x12,0xf,0x26,0xcf,0x5a,0x3a,0x6,0xd8,0x29,0x3f,0xaa,0xf5,0xcf,0x15,0x2e,0xe5,0xd,0xd1,0xef,0xf,0xe5,0x32,0xa,0x7,0xf8,0x5,0x45,0x38,0xf5,0x17,0x48,0xce,0xfd,0x22,0x18,0x2,0xdf,0xd9,0xfc,0x7f,0xe,0xea,0x4f,0x28,0x1c,0x48,0x21,0x2,0x2c,0x40,0xdb,0xff,0x1a,0x22,0xef,0x12,0xaa,0xd4,0xeb,0xc6,0x59,0x2,0x89,0xe6,0x49,0x22,0x47,0x39,0x30,0xef,0xdd,0x41,0xf3,0xd9,0x8,0x4,0xf5,0xd6,0x14,0x6,0x20,0xcd,0xb4,0xee,0x3,0xf6,0xb,0x10,0xde,0xcc,0x17,0x4d,0x8,0xfc,0x4b,0x31,0x1,0xb,0x0,0xdc,0x9,0x2d,0xe4,0xbc,0x34,0xe1,0x27,0x24,0x21,0x1c,0xdf,0xf8,0x18,0xe,0x32,0xec,0x1d,0xff,0x7,0x27,0xeb,0x81,0xf5,0xcc,0xfc,0xe7,0xea,0x16,0xd,0x1,0xf,0x1,0xf1,0xf4,0xef,0xd3,0xfb,0x19,0x42,0xfa,0x1f,0x22,0x1b,0x50,0x3,0xf2,0xde,0xcc,0xf7,0x6,0xd,0xfc,0x1c,0x21,0x57,0xe0,0xf1,0xf9,0x6f,0x43,0xdf,0x13,0x42,0x10,0x9c,0x1b,0xf0,0x3d,0xdd,0xf5,0x48,0x31,0x11,0x11,0x1a,0x25,0x56,0xd7,0xea,0x7,0x37,0x19,0xe2,0xf3,0x7b,0xe4,0xf6,0x42,0xa4,0xe1,0xa7,0xf9,0xc3,0xe4,0x55,0xbd,0x8,0xe2,0xe8,0x12,0x17,0x32,0x15,0x8b,0x13,0xb9,0x2,0xce,0xff,0x1e,0xe5,0xc7,0x55,0xd4,0xd2,0xe3,0xf3,0x11,0xe6,0xc,0xde,0xf4,0x9,0xa5,0xe4,0xc2,0x1e,0x15,0x2d,0xbb,0x38,0xe9,0x16,0xfe,0xe8,0xc4,0xe1,0x2,0x39,0x36,0xcb,0x13,0x43,0x1,0xa9,0x8a,0x17,0xdf,0x3c,0x55,0xfb,0xfe,0xcc,0xed,0x3e,0x12,0x4b,0xdf,0xeb,0xaf,0xe1,0x2c,0x1b,0xfc,0x17,0x21,0x38,0xe,0x1e,0xe0,0xfc,0xe0,0xf1,0x48,0x42,0xfe,0xfc,0xa7,0xec,0xe3,0x33,0x18,0xd3,0xb3,0xe5,0x2b,0x81,0xe8,0x5c,0x16,0xd6,0xb,0x2c,0xd0,0xf6,0xbb,0x28,0x2d,0xdd,0xef,0x20,0xf0,0xa,0xf7,0x94,0x22,0x30,0x2e,0x20,0x11,0x2f,0xca,0x3c,0xfc,0xe1,0xd7,0x36,0x6,0xe4,0x33,0x30,0x3c,0x9a,0x38,0xba,0xcb,0xb1,0xc6,0x19,0x29,0xee,0x4b,0xe9,0x64,0xe2,0xe5,0xd3,0x33,0x24,0x30,0x99,0xef,0xef,0x0,0x6,0x9,0xea,0x13,0xfe,0x24,0xbe,0xdb,0x14,0xe6,0x19,0xd9,0xf6,0xd4,0x10,0xf9,0x2,0xfd,0xf7,0x1c,0xd7,0x10,0x2,0xed,0xfe,0xf2,0x3,0x0,0xb0,0x2f,0x17,0xec,0x7,0x1d,0xf,0xfd,0x27,0xd,0xdc,0xff,0x13,0xfb,0xf1,0xee,0x24,0x14,0xe8,0xd4,0x8,0xb,0xc7,0x2a,0x0,0xe5,0x12,0xf0,0x10,0xfe,0x2,0xd,0x17,0xd3,0x19,0x19,0xea,0x3,0x18,0xea,0xef,0xf0,0xc8,0xeb,0x1f,0xe6,0x9,0xdd,0xf6,0xe6,0x2e,0xe6,0xd,0xf1,0x48,0x12,0x20,0x8,0x5,0xf5,0x6,0x13,0xe6,0xf8,0xe9,0xf9,0x10,0x0,0x81,0xe8,0x19,0xe6,0x33,0x1e,0xf7,0xe,0x34,0x25,0xec,0x5,0xca,0xf0,0xf9,0x18,0x10,0x7,0xe8,0x35,0xff,0x17,0xf3,0xf5,0xee,0xf9,0x10,0xc,0xcb,0x12,0xcd,0x2a,0xd7,0xa,0x31,0x14,0xec,0xf3,0xa4,0xf2,0x11,0xdb,0x5d,0x0,0xf,0x9e,0x2d,0x27,0xcf,0x0,0x18,0x18,0xe0,0x8,0xe,0xe6,0xfe,0x3,0x5,0xe4,0xd5,0x26,0x19,0xfb,0x28,0x23,0xb,0x3,0x1c,0xd8,0xe8,0xfe,0x16,0x7,0xdf,0xb7,0x3b,0xe,0xd9,0xc9,0x2e,0xf1,0xe3,0xfd,0xda,0xd7,0x8,0xd5,0xf2,0xf1,0x1f,0x2c,0x22,0x0,0xa,0xf,0xf2,0x3,0x4,0xf4,0x3,0xe2,0x8,0xe1,0x1c,0x7,0x3d,0xe7,0x35,0xfe,0xc,0x3,0x5,0x9,0x21,0x12,0x2d,0x2b,0xea,0xd3,0x1f,0x1e,0xf8,0xc,0xfc,0xd,0xf6,0xea,0x81,0x0,0xec,0xc3,0x1f,0x0,0xca,0xf3,0x33,0x1,0x9,0x54,0xc3,0xe0,0xcd,0x17,0xeb,0xe9,0xf2,0x17,0xdb,0x58,0xe3,0x1a,0xe2,0xee,0x27,0x31,0xa5,0xf2,0xe2,0x29,0x2e,0xe2,0xd5,0xff,0xb,0x5,0x12,0x9c,0x3,0x2b,0xae,0xb3,0xf6,0x67,0xc1,0xe0,0xf0,0x2b,0xab,0x6,0x3,0xe7,0xcb,0xdd,0x2,0xe5,0xc7,0xea,0xe4,0xa4,0x9,0x1f,0x17,0x56,0x81,0xf3,0xd,0x21,0x30,0xd,0xe3,0x15,0xf9,0x25,0x8a,0x21,0x19,0x18,0xd2,0x1d,0xda,0xa,0x24,0xed,0xed,0xc,0x20,0xe4,0xe2,0xe2,0xd0,0x1,0x2d,0xb1,0xdf,0xec,0xec,0x7,0x18,0x20,0x0,0xf6,0x29,0x10,0xd0,0xfb,0xf0,0x14,0xe3,0xdb,0x32,0xd2,0xed,0xeb,0xa8,0xfa,0xe2,0xf8,0xc7,0xc1,0x1b,0x16,0xde,0xf0,0x2d,0x43,0xbb,0xf1,0x17,0x2f,0x2e,0x19,0x49,0x9,0xbe,0xb,0xdb,0xae,0x26,0x28,0x39,0x13,0x16,0xe,0x6,0xfc,0x1,0xac,0xa,0xf5,0x1a,0x11,0x2b,0xe9,0x29,0x2,0xdf,0xfd,0x9,0xc6,0x28,0xea,0x11,0xd,0x12,0x81,0x3,0x1e,0xae,0x15,0x1e,0xf8,0xf0,0xfb,0x1d,0xe7,0xf1,0xe6,0x33,0xff,0x12,0xe7,0xcc,0xf9,0xcf,0xfe,0xc0,0xbb,0xe3,0x14,0xc5,0xef,0x82,0xfb,0xb8,0xc,0x3e,0x6,0xfa,0xd0,0xfb,0xa,0x81,0xec,0xfc,0x22,0xc1,0xb,0x47,0xe2,0x6,0x30,0xec,0xea,0x13,0x7,0xb9,0xdd,0xb5,0xe1,0xc9,0xf9,0x5b,0xfb,0xf,0xb9,0x27,0x15,0xfa,0x4,0x63,0x2c,0x96,0xed,0xcd,0x28,0xc3,0xc3,0x1b,0x14,0x1b,0x11,0xb9,0xe8,0xfa,0x16,0x3,0xb3,0xe5,0x6,0x12,0x13,0xe,0xec,0x1d,0xd7,0xe7,0x23,0x15,0x10,0xe3,0xdd,0xac,0xf5,0x9c,0x93,0x3,0xe6,0xd9,0xac,0xff,0x2a,0x1a,0xb8,0x18,0xc1,0xb,0x0,0xef,0x42,0xd0,0xf3,0xe8,0x1e,0x24,0x0,0x0,0x0,0x0,0x0,0x0,0x0,0x0,0x0,0x0,0x0,0x0,0x0,0x0,0x6,0x0,0x8,0x0,0x4,0x0,0x6,0x0,0x0,0x0,0x4,0x0,0x0,0x0,0x80,0x1,0x0,0x0,0xb8,0xf7,0xba,0xd5,0xbf,0xfe,0xa0,0x1,0x4d,0xff,0x41,0x3,0xf,0xd4,0x19,0xf,0x5,0x1b,0xb1,0x2f,0x5c,0xf4,0x3f,0xaf,0xc3,0x81,0x10,0xe8,0x5,0xdf,0xe4,0x1a,0x51,0xa1,0xd3,0xdc,0x4e,0xe4,0x41,0x4f,0x96,0x13,0x31,0x8f,0x97,0x5b,0xe2,0x40,0xd2,0xd3,0xbd,0xc7,0x29,0x35,0xb4,0x57,0xd,0x36,0x2b,0xeb,0x23,0x12,0xfd,0xd4,0xd0,0x6d,0xa8,0xcc,0x14,0xc7,0x2f,0x0,0x2c,0x5e,0xe6,0xd,0x72,0xe7,0x5,0x65,0xe3,0x9,0xb0,0xbb,0x63,0xcb,0x43,0xd8,0xe7,0x24,0x96,0x5b,0x4b,0x48,0x4a,0x8,0xa5,0x7,0x5b,0xd9,0x54,0xa9,0x32,0xee,0x9d,0x2d,0x6f,0x71,0x25,0x2b,0xce,0xb,0x21,0xd,0xab,0x7f,0x49,0xe,0xe9,0xff,0xa,0xc2,0xbe,0x43,0x32,0x19,0xfb,0xae,0xd1,0x44,0xad,0xd5,0x37,0xaf,0x8f,0xc5,0x7e,0x53,0x51,0xfd,0x5f,0x55,0xca,0x3e,0x8a,0x43,0xc1,0x7e,0x25,0xfb,0xf7,0xef,0xc3,0x9f,0xe4,0xbb,0x1,0xe6,0x30,0xe1,0x8f,0xcf,0xcf,0xd5,0x42,0xb2,0xd9,0x46,0xae,0x68,0x18,0x94,0x30,0xc1,0xaf,0x24,0x6a,0x92,0x3,0x35,0x22,0x2b,0x96,0x7f,0x23,0x43,0xea,0x28,0x33,0x49,0x8a,0x9b,0x57,0x7,0x2d,0x49,0x21,0x24,0xe0,0x13,0x27,0x32,0xd7,0xa,0xa7,0x11,0x50,0x9b,0xf7,0xac,0x7f,0xd0,0x8e,0xf8,0xda,0x9,0x40,0xc7,0xfa,0xb5,0xe8,0x20,0xfa,0x39,0xe8,0xd5,0xc0,0x2e,0x5,0xf,0x1e,0xec,0x6f,0xa8,0x83,0xc,0x5f,0xd7,0x10,0x97,0x2e,0x4,0xf7,0xf9,0xb0,0xcf,0xcc,0xf9,0x21,0xcf,0x41,0x3e,0xa6,0x9a,0xeb,0x49,0x46,0x32,0x21,0x49,0x42,0xf0,0x35,0xb,0x2,0x60,0xad,0x81,0x86,0x7,0x2e,0xdd,0xf5,0xc7,0xdb,0xcb,0xef,0xed,0xe3,0x6,0xd6,0x6d,0x3d,0x1a,0xd7,0xc3,0x10,0x21,0xa9,0xbe,0x52,0x55,0x8,0xe5,0xe9,0xe5,0x26,0xd1,0x5c,0x25,0xd,0xca,0xca,0x53,0x30,0x58,0x53,0xbb,0xcf,0xe1,0x74,0x11,0xb3,0xdb,0x3f,0x9e,0xa8,0x8f,0xf8,0xeb,0x43,0xd8,0xe5,0xaf,0xe8,0x19,0x26,0xa9,0x3e,0xe2,0x2a,0x5,0x7f,0x19,0xa3,0x0,0x44,0xb4,0x37,0xfb,0xa8,0x25,0xb3,0x1c,0x44,0xf0,0xf1,0xc6,0x98,0x32,0xcf,0xa8,0xe2,0x19,0xf8,0xc1,0xe0,0x54,0xce,0xa8,0xbc,0xfa,0xb9,0xd4,0x28,0x0,0xf,0x9b,0x1,0xfd,0x4d,0x3f,0xbb,0xb7,0xb3,0x50,0xc0,0x10,0xab,0xf6,0x58,0x36,0x45,0xe4,0x90,0xf9,0xff,0xff,0x1,0x0,0x0,0x0,0x10,0x0,0x0,0x0,0xc,0x0,0x14,0x0,0x4,0x0,0x8,0x0,0xc,0x0,0x10,0x0,0xc,0x0,0x0,0x0,0x68,0x2,0x0,0x0,0x58,0x2,0x0,0x0,0x4c,0x2,0x0,0x0,0x4,0x0,0x0,0x0,0xb,0x0,0x0,0x0,0x24,0x2,0x0,0x0,0xe4,0x1,0x0,0x0,0x8c,0x1,0x0,0x0,0x54,0x1,0x0,0x0,0x20,0x1,0x0,0x0,0xec,0x0,0x0,0x0,0xb8,0x0,0x0,0x0,0x90,0x0,0x0,0x0,0x68,0x0,0x0,0x0,0x40,0x0,0x0,0x0,0x4,0x0,0x0,0x0,0x52,0xfe,0xff,0xff,0x0,0x0,0x0,0x8,0x2,0x0,0x0,0x0,0x1c,0x0,0x0,0x0,0x10,0x0,0x0,0x0,0x4,0x0,0x0,0x0,0x96,0xfe,0xff,0xff,0x0,0x0,0x0,0x1,0x1,0x0,0x0,0x0,0x15,0x0,0x0,0x0,0x3,0x0,0x0,0x0,0x14,0x0,0x0,0x0,0x2,0x0,0x0,0x0,0xff,0xff,0xff,0xff,0xe,0xff,0xff,0xff,0x4,0x0,0x0,0x0,0x10,0x0,0x0,0x0,0x4,0x0,0x0,0x0,0x1,0x0,0x0,0x0,0x14,0x0,0x0,0x0,0x2,0x0,0x0,0x0,0x13,0x0,0x0,0x0,0x5,0x0,0x0,0x0,0x32,0xff,0xff,0xff,0x6,0x0,0x0,0x0,0x10,0x0,0x0,0x0,0x4,0x0,0x0,0x0,0x1,0x0,0x0,0x0,0x13,0x0,0x0,0x0,0x2,0x0,0x0,0x0,0x12,0x0,0x0,0x0,0x6,0x0,0x0,0x0,0x56,0xff,0xff,0xff,0x4,0x0,0x0,0x0,0x10,0x0,0x0,0x0,0x4,0x0,0x0,0x0,0x1,0x0,0x0,0x0,0x12,0x0,0x0,0x0,0x2,0x0,0x0,0x0,0x11,0x0,0x0,0x0,0x7,0x0,0x0,0x0,0xf6,0xfe,0xff,0xff,0x0,0x0,0x0,0x15,0x1,0x0,0x0,0x0,0x18,0x0,0x0,0x0,0xc,0x0,0x0,0x0,0x4,0x0,0x0,0x0,0xa8,0xfa,0xff,0xff,0x1,0x0,0x0,0x0,0x11,0x0,0x0,0x0,0x2,0x0,0x0,0x0,0x10,0x0,0x0,0x0,0x4,0x0,0x0,0x0,0x26,0xff,0xff,0xff,0x0,0x0,0x0,0x1b,0x5,0x0,0x0,0x0,0x18,0x0,0x0,0x0,0xc,0x0,0x0,0x0,0x4,0x0,0x0,0x0,0xd8,0xfa,0xff,0xff,0x1,0x0,0x0,0x0,0x10,0x0,0x0,0x0,0x2,0x0,0x0,0x0,0xf,0x0,0x0,0x0,0xa,0x0,0x0,0x0,0xda,0xff,0xff,0xff,0x4,0x0,0x0,0x0,0x10,0x0,0x0,0x0,0x4,0x0,0x0,0x0,0x1,0x0,0x0,0x0,0xf,0x0,0x0,0x0,0x2,0x0,0x0,0x0,0xe,0x0,0x0,0x0,0x8,0x0,0x0,0x0,0x0,0x0,0xa,0x0,0x10,0x0,0x4,0x0,0x8,0x0,0xc,0x0,0xa,0x0,0x0,0x0,0x3,0x0,0x0,0x0,0x10,0x0,0x0,0x0,0x4,0x0,0x0,0x0,0x1,0x0,0x0,0x0,0xe,0x0,0x0,0x0,0x2,0x0,0x0,0x0,0xd,0x0,0x0,0x0,0x9,0x0,0x0,0x0,0x0,0x0,0xe,0x0,0x1a,0x0,0x8,0x0,0xc,0x0,0x10,0x0,0x7,0x0,0x14,0x0,0xe,0x0,0x0,0x0,0x0,0x0,0x0,0x8,0x2,0x0,0x0,0x0,0x28,0x0,0x0,0x0,0x1c,0x0,0x0,0x0,0x10,0x0,0x0,0x0,0x0,0x0,0xa,0x0,0x8,0x0,0x0,0x0,0x0,0x0,0x7,0x0,0xa,0x0,0x0,0x0,0x0,0x0,0x0,0x1,0x1,0x0,0x0,0x0,0xd,0x0,0x0,0x0,0x3,0x0,0x0,0x0,0xc,0x0,0x0,0x0,0x3,0x0,0x0,0x0,0xff,0xff,0xff,0xff,0x0,0x0,0xe,0x0,0x18,0x0,0x8,0x0,0xc,0x0,0x10,0x0,0x7,0x0,0x14,0x0,0xe,0x0,0x0,0x0,0x0,0x0,0x0,0x15,0x1,0x0,0x0,0x0,0x18,0x0,0x0,0x0,0xc,0x0,0x0,0x0,0x4,0x0,0x0,0x0,0xc0,0xfb,0xff,0xff,0x1,0x0,0x0,0x0,0xc,0x0,0x0,0x0,0x2,0x0,0x0,0x0,0x0,0x0,0x0,0x0,0xb,0x0,0x0,0x0,0x0,0x0,0xa,0x0,0xc,0x0,0x0,0x0,0x4,0x0,0x8,0x0,0xa,0x0,0x0,0x0,0x10,0x0,0x0,0x0,0x4,0x0,0x0,0x0,0x1,0x0,0x0,0x0,0xb,0x0,0x0,0x0,0x1,0x0,0x0,0x0,0x1,0x0,0x0,0x0,0x1,0x0,0x0,0x0,0x15,0x0,0x0,0x0,0x2,0x0,0x0,0x0,0x0,0x0,0x0,0x0,0x1,0x0,0x0,0x0,0x16,0x0,0x0,0x0,0x4c,0x6,0x0,0x0,0xec,0x5,0x0,0x0,0x94,0x5,0x0,0x0,0x38,0x4,0x0,0x0,0x0,0x4,0x0,0x0,0xc0,0x3,0x0,0x0,0x8c,0x3,0x0,0x0,0x68,0x3,0x0,0x0,0x44,0x3,0x0,0x0,0x20,0x3,0x0,0x0,0xfc,0x2,0x0,0x0,0xb4,0x2,0x0,0x0,0x70,0x2,0x0,0x0,0x2c,0x2,0x0,0x0,0xe8,0x1,0x0,0x0,0x9c,0x1,0x0,0x0,0x58,0x1,0x0,0x0,0x14,0x1,0x0,0x0,0xd8,0x0,0x0,0x0,0x8c,0x0,0x0,0x0,0x48,0x0,0x0,0x0,0x4,0x0,0x0,0x0,0x22,0xfa,0xff,0xff,0x0,0x0,0x9,0x1,0x2c,0x0,0x0,0x0,0x4,0x0,0x0,0x0,0xc,0xfa,0xff,0xff,0x18,0x0,0x0,0x0,0x4,0x0,0x0,0x0,0x1,0x0,0x0,0x0,0xd9,0xff,0xff,0xff,0xff,0xff,0xff,0xff,0x0,0x0,0x0,0x0,0x1,0x0,0x0,0x0,0x42,0x9f,0x2f,0x3e,0x2,0x0,0x0,0x0,0x1,0x0,0x0,0x0,0x6,0x0,0x0,0x0,0x62,0xfa,0xff,0xff,0x0,0x0,0x9,0x1,0x2c,0x0,0x0,0x0,0x4,0x0,0x0,0x0,0x4c,0xfa,0xff,0xff,0x18,0x0,0x0,0x0,0x4,0x0,0x0,0x0,0x1,0x0,0x0,0x0,0xfe,0xff,0xff,0xff,0xff,0xff,0xff,0xff,0x0,0x0,0x0,0x0,0x1,0x0,0x0,0x0,0xef,0x22,0xae,0x3d,0x2,0x0,0x0,0x0,0x1,0x0,0x0,0x0,0x40,0x0,0x0,0x0,0xa2,0xfa,0xff,0xff,0x0,0x0,0x9,0x1,0x2c,0x0,0x0,0x0,0x4,0x0,0x0,0x0,0x8c,0xfa,0xff,0xff,0x18,0x0,0x0,0x0,0x4,0x0,0x0,0x0,0x1,0x0,0x0,0x0,0xfe,0xff,0xff,0xff,0xff,0xff,0xff,0xff,0x0,0x0,0x0,0x0,0x1,0x0,0x0,0x0,0xef,0x22,0xae,0x3d,0x4,0x0,0x0,0x0,0x1,0x0,0x0,0x0,0x40,0x0,0x0,0x0,0x1,0x0,0x0,0x0,0x1,0x0,0x0,0x0,0xea,0xfa,0xff,0xff,0x0,0x0,0x9,0x1,0x28,0x0,0x0,0x0,0x4,0x0,0x0,0x0,0xd4,0xfa,0xff,0xff,0x14,0x0,0x0,0x0,0x4,0x0,0x0,0x0,0x1,0x0,0x0,0x0,0xfe,0xff,0xff,0xff,0xff,0xff,0xff,0xff,0x1,0x0,0x0,0x0,0xef,0x22,0xae,0x3d,0x1,0x0,0x0,0x0,0x40,0x0,0x0,0x0,0x22,0xfb,0xff,0xff,0x0,0x0,0x9,0x1,0x2c,0x0,0x0,0x0,0x4,0x0,0x0,0x0,0xc,0xfb,0xff,0xff,0x18,0x0,0x0,0x0,0x4,0x0,0x0,0x0,0x1,0x0,0x0,0x0,0xfe,0xff,0xff,0xff,0xff,0xff,0xff,0xff,0x0,0x0,0x0,0x0,0x1,0x0,0x0,0x0,0xef,0x22,0xae,0x3d,0x2,0x0,0x0,0x0,0x1,0x0,0x0,0x0,0x40,0x0,0x0,0x0,0x62,0xfb,0xff,0xff,0x0,0x0,0x9,0x1,0x2c,0x0,0x0,0x0,0x4,0x0,0x0,0x0,0x4c,0xfb,0xff,0xff,0x18,0x0,0x0,0x0,0x4,0x0,0x0,0x0,0x1,0x0,0x0,0x0,0xfe,0xff,0xff,0xff,0xff,0xff,0xff,0xff,0x0,0x0,0x0,0x0,0x1,0x0,0x0,0x0,0xa8,0xab,0x59,0x3f,0x2,0x0,0x0,0x0,0x1,0x0,0x0,0x0,0x40,0x0,0x0,0x0,0xa2,0xfb,0xff,0xff,0x0,0x0,0x9,0x1,0x2c,0x0,0x0,0x0,0x4,0x0,0x0,0x0,0x8c,0xfb,0xff,0xff,0x18,0x0,0x0,0x0,0x4,0x0,0x0,0x0,0x1,0x0,0x0,0x0,0xff,0xff,0xff,0xff,0xff,0xff,0xff,0xff,0x0,0x0,0x0,0x0,0x1,0x0,0x0,0x0,0x6b,0x91,0x80,0x3e,0x4,0x0,0x0,0x0,0x1,0x0,0x0,0x0,0x40,0x0,0x0,0x0,0x1,0x0,0x0,0x0,0xa,0x0,0x0,0x0,0xea,0xfb,0xff,0xff,0x0,0x0,0x9,0x1,0x28,0x0,0x0,0x0,0x4,0x0,0x0,0x0,0xd4,0xfb,0xff,0xff,0x14,0x0,0x0,0x0,0x4,0x0,0x0,0x0,0x1,0x0,0x0,0x0,0xff,0xff,0xff,0xff,0xff,0xff,0xff,0xff,0x1,0x0,0x0,0x0,0x6b,0x91,0x80,0x3e,0x3,0x0,0x0,0x0,0x1,0x0,0x0,0x0,0x40,0x0,0x0,0x0,0xa,0x0,0x0,0x0,0x2a,0xfc,0xff,0xff,0x0,0x0,0x9,0x1,0x28,0x0,0x0,0x0,0x4,0x0,0x0,0x0,0x14,0xfc,0xff,0xff,0x14,0x0,0x0,0x0,0x4,0x0,0x0,0x0,0x1,0x0,0x0,0x0,0xff,0xff,0xff,0xff,0xff,0xff,0xff,0xff,0x1,0x0,0x0,0x0,0x6b,0x91,0x80,0x3e,0x3,0x0,0x0,0x0,0x1,0x0,0x0,0x0,0xa,0x0,0x0,0x0,0x40,0x0,0x0,0x0,0x6a,0xfc,0xff,0xff,0x0,0x0,0x9,0x1,0x28,0x0,0x0,0x0,0x4,0x0,0x0,0x0,0x54,0xfc,0xff,0xff,0x14,0x0,0x0,0x0,0x4,0x0,0x0,0x0,0x1,0x0,0x0,0x0,0x80,0xff,0xff,0xff,0xff,0xff,0xff,0xff,0x1,0x0,0x0,0x0,0x38,0x3b,0xfc,0x3e,0x3,0x0,0x0,0x0,0x1,0x0,0x0,0x0,0xa,0x0,0x0,0x0,0x80,0x0,0x0,0x0,0xaa,0xfc,0xff,0xff,0x0,0x0,0x9,0x1,0x2c,0x0,0x0,0x0,0x4,0x0,0x0,0x0,0x94,0xfc,0xff,0xff,0x18,0x0,0x0,0x0,0x4,0x0,0x0,0x0,0x1,0x0,0x0,0x0,0x80,0xff,0xff,0xff,0xff,0xff,0xff,0xff,0x0,0x0,0x0,0x0,0x1,0x0,0x0,0x0,0xbb,0x51,0xb4,0x3c,0x3,0x0,0x0,0x0,0x1,0x0,0x0,0x0,0xa,0x0,0x0,0x0,0x80,0x0,0x0,0x0,0x9e,0xfd,0xff,0xff,0x0,0x0,0x2,0x1,0x10,0x0,0x0,0x0,0x9,0x0,0x0,0x0,0x4,0x0,0x0,0x0,0x50,0xff,0xff,0xff,0x1,0x0,0x0,0x0,0x2,0x0,0x0,0x0,0xbe,0xfd,0xff,0xff,0x0,0x0,0x2,0x1,0x10,0x0,0x0,0x0,0x8,0x0,0x0,0x0,0x4,0x0,0x0,0x0,0x70,0xff,0xff,0xff,0x1,0x0,0x0,0x0,0x3,0x0,0x0,0x0,0xde,0xfd,0xff,0xff,0x0,0x0,0x2,0x1,0x10,0x0,0x0,0x0,0x7,0x0,0x0,0x0,0x4,0x0,0x0,0x0,0x90,0xff,0xff,0xff,0x1,0x0,0x0,0x0,0x4,0x0,0x0,0x0,0xfe,0xfd,0xff,0xff,0x0,0x0,0x2,0x1,0x10,0x0,0x0,0x0,0x6,0x0,0x0,0x0,0x4,0x0,0x0,0x0,0xb0,0xff,0xff,0xff,0x1,0x0,0x0,0x0,0x1,0x0,0x0,0x0,0x1e,0xfe,0xff,0xff,0x0,0x0,0x2,0x1,0x10,0x0,0x0,0x0,0x5,0x0,0x0,0x0,0x4,0x0,0x0,0x0,0xd0,0xff,0xff,0xff,0x5,0x0,0x0,0x0,0x1,0x0,0x0,0x0,0x40,0x0,0x0,0x0,0x1,0x0,0x0,0x0,0x1,0x0,0x0,0x0,0x1,0x0,0x0,0x0,0x4e,0xfe,0xff,0xff,0x0,0x0,0x2,0x1,0x14,0x0,0x0,0x0,0x4,0x0,0x0,0x0,0x8,0x0,0x0,0x0,0x4,0x0,0x4,0x0,0x4,0x0,0x0,0x0,0x1,0x0,0x0,0x0,0x2,0x0,0x0,0x0,0x0,0x0,0x16,0x0,0x10,0x0,0x0,0x0,0x6,0x0,0x8,0x0,0x0,0x0,0xc,0x0,0x0,0x0,0x0,0x0,0x0,0x0,0x7,0x0,0x16,0x0,0x0,0x0,0x0,0x0,0x9,0x1,0x3,0x0,0x0,0x0,0x4,0x0,0x0,0x0,0xc4,0xfd,0xff,0xff,0x18,0x0,0x0,0x0,0x4,0x0,0x0,0x0,0x1,0x0,0x0,0x0,0x80,0xff,0xff,0xff,0xff,0xff,0xff,0xff,0x0,0x0,0x0,0x0,0x1,0x0,0x0,0x0,0x67,0x9a,0xcd,0x39,0xbe,0xfe,0xff,0xff,0x0,0x0,0x9,0x1,0x2c,0x1,0x0,0x0,0x2,0x0,0x0,0x0,0x4,0x0,0x0,0x0,0xfc,0xfd,0xff,0xff,0x18,0x0,0x0,0x0,0x4,0x0,0x0,0x0,0x1,0x0,0x0,0x0,0x0,0x0,0x0,0x0,0x0,0x0,0x0,0x0,0x0,0x0,0x0,0x0,0x40,0x0,0x0,0x0,0xf9,0x4d,0x29,0x3b,0x14,0xce,0x7,0x3b,0x6e,0xa6,0x17,0x3b,0xe,0x58,0x43,0x3b,0x72,0x15,0x6,0x3b,0x2f,0x51,0xfb,0x3a,0x3b,0xc2,0x24,0x3b,0x44,0xf0,0xf9,0x3a,0x75,0x42,0x16,0x3b,0xa3,0x88,0xf5,0x3a,0x6e,0x6,0x27,0x3b,0x23,0x2b,0xb,0x3b,0xf9,0x98,0x19,0x3b,0xfb,0x7c,0x3b,0x3b,0xde,0x43,0x5,0x3b,0x78,0xf,0xe4,0x3a,0x81,0x93,0x6,0x3b,0x76,0x8b,0xf4,0x3a,0x8a,0x58,0x11,0x3b,0x54,0x72,0x26,0x3b,0x0,0x8c,0x8,0x3b,0x6,0xed,0xc0,0x3a,0xd2,0x5f,0xc2,0x3a,0x20,0x6d,0xd,0x3b,0x51,0x95,0x1a,0x3b,0xc8,0xc3,0x1d,0x3b,0x36,0x0,0xa,0x3b,0x56,0xc0,0x2,0x3b,0x1d,0x93,0x8,0x3b,0xbb,0xbc,0x24,0x3b,0x83,0x57,0x6,0x3b,0x35,0x79,0x10,0x3b,0x52,0x48,0x16,0x3b,0x2a,0x3,0x4,0x3b,0xce,0xfe,0xe,0x3b,0x9e,0xbd,0x20,0x3b,0x1f,0x14,0x5,0x3b,0xa6,0xe5,0x1d,0x3b,0x54,0x8f,0x1,0x3b,0x1,0xb0,0x20,0x3b,0x1d,0x62,0xf7,0x3a,0x23,0x47,0x20,0x3b,0x90,0x60,0x1f,0x3b,0xff,0x4b,0x19,0x3b,0x12,0x46,0xe4,0x3a,0x49,0xe0,0x13,0x3b,0xf8,0xe8,0x2,0x3b,0x61,0x65,0xd8,0x3a,0xed,0xd9,0xe,0x3b,0x8b,0xf2,0x2c,0x3b,0x2f,0xf9,0xb,0x3b,0xe9,0x7,0xf,0x3b,0xad,0x9f,0x1,0x3b,0x5a,0xa6,0xb,0x3b,0x27,0xf8,0x0,0x3b,0xe4,0x76,0xff,0x3a,0x24,0x41,0x5,0x3b,0x7f,0x6c,0x4,0x3b,0x6b,0x86,0x0,0x3b,0x54,0x7,0xda,0x3a,0xb6,0xe0,0x6d,0x3b,0xc,0x39,0x43,0x3b,0xc5,0x9c,0x11,0x3b,0xe5,0x5a,0xf6,0x3a,0x2,0x0,0x0,0x0,0x40,0x0,0x0,0x0,0x80,0x0,0x0,0x0,0x0,0x0,0x16,0x0,0x14,0x0,0x8,0x0,0x6,0x0,0xc,0x0,0x0,0x0,0x10,0x0,0x0,0x0,0x0,0x0,0x0,0x0,0x7,0x0,0x16,0x0,0x0,0x0,0x0,0x0,0x9,0x1,0x40,0x0,0x0,0x0,0x1,0x0,0x0,0x0,0x4,0x0,0x0,0x0,0x54,0xff,0xff,0xff,0x14,0x0,0x0,0x0,0x4,0x0,0x0,0x0,0x1,0x0,0x0,0x0,0x0,0x0,0x0,0x0,0x0,0x0,0x0,0x0,0x6,0x0,0x0,0x0,0x4b,0x27,0x19,0x3b,0x28,0x30,0xef,0x3a,0x8,0xca,0xda,0x3a,0xd8,0x89,0xa5,0x3a,0x97,0x47,0xab,0x3a,0x35,0xec,0xb9,0x3a,0x2,0x0,0x0,0x0,0x6,0x0,0x0,0x0,0x40,0x0,0x0,0x0,0xba,0xff,0xff,0xff,0x0,0x0,0x9,0x1,0x2c,0x0,0x0,0x0,0x4,0x0,0x0,0x0,0xa4,0xff,0xff,0xff,0x18,0x0,0x0,0x0,0x4,0x0,0x0,0x0,0x1,0x0,0x0,0x0,0xea,0xff,0xff,0xff,0xff,0xff,0xff,0xff,0x0,0x0,0x0,0x0,0x1,0x0,0x0,0x0,0xf2,0xb6,0x1a,0x3d,0x3,0x0,0x0,0x0,0x1,0x0,0x0,0x0,0xa,0x0,0x0,0x0,0x80,0x0,0x0,0x0,0x0,0x0,0x16,0x0,0x10,0x0,0x8,0x0,0x6,0x0,0x0,0x0,0x0,0x0,0xc,0x0,0x0,0x0,0x0,0x0,0x0,0x0,0x7,0x0,0x16,0x0,0x0,0x0,0x0,0x0,0x9,0x1,0x34,0x0,0x0,0x0,0x10,0x0,0x0,0x0,0xc,0x0,0xc,0x0,0x0,0x0,0x0,0x0,0x4,0x0,0x8,0x0,0xc,0x0,0x0,0x0,0x14,0x0,0x0,0x0,0x4,0x0,0x0,0x0,0x1,0x0,0x0,0x0,0x80,0xff,0xff,0xff,0xff,0xff,0xff,0xff,0x1,0x0,0x0,0x0,0xc5,0xd9,0x97,0x3e,0x3,0x0,0x0,0x0,0x1,0x0,0x0,0x0,0xa,0x0,0x0,0x0,0x80,0x0,0x0,0x0,0x7,0x0,0x0,0x0,0x80,0x0,0x0,0x0,0x64,0x0,0x0,0x0,0x50,0x0,0x0,0x0,0x34,0x0,0x0,0x0,0x24,0x0,0x0,0x0,0x14,0x0,0x0,0x0,0x4,0x0,0x0,0x0,0xa8,0xff,0xff,0xff,0x0,0x0,0x0,0x6b,0x6b,0x0,0x0,0x0,0xb4,0xff,0xff,0xff,0x0,0x0,0x0,0x4a,0x4a,0x0,0x0,0x0,0xc0,0xff,0xff,0xff,0x0,0x0,0x0,0x16,0x16,0x0,0x0,0x0,0xcc,0xff,0xff,0xff,0x0,0x0,0x0,0x27,0x27,0x0,0x0,0x0,0xc,0x0,0x10,0x0,0x7,0x0,0x0,0x0,0x8,0x0,0xc,0x0,0xc,0x0,0x0,0x0,0x0,0x0,0x0,0x9,0x5,0x0,0x0,0x0,0x9,0x0,0x0,0x0,0xf4,0xff,0xff,0xff,0x0,0x0,0x0,0x12,0x12,0x0,0x0,0x0,0xc,0x0,0xc,0x0,0x7,0x0,0x0,0x0,0x0,0x0,0x8,0x0,0xc,0x0,0x0,0x0,0x0,0x0,0x0,0x13,0x13,0x0,0x0,0x0};
