#include <cstdint>

#include "model_post_ssm_int8_har_model_data.h"

alignas(16) const unsigned char g_model_post_ssm_int8_har_model_data[] = {0x28,0x0,0x0,0x0,0x54,0x46,0x4c,0x33,0x0,0x0,0x0,0x0,0x0,0x0,0x0,0x0,0x0,0x0,0x0,0x0,0x0,0x0,0x12,0x0,0x18,0x0,0x4,0x0,0x8,0x0,0xc,0x0,0x0,0x0,0x10,0x0,0x0,0x0,0x14,0x0,0x12,0x0,0x0,0x0,0x3,0x0,0x0,0x0,0x50,0x2d,0x0,0x0,0x30,0x24,0x0,0x0,0x68,0x0,0x0,0x0,0x4,0x0,0x0,0x0,0x2,0x0,0x0,0x0,0x38,0x0,0x0,0x0,0x4,0x0,0x0,0x0,0xd8,0xff,0xff,0xff,0x8,0x0,0x0,0x0,0xb,0x0,0x0,0x0,0x17,0x0,0x0,0x0,0x6b,0x65,0x65,0x70,0x5f,0x73,0x74,0x61,0x62,0x6c,0x65,0x68,0x6c,0x6f,0x5f,0x63,0x6f,0x6e,0x73,0x74,0x61,0x6e,0x74,0x0,0x8,0x0,0xc,0x0,0x4,0x0,0x8,0x0,0x8,0x0,0x0,0x0,0x8,0x0,0x0,0x0,0xa,0x0,0x0,0x0,0x13,0x0,0x0,0x0,0x6d,0x69,0x6e,0x5f,0x72,0x75,0x6e,0x74,0x69,0x6d,0x65,0x5f,0x76,0x65,0x72,0x73,0x69,0x6f,0x6e,0x0,0xc,0x0,0x0,0x0,0xbc,0x23,0x0,0x0,0x2c,0x22,0x0,0x0,0x8,0x2,0x0,0x0,0xf4,0x1,0x0,0x0,0xd0,0x1,0x0,0x0,0xbc,0x0,0x0,0x0,0xa8,0x0,0x0,0x0,0x84,0x0,0x0,0x0,0x60,0x0,0x0,0x0,0x3c,0x0,0x0,0x0,0x18,0x0,0x0,0x0,0x4,0x0,0x0,0x0,0x6,0xde,0xff,0xff,0x4,0x0,0x0,0x0,0x4,0x0,0x0,0x0,0x74,0x72,0x75,0x65,0x16,0xde,0xff,0xff,0x4,0x0,0x0,0x0,0x10,0x0,0x0,0x0,0x32,0x2e,0x30,0x2e,0x30,0x0,0x0,0x0,0x0,0x0,0x0,0x0,0x0,0x0,0x0,0x0,0x0,0x0,0x0,0x0,0x36,0xde,0xff,0xff,0x4,0x0,0x0,0x0,0x8,0x0,0x0,0x0,0x3,0x0,0x0,0x0,0x2,0x0,0x0,0x0,0x0,0x0,0x0,0x0,0x0,0x0,0x0,0x0,0x0,0x0,0x0,0x0,0x56,0xde,0xff,0xff,0x4,0x0,0x0,0x0,0xc,0x0,0x0,0x0,0x0,0x0,0x0,0x0,0x2,0x0,0x0,0x0,0x1,0x0,0x0,0x0,0x0,0x0,0x0,0x0,0x0,0x0,0x0,0x0,0x76,0xde,0xff,0xff,0x4,0x0,0x0,0x0,0x10,0x0,0x0,0x0,0x1,0x0,0x0,0x0,0x40,0x0,0x0,0x0,0x1,0x0,0x0,0x0,0xa,0x0,0x0,0x0,0x0,0x0,0x0,0x0,0x96,0xde,0xff,0xff,0x4,0x0,0x0,0x0,0x4,0x0,0x0,0x0,0x40,0x0,0x0,0x0,0xa6,0xde,0xff,0xff,0x4,0x0,0x0,0x0,0x0,0x1,0x0,0x0,0x0,0x0,0x0,0x0,0x1,0x0,0x0,0x0,0x2,0x0,0x0,0x0,0x3,0x0,0x0,0x0,0x4,0x0,0x0,0x0,0x5,0x0,0x0,0x0,0x6,0x0,0x0,0x0,0x7,0x0,0x0,0x0,0x8,0x0,0x0,0x0,0x9,0x0,0x0,0x0,0xa,0x0,0x0,0x0,0xb,0x0,0x0,0x0,0xc,0x0,0x0,0x0,0xd,0x0,0x0,0x0,0xe,0x0,0x0,0x0,0xf,0x0,0x0,0x0,0x10,0x0,0x0,0x0,0x11,0x0,0x0,0x0,0x12,0x0,0x0,0x0,0x13,0x0,0x0,0x0,0x14,0x0,0x0,0x0,0x15,0x0,0x0,0x0,0x16,0x0,0x0,0x0,0x17,0x0,0x0,0x0,0x18,0x0,0x0,0x0,0x19,0x0,0x0,0x0,0x1a,0x0,0x0,0x0,0x1b,0x0,0x0,0x0,0x1c,0x0,0x0,0x0,0x1d,0x0,0x0,0x0,0x1e,0x0,0x0,0x0,0x1f,0x0,0x0,0x0,0x20,0x0,0x0,0x0,0x21,0x0,0x0,0x0,0x22,0x0,0x0,0x0,0x23,0x0,0x0,0x0,0x24,0x0,0x0,0x0,0x25,0x0,0x0,0x0,0x26,0x0,0x0,0x0,0x27,0x0,0x0,0x0,0x28,0x0,0x0,0x0,0x29,0x0,0x0,0x0,0x2a,0x0,0x0,0x0,0x2b,0x0,0x0,0x0,0x2c,0x0,0x0,0x0,0x2d,0x0,0x0,0x0,0x2e,0x0,0x0,0x0,0x2f,0x0,0x0,0x0,0x30,0x0,0x0,0x0,0x31,0x0,0x0,0x0,0x32,0x0,0x0,0x0,0x33,0x0,0x0,0x0,0x34,0x0,0x0,0x0,0x35,0x0,0x0,0x0,0x36,0x0,0x0,0x0,0x37,0x0,0x0,0x0,0x38,0x0,0x0,0x0,0x39,0x0,0x0,0x0,0x3a,0x0,0x0,0x0,0x3b,0x0,0x0,0x0,0x3c,0x0,0x0,0x0,0x3d,0x0,0x0,0x0,0x3e,0x0,0x0,0x0,0x3f,0x0,0x0,0x0,0x0,0x0,0x0,0x0,0xb6,0xdf,0xff,0xff,0x4,0x0,0x0,0x0,0x8,0x0,0x0,0x0,0x1,0x0,0x0,0x0,0x40,0x0,0x0,0x0,0x0,0x0,0x0,0x0,0x0,0x0,0x0,0x0,0x0,0x0,0x0,0x0,0xd6,0xdf,0xff,0xff,0x4,0x0,0x0,0x0,0x1,0x0,0x0,0x0,0x7f,0x0,0x0,0x0,0xe6,0xdf,0xff,0xff,0x4,0x0,0x0,0x0,0x0,0x20,0x0,0x0,0xf9,0x1c,0xd3,0xc9,0xf,0xe3,0x27,0xd5,0xf2,0xd0,0xe9,0xe1,0x2,0x16,0xf1,0x15,0xfe,0x15,0x22,0xff,0xe,0x7,0xc4,0x30,0x42,0xcd,0x19,0x2f,0xd2,0x14,0xea,0xe0,0x3,0xdc,0xfa,0x9c,0x2a,0xf2,0xcf,0x16,0xe8,0x3b,0x0,0xf1,0xa,0x20,0x9,0xed,0xe5,0xe8,0x20,0xf,0xe9,0x26,0xf4,0xff,0xeb,0xec,0x7f,0x50,0xdf,0xfc,0x15,0xf8,0xcd,0xce,0x1c,0xc,0x4,0xa,0x23,0xe,0xd,0xd,0xef,0xfe,0x1d,0x1a,0x21,0x3d,0x3b,0xf9,0x43,0x15,0xf7,0xec,0xef,0xf4,0xb,0xdb,0x2a,0xa,0x19,0xed,0xe,0xf7,0xe0,0x2,0xdb,0x13,0x20,0x2a,0x25,0x1b,0xe,0xf6,0xf,0x2,0xdb,0x4,0xfa,0xe8,0x12,0xf3,0xe1,0xf8,0xa1,0xe5,0xf4,0x17,0x3a,0x18,0x3,0xe8,0xe3,0x1c,0xc0,0x17,0xd8,0xd8,0xe8,0xe8,0xe7,0x0,0x81,0x39,0xd8,0x12,0x12,0xb4,0x17,0xfc,0x28,0xc8,0xfb,0xf0,0xa1,0xd7,0xc4,0xc7,0xe,0x9f,0xe1,0xf8,0xde,0xb5,0x3c,0x5,0xf9,0xa,0x1d,0x11,0x24,0x3d,0xd7,0x2a,0x11,0x20,0xe7,0xd5,0xed,0xd5,0xf0,0x16,0xc2,0xf0,0x3c,0x10,0xdf,0xda,0xe7,0x11,0xfc,0xe8,0x16,0x15,0xb0,0xbb,0x17,0xbd,0xbf,0xdb,0xc0,0xe5,0xe3,0x16,0x24,0xc,0x16,0x14,0xc9,0x8,0xf3,0x0,0xd2,0xca,0xe5,0x8f,0xea,0xe4,0xdb,0xf7,0x11,0x2,0xf0,0xf,0x13,0x8,0xd1,0x12,0xa,0x1d,0xf6,0x9,0x18,0xac,0x31,0xab,0x1b,0x41,0x2c,0xea,0xfa,0x12,0xee,0x17,0x1c,0xf3,0xd5,0x2e,0xdd,0xe9,0x7,0x22,0x62,0xe1,0xe,0xe2,0xe5,0xb7,0xeb,0xc6,0xea,0xe3,0x6,0xfb,0x13,0xf0,0xeb,0xd5,0xd7,0xfd,0xc8,0x10,0x4c,0x18,0x11,0xe6,0x7,0x1c,0xe,0xf6,0x6,0xe,0x9,0xdc,0x1,0x5,0xf0,0xe5,0xf9,0xd3,0xd9,0xde,0x32,0x8,0xec,0xf8,0x1d,0xf2,0xf9,0x18,0x1b,0x10,0x20,0xf9,0x9,0x24,0x1f,0xec,0xf7,0xeb,0x17,0xf3,0xd3,0x6,0xcf,0xe0,0xd7,0xe4,0xf8,0xd7,0xe5,0x2,0xf3,0xe7,0x33,0xfb,0xa,0x2c,0x3b,0xfc,0x26,0xec,0xa,0xd9,0x14,0xe2,0xf2,0x2b,0xf7,0x3,0xc2,0xe4,0xde,0x4,0x15,0xf7,0x49,0x1e,0xf1,0x17,0xfb,0x4,0x16,0xfa,0xed,0xdd,0xf1,0x17,0xe8,0x52,0xd0,0xfa,0x22,0x7f,0x4,0x15,0x1c,0xe3,0x2,0xd3,0xf5,0xca,0xf0,0xdc,0x29,0xdb,0xe1,0x26,0xfd,0xde,0xea,0xe9,0xa,0x5,0x2,0xf0,0xe,0xe1,0x6,0xda,0x1c,0xa,0x20,0x18,0x7,0x17,0xd8,0xea,0x34,0x39,0xb6,0xe8,0xd2,0x19,0xf2,0x11,0xfd,0x11,0x2a,0x4,0xd7,0x34,0x1c,0x7,0x38,0x6,0xc4,0x5b,0xf9,0x19,0x1b,0x6,0xb,0x1b,0x11,0xf3,0xe2,0x66,0xc8,0xd0,0xcf,0xe1,0xfb,0xa1,0x18,0xe2,0x37,0x2e,0xf,0x15,0xd,0x33,0x32,0x3e,0x2,0xdb,0x1e,0x33,0x3c,0x33,0xb7,0xe6,0xcc,0x10,0x81,0xfb,0x29,0x43,0xe0,0x2c,0x13,0xf8,0xec,0xfb,0xe9,0xe6,0x26,0xfc,0x1e,0x1,0xec,0xc3,0xb3,0x2,0xb5,0x1,0xe5,0x1a,0xf6,0x15,0xf2,0x23,0xfa,0xfd,0x29,0xfb,0x5,0xec,0x1f,0xf,0xe7,0x87,0x4,0xd7,0x11,0x1b,0x26,0x8,0x27,0x2f,0x18,0xfc,0xc8,0x29,0xf8,0xfc,0xed,0x6,0x31,0x20,0xf9,0x1b,0x8a,0xcb,0x26,0x1a,0xe2,0x5,0x6f,0xe0,0x39,0x28,0x18,0x1a,0xe,0xd,0x45,0xe0,0x2c,0x21,0x3,0x4a,0xf3,0xe7,0xa,0xf,0xc,0xfb,0x23,0xe4,0xbb,0xf2,0xe1,0x6,0x81,0xb,0xfa,0x1f,0x28,0xc8,0x19,0xa,0x1f,0xf2,0xd8,0x4b,0xa7,0xed,0xe8,0x2a,0xf7,0xcc,0xe2,0x15,0x1b,0x22,0x19,0x21,0xb5,0xe6,0x39,0xf0,0x2f,0x1b,0xe2,0xf6,0xf0,0x7,0xfd,0x17,0xdd,0x35,0xa,0x2a,0x62,0x36,0x40,0x40,0xec,0x39,0xf5,0xb0,0x2e,0x11,0xd9,0xd6,0xec,0x10,0xdb,0x11,0xd3,0x37,0x3c,0xfc,0xfb,0xe1,0x13,0x31,0x16,0x31,0x25,0xf8,0x13,0x27,0xf5,0x10,0x2,0x51,0xcc,0x75,0xf3,0xaa,0x1c,0x1a,0x19,0xf1,0x2c,0xd5,0xed,0x17,0x2a,0xc3,0xe1,0xf8,0x37,0xcd,0xec,0xea,0x12,0xf9,0x0,0x5,0x1f,0x4c,0x14,0xe0,0x39,0x8,0xcb,0x2a,0xe5,0x1f,0xf6,0x16,0xf8,0x7f,0xea,0xb,0xf2,0xb0,0x37,0xe4,0x3,0xbf,0xfe,0x21,0xdb,0xef,0xac,0xb6,0xf0,0xd2,0xe5,0xf4,0x9,0x1d,0x6d,0x1e,0x4,0xf3,0x31,0x29,0x2,0x4d,0xad,0x2d,0xfd,0x21,0x23,0xbc,0x0,0xef,0x11,0xfd,0xe9,0x12,0xd,0x20,0x40,0xee,0x21,0x16,0xd,0xe2,0xe7,0x23,0x92,0xe7,0x4,0xc0,0xbe,0xd3,0xc0,0x1e,0xe1,0x16,0x1d,0xfb,0xd2,0xcc,0xdc,0x19,0xe,0x44,0x25,0xd1,0x1b,0x81,0xca,0x8,0xb4,0x1a,0x2e,0x9,0x1e,0xf5,0xf8,0x2e,0xee,0x1,0xdf,0x12,0x1a,0xea,0xf1,0xec,0x0,0xa8,0xf6,0xe9,0x5b,0xe3,0x2b,0x17,0x36,0x12,0x27,0xe0,0xcc,0xfe,0x21,0xd4,0x2e,0x33,0x64,0xee,0x4e,0xf3,0xa8,0xac,0x25,0x1,0xfd,0xf1,0x4e,0x1b,0x29,0xdb,0xdc,0x27,0xd4,0xdb,0x1,0x2b,0xa9,0xee,0xe0,0xf9,0xf4,0xff,0x12,0xd,0x2,0xd7,0xd,0x13,0x46,0xf1,0x1a,0x29,0xf3,0xf3,0xe7,0x81,0x6,0x13,0x25,0xe7,0x15,0x8,0xf8,0xe,0xb9,0xdf,0x2,0xfb,0x8,0xab,0xdc,0xf1,0xa,0x3,0xde,0x13,0x20,0x3b,0xf0,0x2b,0xf6,0xd,0x1,0x11,0xef,0x2c,0x2d,0x30,0x2d,0x2,0xb4,0xe,0x6,0xdc,0xed,0xee,0xf3,0x26,0x31,0xf9,0x12,0xda,0x19,0x17,0xd4,0x16,0x1d,0x28,0xd9,0xee,0xf9,0xc,0xfa,0x2b,0x8,0xe2,0x16,0x2b,0xea,0xff,0x18,0x19,0xda,0x2f,0x1e,0xcd,0xe8,0xf,0x12,0x48,0xf6,0x27,0xfc,0xd9,0x4,0x16,0x15,0xb2,0xe0,0x22,0x1,0x8,0xe2,0xde,0x7,0xff,0x28,0x33,0xcd,0xdd,0x18,0x20,0x1,0x23,0x63,0xd0,0xd8,0x40,0x38,0x1f,0x45,0xfd,0xbf,0x32,0x6,0x19,0xeb,0x9d,0x2a,0xfe,0x2,0xae,0xe4,0x3a,0xb8,0xe1,0xdf,0xae,0x16,0xde,0xe2,0xde,0x19,0x6e,0xf7,0xe0,0x14,0xeb,0x2f,0x3,0x1d,0xf5,0xca,0x2b,0x21,0x2e,0x21,0xd0,0x1,0xf6,0xf3,0x16,0xd2,0x1c,0x3b,0x18,0x49,0xe2,0xe1,0x1b,0xe8,0xf8,0xd9,0xa,0xbd,0xae,0xe7,0xab,0xd9,0xd5,0x9c,0xf9,0x9,0xe7,0x1,0xf2,0xd7,0xf6,0xc3,0xf4,0xd7,0x39,0x11,0xca,0xd1,0xcf,0xee,0xe0,0x96,0x5,0xc,0xeb,0xe2,0x3,0xe5,0xb,0x34,0xf1,0xea,0x12,0x42,0xc8,0xef,0x2,0x1c,0x81,0x24,0x18,0xf9,0xd0,0xff,0x14,0x1d,0x2e,0xec,0x28,0xd7,0x2c,0xdf,0xed,0xfe,0x2c,0x4e,0xee,0xdd,0xe2,0xe9,0xe9,0xd,0xe1,0xec,0xda,0xfe,0x15,0xc4,0xe0,0x1d,0xcc,0x48,0xfd,0xac,0xdf,0x2e,0x39,0xd3,0xde,0xe0,0xf1,0xea,0xd0,0xc6,0x1d,0xae,0xf4,0xd7,0xc5,0xea,0xdb,0x24,0xbe,0x4,0x5a,0xcf,0xf6,0xf1,0x10,0x7,0xf,0xe6,0xba,0x41,0x26,0x38,0x2c,0xea,0x2e,0xfd,0xe0,0xc4,0xc7,0xd3,0xd1,0xf,0xdb,0x21,0xd3,0xbe,0xc,0x8,0xf7,0xd6,0xed,0x24,0xd0,0x28,0xaa,0x33,0xbd,0x9b,0xba,0xf9,0xdb,0x45,0xe3,0xfc,0x2b,0x0,0x16,0x3,0xa,0x46,0xa4,0xd2,0xda,0x21,0xcc,0xc3,0xf9,0xf4,0xa3,0x1d,0x0,0x19,0xbf,0xfc,0xc2,0xfe,0xf2,0x3f,0x28,0xc7,0xaa,0xfe,0xbe,0x12,0x49,0xe4,0xe1,0xf7,0xf,0xbd,0x14,0xe4,0xe5,0xa,0x38,0x13,0x1e,0x10,0x3,0x4c,0x12,0xf6,0xe4,0x59,0xbb,0xab,0xb2,0x0,0xd6,0x81,0x29,0x27,0xf6,0xf5,0xe1,0xec,0xcb,0x53,0x42,0xe9,0xf7,0xd7,0x1a,0xf5,0xff,0x20,0x14,0xe,0xf4,0x1f,0x9,0x11,0x38,0xd6,0x44,0x40,0xda,0x23,0xe3,0x7,0xec,0x5,0x0,0xa,0x6,0x1d,0xca,0x1e,0x14,0xd1,0xe5,0x4,0x50,0xfe,0xfd,0x31,0x27,0x1f,0x1c,0xca,0xcf,0xda,0x5,0x8,0xec,0xfa,0x0,0xb,0x27,0x7f,0x5e,0xfd,0x26,0x25,0xf4,0xf5,0xce,0xdc,0xe8,0xc4,0xe5,0x9,0xfc,0x1a,0x14,0xff,0x1,0xfc,0xfa,0xf1,0x3e,0x24,0xf1,0x3c,0x21,0xb,0xd,0xe,0xf3,0xeb,0xa,0xe,0xfe,0x6,0xe0,0xe4,0xeb,0xcf,0xb6,0xf5,0x9,0x12,0xfd,0x6e,0xe3,0xf,0xe8,0xe8,0xda,0x4,0x3,0xfe,0xe7,0x1b,0xda,0xe3,0xc7,0xa3,0xde,0x18,0xef,0xeb,0x52,0x13,0x27,0xb,0xf3,0xf8,0x4,0xff,0x45,0x21,0xdc,0x27,0x2a,0x63,0xba,0x2d,0xb,0x14,0x4,0xde,0x0,0x6,0x1b,0x13,0x2d,0x51,0x1a,0xff,0xf2,0xcd,0xf,0xc,0xf9,0x3c,0x5e,0xdc,0xe0,0x7,0xf7,0xda,0xd,0x1b,0xbe,0x52,0x16,0x11,0x10,0xb,0x2b,0x3,0x21,0xe2,0xe7,0x2c,0xdb,0xec,0xe7,0x16,0xf5,0xe0,0xe6,0xed,0x8,0xf8,0xc9,0x7f,0x2c,0xbb,0xf6,0x43,0xfb,0x15,0x18,0x25,0xef,0xec,0xfa,0x10,0xd4,0xe0,0x17,0xb,0x6,0x19,0x29,0xf,0x32,0x45,0x5,0x1a,0xe8,0xdd,0xd6,0x1c,0xb,0x8,0xe2,0x3a,0xfe,0x0,0x14,0xfc,0xef,0xe1,0x32,0x12,0x3d,0x21,0xd4,0xe9,0xdc,0xdc,0xe9,0x2a,0xe0,0xe5,0xf,0x25,0xef,0xe9,0xfb,0xed,0xfd,0xb7,0x4,0xf5,0xe2,0x1c,0x54,0xfc,0xf9,0xf,0x1a,0xe7,0x2a,0xc9,0x2e,0x1a,0xcb,0x68,0xed,0xcd,0x15,0xef,0x1c,0x1,0xbb,0x19,0xf,0x8,0xcc,0xd5,0x5,0xcc,0xd1,0xdf,0x8,0xba,0xef,0x46,0xde,0x25,0xd,0xc,0xd6,0xd7,0xd2,0x38,0xfc,0x2f,0xe7,0x58,0x1a,0x25,0x32,0x14,0x27,0x1,0x7,0xcb,0xed,0xaa,0x9,0xf6,0xed,0x3f,0xa5,0xfa,0x1b,0xf9,0xe5,0xd6,0x12,0x41,0xe8,0x15,0xde,0x12,0xa0,0xa7,0xe7,0x15,0xcd,0x2c,0xc5,0x41,0x13,0xec,0xfe,0xda,0x5a,0x15,0xb5,0xff,0xa,0x52,0xf7,0xe6,0xf8,0x27,0xd1,0x2,0xb,0x15,0x3,0xf3,0xe3,0x8,0x18,0xf3,0xf,0xe5,0xb5,0x3f,0x5,0xfc,0x72,0x39,0xe8,0x14,0x4,0xfd,0x5,0xe,0xef,0xfd,0x4,0xfb,0xd1,0x7,0xef,0xfe,0xeb,0xfb,0xf8,0x2f,0xb,0xbc,0xd2,0xfd,0xfa,0x81,0x3b,0x26,0xfc,0xe1,0x14,0x1,0xf3,0x2b,0x3,0xd4,0x10,0xd8,0xeb,0x1e,0x17,0xf4,0x13,0xf6,0xfd,0xee,0x2c,0x6,0xe0,0x30,0x0,0xbc,0x4f,0xfe,0xe5,0xfc,0xd,0x21,0x19,0xb,0xf5,0xed,0x51,0xb0,0xef,0xfd,0x12,0xfa,0xd9,0x1e,0xf3,0x2d,0xff,0xfb,0x24,0x18,0xc,0x1a,0x2d,0x20,0xf7,0x25,0xff,0x16,0x2d,0x81,0xf0,0xe4,0x20,0x91,0x2b,0x4,0x2b,0xce,0xfd,0x7,0x17,0xc5,0xe2,0xe5,0xfe,0x18,0x1,0x29,0x1e,0x35,0xe8,0xc3,0x17,0xb5,0x9,0xee,0x29,0xe6,0xf4,0x0,0x8,0x1d,0x2d,0x11,0xeb,0xf4,0xea,0x3d,0xee,0xc,0x9d,0xe7,0xc9,0x16,0x15,0xe,0x24,0x25,0x6,0xe7,0xe,0xd5,0xfe,0xe,0x2,0x11,0x2d,0x26,0xf5,0x1,0x1,0xc1,0xb,0xf7,0x1b,0xe,0xf7,0x3f,0xf4,0xeb,0x31,0x26,0x0,0x32,0x25,0x51,0xd9,0x30,0x1d,0x17,0xec,0xff,0xe3,0x5,0xe,0x19,0x43,0xfe,0xea,0xa5,0xf8,0xde,0xe7,0x97,0xfe,0x1a,0x7f,0x23,0x2,0xe,0xf0,0xfb,0xed,0xf5,0x8,0xc8,0xfc,0x22,0x26,0x17,0xbb,0x4,0x14,0xff,0xe9,0xf5,0xe1,0xdd,0xda,0x49,0xe2,0x3,0xc,0xfd,0xdd,0x3,0xf0,0xdf,0xd6,0xd4,0x10,0x1,0x2a,0x0,0x39,0x4b,0xef,0xe7,0xd9,0xec,0xca,0xf4,0x7,0x1d,0x1d,0x4c,0x19,0x10,0x1,0x2d,0xf1,0xd0,0xfa,0x1a,0xcd,0x1a,0xf7,0xfb,0xda,0x3e,0x1c,0x8,0x11,0x2c,0xa7,0x4,0x5d,0x8,0xd7,0x1,0xa4,0x4,0x0,0x19,0x27,0x2e,0xd4,0xef,0x39,0x30,0xd3,0xf4,0x3,0xff,0xff,0xd4,0x1f,0xca,0xcb,0xde,0x1,0x17,0xfe,0x18,0x16,0xfd,0xd,0x25,0xd1,0x0,0x13,0xeb,0xda,0xbb,0x81,0xec,0xe5,0xdc,0x3c,0xcd,0xf1,0xda,0xef,0xeb,0xfd,0xed,0xf8,0x50,0x38,0xe0,0x1a,0x55,0xf2,0xe9,0xb0,0xc1,0x1b,0xdb,0xed,0xea,0x0,0xe,0xca,0x41,0xf2,0xfa,0xe1,0xd8,0x29,0xe0,0xf3,0xcd,0x8,0xee,0xdd,0x10,0xd5,0xa0,0x1c,0xde,0xf2,0x29,0xe7,0xf4,0xdf,0x61,0x1d,0x16,0x10,0x7e,0x10,0x4,0xfe,0xf8,0x2,0xf,0x16,0x28,0x45,0x15,0xe5,0x2a,0xc3,0xd3,0x7,0xee,0x19,0x19,0xe2,0x38,0xd,0xda,0xff,0x1e,0x1d,0x22,0xfc,0xd6,0xfc,0x9,0xe5,0x0,0x2f,0xf,0xfd,0xa,0x58,0x0,0x48,0xbe,0xe,0xf4,0x0,0xec,0x17,0xf6,0xd3,0x27,0x27,0xea,0x28,0x2,0xcd,0xf6,0x2,0xee,0x3a,0x57,0x2f,0x12,0x26,0xff,0xdc,0xca,0xee,0x6,0x19,0xf8,0x3c,0xd9,0x18,0x78,0x1c,0xe9,0xb2,0x16,0x38,0xa,0xf9,0x3,0x41,0x3e,0xdd,0x26,0x8,0x3c,0x56,0xd9,0x1c,0x2a,0xe3,0xe9,0xac,0x4e,0xfb,0xc,0xe0,0xd8,0x2e,0xeb,0xf5,0x45,0xb,0x81,0xe2,0xf8,0xed,0xd0,0xea,0x48,0x10,0x3f,0x2c,0xbe,0xf,0x4,0x3b,0x16,0x10,0xe9,0x24,0xeb,0xf9,0x63,0x69,0xd,0x54,0x15,0x6c,0x64,0xf4,0x27,0xe8,0xc4,0x2d,0xf9,0xca,0x62,0x32,0xe9,0xdd,0xb3,0x40,0x13,0x59,0x17,0xec,0x4d,0xed,0xb,0x57,0x0,0xf8,0xbb,0x17,0x7,0x11,0x1f,0xe0,0xae,0xf4,0x7,0xe8,0x13,0x7e,0xa,0xa3,0xd7,0x23,0xf8,0x2,0xff,0xf9,0x15,0xf7,0x12,0xd5,0xe3,0xff,0x28,0xf6,0xc1,0x22,0x18,0xe8,0x2,0x29,0x18,0xc,0xf6,0x18,0x4f,0x16,0xe4,0x10,0xfc,0xfe,0xc,0x21,0xe9,0xba,0x3a,0x2e,0x32,0xe3,0xf9,0xf8,0x2,0xc3,0x1d,0x46,0xf1,0xf7,0xd7,0xf7,0x2b,0xef,0xb3,0x14,0x3a,0x74,0xee,0xd6,0x11,0xe8,0xdd,0xdd,0xfa,0x15,0xf3,0xdc,0x20,0x1a,0x23,0xba,0x1e,0x30,0xdf,0xdf,0x14,0x9,0x32,0xd3,0x1a,0xed,0xfe,0xf0,0x2,0xb,0xf9,0xf1,0xc5,0xcf,0xe7,0xd2,0x2d,0xe7,0xfb,0x3,0x17,0x10,0x1a,0x5,0xca,0xef,0xd6,0x10,0xe8,0x14,0x1c,0x3,0x0,0xb7,0x16,0xf6,0xac,0x1e,0x7,0xc1,0xe9,0x19,0x4,0xec,0x34,0xe7,0xa,0xfa,0x3c,0xad,0xf7,0x7f,0x3,0xcc,0x30,0xcd,0x6,0x9,0xff,0x9,0x2d,0xd,0xf7,0x55,0x16,0xda,0xd6,0xc,0x26,0x29,0x1e,0x14,0xdd,0xfb,0x2b,0xec,0xe9,0xd3,0xf1,0xf3,0xc7,0x1c,0xfc,0x1f,0x15,0xe3,0x32,0x2e,0xb6,0xbd,0x46,0xe5,0x1d,0xc5,0xcf,0x12,0x3,0xe0,0xf3,0x2a,0xdb,0xd5,0x4,0x17,0xe0,0xa,0x25,0xee,0xf9,0x69,0xad,0x1a,0xe0,0xee,0x18,0xf6,0xfd,0xef,0x5a,0x10,0x42,0x14,0xe5,0x49,0x11,0x16,0xd6,0xd3,0xcf,0xd,0x43,0xf0,0x18,0xbd,0xd2,0x23,0xe5,0xd6,0xe2,0xe1,0x38,0xe3,0x9,0xce,0x37,0xc2,0xc4,0xb,0x17,0xea,0x3c,0x6,0x5,0x22,0xda,0x1c,0xe1,0xec,0xe,0xce,0xdb,0xda,0x36,0xd8,0xe4,0xdf,0xf9,0xca,0x3,0x15,0x25,0xec,0x1c,0xde,0xf2,0xe3,0xf9,0xdf,0x9,0xf,0xfc,0x16,0x19,0x53,0xce,0x1,0xfd,0x18,0x5,0x1d,0x19,0x26,0xa,0x14,0xd4,0x26,0xfa,0xf,0x2,0xc,0xdd,0x10,0x59,0xc,0xcd,0xdb,0xf9,0xd9,0x81,0x27,0xfe,0xe2,0xf,0xfc,0x22,0xe5,0xaf,0x93,0xe5,0xae,0x1,0x15,0xb2,0x10,0xf6,0xe0,0xc6,0x8,0xd8,0xee,0x3f,0x25,0xf,0xb,0x33,0xfb,0xe9,0xe6,0x82,0x2a,0x7,0xf0,0x6,0xe6,0xeb,0xb9,0x32,0x4,0x1d,0x10,0xff,0x36,0xee,0xe7,0xc1,0x1c,0x3,0xe0,0xff,0xf0,0xcc,0x1b,0xf3,0xa,0xea,0x1b,0x28,0xdf,0x57,0x36,0xfb,0xff,0x54,0xdb,0xdc,0xe8,0xb9,0x0,0x29,0x1,0x57,0x1d,0x13,0x1e,0x1d,0xd2,0x0,0xf7,0xe4,0x12,0x4,0x7,0x20,0x1,0xe2,0xb,0xdd,0x9,0x15,0xa,0x8,0xe8,0x21,0xe7,0xf5,0x20,0xfb,0xf1,0xe3,0x3f,0xe0,0x4c,0x89,0x1b,0xf5,0xfa,0xb8,0x3,0xea,0xc7,0x20,0x39,0xd6,0x1f,0xdf,0x15,0x4,0x13,0xc3,0x3b,0x15,0x14,0x2,0x19,0xc,0x16,0x81,0xed,0x2,0xef,0xf7,0x26,0xfb,0xea,0xf2,0x81,0xf0,0xb0,0x11,0x20,0xef,0xf4,0xce,0xff,0xf6,0x12,0x22,0xf3,0x63,0xee,0x41,0x39,0xdc,0x22,0xee,0x6,0xa8,0x10,0xf7,0xb,0xe0,0xef,0xd5,0xe5,0xfa,0xf9,0x11,0xef,0xf1,0xa8,0x3,0x11,0x16,0xd,0x26,0xf,0x5,0xfe,0xdf,0x68,0xb,0xed,0xf2,0x25,0x21,0xda,0xe,0x14,0xc1,0x27,0x30,0x4c,0x6e,0x3,0xeb,0x9,0x2d,0xff,0xfa,0x39,0x16,0xca,0x22,0xda,0x20,0x16,0x26,0xdf,0xa3,0xd,0xd0,0xe1,0xee,0xf6,0xee,0xf6,0xea,0x7,0xc,0x20,0x45,0xde,0x3,0xe7,0x40,0x46,0xd0,0x31,0xd6,0xef,0x9a,0x13,0xee,0x26,0xd7,0x39,0xe0,0xf9,0x2c,0x40,0xe8,0x18,0xf2,0x14,0x14,0xe0,0xc7,0x8,0xfd,0xf6,0x30,0x1d,0x11,0x1b,0xe0,0xc5,0x28,0x1f,0xf0,0xc8,0xca,0x2b,0x17,0x2b,0x6a,0x54,0xe2,0x15,0xf3,0x14,0xfd,0x25,0x48,0xee,0x50,0xd,0x91,0x15,0x17,0xf3,0xbe,0x14,0xb6,0xc4,0x46,0xf6,0x22,0xf1,0x18,0xea,0x2c,0x36,0xb4,0xc,0xed,0x13,0x20,0xaf,0xeb,0xea,0xfd,0xc2,0xe,0x10,0x9f,0xf2,0xec,0x17,0xfc,0xed,0xe3,0xd4,0xc3,0xf4,0xa7,0x9,0x13,0xec,0xf9,0x10,0x23,0xfa,0x6b,0xe1,0xeb,0x15,0xa9,0xad,0x1,0xf9,0xfd,0x1b,0xb2,0x29,0xe3,0x3,0x18,0x2,0x72,0x17,0x15,0x24,0xa,0x29,0xe3,0xe9,0xe0,0xeb,0x1,0xdb,0xe2,0x4e,0xfd,0x33,0xe2,0x7f,0x23,0x89,0xce,0x0,0xf8,0x10,0xd7,0x3,0xd,0x5,0x57,0xb4,0x1e,0xec,0x17,0xef,0xde,0xf0,0x12,0xe9,0xef,0xa8,0x25,0x0,0x5,0xe1,0x63,0xff,0x1c,0x2e,0x3,0xd7,0x42,0xf1,0x7f,0x4f,0xe3,0x28,0x2c,0xef,0xff,0x24,0x10,0x12,0x36,0xf7,0x10,0x2,0xb4,0xd,0xbc,0xf6,0xbb,0x1b,0x46,0x5a,0x3d,0xf8,0xe9,0xc8,0x13,0x21,0xf3,0x1d,0xf8,0x15,0xc,0xef,0x1c,0xd9,0x26,0xed,0x26,0xe3,0x1f,0xfa,0xac,0xc7,0x5f,0xf4,0xe,0x9,0xe1,0xf5,0xd2,0x4,0x1d,0xec,0xe5,0xf4,0xce,0x3,0xd7,0xff,0xe8,0xe9,0xbc,0xd0,0xf5,0xba,0xd6,0xdf,0xa,0x45,0xf2,0x29,0x0,0x1d,0x8,0xe,0xca,0x1,0x2e,0xb,0x26,0x20,0xed,0x4,0x32,0xe8,0xc9,0x25,0xfa,0xe4,0x6,0xea,0xeb,0xb4,0xb,0x8a,0x6e,0xdc,0xf3,0xe3,0x20,0xbf,0x16,0x28,0xd4,0xdb,0xdb,0xef,0x18,0x9,0xbb,0x14,0x27,0xde,0xcb,0x2c,0x28,0xff,0x20,0xb,0x3a,0x3f,0x13,0xdb,0xf4,0xe0,0xdd,0x17,0xcd,0x5b,0xde,0x43,0xee,0xf9,0x2f,0xf0,0x3d,0x13,0x0,0x7,0x42,0xa,0xca,0x19,0xe7,0xc4,0xf1,0xbd,0xf2,0x87,0x7f,0x12,0xfe,0xee,0xf7,0xec,0x36,0x30,0x18,0x1a,0xda,0x8,0x18,0x12,0x2a,0xcf,0x8,0x0,0x1d,0xe,0xb8,0x20,0xfc,0xce,0xe1,0x18,0xea,0xf8,0xd0,0x25,0xee,0xf5,0x1e,0xe5,0x93,0x0,0xa,0xf1,0x1,0x6,0xe4,0xd0,0x20,0x9d,0x18,0xe6,0xdb,0x1c,0xdc,0xfc,0xf9,0x42,0x43,0xce,0x7e,0xf3,0x35,0x40,0xd5,0xe3,0xed,0xfe,0xf2,0x23,0xd9,0xe1,0xea,0x66,0xbc,0xb5,0xf4,0xe8,0x9,0x33,0x49,0xba,0x23,0xcb,0x21,0xbc,0xf,0x4,0xbb,0xff,0x14,0x0,0x29,0xee,0x2b,0xeb,0x21,0xf9,0xcc,0xec,0xda,0xe5,0x24,0xe0,0x2c,0xe0,0x49,0x36,0xd6,0x10,0xff,0xd2,0x48,0xf6,0xff,0xe0,0xd6,0x4f,0xff,0xdb,0xe7,0x4,0xf9,0x11,0x2e,0x10,0x2c,0x55,0xe7,0x45,0x12,0xf9,0x4c,0x4c,0xe6,0xf9,0xf4,0xf7,0xd1,0xdc,0xdb,0xcd,0xc,0x1d,0xd2,0x8,0xd0,0x2a,0xdd,0xea,0x3d,0x16,0x4a,0xf,0xec,0xd0,0x2e,0x33,0xe1,0xe3,0x25,0xf3,0x1a,0xa,0x7f,0x65,0xc7,0x16,0xf0,0x22,0x10,0xe0,0xd9,0x10,0xe8,0xf8,0x42,0xea,0x14,0xe1,0x16,0xfe,0xd,0x2e,0x2b,0x3d,0x35,0xde,0x32,0xe2,0xf6,0x5,0xe5,0xea,0x14,0xe1,0x2,0xb,0x1a,0xf6,0xe4,0xe1,0xf5,0x28,0xf4,0x46,0x12,0xc2,0xf7,0xfd,0xd9,0xe3,0x21,0xef,0xe7,0x28,0x8,0xe7,0x8,0x10,0xe7,0xee,0xb4,0xf2,0x20,0xe9,0x6,0x6a,0xf8,0xeb,0xdf,0x2f,0xe,0xe1,0x26,0x1f,0xe9,0x14,0x18,0xd3,0x65,0x23,0x9a,0xc9,0xe6,0x4c,0x17,0x10,0xf5,0x27,0x8,0x13,0xf8,0x20,0x41,0xe,0x16,0x11,0x1f,0x12,0x14,0x2b,0xc2,0x2c,0x21,0xdb,0x5,0xd4,0xf9,0x8,0xfb,0x15,0xba,0xe,0xca,0x5f,0xe6,0x6,0x53,0xf1,0x45,0xfd,0xe4,0xdb,0xb,0x45,0x36,0x28,0x3a,0x28,0x7,0x9,0x71,0x17,0xfd,0x31,0xf5,0xd4,0x88,0xd5,0xad,0xf6,0x4,0x14,0x15,0xb,0x2c,0xd6,0x2,0xff,0x3c,0xe8,0xfb,0x3d,0xf,0x1,0xf4,0x1b,0xe4,0x22,0xda,0xd0,0x16,0x2e,0xf8,0xeb,0x2d,0xf7,0x25,0x91,0x9,0xcb,0xf4,0xc0,0x17,0x16,0x3e,0xf4,0x5,0xcc,0x7,0x5,0xe6,0x14,0xb2,0xd2,0x11,0x1,0x6,0x8,0xc0,0x25,0x26,0x18,0x12,0x56,0xea,0x39,0x8,0x38,0x81,0x1c,0xc,0xc,0x1b,0xde,0x35,0x1a,0xe0,0xad,0x2c,0x1f,0x2f,0xe1,0xfa,0xe5,0xb,0xf,0xd7,0x9,0x25,0xd4,0xf2,0x28,0xe4,0x4,0x58,0xc2,0xf2,0x41,0xc8,0xe4,0xd8,0xb,0x3,0xe4,0x1,0xb5,0x53,0x14,0x21,0x20,0xe,0x49,0xe9,0x13,0xc8,0xf3,0xf3,0xd0,0xec,0xe9,0xfc,0xca,0xcb,0x19,0x0,0xf9,0xbd,0xf7,0x7f,0xfb,0x21,0x4,0x4f,0xe1,0xd3,0xf6,0x14,0xf8,0xf5,0xe8,0x16,0x15,0x1b,0x1b,0x5,0x5,0xfd,0xea,0xff,0x47,0x58,0xd6,0x44,0xfd,0x4,0xcb,0x25,0x1b,0xef,0xe1,0x2b,0xfa,0x1c,0x11,0xdd,0x19,0xc6,0x0,0xfe,0x55,0xd,0x3,0xfa,0xe2,0xe,0xd7,0xd8,0xe4,0xf8,0x1,0x11,0xfc,0x7,0xec,0xf4,0x4,0xd1,0x18,0xdc,0xf3,0x6b,0x21,0xf5,0xfa,0x3,0x5,0x8b,0x16,0xf4,0x24,0x8,0xc3,0x22,0x1f,0xf9,0xd0,0x1c,0x34,0xfc,0xf8,0xe3,0xfb,0x7,0xd8,0xfb,0x7,0xf6,0xd9,0xf0,0x11,0xa3,0x2b,0x2c,0xd8,0x38,0x58,0x7,0xec,0xf6,0xda,0x24,0x11,0x2b,0x9d,0x52,0x6,0x4,0xff,0xf3,0x30,0x6,0x22,0xf,0xff,0xe,0xda,0xeb,0xbd,0x45,0xeb,0xf6,0x2b,0xfd,0xf2,0xf2,0xcb,0x51,0x2b,0xe7,0xde,0x2b,0xd2,0xba,0xed,0x4b,0x19,0x8,0x7,0x2f,0x3,0xc,0x1a,0x0,0x34,0x20,0xde,0xca,0x2f,0x66,0xe6,0x31,0xc,0xeb,0xc4,0x1,0x0,0x1b,0xc3,0x18,0x7,0x13,0x18,0x26,0x12,0xc5,0xe4,0x2b,0x51,0xb,0xe3,0x24,0xe2,0x1c,0xd0,0xf0,0xcd,0x20,0x23,0xf9,0xf2,0xe4,0x24,0x24,0xe3,0xa1,0x28,0x6,0xe2,0x13,0x23,0x8,0xff,0xe7,0xef,0x81,0x15,0x2c,0xfa,0x8,0x2f,0x37,0xce,0xd6,0xdf,0x81,0xc6,0xf0,0xc,0x1,0xe7,0xd8,0xf6,0xec,0xdf,0xfe,0x12,0x20,0x15,0x26,0xf,0x42,0x1c,0x28,0xee,0x95,0x8,0x12,0xe0,0xd4,0x5,0x10,0xdb,0x29,0xf7,0x1d,0xde,0xf3,0x42,0xea,0x4,0x1b,0xf2,0xf0,0xf6,0x29,0x24,0x23,0x2d,0xfb,0xe7,0x38,0x31,0x33,0x1a,0x44,0x41,0xe2,0x17,0xee,0xd0,0xed,0xe3,0xce,0xf8,0x16,0x13,0x51,0x34,0x1d,0xe6,0x2d,0xe9,0x23,0x2,0x2c,0x12,0xf7,0xf1,0xb7,0xfe,0xfa,0x15,0xe5,0x1c,0xd8,0xef,0xd8,0x7,0x25,0xa,0xe9,0xed,0x39,0xb4,0xea,0x92,0xf,0x5f,0xf3,0x43,0xfc,0x20,0x23,0xc,0x10,0xe1,0xb3,0x36,0x13,0xed,0xda,0x1f,0x22,0xea,0xdd,0x1b,0xf1,0x5,0x16,0x1b,0xf1,0x15,0xb6,0xa,0x17,0xd3,0x1,0xf6,0xb9,0xec,0xd,0x33,0xa0,0xd4,0xbd,0x48,0x2a,0xb,0x17,0x30,0xf2,0xed,0xc,0x2d,0xd,0x3,0x2e,0xf8,0x97,0x1a,0xac,0x9a,0x4e,0x35,0xa,0xb,0x1a,0x1,0x18,0x26,0xb0,0x1,0xf9,0x16,0xd8,0xd1,0x18,0xaa,0x2d,0xf7,0x7,0xfd,0xfc,0xfa,0xb8,0x4e,0x30,0xe6,0x3,0xeb,0x1b,0x31,0xca,0xa,0x38,0x48,0xa1,0x1a,0x5b,0x22,0xc1,0x1b,0x1,0x3a,0xf8,0x0,0xfa,0xef,0x28,0xfd,0xf1,0x33,0x4,0x9,0xda,0xfc,0x40,0xe8,0xe5,0x13,0xf0,0x10,0xee,0xf9,0xa3,0x2e,0x3,0x11,0xbb,0x3e,0xee,0xd0,0xd9,0x11,0xee,0xe2,0xe4,0x27,0x4,0xdb,0xf6,0xdd,0xe4,0xa9,0xd6,0xcc,0x13,0xf3,0xfe,0xe3,0xd8,0xdf,0x43,0xf8,0xb9,0xee,0x23,0x10,0x19,0x2a,0x7f,0xe5,0x32,0xee,0xb2,0xd6,0xee,0xb9,0x78,0x77,0xbd,0x14,0xbc,0x23,0x1d,0x15,0xdf,0x23,0x2b,0xf0,0x2e,0x3a,0x1c,0x18,0xe8,0x15,0x2f,0x1d,0xf5,0x9d,0x32,0xff,0x26,0xc8,0x14,0xec,0x1d,0xd9,0x27,0x4,0xc2,0x7,0xf8,0x30,0xdd,0xb0,0x47,0x1,0x72,0x6,0xc0,0xd2,0xcb,0x44,0xe5,0x2,0x38,0x32,0xa,0x4c,0x7d,0x75,0xd3,0x22,0xfc,0x34,0x39,0x12,0xf5,0x30,0xee,0x27,0xf4,0x9,0x45,0xf2,0x37,0xf4,0xbb,0x23,0x49,0x73,0x12,0xec,0x3c,0x28,0xed,0x31,0xe9,0xe7,0xea,0xea,0x13,0x3,0xd4,0xe9,0xe7,0xea,0xe2,0xfc,0xd,0x41,0xe5,0xd2,0x7f,0x27,0x0,0xbb,0xe1,0x9a,0x17,0x16,0xd1,0xc7,0x34,0xf1,0x27,0xe6,0xad,0x5,0x10,0xd3,0xab,0x55,0x3d,0x1f,0xd,0x2f,0x6b,0xd2,0xcf,0x10,0x2a,0xf0,0x32,0xe9,0xde,0xf4,0xe1,0xff,0x14,0xde,0x1b,0xf9,0x1f,0xcd,0x19,0xb,0x9f,0x9,0x7,0xca,0xfb,0xd3,0x2,0x2,0x25,0x36,0xee,0xf4,0xd7,0xe3,0x7,0x17,0x6,0xee,0xc7,0x1e,0x20,0xf,0xf5,0xd1,0xf3,0xfd,0xc,0xe5,0xbc,0xfc,0x42,0xf6,0x1e,0xec,0x1c,0xed,0xd9,0xe4,0xed,0xdf,0xd8,0xef,0xee,0xd8,0xc9,0xd3,0xb5,0x12,0xf4,0xeb,0x30,0x8,0xe1,0x18,0x2,0x5,0xfe,0x23,0x19,0xd7,0xf4,0x9b,0xfe,0x17,0xb4,0xe6,0x11,0xd0,0xfe,0x1d,0x22,0x22,0x9,0xe6,0xf9,0xf9,0x11,0xf9,0xeb,0xb,0xfb,0x81,0x9,0x2a,0x13,0xdf,0xb,0x1f,0x2,0x3b,0xea,0xff,0xeb,0x22,0xf8,0x5,0x3,0x20,0x38,0xf0,0x1,0xf3,0xe5,0xbe,0x1,0xff,0xe5,0xf2,0xe3,0x0,0x1b,0x26,0xf9,0xcf,0x3a,0x7,0x29,0xab,0x24,0xb,0x1d,0x1c,0xc,0x1d,0xf3,0x15,0xeb,0x27,0x2f,0xd,0xea,0x16,0xb5,0x17,0x29,0xd8,0x42,0x58,0xdf,0xd4,0xe6,0xf2,0xe5,0xfc,0xf1,0xbf,0x38,0xfd,0xf7,0xf5,0x3,0x5b,0xea,0x14,0xf8,0xdf,0x1d,0xd9,0xc2,0xc2,0x1a,0xed,0xd1,0xe,0xe,0xec,0xc1,0xf4,0x7f,0x2c,0xe7,0xec,0x1e,0xe4,0x21,0xd0,0x30,0xe5,0xcf,0x9,0x24,0x10,0x14,0x7,0xee,0x15,0xc,0x25,0xe6,0x52,0x29,0x9,0x39,0xeb,0x8,0xe1,0xf8,0x18,0x1a,0xf3,0x40,0x6,0x9,0xfc,0x3,0xdc,0x1,0x2c,0xe9,0x5d,0x26,0x0,0x13,0xd8,0x13,0xda,0x8,0xd7,0xfe,0x22,0xe,0xe1,0xe1,0xc,0xd,0xeb,0xba,0x16,0xef,0xe0,0x10,0x27,0xe7,0x12,0xe9,0xfd,0xc5,0x23,0xf0,0xf,0xec,0xea,0x43,0xa5,0xee,0x1f,0xfb,0x3,0x22,0xd8,0xe9,0xfc,0x2d,0xe,0xd1,0x26,0xe2,0x13,0xf9,0xef,0xb9,0xc6,0x39,0xc4,0x39,0x46,0x6,0xf2,0xe,0xd2,0xdd,0x20,0x1b,0xb2,0x44,0x19,0xf6,0x1,0x21,0x53,0xb,0xc5,0x14,0xea,0xfb,0x0,0x18,0xb9,0x4a,0x9d,0xe6,0x13,0xd1,0xce,0xea,0x0,0x53,0x7,0xff,0xed,0x19,0xcb,0x93,0xb7,0x4,0xd4,0xe0,0xeb,0x39,0xe,0xc8,0xfb,0xcd,0x1c,0x10,0xde,0x25,0xa,0x2b,0xed,0x7,0x1a,0x29,0xc1,0xd1,0xd6,0xd2,0x12,0xef,0x0,0xcc,0x0,0x6,0xf0,0xe9,0xb1,0x3,0xab,0x1f,0x67,0x10,0xf3,0x20,0xa,0x1,0xec,0xd8,0x19,0xfd,0xe0,0xd4,0xd8,0xe1,0x19,0xd0,0xe9,0xe,0xe,0x31,0x18,0xcf,0xde,0xe2,0xf9,0x81,0x3c,0xc9,0x1e,0x2b,0xfc,0x1a,0x47,0x85,0x94,0x21,0xea,0xe3,0xe6,0xcf,0xfb,0xe2,0xc0,0xd4,0x2d,0xc1,0x1d,0xd,0xb3,0x62,0xa4,0x5,0x4a,0xec,0x7b,0xa9,0x41,0x2,0xf6,0x19,0xf2,0x1f,0x3b,0xcc,0xfb,0x5a,0x1c,0x10,0xca,0xd9,0xd,0xff,0x2,0xa7,0x10,0x2f,0x56,0x25,0xde,0x3,0xc,0xb,0x25,0x52,0xbf,0x89,0xb8,0x21,0xf4,0x1,0xc4,0xe2,0x18,0xf9,0x8,0x1c,0xd,0xbb,0x20,0xb,0xbf,0xe9,0xef,0x3d,0xf9,0x6,0xb7,0xe0,0x2d,0x81,0xf8,0x1,0x14,0x22,0xd7,0xf6,0x13,0x30,0x1e,0xc,0x25,0x43,0x15,0x31,0x2c,0x21,0xc8,0x26,0x8,0x85,0xed,0xcd,0x1b,0x3,0x28,0x17,0x0,0x46,0x5a,0xcc,0x31,0xde,0x41,0x73,0xec,0xab,0x0,0xe4,0xd7,0x4,0x1d,0xff,0x22,0xe2,0xe0,0x1f,0x2,0xea,0xff,0x8,0xa9,0x7f,0xe8,0x93,0xad,0xc6,0x40,0x8,0x12,0xd8,0x29,0xc5,0xd,0x26,0x1a,0x4f,0x51,0xff,0x1c,0x34,0x21,0x5,0xd6,0x84,0x32,0x18,0xf1,0xfd,0x1a,0xf7,0xd9,0x2f,0xdb,0xdb,0xd7,0xda,0x31,0x7,0xf7,0x4e,0x17,0x1a,0xf5,0xc,0xf7,0xe7,0x39,0x1a,0xee,0x3c,0x13,0x38,0x11,0x4b,0x45,0xb5,0x3e,0xf8,0x2b,0xef,0x14,0x98,0xdf,0xe6,0x1a,0x2e,0xa,0x34,0xeb,0x44,0x17,0xe1,0x41,0x1b,0x6e,0xe9,0x1d,0x47,0xf2,0xea,0x4,0xd9,0x14,0xfa,0x1f,0xf2,0xff,0x3a,0xeb,0xe4,0xc7,0x38,0x6,0xca,0xd,0x17,0xfa,0x39,0x33,0x0,0xd3,0x22,0xff,0xf9,0xcf,0xbb,0xfe,0x21,0xe0,0xf,0xfd,0x92,0x12,0x2,0x22,0xd8,0x5b,0xf1,0x36,0x1,0x15,0xf8,0xf1,0xfa,0x43,0xd1,0xd7,0x2d,0xf8,0x7f,0x23,0x13,0xd,0x26,0x37,0xf2,0xd9,0xf1,0x31,0xa,0x4,0x70,0x16,0xf6,0x32,0xf1,0x46,0xed,0x27,0x2c,0x45,0x36,0xfa,0x26,0xdb,0xd0,0xfa,0xe,0xf6,0xde,0xcc,0x8c,0x3,0xea,0xe3,0x1c,0x2,0xa,0x27,0x62,0xd,0xc9,0xd0,0x5,0x46,0x21,0xe0,0x16,0xe0,0xe0,0x3,0x3d,0x4a,0xa7,0x48,0x2a,0x3b,0x56,0xf,0x2b,0x16,0xd6,0x17,0xed,0xc0,0x16,0x5,0x0,0xff,0xfa,0x34,0x26,0x45,0xc,0xf0,0x40,0x2e,0x13,0x16,0xe3,0xf2,0xdd,0x2a,0x39,0x0,0x4,0xdd,0xf1,0xbb,0xdf,0x28,0xec,0x2d,0x3,0x9c,0x3e,0xec,0xf7,0x8,0x0,0xcb,0x15,0x1b,0xf,0xc6,0xe5,0xf6,0xfd,0xd5,0xc5,0x7,0xf9,0xe9,0xdb,0x3b,0x2a,0x36,0x21,0x2d,0x4e,0xe7,0xcb,0x2e,0x34,0xc7,0x46,0xff,0xe1,0xc3,0x5b,0x9,0x37,0xd2,0xe5,0x21,0x4,0xde,0xfd,0x43,0x2,0x6,0x23,0xfa,0xe3,0xf1,0x4e,0xd7,0x2c,0x70,0xb8,0x15,0xf9,0xe6,0xfb,0x18,0xa,0xad,0x77,0xf,0x2a,0x1e,0xf2,0x2e,0x0,0x45,0xbd,0xd1,0xcb,0xcf,0x34,0xe5,0x37,0xaa,0x2,0xea,0xc,0xc7,0xf0,0xc6,0x46,0xdc,0xea,0xc3,0x49,0xcb,0x9a,0xe2,0x4e,0xf3,0xf,0xf5,0x3b,0x4c,0x5,0x0,0xf3,0x1f,0x32,0xc4,0xcd,0xdf,0x18,0xf8,0xb,0xf0,0xf,0xa8,0xe6,0xf5,0x4,0xd7,0x47,0xf1,0x3a,0xf8,0x37,0xd5,0xce,0x45,0xfa,0xf0,0x5,0x76,0xcc,0xe0,0x10,0x31,0x14,0x9,0x0,0x43,0x13,0xa,0xe7,0x14,0x0,0xde,0x17,0xdc,0xb6,0x2,0x6c,0x2f,0xdd,0xde,0x1b,0xea,0x81,0x34,0x1,0xed,0x23,0x9,0xdd,0x13,0x81,0x3,0xeb,0x1b,0xda,0xeb,0xdb,0xec,0x13,0xc2,0x1c,0xf2,0xe3,0x8,0x8,0xd9,0x54,0xe4,0xb8,0x2e,0xe9,0xc1,0xf8,0x13,0x2,0xef,0xe7,0xfa,0xdf,0x5d,0xa0,0x2,0xe,0x13,0x15,0xb0,0xa,0xff,0xe0,0x1b,0xe0,0xc,0x24,0x1e,0xd4,0x35,0x8,0xd9,0x22,0x3,0x41,0x20,0x96,0xde,0x1d,0x5,0xbf,0x2e,0x4a,0x6,0xd7,0xd,0x12,0xf2,0xb8,0x4,0xd7,0xdc,0x1f,0xee,0xd8,0xcd,0xd9,0x97,0xb7,0x1d,0xb0,0x5,0xe4,0x35,0xf8,0x3,0x2f,0xf4,0xdc,0xd7,0x14,0x7,0xe,0x4d,0xf7,0x12,0xd,0xf2,0xdb,0xb,0xba,0xe7,0x1b,0x30,0xd9,0x2a,0xdf,0xf,0xc,0x42,0x14,0x27,0xb,0xf7,0x58,0xfa,0xdc,0xc,0xe1,0x95,0xdc,0xe7,0x24,0xfd,0x51,0xc9,0x1d,0xcc,0xe4,0xfe,0xf8,0xac,0xc8,0x35,0xb4,0xcd,0xe7,0x6,0x6,0xe1,0xe1,0x24,0xd3,0xcd,0xb,0xf9,0x4d,0x1e,0xe9,0x2c,0x6a,0xed,0xd9,0xae,0x1,0x30,0x18,0x11,0xdd,0x9,0xe5,0xed,0x15,0xef,0x7,0xee,0xdb,0x2f,0x1d,0xbb,0xe8,0x2,0x8,0x1a,0x5,0xf4,0xf3,0xf8,0xff,0x3,0xe,0x5,0x12,0x38,0x3a,0x3c,0x38,0xa,0x0,0xc8,0x6,0xc6,0xad,0xf2,0xf1,0x23,0x54,0x19,0xb,0xf1,0x1d,0xec,0xca,0xe5,0x29,0x28,0xd,0x8,0x52,0x1d,0x4,0x6,0x11,0xeb,0xe5,0x1d,0xc7,0x1e,0x23,0x1b,0xe2,0x52,0xe3,0x81,0x14,0xf5,0xe5,0x4b,0xe3,0x11,0x1f,0xe7,0xcf,0xfe,0xe5,0xdf,0xe0,0x7,0xe9,0xe8,0x12,0xfe,0x2a,0xea,0x9,0x3c,0xf3,0x14,0xf1,0xf5,0xe1,0x29,0xf6,0xd9,0x1,0x5,0xe9,0xf7,0x0,0xfc,0x40,0xdd,0x9f,0xbe,0xe8,0x18,0x1,0xce,0x23,0x0,0xf,0x27,0xfe,0x38,0x5c,0x19,0xae,0x54,0x3f,0x25,0x3e,0x71,0xb0,0x17,0xf4,0xf5,0xea,0x22,0xd6,0xc8,0x28,0x0,0xdf,0xce,0x13,0x65,0xe5,0xe0,0x1a,0xff,0x2e,0x2,0x24,0xb1,0x5,0x2b,0x1d,0xd6,0x8,0x1c,0x20,0xed,0x7a,0x50,0xcb,0x1f,0xf1,0xd8,0xc4,0xdb,0xab,0x36,0x18,0x2,0x1,0xd,0x3e,0x1a,0x24,0xf6,0x3c,0xc,0xf4,0x1f,0x16,0xdf,0x1b,0xef,0xdb,0xe2,0xce,0x8,0xf7,0x27,0x30,0xb,0x48,0xdb,0x23,0xac,0x2c,0xeb,0xec,0x81,0xfb,0xf8,0x3,0xfa,0x14,0x12,0x1,0x1,0x1d,0x0,0xca,0x27,0xff,0xdd,0xdb,0xdb,0xe3,0xe2,0xb,0x13,0x4b,0x54,0xd1,0xf1,0x2,0x11,0xb4,0x1e,0xe9,0xd6,0xee,0xe,0xde,0x9e,0xad,0xee,0xc3,0xbb,0xce,0x2c,0xfa,0xe1,0x0,0x1c,0xc0,0xed,0xc8,0x28,0x3a,0xa,0x31,0x26,0x67,0x0,0xf7,0x8d,0xc6,0x23,0xfa,0xe,0xce,0xfb,0xf1,0xee,0x17,0xdb,0x2c,0xc8,0xd9,0x50,0xda,0x9a,0xe,0x2c,0xcf,0xa,0x22,0x2d,0xa2,0x2c,0xea,0x3,0x2b,0x37,0xff,0xff,0x52,0x1b,0xf2,0x28,0x24,0xfd,0xce,0xf5,0xa2,0xe0,0x10,0x3,0x53,0x35,0x35,0xed,0x0,0x7,0xda,0xfb,0xf7,0x17,0xfd,0x17,0x25,0x20,0x17,0x24,0x8,0xf1,0xf4,0x3,0xb3,0xea,0x36,0x16,0xc4,0x15,0x4,0x81,0xf0,0xa2,0xc5,0x7e,0xba,0x21,0xe6,0x30,0xd5,0x37,0x16,0x87,0xa0,0x50,0x14,0xc7,0xd1,0x5,0x1c,0xe9,0xc,0x10,0x31,0xc,0xda,0x6,0x13,0x26,0xcd,0xe7,0x28,0xdf,0xf1,0x2d,0xee,0xef,0xe8,0x8,0xbc,0xd3,0xe4,0x2,0x19,0x7,0xe3,0x1f,0xea,0x1f,0xfa,0x22,0x2a,0x7,0x2d,0xda,0x8,0x40,0xc8,0xe0,0xe9,0x5,0x21,0x23,0xd8,0xf3,0xe,0x44,0xe7,0xcb,0xfa,0xed,0xf4,0xb9,0xff,0x7,0xf9,0x2c,0xef,0x2,0x3f,0x12,0xef,0x1a,0x2e,0xf0,0x24,0x27,0x2e,0xf4,0x9a,0xf8,0xd0,0xfe,0xab,0x3,0x2f,0x8,0xb1,0xf6,0xf3,0x27,0xeb,0x6,0x7,0xd8,0x1a,0xee,0xf,0x5,0x24,0xbc,0xbf,0xff,0xc4,0xf6,0xfd,0x2c,0xa,0xef,0xfe,0x1,0xcb,0x5,0x20,0x1d,0x14,0xe3,0x23,0x0,0xd,0x81,0xdb,0x11,0xaa,0x20,0x4,0x3b,0x10,0x22,0x1,0xec,0xea,0x1b,0x1a,0xd9,0xa,0x1b,0x56,0xff,0xe,0xf2,0xb0,0xde,0x25,0x14,0xe7,0x25,0x43,0xee,0x16,0xff,0xed,0x32,0xed,0xe0,0x23,0x8c,0xff,0xbc,0x1e,0x26,0xdb,0x12,0xda,0x23,0xf1,0x2,0x7,0x15,0x41,0x2d,0xe,0x3e,0xf6,0x2f,0xf0,0x1c,0x9f,0x1d,0x1f,0x36,0xeb,0xf8,0xd8,0xe,0xeb,0xe4,0xfe,0xe5,0xef,0xde,0x0,0x3,0xf,0x19,0x2e,0xeb,0x1c,0x10,0xe4,0x57,0x7,0xf9,0x1b,0x16,0xc,0xd4,0x43,0x32,0xa2,0xa,0x1c,0x46,0x72,0xed,0x19,0x5,0x9,0x1e,0x4,0x2f,0x2a,0xe4,0x9,0xad,0xec,0x26,0xfe,0x21,0x9f,0xe,0x1a,0x11,0xd4,0xe3,0xc,0xf7,0xf8,0x25,0x1d,0x1a,0x8,0xe0,0xe6,0xfd,0xa,0x19,0xe3,0x4e,0xe4,0xa6,0x81,0x16,0xe0,0x13,0xa,0xff,0x4,0x5,0xd,0x23,0xe8,0xf4,0x12,0xe1,0xf3,0x12,0xb6,0x11,0xd,0xf,0xfa,0xa,0xe5,0x21,0xa,0xda,0xe4,0x2,0xed,0x4,0xcb,0xe1,0xde,0x2d,0x39,0x32,0xe4,0xdd,0xc,0x3,0x8,0x5,0x5,0xe1,0x47,0x12,0xd3,0xf9,0xcc,0xfb,0xdd,0xe5,0xe7,0x9f,0x48,0xf2,0xda,0xf1,0x16,0x15,0x12,0x19,0x12,0x4,0xd,0x5,0xf,0x6,0xe4,0xfb,0xf1,0xf9,0x2c,0xff,0xbe,0xf7,0xe9,0x9,0xf6,0xd,0x7,0xec,0xfc,0xff,0xff,0xed,0x2f,0x8,0x28,0x33,0xfd,0xfd,0x2e,0xdd,0xe3,0xd0,0x9,0xc9,0xe9,0x11,0xfa,0x16,0xb3,0x1d,0x16,0x3c,0xf9,0xef,0x40,0x1,0x23,0x3,0x6,0x1b,0xec,0x3,0x7,0xa,0xce,0xf0,0xea,0x50,0xf7,0xbe,0xb,0x7f,0x1,0xba,0xef,0xe5,0x7,0xbf,0x10,0xdb,0x4,0x4,0x13,0xed,0xe0,0xde,0x12,0xf5,0x3,0xc,0x1d,0xfb,0x1b,0x18,0xeb,0xe8,0xf2,0xa,0x12,0xef,0x13,0x3,0x25,0x3,0x24,0x1b,0x3e,0x16,0xd6,0x1d,0xfc,0xe5,0x39,0x1a,0xf7,0xe2,0x2b,0xfb,0xeb,0x11,0xd6,0xec,0x3a,0xf4,0xcc,0x12,0xfd,0x22,0x9,0xf2,0xc,0x5,0x8,0xf,0xf0,0x63,0xad,0xd8,0xc3,0xe9,0xfc,0xce,0x12,0xf8,0x8,0xf0,0xfd,0x11,0x1d,0xb,0x50,0xec,0x11,0xe5,0x8,0x2a,0xb,0x2d,0x91,0x7,0xcd,0xdc,0xac,0xf8,0x7,0x21,0xd8,0xe9,0xfb,0xf,0xcd,0xce,0xdd,0xe8,0x1a,0x27,0xf6,0x17,0xdf,0xd9,0xde,0x18,0xd4,0x15,0xe2,0x12,0x17,0x21,0xd,0xf,0x21,0x19,0xda,0xe4,0x13,0xd0,0x24,0x19,0x21,0x81,0x14,0x99,0x2a,0xe6,0xe5,0xed,0x49,0x26,0x33,0x20,0xc1,0xfd,0x2d,0x1d,0x2e,0x1,0x1,0x10,0x1f,0xd7,0x82,0xc7,0x1e,0xda,0xc,0xfb,0x63,0xef,0x14,0xd0,0x1a,0x3,0xc3,0xfd,0xd1,0xf,0xee,0xf6,0xdb,0xe5,0x1,0xee,0x5,0xf,0x17,0x6,0xda,0xf1,0xe0,0xea,0xe,0xc9,0xc1,0x2a,0xb5,0xbe,0x31,0x15,0xb,0xe6,0xa,0x14,0xf3,0x51,0xb1,0x19,0x25,0x7,0x1,0xd6,0x6,0xe4,0xf6,0xe8,0xfb,0x6,0x23,0x3c,0xcc,0xf5,0xec,0xf2,0xe8,0xf4,0x24,0xfe,0x81,0xeb,0x2e,0x4,0xf8,0xfd,0x3c,0x32,0x0,0xee,0x1d,0xea,0xf1,0xf8,0xef,0xe6,0x12,0xfd,0xc9,0xfd,0x15,0xb8,0xad,0x17,0xb1,0x7,0x7,0x11,0xe6,0x21,0x18,0x4,0xd1,0x2,0xde,0xe9,0xd,0x2e,0xf5,0xcf,0xf1,0xf4,0xe5,0xd8,0xf3,0x1a,0xb,0x22,0x12,0x2c,0x21,0xe6,0x10,0x1f,0xf3,0xf,0x12,0x1b,0x20,0xf4,0x24,0x1f,0xc8,0xb5,0xef,0xf0,0xd,0xd,0x6f,0xe4,0xb3,0x26,0xfc,0xb,0x59,0x2f,0xb8,0xe2,0x44,0x30,0x12,0xc6,0xd,0x6,0x18,0xa8,0x7,0x1,0xcf,0xd5,0xec,0xe3,0xd9,0xae,0x9,0xe3,0x23,0x61,0xf6,0xf7,0xfe,0xe7,0xf5,0xa,0xed,0xb7,0x1e,0x25,0x8,0xed,0x24,0x1c,0x1d,0x36,0xef,0xd0,0xbc,0xf8,0xe9,0xf8,0x3e,0x9a,0xda,0x38,0xec,0xd2,0xe2,0xda,0xe2,0xc7,0xd6,0xe4,0x2b,0xb2,0xb5,0xdd,0x18,0x16,0x13,0xc7,0xa,0x1f,0xd8,0x1b,0xd4,0x26,0x20,0xd8,0xc3,0xf4,0x2b,0xda,0xdf,0xea,0xdc,0xbe,0xf8,0x19,0x23,0xc5,0x27,0x2,0xff,0x1b,0x3a,0xec,0xc9,0xff,0x1c,0xd3,0x26,0x3a,0xb,0xd0,0xea,0xea,0x0,0xdb,0xfb,0x56,0xfa,0xeb,0x1d,0xf0,0x11,0x29,0x18,0xe,0xe1,0xf9,0x32,0xf2,0xd2,0xc4,0x1b,0xef,0x81,0x4b,0x52,0xd2,0xbd,0x29,0xe4,0xb2,0x61,0xd8,0x96,0x81,0xe8,0x43,0xea,0xdb,0xcf,0x2d,0x6,0x1,0x1e,0x37,0x68,0x4f,0xf5,0x61,0x40,0xfb,0x1c,0xc5,0x81,0x20,0x2e,0x1c,0xdd,0xec,0xdd,0xc1,0x21,0xe5,0xe1,0xe6,0xe9,0x1b,0xd8,0xfc,0xf,0x16,0x59,0x1f,0xfb,0xda,0xda,0x5b,0x22,0x19,0x46,0xc,0x27,0x1d,0x6e,0x68,0xb0,0x4d,0x16,0x38,0x25,0xd3,0xd6,0xee,0xf1,0x44,0x17,0x21,0x34,0xd4,0x21,0xf2,0xf5,0x33,0x14,0x33,0xf1,0xf1,0x27,0xf,0xff,0x18,0xf,0x10,0xeb,0x24,0xe5,0x1b,0x33,0x10,0xf6,0xcb,0x37,0xfb,0xf9,0x1d,0xdc,0x1b,0x11,0x24,0xd5,0xe4,0x20,0xe8,0x14,0x0,0xcd,0xa,0xf3,0xdb,0x1d,0xee,0xd9,0xfa,0xdb,0xf8,0x2,0x17,0x13,0x17,0xe3,0xf8,0x1,0xb1,0xdf,0x20,0x14,0xff,0x29,0x3,0xc,0x6b,0xee,0x6,0xec,0xb1,0x2f,0x29,0xf8,0xf3,0x33,0xea,0xf3,0xd4,0x9e,0xcf,0x1b,0xa2,0xe7,0x14,0xa,0xe,0x6b,0x17,0xdd,0xf4,0x1d,0x2b,0x33,0x35,0xd7,0x2e,0x20,0x0,0x20,0xe6,0xeb,0x15,0x3,0xde,0xcc,0x18,0x1b,0x11,0x31,0xa7,0x23,0xed,0xf3,0xdb,0x19,0x16,0x81,0xc9,0x31,0xc2,0xca,0xf8,0xad,0x23,0x8,0xff,0xf4,0xfd,0xd9,0xee,0xc0,0x7,0xc6,0x51,0x1d,0x3,0xfa,0xb3,0x15,0x16,0x88,0xe1,0x1a,0xe7,0x7,0x6,0x1d,0x14,0xff,0x9,0xe6,0x27,0xf8,0x19,0xf2,0xd0,0x3c,0x99,0x26,0xe0,0x45,0xd7,0x1d,0x13,0xf2,0x7,0xf1,0xf7,0xec,0x8,0xef,0xf,0xf6,0x1e,0x19,0xff,0x6c,0xf5,0xea,0xe0,0xde,0xe1,0x0,0x14,0x38,0x23,0x3f,0xf7,0xea,0x20,0xd5,0xc2,0x28,0xe,0xb0,0xf3,0xd3,0x2b,0xf4,0x6,0xfc,0x37,0xed,0xdb,0x1a,0xd,0x25,0x36,0x7,0x42,0x2,0xf,0xf6,0x81,0xf5,0xf7,0xc,0xf8,0xeb,0xea,0xe1,0xe7,0x0,0x19,0xcc,0x17,0xf9,0x15,0xfc,0xf3,0x2e,0xf1,0x12,0x1f,0xe0,0x15,0xf0,0x47,0x25,0x0,0x2e,0xf3,0x29,0x30,0x52,0x49,0x1,0x39,0x16,0x2e,0x2e,0xf1,0xcc,0x1f,0x13,0xf1,0xa,0xe8,0x1e,0xed,0x19,0x9,0xbb,0x29,0xe,0x1e,0x11,0xf3,0x4c,0x20,0x1b,0x1a,0xda,0xfe,0x13,0x4,0xd6,0x13,0x19,0x1,0xc8,0x1a,0xec,0xb9,0xe3,0x19,0xb,0x15,0xf8,0x31,0xd,0xd5,0xf5,0xde,0x6,0xb4,0xf8,0xe4,0xe5,0xf8,0x0,0xd0,0x0,0xf3,0x1e,0xfd,0xf1,0xd,0xeb,0xfc,0xe8,0xf4,0x37,0xcb,0x16,0xa,0xe9,0xa,0x0,0xa,0x17,0x81,0x2f,0xcc,0xf6,0x49,0x6,0xe6,0xde,0x15,0x4,0xfc,0x19,0xfa,0x34,0x36,0x15,0x5a,0x29,0x12,0xf9,0x18,0xad,0xfb,0x1c,0x24,0xe5,0x15,0xf4,0xd2,0x19,0xe4,0x18,0xf3,0xe9,0x22,0xf9,0xfc,0x10,0x19,0x46,0x8,0xd5,0xf4,0xf4,0x42,0xfd,0xe3,0x16,0xd,0x3,0xf0,0x39,0x1d,0xaa,0x2,0x59,0x19,0x34,0xf4,0x3e,0xec,0xf4,0xfd,0xe6,0x2e,0x1e,0xf2,0x5,0xfc,0x4,0x14,0x1f,0x50,0x12,0x25,0x59,0xf,0xe5,0xf1,0xc,0x5,0xfa,0xf2,0x15,0xdc,0x2c,0x6,0xfc,0xd1,0x8,0x4e,0xcf,0x62,0xe5,0xe1,0xb7,0x2c,0xfd,0x14,0xe7,0x6,0xfb,0x24,0x35,0xe8,0xe1,0xff,0xc,0xcb,0xc4,0xf9,0xd0,0x0,0x4c,0x37,0xed,0x9,0xd,0xfb,0xff,0xf5,0xbe,0xb8,0x17,0x4,0x22,0x34,0x81,0xd6,0xf9,0x14,0x20,0xe1,0x24,0xe0,0x2a,0xc5,0xce,0x32,0xd5,0xc2,0xeb,0xd7,0x3c,0xbf,0x1,0xed,0xe8,0xc2,0xf2,0x1c,0x15,0x28,0x2,0xf,0x6,0x17,0xde,0x1b,0x5f,0x1c,0x24,0xe6,0x7,0x9,0xda,0xd,0xe0,0xe,0x1a,0x1c,0xeb,0xe3,0xea,0x15,0xd9,0xa,0xf,0xed,0x91,0xad,0x26,0xb8,0xe0,0xe0,0xce,0xdd,0xf,0x4,0x2d,0xde,0xce,0x1a,0xd4,0xe2,0xe8,0xeb,0xf2,0xd1,0xd6,0xca,0x0,0xd9,0xc2,0xe2,0xfd,0x2,0xe,0xfb,0x2d,0xb,0xea,0x13,0x1,0xe0,0xfa,0x36,0xe4,0xc8,0x2,0xac,0x19,0x1b,0xdf,0xf1,0xf7,0x42,0x1,0x37,0x1e,0xcc,0x6,0x48,0x14,0x0,0x1f,0x21,0x69,0x6,0x2,0x13,0xd7,0xbf,0xd9,0xc9,0x25,0xe9,0xf7,0x1f,0x29,0xf3,0xe0,0xea,0xe8,0xef,0x1a,0x3d,0xd,0xf5,0xdc,0xe2,0xf8,0x4,0x0,0x39,0x10,0xf6,0x24,0x13,0xb8,0x10,0xce,0xf6,0xf0,0x17,0xd8,0x81,0x26,0xf6,0x0,0xeb,0xda,0x20,0xd,0x1f,0xf6,0x15,0xbd,0x14,0xf9,0xbe,0xb,0xba,0xb,0xe2,0xe,0x10,0xa6,0x1e,0xf3,0xe0,0x24,0xf0,0xe1,0xf7,0xe3,0x31,0x1e,0x13,0x33,0xf5,0xe4,0x33,0x41,0xee,0xf8,0xf9,0x0,0xe2,0x23,0xc7,0x0,0x1f,0x2,0x18,0xea,0x14,0x3b,0x39,0x11,0x13,0x5e,0xef,0xf7,0xd,0x19,0x7,0x3,0x21,0xea,0x2,0xd9,0xed,0xfa,0x50,0xc1,0xa9,0xfd,0x5,0xff,0xae,0x2c,0xdb,0x12,0xe2,0xf2,0xd4,0x22,0xe2,0xd6,0xcf,0xea,0x0,0x25,0xb,0xe0,0xdd,0x3d,0xe2,0xd6,0xa,0x1d,0x31,0xf7,0xe6,0x3d,0xed,0x12,0xb,0xee,0xfc,0xf4,0xed,0x17,0x81,0x2b,0xf2,0x26,0x45,0xea,0xf,0xf7,0x1c,0xd2,0x27,0x26,0x2b,0x33,0x2b,0x7,0x5c,0x1e,0x1c,0x1e,0x2d,0xbc,0xe0,0x22,0x6,0xd1,0xf,0xc,0xca,0x32,0xed,0x1b,0xdf,0xe4,0x7,0xec,0x24,0x1a,0x25,0x43,0xeb,0xd7,0xff,0xef,0x1c,0xe5,0xff,0x12,0x24,0x1,0xf1,0x58,0x3d,0xe9,0x1e,0x6f,0x27,0x22,0xfa,0x1b,0x18,0xfd,0x30,0x1d,0xa,0x13,0xe6,0x32,0xe9,0x2,0xf3,0xf1,0x54,0x18,0xfc,0x2a,0x15,0xcd,0x6,0xe5,0xec,0xfb,0x4,0xfb,0xed,0x2b,0xfd,0xfb,0xe2,0x0,0x45,0xfc,0x40,0x1,0xf4,0xdb,0x30,0xdf,0xfc,0xe0,0x3,0xb,0x14,0x2,0xe2,0xe7,0x25,0xe4,0xfb,0xc8,0xfc,0xbd,0xfc,0x23,0x2b,0x1b,0xe,0x16,0x13,0xd7,0xe,0x16,0xc3,0x5,0x18,0xd8,0xb3,0xc0,0x49,0xc7,0xe,0xc8,0xed,0xfa,0xe9,0xf4,0x1f,0xe9,0xc5,0xc,0xfb,0x13,0x39,0xe6,0x35,0x45,0xc9,0xf4,0x81,0x1b,0x17,0x15,0x10,0x1d,0xef,0xfd,0xc1,0x16,0x3,0xe6,0x6,0x1c,0x40,0xe4,0xd2,0x0,0x16,0xd4,0x13,0xee,0x13,0xd9,0x8,0xf4,0xea,0xe9,0xfe,0xa,0x3b,0x5f,0x25,0x32,0x1f,0xa,0xf7,0xe7,0xf0,0xb2,0xd3,0x7,0x7,0x41,0x24,0xfb,0xfc,0x4,0xa,0xdb,0xc,0x8,0xe,0x1f,0xed,0x5e,0xf0,0xec,0xf9,0x1,0xe2,0x12,0x1a,0xc0,0xf0,0xfd,0x16,0xe6,0xe,0xd5,0x8f,0xf2,0x1d,0xed,0x43,0xf8,0x3,0xfd,0xf9,0xdd,0x7,0xdf,0xe3,0xd7,0xf6,0xe6,0xf0,0x19,0x10,0x8,0xf7,0x42,0x1d,0x5,0x23,0xf7,0xed,0xeb,0x24,0xde,0xf8,0xeb,0xf0,0x11,0xfd,0x12,0x2c,0xa1,0x1,0x5c,0x72,0xfd,0xbf,0xea,0xb,0x33,0xc7,0xf6,0x11,0xa7,0xe0,0xba,0xeb,0x1a,0xab,0xd6,0xfb,0xd6,0x89,0x2a,0x20,0xd7,0xf,0x3c,0xfd,0x37,0x1b,0xd0,0xe7,0x2e,0x31,0xf5,0xde,0xf,0xd9,0xda,0xd,0xc5,0xf8,0x2e,0x7,0xe4,0xbe,0xf7,0xf7,0xb0,0xc6,0xbb,0x11,0xa9,0x8e,0x4b,0xba,0xc5,0xe5,0xfa,0x2b,0x14,0x0,0xe5,0xc7,0xf6,0xd7,0xe2,0xe3,0xb2,0x2f,0x5,0xa4,0xe2,0xdc,0xe7,0xf9,0xb1,0x0,0xec,0xde,0xf0,0xdf,0xe,0xe4,0xcb,0xd0,0x3,0xe5,0xf7,0x42,0xb9,0xad,0xfa,0x9,0x2,0x40,0x1,0xc6,0x36,0xe,0xfb,0x22,0x1c,0xfe,0x3c,0xe7,0xe9,0x7,0xee,0x37,0x59,0x8,0xfa,0xdc,0xf3,0x81,0x1c,0xc1,0x1d,0xd0,0xa,0x13,0xeb,0xea,0xeb,0xcb,0xeb,0x1a,0xef,0xf6,0x2f,0x26,0xf,0x1a,0xe1,0xd,0x3,0x19,0x4,0xde,0x7,0xf2,0xfc,0x6,0xcd,0x23,0x31,0xc9,0xd0,0xb7,0xfa,0x4,0xf1,0x1e,0xc,0xfa,0xfa,0xc3,0x40,0x16,0x19,0x1e,0x14,0x36,0x18,0xf6,0xea,0xe7,0x9,0xd5,0xbb,0xf1,0xc3,0xda,0xed,0xf5,0xdf,0xd8,0xc4,0xb,0x5a,0x30,0x21,0x1,0x3c,0xfd,0xe9,0xc1,0x2b,0xdc,0xe4,0xf8,0x1d,0xa,0x6,0xfc,0xd5,0x16,0xe6,0xd,0xd,0x3c,0x59,0xef,0x40,0x11,0xe6,0xc,0xe3,0xf2,0xea,0xf9,0xed,0xda,0x4,0xc,0xf4,0x24,0xd4,0xb2,0xf,0x7f,0xf5,0x28,0x11,0xde,0x1f,0xbe,0xe5,0xc3,0xfa,0xd5,0x29,0xe7,0xe3,0x1d,0xed,0xe0,0xef,0xf8,0x16,0x9,0x62,0x2c,0xd,0x13,0xf0,0x3,0xca,0xf1,0xfb,0x14,0xf8,0x8,0x3b,0xf2,0x2d,0x44,0xe1,0xeb,0x1b,0xc7,0x21,0xfd,0xe6,0x2,0xdd,0x9,0x2,0xf2,0xfb,0x38,0xda,0xf,0x4e,0xe6,0x1e,0x10,0xef,0xf8,0xe7,0xe3,0x1f,0xd9,0x18,0xbf,0x42,0x1d,0xcd,0x10,0xf6,0x50,0x14,0xcb,0x17,0x15,0xeb,0xf0,0xd0,0xe3,0x22,0xc3,0xfd,0xe6,0xe1,0xe6,0xf6,0xf,0x7f,0x34,0x8,0x5,0xe,0xa7,0x97,0xee,0xf0,0xd,0xfb,0xd0,0x4c,0xec,0xea,0x1,0x4,0x1e,0x10,0xf6,0xfd,0x3a,0x67,0xca,0x1c,0x2,0xeb,0xe8,0x3,0xf7,0x2,0xf5,0xf7,0x32,0xf,0x17,0xfc,0xf4,0xfb,0xf3,0x2,0xab,0x1f,0x1f,0x65,0x13,0x9,0x17,0xf5,0x18,0x1a,0x25,0xc1,0xdf,0x1c,0xe4,0x0,0xe8,0xb7,0xf2,0xe,0xfd,0xff,0x23,0x1,0xd5,0xdf,0xfa,0xba,0x28,0x11,0xfe,0x18,0x36,0xf6,0xc6,0xea,0x1,0xbb,0xe4,0xf0,0x4,0xea,0x17,0xc,0x4,0xed,0xd,0xda,0x1c,0xfa,0xf9,0x46,0xf2,0xf3,0x31,0xd5,0xd1,0xdd,0x18,0xa,0xf9,0xdc,0xe7,0x9,0x14,0xae,0x0,0xe7,0xee,0x5,0xbc,0x6,0x8,0x1d,0xec,0xb8,0xf9,0x55,0x30,0x2,0xfb,0x26,0xf0,0x14,0x12,0x34,0x1d,0x81,0xde,0xda,0x1,0x93,0x3,0xf,0xe9,0xc1,0xed,0x7,0xf,0xf9,0x31,0xea,0xa,0x8,0xd7,0x23,0xe0,0xf6,0x94,0xac,0xf,0xda,0x1,0x14,0xfb,0xe9,0x9,0x11,0x14,0xd3,0x2a,0x1d,0xf9,0xf6,0xd2,0xe,0xe5,0x1,0xa1,0xef,0x2a,0xe3,0x20,0xf7,0x21,0xdb,0x37,0x14,0xe1,0xe0,0x12,0xf6,0xeb,0x0,0x1f,0x18,0xec,0x12,0xec,0xea,0xbc,0xfc,0xe6,0xfc,0x1f,0x12,0xfb,0xe1,0x1a,0xb,0xdb,0x3e,0xc,0xcc,0xb6,0x3a,0x11,0x18,0xf7,0xfb,0x1c,0x1,0x0,0xda,0x1d,0x23,0x7,0xfd,0x9,0xc9,0x12,0x2c,0xbb,0x1a,0x51,0xe5,0xe0,0xd6,0x1,0xf3,0xe9,0x1a,0xa8,0x3f,0x8,0x2d,0xfa,0xd,0x4a,0xe9,0x18,0xd2,0xdd,0x1b,0xfc,0xe5,0xe2,0x16,0xde,0xdf,0x10,0x4,0xde,0xcd,0xf1,0x7f,0x18,0xfa,0x7,0x37,0xd1,0xc4,0x2,0x32,0x11,0x12,0x4,0x40,0x5,0x1b,0x1e,0xee,0x1a,0xf5,0xdd,0xfb,0x4b,0x2f,0xe1,0x1e,0x7,0xe2,0xcb,0x1d,0xc,0xc,0xd0,0x27,0xfc,0xfd,0xe4,0x8,0x8,0xc1,0xfc,0x6,0x53,0x1a,0x2f,0x17,0xe1,0x8,0xdd,0xef,0x6,0x16,0xf9,0x15,0xf7,0xff,0xf8,0x11,0x9,0xcd,0x18,0xf1,0xed,0x35,0x0,0xe1,0xe4,0xf6,0xd1,0xb4,0xfb,0xff,0x25,0xf4,0xfe,0x5,0xff,0x45,0x55,0xc,0x36,0xf3,0xec,0x27,0x26,0xef,0xde,0x41,0x2e,0xc,0xfb,0x9b,0xe6,0xc9,0xce,0x9d,0x10,0x2,0x72,0x27,0xe0,0x3,0xdb,0x2a,0xf0,0x2,0x1c,0xb7,0xe2,0xcc,0x22,0xfd,0x9b,0x29,0x0,0x15,0xd7,0x2c,0xeb,0xed,0xec,0x2e,0x1,0x12,0xec,0xe0,0xfd,0xe1,0xed,0xb1,0xcd,0xf2,0xcf,0x86,0x8,0xf7,0xfd,0xd,0xf5,0xc2,0xee,0xc4,0xe0,0xdf,0xfb,0x1a,0x1c,0xf4,0x30,0x21,0x22,0x7,0xd2,0xee,0x23,0x18,0xed,0x1f,0x24,0x11,0x2a,0x7,0x2e,0xdd,0xf0,0xf,0xb3,0xfc,0x8,0x10,0xbb,0xed,0x81,0x31,0xd9,0x28,0xf2,0x27,0xd8,0xef,0x2f,0xdc,0xda,0x1,0xdd,0x12,0xe,0x6,0x1e,0x5,0xd0,0xa1,0xff,0x13,0xd1,0x19,0xed,0x36,0x37,0x3b,0x15,0xd,0x23,0x1b,0x27,0x5f,0xe4,0x1e,0x30,0xf9,0xe,0x5,0xe9,0xe1,0xfa,0x3e,0x6,0xf9,0x14,0xe4,0xe6,0x27,0xdf,0xc5,0x2a,0x18,0x7f,0xf1,0xf8,0x20,0xe0,0x21,0xe3,0xe2,0x36,0xc5,0x16,0xde,0x13,0xf7,0xbf,0x1a,0x39,0x15,0x26,0x3c,0x20,0xe8,0x2d,0x24,0x38,0x9,0xe6,0x18,0x4,0x39,0xff,0xc1,0xf0,0xbb,0x12,0xd6,0x19,0x33,0x4e,0x2f,0xf5,0x16,0x8,0xa5,0xe5,0x8,0xd,0x15,0xde,0x2a,0x2e,0x9,0xe,0xeb,0x4,0xb9,0x15,0x11,0xf,0xf9,0x5,0xe2,0x4,0x2c,0xee,0xde,0x16,0x1a,0xe5,0x18,0x65,0x1a,0xc5,0x16,0xa1,0xea,0x1a,0x0,0x1b,0x43,0xfa,0x17,0x34,0xb,0x20,0x0,0x1e,0x7,0x1f,0xf8,0x1a,0xd2,0xee,0xa4,0xfd,0xa,0x36,0x18,0x1e,0x40,0x17,0xe3,0xfb,0xf3,0x10,0xdb,0x2a,0x2,0x64,0xdd,0x13,0xd5,0xd6,0xc,0x20,0x8,0xe0,0x41,0xd6,0x7,0x13,0xe9,0xe1,0x4a,0xd6,0xa5,0xf,0xc1,0xbc,0x51,0x1e,0x18,0xd,0x5,0x24,0x3,0x7f,0xb2,0x8,0x5,0x7,0x0,0xc7,0x13,0xea,0xf3,0xf4,0xfb,0xfb,0x19,0x12,0xf,0xdb,0xfa,0xf4,0xd4,0xf2,0xf4,0x2b,0x89,0xe4,0x2c,0xe,0xc6,0x5,0xf2,0x16,0xf3,0xe2,0xe,0xc,0xa2,0xd8,0xda,0xdd,0x1e,0xf8,0xf5,0x1f,0xfb,0xd2,0xab,0xe,0xa6,0xef,0x18,0x25,0x1b,0xed,0x7,0x16,0xbe,0xe6,0xee,0x14,0x6,0xec,0x18,0x19,0x0,0xcc,0xfd,0xd2,0xe,0xe4,0xf2,0xf,0xc,0xf8,0xfa,0xeb,0xf0,0xe3,0x3,0xa,0xf9,0xa,0x44,0x15,0x2a,0x2,0xcb,0xe8,0x2b,0xf2,0xde,0x11,0x69,0xe5,0x13,0xb4,0xed,0xf6,0xfc,0xc3,0xb,0xfe,0x81,0xcc,0xca,0x35,0xf2,0xe6,0xdd,0x24,0xcb,0xd2,0x1,0x1e,0x2b,0x44,0xe6,0x14,0x15,0xfd,0x6,0xaa,0xc2,0x5,0x8,0xdf,0x13,0xdd,0xe2,0xd1,0x21,0x11,0xd8,0xe5,0xfb,0x4b,0xfb,0xb0,0x2,0x22,0x20,0x6,0x1c,0xe4,0xbb,0x14,0x1c,0xef,0x2d,0x2b,0x29,0xfc,0x71,0x18,0x27,0x24,0x12,0xe,0xe9,0xe3,0xb9,0xde,0xec,0x1d,0x42,0x1,0x38,0xd,0x16,0xfa,0xe5,0xeb,0xa,0x26,0xf2,0x1e,0x41,0xe1,0xf1,0x33,0xde,0xa,0x17,0xfd,0xfc,0x1c,0x32,0xef,0xcb,0xfe,0x13,0xb3,0xd6,0xd2,0xf5,0x3c,0x28,0x12,0xeb,0x2,0xf1,0x3,0xe7,0xcb,0xd0,0xf3,0x4,0xf3,0xfb,0xe5,0xf6,0xd2,0x36,0x2a,0x9,0x0,0xe2,0x12,0x15,0xf6,0xd2,0xe5,0x0,0x0,0x0,0x0,0x0,0x0,0x0,0x0,0x0,0x0,0x0,0x0,0x0,0x0,0x6,0x0,0x8,0x0,0x4,0x0,0x6,0x0,0x0,0x0,0x4,0x0,0x0,0x0,0x80,0x1,0x0,0x0,0xc3,0xb9,0xe9,0x36,0x3b,0xe2,0x20,0xb5,0xbe,0xde,0xfb,0xaa,0x33,0xfe,0x7,0x33,0xf6,0xaf,0xfd,0x3c,0x4,0x7,0xeb,0x24,0x19,0xb6,0xd1,0xfd,0x1f,0x2b,0x9b,0xf1,0x95,0xe8,0x19,0x5e,0x81,0x41,0xfc,0x3,0xfd,0xa,0x38,0xfa,0x2e,0x35,0xce,0x34,0xd0,0x38,0x2c,0xb9,0x13,0x28,0xde,0xd4,0xc9,0xb8,0x3,0xdf,0x4,0x57,0x26,0x7,0x9a,0x33,0xae,0x37,0xba,0xe3,0x40,0x16,0x2c,0x83,0xa5,0xf7,0x2e,0x9a,0x44,0xd4,0xe9,0x30,0x3c,0x64,0x81,0xa5,0xc9,0xc5,0x38,0xb0,0xb7,0x72,0xe3,0xb2,0x58,0xbb,0xaf,0x4b,0xc,0x86,0x9,0x58,0x46,0x31,0x6a,0x21,0x42,0x89,0x2,0x3f,0xee,0x43,0xe1,0xd,0x15,0x40,0xa9,0x3,0x20,0xeb,0xad,0xb8,0x3a,0xeb,0xbd,0xe9,0xb,0x30,0x6d,0xad,0xd5,0xef,0xe8,0x8e,0x30,0x97,0x9,0x3d,0xfd,0xe,0xf2,0xb4,0x51,0xe,0xd0,0x20,0x4c,0x45,0xa7,0xdd,0xe2,0x40,0x40,0x23,0x18,0x55,0xef,0x28,0xbc,0x5e,0xdb,0xb5,0x41,0x4,0x16,0xed,0x43,0x42,0x4d,0xed,0x34,0xca,0xde,0xad,0xf0,0x5c,0x81,0x40,0x42,0xb5,0xd9,0x40,0x33,0xb5,0x1d,0xb,0xef,0x26,0xc8,0xd0,0xbe,0x45,0xd,0x7,0xbd,0xd3,0xe,0x5a,0xc1,0x7f,0x50,0xeb,0x5b,0x78,0x3,0x65,0xb5,0xd8,0x58,0x1f,0xdb,0x9c,0xc2,0x73,0x1f,0xfd,0x4e,0xef,0x62,0xfa,0xb0,0xf0,0x56,0x5b,0x9,0xcd,0xc5,0x25,0x27,0xb6,0xa1,0x42,0xa2,0xb8,0xc0,0xc3,0x46,0xa6,0x5c,0xc8,0x68,0x9f,0xbf,0x2,0xf5,0xbc,0xcd,0x1b,0xcb,0x4a,0xe3,0x4c,0x63,0xf1,0x19,0xc2,0xbb,0x57,0x44,0xd3,0xd,0x51,0x74,0x18,0x2b,0x7,0xda,0x64,0x3,0xa2,0xd8,0xee,0xd4,0xba,0xd5,0x85,0x2,0x38,0x76,0xe1,0x28,0xd8,0x36,0xdb,0x49,0x21,0xdf,0xed,0xf0,0x9e,0xc8,0x8,0x81,0xed,0x2c,0xb0,0xd5,0xc2,0xb8,0x62,0x25,0x47,0xe,0xcc,0x60,0x32,0x98,0x5,0x68,0x8a,0x6f,0x48,0x60,0x1e,0xec,0x35,0x31,0x9e,0x3f,0xf8,0x4,0xba,0x39,0xae,0x18,0x9f,0xbb,0xf2,0x36,0xbe,0x33,0x20,0x9b,0x2d,0x57,0x5,0x47,0x6c,0x37,0x31,0x9,0xa9,0xbb,0xed,0xca,0x50,0x2d,0xcb,0x9e,0xb5,0xbf,0x51,0xd5,0x6,0xbc,0xfb,0x42,0x9,0xbc,0xd2,0xc5,0xbc,0x31,0xe0,0xa9,0xda,0x24,0xea,0xbf,0xd0,0x7f,0xfb,0xab,0x5e,0x9e,0xc,0x2a,0x90,0xce,0x3f,0xd7,0xf2,0xe1,0xb5,0x90,0xf9,0xff,0xff,0x1,0x0,0x0,0x0,0x10,0x0,0x0,0x0,0xc,0x0,0x14,0x0,0x4,0x0,0x8,0x0,0xc,0x0,0x10,0x0,0xc,0x0,0x0,0x0,0x68,0x2,0x0,0x0,0x58,0x2,0x0,0x0,0x4c,0x2,0x0,0x0,0x4,0x0,0x0,0x0,0xb,0x0,0x0,0x0,0x24,0x2,0x0,0x0,0xe4,0x1,0x0,0x0,0x8c,0x1,0x0,0x0,0x54,0x1,0x0,0x0,0x20,0x1,0x0,0x0,0xec,0x0,0x0,0x0,0xb8,0x0,0x0,0x0,0x90,0x0,0x0,0x0,0x68,0x0,0x0,0x0,0x40,0x0,0x0,0x0,0x4,0x0,0x0,0x0,0x52,0xfe,0xff,0xff,0x0,0x0,0x0,0x8,0x2,0x0,0x0,0x0,0x1c,0x0,0x0,0x0,0x10,0x0,0x0,0x0,0x4,0x0,0x0,0x0,0x96,0xfe,0xff,0xff,0x0,0x0,0x0,0x1,0x1,0x0,0x0,0x0,0x15,0x0,0x0,0x0,0x3,0x0,0x0,0x0,0x14,0x0,0x0,0x0,0x2,0x0,0x0,0x0,0xff,0xff,0xff,0xff,0xe,0xff,0xff,0xff,0x4,0x0,0x0,0x0,0x10,0x0,0x0,0x0,0x4,0x0,0x0,0x0,0x1,0x0,0x0,0x0,0x14,0x0,0x0,0x0,0x2,0x0,0x0,0x0,0x13,0x0,0x0,0x0,0x5,0x0,0x0,0x0,0x32,0xff,0xff,0xff,0x6,0x0,0x0,0x0,0x10,0x0,0x0,0x0,0x4,0x0,0x0,0x0,0x1,0x0,0x0,0x0,0x13,0x0,0x0,0x0,0x2,0x0,0x0,0x0,0x12,0x0,0x0,0x0,0x6,0x0,0x0,0x0,0x56,0xff,0xff,0xff,0x4,0x0,0x0,0x0,0x10,0x0,0x0,0x0,0x4,0x0,0x0,0x0,0x1,0x0,0x0,0x0,0x12,0x0,0x0,0x0,0x2,0x0,0x0,0x0,0x11,0x0,0x0,0x0,0x7,0x0,0x0,0x0,0xf6,0xfe,0xff,0xff,0x0,0x0,0x0,0x15,0x1,0x0,0x0,0x0,0x18,0x0,0x0,0x0,0xc,0x0,0x0,0x0,0x4,0x0,0x0,0x0,0xa8,0xfa,0xff,0xff,0x1,0x0,0x0,0x0,0x11,0x0,0x0,0x0,0x2,0x0,0x0,0x0,0x10,0x0,0x0,0x0,0x4,0x0,0x0,0x0,0x26,0xff,0xff,0xff,0x0,0x0,0x0,0x1b,0x5,0x0,0x0,0x0,0x18,0x0,0x0,0x0,0xc,0x0,0x0,0x0,0x4,0x0,0x0,0x0,0xd8,0xfa,0xff,0xff,0x1,0x0,0x0,0x0,0x10,0x0,0x0,0x0,0x2,0x0,0x0,0x0,0xf,0x0,0x0,0x0,0xa,0x0,0x0,0x0,0xda,0xff,0xff,0xff,0x4,0x0,0x0,0x0,0x10,0x0,0x0,0x0,0x4,0x0,0x0,0x0,0x1,0x0,0x0,0x0,0xf,0x0,0x0,0x0,0x2,0x0,0x0,0x0,0xe,0x0,0x0,0x0,0x8,0x0,0x0,0x0,0x0,0x0,0xa,0x0,0x10,0x0,0x4,0x0,0x8,0x0,0xc,0x0,0xa,0x0,0x0,0x0,0x3,0x0,0x0,0x0,0x10,0x0,0x0,0x0,0x4,0x0,0x0,0x0,0x1,0x0,0x0,0x0,0xe,0x0,0x0,0x0,0x2,0x0,0x0,0x0,0xd,0x0,0x0,0x0,0x9,0x0,0x0,0x0,0x0,0x0,0xe,0x0,0x1a,0x0,0x8,0x0,0xc,0x0,0x10,0x0,0x7,0x0,0x14,0x0,0xe,0x0,0x0,0x0,0x0,0x0,0x0,0x8,0x2,0x0,0x0,0x0,0x28,0x0,0x0,0x0,0x1c,0x0,0x0,0x0,0x10,0x0,0x0,0x0,0x0,0x0,0xa,0x0,0x8,0x0,0x0,0x0,0x0,0x0,0x7,0x0,0xa,0x0,0x0,0x0,0x0,0x0,0x0,0x1,0x1,0x0,0x0,0x0,0xd,0x0,0x0,0x0,0x3,0x0,0x0,0x0,0xc,0x0,0x0,0x0,0x3,0x0,0x0,0x0,0xff,0xff,0xff,0xff,0x0,0x0,0xe,0x0,0x18,0x0,0x8,0x0,0xc,0x0,0x10,0x0,0x7,0x0,0x14,0x0,0xe,0x0,0x0,0x0,0x0,0x0,0x0,0x15,0x1,0x0,0x0,0x0,0x18,0x0,0x0,0x0,0xc,0x0,0x0,0x0,0x4,0x0,0x0,0x0,0xc0,0xfb,0xff,0xff,0x1,0x0,0x0,0x0,0xc,0x0,0x0,0x0,0x2,0x0,0x0,0x0,0x0,0x0,0x0,0x0,0xb,0x0,0x0,0x0,0x0,0x0,0xa,0x0,0xc,0x0,0x0,0x0,0x4,0x0,0x8,0x0,0xa,0x0,0x0,0x0,0x10,0x0,0x0,0x0,0x4,0x0,0x0,0x0,0x1,0x0,0x0,0x0,0xb,0x0,0x0,0x0,0x1,0x0,0x0,0x0,0x1,0x0,0x0,0x0,0x1,0x0,0x0,0x0,0x15,0x0,0x0,0x0,0x2,0x0,0x0,0x0,0x0,0x0,0x0,0x0,0x1,0x0,0x0,0x0,0x16,0x0,0x0,0x0,0x4c,0x6,0x0,0x0,0xec,0x5,0x0,0x0,0x94,0x5,0x0,0x0,0x38,0x4,0x0,0x0,0x0,0x4,0x0,0x0,0xc0,0x3,0x0,0x0,0x8c,0x3,0x0,0x0,0x68,0x3,0x0,0x0,0x44,0x3,0x0,0x0,0x20,0x3,0x0,0x0,0xfc,0x2,0x0,0x0,0xb4,0x2,0x0,0x0,0x70,0x2,0x0,0x0,0x2c,0x2,0x0,0x0,0xe8,0x1,0x0,0x0,0x9c,0x1,0x0,0x0,0x58,0x1,0x0,0x0,0x14,0x1,0x0,0x0,0xd8,0x0,0x0,0x0,0x8c,0x0,0x0,0x0,0x48,0x0,0x0,0x0,0x4,0x0,0x0,0x0,0x22,0xfa,0xff,0xff,0x0,0x0,0x9,0x1,0x2c,0x0,0x0,0x0,0x4,0x0,0x0,0x0,0xc,0xfa,0xff,0xff,0x18,0x0,0x0,0x0,0x4,0x0,0x0,0x0,0x1,0x0,0x0,0x0,0xd5,0xff,0xff,0xff,0xff,0xff,0xff,0xff,0x0,0x0,0x0,0x0,0x1,0x0,0x0,0x0,0x1c,0xd4,0x41,0x3e,0x2,0x0,0x0,0x0,0x1,0x0,0x0,0x0,0x6,0x0,0x0,0x0,0x62,0xfa,0xff,0xff,0x0,0x0,0x9,0x1,0x2c,0x0,0x0,0x0,0x4,0x0,0x0,0x0,0x4c,0xfa,0xff,0xff,0x18,0x0,0x0,0x0,0x4,0x0,0x0,0x0,0x1,0x0,0x0,0x0,0x7,0x0,0x0,0x0,0x0,0x0,0x0,0x0,0x0,0x0,0x0,0x0,0x1,0x0,0x0,0x0,0x17,0xf1,0xd3,0x3d,0x2,0x0,0x0,0x0,0x1,0x0,0x0,0x0,0x40,0x0,0x0,0x0,0xa2,0xfa,0xff,0xff,0x0,0x0,0x9,0x1,0x2c,0x0,0x0,0x0,0x4,0x0,0x0,0x0,0x8c,0xfa,0xff,0xff,0x18,0x0,0x0,0x0,0x4,0x0,0x0,0x0,0x1,0x0,0x0,0x0,0x7,0x0,0x0,0x0,0x0,0x0,0x0,0x0,0x0,0x0,0x0,0x0,0x1,0x0,0x0,0x0,0x17,0xf1,0xd3,0x3d,0x4,0x0,0x0,0x0,0x1,0x0,0x0,0x0,0x40,0x0,0x0,0x0,0x1,0x0,0x0,0x0,0x1,0x0,0x0,0x0,0xea,0xfa,0xff,0xff,0x0,0x0,0x9,0x1,0x28,0x0,0x0,0x0,0x4,0x0,0x0,0x0,0xd4,0xfa,0xff,0xff,0x14,0x0,0x0,0x0,0x4,0x0,0x0,0x0,0x1,0x0,0x0,0x0,0x7,0x0,0x0,0x0,0x0,0x0,0x0,0x0,0x1,0x0,0x0,0x0,0x17,0xf1,0xd3,0x3d,0x1,0x0,0x0,0x0,0x40,0x0,0x0,0x0,0x22,0xfb,0xff,0xff,0x0,0x0,0x9,0x1,0x2c,0x0,0x0,0x0,0x4,0x0,0x0,0x0,0xc,0xfb,0xff,0xff,0x18,0x0,0x0,0x0,0x4,0x0,0x0,0x0,0x1,0x0,0x0,0x0,0x7,0x0,0x0,0x0,0x0,0x0,0x0,0x0,0x0,0x0,0x0,0x0,0x1,0x0,0x0,0x0,0x17,0xf1,0xd3,0x3d,0x2,0x0,0x0,0x0,0x1,0x0,0x0,0x0,0x40,0x0,0x0,0x0,0x62,0xfb,0xff,0xff,0x0,0x0,0x9,0x1,0x2c,0x0,0x0,0x0,0x4,0x0,0x0,0x0,0x4c,0xfb,0xff,0xff,0x18,0x0,0x0,0x0,0x4,0x0,0x0,0x0,0x1,0x0,0x0,0x0,0x7,0x0,0x0,0x0,0x0,0x0,0x0,0x0,0x0,0x0,0x0,0x0,0x1,0x0,0x0,0x0,0xaf,0x76,0x84,0x3f,0x2,0x0,0x0,0x0,0x1,0x0,0x0,0x0,0x40,0x0,0x0,0x0,0xa2,0xfb,0xff,0xff,0x0,0x0,0x9,0x1,0x2c,0x0,0x0,0x0,0x4,0x0,0x0,0x0,0x8c,0xfb,0xff,0xff,0x18,0x0,0x0,0x0,0x4,0x0,0x0,0x0,0x1,0x0,0x0,0x0,0x5,0x0,0x0,0x0,0x0,0x0,0x0,0x0,0x0,0x0,0x0,0x0,0x1,0x0,0x0,0x0,0xb7,0x50,0xcd,0x3e,0x4,0x0,0x0,0x0,0x1,0x0,0x0,0x0,0x40,0x0,0x0,0x0,0x1,0x0,0x0,0x0,0xa,0x0,0x0,0x0,0xea,0xfb,0xff,0xff,0x0,0x0,0x9,0x1,0x28,0x0,0x0,0x0,0x4,0x0,0x0,0x0,0xd4,0xfb,0xff,0xff,0x14,0x0,0x0,0x0,0x4,0x0,0x0,0x0,0x1,0x0,0x0,0x0,0x5,0x0,0x0,0x0,0x0,0x0,0x0,0x0,0x1,0x0,0x0,0x0,0xb7,0x50,0xcd,0x3e,0x3,0x0,0x0,0x0,0x1,0x0,0x0,0x0,0x40,0x0,0x0,0x0,0xa,0x0,0x0,0x0,0x2a,0xfc,0xff,0xff,0x0,0x0,0x9,0x1,0x28,0x0,0x0,0x0,0x4,0x0,0x0,0x0,0x14,0xfc,0xff,0xff,0x14,0x0,0x0,0x0,0x4,0x0,0x0,0x0,0x1,0x0,0x0,0x0,0x5,0x0,0x0,0x0,0x0,0x0,0x0,0x0,0x1,0x0,0x0,0x0,0xb7,0x50,0xcd,0x3e,0x3,0x0,0x0,0x0,0x1,0x0,0x0,0x0,0xa,0x0,0x0,0x0,0x40,0x0,0x0,0x0,0x6a,0xfc,0xff,0xff,0x0,0x0,0x9,0x1,0x28,0x0,0x0,0x0,0x4,0x0,0x0,0x0,0x54,0xfc,0xff,0xff,0x14,0x0,0x0,0x0,0x4,0x0,0x0,0x0,0x1,0x0,0x0,0x0,0x80,0xff,0xff,0xff,0xff,0xff,0xff,0xff,0x1,0x0,0x0,0x0,0xb5,0x4b,0xff,0x3e,0x3,0x0,0x0,0x0,0x1,0x0,0x0,0x0,0xa,0x0,0x0,0x0,0x80,0x0,0x0,0x0,0xaa,0xfc,0xff,0xff,0x0,0x0,0x9,0x1,0x2c,0x0,0x0,0x0,0x4,0x0,0x0,0x0,0x94,0xfc,0xff,0xff,0x18,0x0,0x0,0x0,0x4,0x0,0x0,0x0,0x1,0x0,0x0,0x0,0x80,0xff,0xff,0xff,0xff,0xff,0xff,0xff,0x0,0x0,0x0,0x0,0x1,0x0,0x0,0x0,0x22,0xc2,0x90,0x3c,0x3,0x0,0x0,0x0,0x1,0x0,0x0,0x0,0xa,0x0,0x0,0x0,0x80,0x0,0x0,0x0,0x9e,0xfd,0xff,0xff,0x0,0x0,0x2,0x1,0x10,0x0,0x0,0x0,0x9,0x0,0x0,0x0,0x4,0x0,0x0,0x0,0x50,0xff,0xff,0xff,0x1,0x0,0x0,0x0,0x2,0x0,0x0,0x0,0xbe,0xfd,0xff,0xff,0x0,0x0,0x2,0x1,0x10,0x0,0x0,0x0,0x8,0x0,0x0,0x0,0x4,0x0,0x0,0x0,0x70,0xff,0xff,0xff,0x1,0x0,0x0,0x0,0x3,0x0,0x0,0x0,0xde,0xfd,0xff,0xff,0x0,0x0,0x2,0x1,0x10,0x0,0x0,0x0,0x7,0x0,0x0,0x0,0x4,0x0,0x0,0x0,0x90,0xff,0xff,0xff,0x1,0x0,0x0,0x0,0x4,0x0,0x0,0x0,0xfe,0xfd,0xff,0xff,0x0,0x0,0x2,0x1,0x10,0x0,0x0,0x0,0x6,0x0,0x0,0x0,0x4,0x0,0x0,0x0,0xb0,0xff,0xff,0xff,0x1,0x0,0x0,0x0,0x1,0x0,0x0,0x0,0x1e,0xfe,0xff,0xff,0x0,0x0,0x2,0x1,0x10,0x0,0x0,0x0,0x5,0x0,0x0,0x0,0x4,0x0,0x0,0x0,0xd0,0xff,0xff,0xff,0x5,0x0,0x0,0x0,0x1,0x0,0x0,0x0,0x40,0x0,0x0,0x0,0x1,0x0,0x0,0x0,0x1,0x0,0x0,0x0,0x1,0x0,0x0,0x0,0x4e,0xfe,0xff,0xff,0x0,0x0,0x2,0x1,0x14,0x0,0x0,0x0,0x4,0x0,0x0,0x0,0x8,0x0,0x0,0x0,0x4,0x0,0x4,0x0,0x4,0x0,0x0,0x0,0x1,0x0,0x0,0x0,0x2,0x0,0x0,0x0,0x0,0x0,0x16,0x0,0x10,0x0,0x0,0x0,0x6,0x0,0x8,0x0,0x0,0x0,0xc,0x0,0x0,0x0,0x0,0x0,0x0,0x0,0x7,0x0,0x16,0x0,0x0,0x0,0x0,0x0,0x9,0x1,0x3,0x0,0x0,0x0,0x4,0x0,0x0,0x0,0xc4,0xfd,0xff,0xff,0x18,0x0,0x0,0x0,0x4,0x0,0x0,0x0,0x1,0x0,0x0,0x0,0x80,0xff,0xff,0xff,0xff,0xff,0xff,0xff,0x0,0x0,0x0,0x0,0x1,0x0,0x0,0x0,0x67,0x9a,0xcd,0x39,0xbe,0xfe,0xff,0xff,0x0,0x0,0x9,0x1,0x2c,0x1,0x0,0x0,0x2,0x0,0x0,0x0,0x4,0x0,0x0,0x0,0xfc,0xfd,0xff,0xff,0x18,0x0,0x0,0x0,0x4,0x0,0x0,0x0,0x1,0x0,0x0,0x0,0x0,0x0,0x0,0x0,0x0,0x0,0x0,0x0,0x0,0x0,0x0,0x0,0x40,0x0,0x0,0x0,0xd2,0xe3,0x31,0x3b,0x4b,0x40,0x27,0x3b,0xd9,0xa2,0x43,0x3b,0xbc,0x5b,0x26,0x3b,0x92,0x8c,0xfb,0x3a,0xb5,0x3d,0x22,0x3b,0x55,0x10,0x31,0x3b,0x4b,0x6d,0x1e,0x3b,0x44,0x47,0xf,0x3b,0x7,0x90,0x2e,0x3b,0xa7,0x94,0x34,0x3b,0x88,0xa7,0x27,0x3b,0x80,0x67,0x34,0x3b,0x46,0x1,0x29,0x3b,0xf8,0x12,0x1c,0x3b,0xaa,0x76,0xd9,0x3a,0x42,0x3a,0x1c,0x3b,0xe4,0x87,0x28,0x3b,0x54,0xab,0x24,0x3b,0x5d,0x1f,0x37,0x3b,0x63,0x6c,0xfb,0x3a,0x6a,0x80,0x17,0x3b,0xc6,0xeb,0xe,0x3b,0xf7,0xef,0x4,0x3b,0xbe,0x88,0xff,0x3a,0x84,0x80,0x38,0x3b,0xca,0xdb,0x2b,0x3b,0x8a,0x11,0x19,0x3b,0xa8,0x3b,0xa,0x3b,0x86,0xed,0xfd,0x3a,0xa0,0x70,0x2e,0x3b,0x9e,0x9a,0x3a,0x3b,0xf1,0x2f,0x9,0x3b,0xd2,0xe4,0xf8,0x3a,0xff,0x4a,0x15,0x3b,0x25,0xfd,0xd,0x3b,0xb6,0x16,0x16,0x3b,0xea,0x81,0x5,0x3b,0x8c,0x12,0x20,0x3b,0xcf,0xf7,0xf7,0x3a,0xef,0x7c,0xe,0x3b,0x74,0x6b,0x38,0x3b,0xea,0x34,0x3d,0x3b,0xa5,0x7e,0x2c,0x3b,0x8e,0x4,0x18,0x3b,0xf7,0xa6,0x37,0x3b,0x81,0x9f,0x1d,0x3b,0xd8,0xe9,0x21,0x3b,0x46,0x6,0x1e,0x3b,0xfc,0xd,0x39,0x3b,0xd0,0x85,0x37,0x3b,0x7,0xfb,0x15,0x3b,0xfe,0x80,0xf,0x3b,0x4f,0x5d,0x2d,0x3b,0xf8,0xf1,0x2c,0x3b,0xce,0xaf,0xf8,0x3a,0xef,0xfa,0x39,0x3b,0x2f,0xc,0x19,0x3b,0xf6,0x58,0x2c,0x3b,0xee,0x77,0x43,0x3b,0xa,0x4a,0x14,0x3b,0xee,0x1a,0x27,0x3b,0x32,0x55,0x2e,0x3b,0x43,0x75,0x29,0x3b,0x2,0x0,0x0,0x0,0x40,0x0,0x0,0x0,0x80,0x0,0x0,0x0,0x0,0x0,0x16,0x0,0x14,0x0,0x8,0x0,0x6,0x0,0xc,0x0,0x0,0x0,0x10,0x0,0x0,0x0,0x0,0x0,0x0,0x0,0x7,0x0,0x16,0x0,0x0,0x0,0x0,0x0,0x9,0x1,0x40,0x0,0x0,0x0,0x1,0x0,0x0,0x0,0x4,0x0,0x0,0x0,0x54,0xff,0xff,0xff,0x14,0x0,0x0,0x0,0x4,0x0,0x0,0x0,0x1,0x0,0x0,0x0,0x0,0x0,0x0,0x0,0x0,0x0,0x0,0x0,0x6,0x0,0x0,0x0,0xd2,0x61,0x3f,0x3b,0x80,0x7,0xc5,0x3a,0x9c,0xee,0x0,0x3b,0xe1,0x4f,0x91,0x3a,0xad,0x42,0x9e,0x3a,0x4f,0x68,0xc7,0x3a,0x2,0x0,0x0,0x0,0x6,0x0,0x0,0x0,0x40,0x0,0x0,0x0,0xba,0xff,0xff,0xff,0x0,0x0,0x9,0x1,0x2c,0x0,0x0,0x0,0x4,0x0,0x0,0x0,0xa4,0xff,0xff,0xff,0x18,0x0,0x0,0x0,0x4,0x0,0x0,0x0,0x1,0x0,0x0,0x0,0xfe,0xff,0xff,0xff,0xff,0xff,0xff,0xff,0x0,0x0,0x0,0x0,0x1,0x0,0x0,0x0,0xcd,0xa8,0xe,0x3d,0x3,0x0,0x0,0x0,0x1,0x0,0x0,0x0,0xa,0x0,0x0,0x0,0x80,0x0,0x0,0x0,0x0,0x0,0x16,0x0,0x10,0x0,0x8,0x0,0x6,0x0,0x0,0x0,0x0,0x0,0xc,0x0,0x0,0x0,0x0,0x0,0x0,0x0,0x7,0x0,0x16,0x0,0x0,0x0,0x0,0x0,0x9,0x1,0x34,0x0,0x0,0x0,0x10,0x0,0x0,0x0,0xc,0x0,0xc,0x0,0x0,0x0,0x0,0x0,0x4,0x0,0x8,0x0,0xc,0x0,0x0,0x0,0x14,0x0,0x0,0x0,0x4,0x0,0x0,0x0,0x1,0x0,0x0,0x0,0x80,0xff,0xff,0xff,0xff,0xff,0xff,0xff,0x1,0x0,0x0,0x0,0xd,0xc7,0x1c,0x3f,0x3,0x0,0x0,0x0,0x1,0x0,0x0,0x0,0xa,0x0,0x0,0x0,0x80,0x0,0x0,0x0,0x7,0x0,0x0,0x0,0x80,0x0,0x0,0x0,0x64,0x0,0x0,0x0,0x50,0x0,0x0,0x0,0x34,0x0,0x0,0x0,0x24,0x0,0x0,0x0,0x14,0x0,0x0,0x0,0x4,0x0,0x0,0x0,0xa8,0xff,0xff,0xff,0x0,0x0,0x0,0x6b,0x6b,0x0,0x0,0x0,0xb4,0xff,0xff,0xff,0x0,0x0,0x0,0x4a,0x4a,0x0,0x0,0x0,0xc0,0xff,0xff,0xff,0x0,0x0,0x0,0x16,0x16,0x0,0x0,0x0,0xcc,0xff,0xff,0xff,0x0,0x0,0x0,0x27,0x27,0x0,0x0,0x0,0xc,0x0,0x10,0x0,0x7,0x0,0x0,0x0,0x8,0x0,0xc,0x0,0xc,0x0,0x0,0x0,0x0,0x0,0x0,0x9,0x5,0x0,0x0,0x0,0x9,0x0,0x0,0x0,0xf4,0xff,0xff,0xff,0x0,0x0,0x0,0x12,0x12,0x0,0x0,0x0,0xc,0x0,0xc,0x0,0x7,0x0,0x0,0x0,0x0,0x0,0x8,0x0,0xc,0x0,0x0,0x0,0x0,0x0,0x0,0x13,0x13,0x0,0x0,0x0};
