#include <cstdint>

#include "model_step_ssm_int8_har_model_data.h"

alignas(16) const unsigned char g_model_step_ssm_int8_har_model_data[] = {0x1c,0x0,0x0,0x0,0x54,0x46,0x4c,0x33,0x0,0x0,0x12,0x0,0x18,0x0,0x4,0x0,0x8,0x0,0xc,0x0,0x0,0x0,0x10,0x0,0x0,0x0,0x14,0x0,0x12,0x0,0x0,0x0,0x3,0x0,0x0,0x0,0xfc,0x2f,0x0,0x0,0xe0,0x21,0x0,0x0,0x68,0x0,0x0,0x0,0x4,0x0,0x0,0x0,0x2,0x0,0x0,0x0,0x38,0x0,0x0,0x0,0x4,0x0,0x0,0x0,0xd8,0xff,0xff,0xff,0x8,0x0,0x0,0x0,0xa,0x0,0x0,0x0,0x17,0x0,0x0,0x0,0x6b,0x65,0x65,0x70,0x5f,0x73,0x74,0x61,0x62,0x6c,0x65,0x68,0x6c,0x6f,0x5f,0x63,0x6f,0x6e,0x73,0x74,0x61,0x6e,0x74,0x0,0x8,0x0,0xc,0x0,0x4,0x0,0x8,0x0,0x8,0x0,0x0,0x0,0x8,0x0,0x0,0x0,0x9,0x0,0x0,0x0,0x13,0x0,0x0,0x0,0x6d,0x69,0x6e,0x5f,0x72,0x75,0x6e,0x74,0x69,0x6d,0x65,0x5f,0x76,0x65,0x72,0x73,0x69,0x6f,0x6e,0x0,0xb,0x0,0x0,0x0,0x6c,0x21,0x0,0x0,0x58,0x1d,0x0,0x0,0x44,0x19,0x0,0x0,0x30,0x11,0x0,0x0,0xc,0x11,0x0,0x0,0xf8,0x10,0x0,0x0,0xe4,0x8,0x0,0x0,0x50,0x8,0x0,0x0,0x3c,0x0,0x0,0x0,0x18,0x0,0x0,0x0,0x4,0x0,0x0,0x0,0xe2,0xd9,0xff,0xff,0x4,0x0,0x0,0x0,0x4,0x0,0x0,0x0,0x74,0x72,0x75,0x65,0xf2,0xd9,0xff,0xff,0x4,0x0,0x0,0x0,0x10,0x0,0x0,0x0,0x32,0x2e,0x30,0x2e,0x30,0x0,0x0,0x0,0x0,0x0,0x0,0x0,0x0,0x0,0x0,0x0,0x0,0x0,0x0,0x0,0x12,0xda,0xff,0xff,0x4,0x0,0x0,0x0,0x0,0x8,0x0,0x0,0x0,0xec,0x31,0x19,0x5c,0x7f,0x3,0x17,0x3d,0x41,0x38,0x12,0xdd,0x3c,0x18,0xe9,0xe4,0x19,0xec,0xf1,0x14,0xe7,0x3a,0x60,0xfa,0x52,0x3,0xa,0x20,0xf6,0xf6,0x1b,0xb,0x20,0x2f,0x1f,0x6f,0xdf,0xd9,0xfa,0xd3,0x1f,0xfc,0x20,0xd3,0xfc,0x34,0x26,0xe9,0x6,0x14,0x31,0x19,0x43,0x6,0xee,0xd6,0x1b,0x63,0x26,0x20,0x30,0x19,0x56,0x59,0x30,0xdd,0xe,0xcf,0xcc,0x41,0x15,0x44,0x62,0xf,0x36,0xf8,0x4e,0x12,0x2,0x1e,0xde,0xd4,0x18,0x22,0x8,0x4c,0xfa,0xed,0x29,0xfd,0x16,0x14,0xf2,0x41,0x1d,0x43,0x4,0xe4,0xd8,0x28,0xe,0x1e,0xde,0x15,0x2c,0xa,0x0,0xf6,0x19,0xe,0x1d,0x22,0x62,0xde,0x10,0x54,0x37,0x2f,0x22,0x3d,0x7a,0x22,0x6,0x1c,0x18,0xbc,0x60,0xe3,0xdb,0xe8,0xec,0xb4,0xbe,0xc0,0xcd,0xbf,0xf,0xf4,0xe7,0x5,0xe3,0x10,0xbe,0xda,0xeb,0xce,0xde,0xc,0xdd,0xf8,0xea,0xc7,0xde,0xdf,0xec,0xd1,0x1b,0xe1,0xb3,0xc1,0xd4,0xbe,0x14,0xa4,0xca,0xcd,0x4,0xde,0xcc,0xa,0xfb,0x5,0xed,0xd9,0xf5,0x0,0xdb,0xb8,0xf4,0x13,0xf8,0xe1,0xd6,0xd,0x5,0x81,0xf7,0xb7,0xde,0x3,0xe6,0xef,0x14,0xef,0x6,0x9,0xe1,0xb9,0xd0,0xd7,0xb8,0x13,0xdb,0xf2,0xe4,0xfb,0xf1,0xf2,0x38,0xe,0xed,0xe6,0xd9,0xf8,0xe4,0xdb,0x15,0xd7,0xfc,0x1c,0x1c,0xfa,0xb3,0x19,0x1,0x1d,0xd7,0xb,0xb8,0xf8,0xde,0x3,0xdc,0xd4,0x4,0x17,0x2a,0xda,0xef,0xda,0xee,0x5,0xaf,0xd4,0x19,0xbd,0xbb,0xa8,0xa0,0x21,0xd9,0x29,0xe8,0xf,0xbd,0x0,0x19,0xeb,0x25,0x72,0x46,0x9,0x48,0x55,0x39,0x3d,0x2f,0x2e,0xfd,0xeb,0x1e,0xfa,0x44,0x44,0x37,0x23,0x28,0x11,0xa,0x40,0x5b,0x18,0x25,0x60,0x7,0x37,0x20,0x12,0x38,0x38,0x27,0x22,0x8,0x30,0xe8,0xf8,0x41,0x6,0x2b,0xda,0x14,0xf9,0xc,0x29,0x39,0x53,0x4d,0x1b,0x1f,0x0,0x12,0xf9,0xef,0x62,0xf,0xe,0x3a,0xf8,0x5,0x3f,0xfb,0xef,0xf3,0xff,0xd6,0x43,0x4,0x40,0x0,0x21,0xeb,0x23,0x47,0x34,0x3c,0x1b,0xd0,0x34,0x2f,0x19,0xa,0x30,0x1e,0x16,0xc,0xf4,0x20,0xf6,0x7,0x3a,0xfd,0x19,0x1f,0xe1,0x1b,0x3,0x28,0x23,0x2e,0xd,0x11,0x11,0x28,0xf8,0xea,0xfa,0x4,0x53,0x3a,0x29,0x23,0x2a,0xc,0x18,0xa,0x7f,0x25,0xec,0x28,0x24,0xe9,0xdb,0x4e,0x4b,0xfe,0x14,0x43,0x47,0x62,0x9,0x46,0x30,0x1d,0xf4,0xe6,0x5,0x10,0xf1,0x40,0xf1,0x11,0x49,0x1b,0x45,0xe9,0x3b,0x5e,0xc,0x1b,0xf3,0x7f,0x1c,0x55,0x27,0x66,0xfb,0x20,0x17,0x24,0x5e,0x32,0xea,0x40,0xf4,0xb,0x2a,0xf,0xa,0xe8,0x4f,0xdc,0x3f,0xe3,0x13,0x1a,0x44,0x12,0x22,0x3a,0xf2,0x13,0x30,0x50,0x37,0x45,0x14,0x1d,0x53,0xd4,0x24,0xa,0x30,0x19,0x4a,0xff,0x73,0x2d,0xee,0xd7,0xf1,0x27,0xf4,0xf,0x23,0xc6,0x35,0x2b,0xd,0x24,0x33,0xd5,0x1d,0x16,0x3d,0xc,0x28,0xe3,0x51,0x5,0xf6,0x33,0xdb,0x2d,0x15,0x6d,0x58,0x18,0x30,0x30,0x32,0x1e,0xec,0xd6,0x1f,0xf3,0x5a,0x25,0xf,0x3a,0x4e,0xe,0x4d,0xf6,0x4e,0x27,0x34,0x2e,0x20,0xf2,0x28,0x38,0x4d,0xfb,0x7,0x20,0x68,0x77,0x6,0x3f,0x4e,0x3d,0x3f,0xf2,0xe8,0x23,0xf6,0xeb,0x0,0x47,0xfd,0xf9,0x15,0x1e,0x2e,0x4a,0xe,0x27,0xa,0xb,0x42,0xe5,0xb,0x51,0xe8,0xf9,0x6,0xdb,0x11,0x9,0xea,0xf9,0xf7,0x13,0xe1,0x29,0x21,0x12,0x28,0x27,0x3e,0x37,0xd,0xff,0x40,0x6,0x20,0x15,0x3b,0x25,0x78,0x18,0x1f,0x4b,0x2b,0x4e,0x10,0xfd,0xe8,0x15,0x5,0x13,0x16,0x15,0x7f,0x9,0x2b,0xde,0x23,0x40,0xf9,0x4b,0xf,0x12,0xeb,0xf5,0x25,0x38,0xf6,0x7,0x2e,0x41,0x16,0x10,0xfe,0x19,0x31,0x42,0x34,0x3f,0x35,0xf2,0x48,0x4b,0x47,0x16,0x2a,0x1c,0x1c,0x47,0x4,0x8,0xf,0xb,0x23,0x50,0x36,0x4e,0x37,0x29,0x2a,0x3b,0x69,0x5c,0xfe,0x16,0x2c,0x3e,0x7,0x26,0xdc,0x22,0x3,0x3,0x96,0xbe,0xc4,0xd0,0xe9,0xd7,0xcb,0xff,0x21,0x12,0x9,0xc4,0xf5,0xc3,0xf6,0x6,0xc9,0xc4,0xd4,0xa2,0xda,0xef,0xd1,0xad,0xa0,0xe4,0x1a,0xea,0x5,0x4,0xf9,0xce,0xc9,0xd5,0xeb,0xde,0xc9,0xec,0xce,0xff,0xf8,0xe9,0xda,0x31,0xb,0xda,0xda,0xe6,0xe9,0xcd,0xde,0xd2,0xf5,0xd7,0x92,0xae,0xda,0xe3,0xf5,0xba,0xbd,0xda,0x39,0xea,0x9,0xe1,0xe1,0xed,0x8b,0xe8,0xdf,0xd9,0xf6,0xb7,0xd8,0xc7,0xf3,0xf9,0xd4,0xde,0xee,0xe7,0xbb,0xfd,0xc7,0x3,0x13,0xc5,0xe1,0xb,0xc5,0xdc,0xbb,0xc3,0xe1,0xf3,0xcf,0xc9,0xad,0xff,0xd3,0xbc,0xdd,0xe9,0xc,0xf2,0x15,0xc5,0xb2,0xb0,0xc7,0xe2,0xe1,0xf7,0xe8,0xc3,0x81,0xcc,0xc,0x17,0x1a,0x4,0xea,0xc3,0xa9,0xf6,0x16,0xbe,0x87,0x81,0xb5,0xbe,0xc4,0xcc,0xc1,0xe9,0x4,0xed,0xff,0xbf,0xdd,0x4,0xbd,0xb2,0xbe,0xf7,0xc6,0xb1,0xfc,0xaa,0xfa,0xda,0xa7,0x1b,0xde,0xdf,0xfc,0xe6,0xfb,0xf1,0xe0,0xd9,0xe4,0xda,0xc5,0xe9,0xf6,0xeb,0xe6,0xfe,0xa1,0xf6,0xd5,0xa3,0xaf,0xfd,0xca,0xfb,0xf5,0xea,0xea,0x12,0x84,0xec,0xd5,0xdd,0xd7,0xa9,0xb3,0x19,0x2,0xb7,0xe6,0x21,0xc1,0xaa,0xab,0xa4,0xeb,0xe1,0xf5,0xe9,0xc2,0xb1,0x1,0x3f,0xe4,0xba,0xc5,0xd7,0xb7,0xce,0xf5,0xf0,0xdf,0xea,0xd8,0xf3,0xf5,0xa8,0xf9,0xf8,0xe9,0xf3,0xab,0xa0,0xb4,0xf4,0x19,0xda,0xcc,0xc3,0xf,0xce,0xf1,0xa5,0xd1,0xc7,0xd7,0xab,0x9b,0xf6,0x2,0xe4,0x9a,0xa1,0xb,0xfa,0xd4,0xe6,0x2,0xa5,0x3c,0x0,0x6,0x8,0x7e,0x8,0x3f,0x55,0x27,0xf5,0x9,0x1a,0x3,0x17,0xec,0x7,0xf4,0x20,0x15,0xe5,0xe9,0x6b,0x1,0x3a,0x24,0xc,0x1,0xf8,0x20,0x8,0xdf,0x44,0x49,0x26,0x4f,0x12,0x31,0x12,0x4f,0x4,0x55,0x2d,0xe9,0x0,0xe3,0xf4,0x22,0x1a,0xdf,0x2f,0x26,0xf8,0x45,0x49,0x4,0xfe,0xb,0x15,0x7f,0x1e,0x6e,0x2e,0x3f,0x64,0x2b,0xd,0xca,0x34,0xda,0x24,0x32,0x58,0x34,0xd,0x17,0x53,0x1,0x15,0xf1,0xf5,0x35,0xf7,0x17,0x37,0x5d,0x13,0x21,0x20,0x50,0x42,0xde,0x14,0x6,0xc8,0xe8,0x69,0x4d,0x41,0xf4,0xf6,0x4b,0x68,0x5d,0x21,0xed,0xfb,0x10,0xed,0x13,0x2,0x40,0x71,0x35,0x19,0xea,0x30,0x6f,0x30,0x6f,0xfd,0x7a,0x32,0x4c,0xf7,0x1e,0xde,0xd3,0x3f,0xf2,0x10,0x10,0x11,0x8a,0xb6,0xef,0x7,0xc1,0x0,0x8,0xff,0x17,0xb,0x9,0xbf,0xfd,0xe3,0xeb,0x18,0xd9,0x22,0xf4,0xcd,0xd8,0xc8,0x7,0xf5,0xb9,0xd4,0x1a,0xc4,0xff,0x14,0xed,0x1b,0xef,0xfb,0x23,0x3,0x22,0xde,0xe,0x2,0x1,0xca,0xef,0x27,0xe,0xd6,0xf1,0xd0,0xf4,0xc8,0xeb,0xdc,0xf6,0xb,0x8e,0xf4,0xf4,0xcd,0xf,0xeb,0x7,0xf0,0x20,0xf7,0xdd,0x8,0xd6,0xe8,0xd0,0xec,0xc,0x17,0xd,0xd0,0x1d,0xec,0x10,0x3a,0xec,0xc6,0xe9,0xe3,0xc5,0xe2,0x2,0xf7,0xea,0xe5,0x3,0x21,0xc6,0xd0,0xe9,0xc7,0xd8,0xf2,0xf4,0xd1,0xe0,0xd3,0xe6,0xf0,0xf0,0xf3,0xeb,0x1,0xfe,0xf4,0xaf,0xc8,0x1a,0xb3,0xbd,0xcc,0xe4,0xf6,0x81,0xe6,0xd8,0xf5,0xf1,0xe0,0xf4,0xd9,0x49,0x1,0x16,0x5,0x76,0x7e,0x23,0x72,0x5b,0x53,0x17,0x29,0xfa,0x40,0x25,0x13,0xd3,0x30,0x25,0x1f,0x26,0x16,0x1a,0x22,0x34,0x33,0x9,0x33,0x3b,0x2f,0xf2,0x74,0x4f,0x15,0x13,0x16,0x2a,0xe5,0x3d,0xef,0x4b,0x43,0x40,0x1,0xe6,0x43,0x22,0x1d,0xfa,0xa,0x4c,0x1f,0x29,0xf4,0xcb,0x7,0xe3,0xfc,0x4e,0x6a,0x15,0x10,0x26,0x40,0x15,0x35,0xe8,0x2d,0xcd,0x15,0x71,0x53,0x5a,0x3c,0xd6,0x15,0x45,0x1a,0x27,0x39,0xe5,0xc,0xf,0x57,0xdf,0x49,0x2f,0x2b,0x16,0x2,0x2b,0xf6,0xc,0xfb,0x36,0x47,0x2d,0x7,0xee,0xe3,0x12,0x22,0x47,0xfb,0x36,0x46,0xfe,0x42,0x21,0x19,0xf2,0xb,0x63,0x70,0xfd,0x51,0x47,0xe3,0x32,0x62,0x67,0x5a,0x2c,0x17,0x1f,0x46,0xe9,0x7f,0x20,0x4,0x15,0x1f,0x7f,0x4a,0x1d,0x28,0x12,0x17,0x2f,0xf5,0xd,0xe,0x2e,0x1a,0x7,0x2f,0xf5,0x10,0x1c,0x27,0xf5,0x53,0x14,0x16,0x2b,0x2a,0x49,0x15,0x17,0x32,0x22,0x1f,0x2a,0xe7,0x47,0x24,0x1f,0x23,0x27,0x1e,0x1d,0xfb,0xf2,0xfd,0x3e,0x1b,0x32,0x4a,0x2d,0x29,0x33,0x2b,0x8,0xa,0xf1,0x15,0x39,0x24,0x21,0xfb,0xf9,0x10,0x18,0x0,0xe7,0x31,0x6,0xfe,0x23,0x42,0x2c,0xa,0xfc,0x2b,0x1b,0x22,0xe8,0xe,0x2d,0xf6,0x1f,0x2e,0x2d,0x30,0x52,0x1f,0x26,0x3d,0xf0,0x1a,0x31,0x24,0x7,0x31,0x5,0x45,0x10,0xf8,0x1d,0x52,0x26,0x5,0x2f,0x2a,0x21,0x2b,0xfe,0x11,0xf9,0x4d,0x4b,0xe,0x1d,0x18,0x1a,0xe9,0x21,0x27,0x47,0x39,0x0,0x18,0xff,0x36,0x23,0x48,0x44,0xf5,0xc,0x2b,0x7f,0x26,0x32,0x48,0x27,0xf1,0xb,0x5,0x1e,0x29,0xfd,0x3,0x17,0x30,0x0,0x7,0x1f,0x39,0x4,0x3c,0xff,0x7,0x5,0x1f,0x39,0x6,0x5,0x3f,0x12,0x34,0x28,0xec,0x54,0x13,0x1a,0x1e,0x20,0x2f,0xd,0x1e,0xed,0x29,0xf8,0xe0,0xc,0x2,0xc,0x15,0x7,0x6,0x1f,0x1d,0xed,0x20,0x35,0xfb,0x41,0x13,0x9,0x42,0x46,0x21,0x3,0x1d,0xe1,0x20,0x47,0x3c,0x25,0x1e,0x5,0xc,0x15,0x3f,0xed,0x1f,0xf1,0xe7,0xff,0x29,0x22,0x40,0x2f,0xfb,0x34,0xc,0xe0,0xe,0x19,0xe8,0xfa,0x17,0x9,0xd,0xfe,0xa,0x9,0x4d,0x21,0xff,0x22,0x44,0x18,0xf9,0xe1,0x1b,0x3,0x27,0x2e,0x40,0xf2,0x3f,0x48,0x7,0x2b,0x11,0x3d,0x4e,0x2a,0xe9,0xea,0xf2,0xea,0x28,0x23,0xf7,0xea,0xf9,0x7f,0x30,0xec,0xf7,0x39,0x1e,0x27,0x1a,0x1f,0xa,0x2e,0x3d,0x14,0x1f,0x2f,0x12,0x2b,0xd,0x22,0x29,0x12,0x4f,0xfe,0x13,0x3b,0x2c,0x7,0x2f,0xfd,0x9,0x25,0x5,0x40,0xfa,0xf,0xd,0x5,0x33,0x20,0xf6,0x24,0x2f,0x10,0x1c,0x2c,0x26,0x28,0xf5,0xfe,0xd,0xef,0xef,0x14,0x30,0x58,0xf2,0x15,0xf6,0x1,0xfe,0x2d,0x27,0x8,0xf,0x12,0xfc,0x24,0xa,0x67,0x1d,0xf5,0x2e,0x7,0x19,0xf4,0x22,0x8,0x5,0x4,0x0,0x0,0xc,0x3b,0xed,0x23,0x3e,0x10,0xd,0xff,0xf,0x24,0xfb,0x32,0x2b,0x13,0x1a,0x24,0x2d,0x29,0x4,0xe8,0x4a,0xb,0x34,0x1e,0xe8,0x1f,0x43,0xd,0x37,0x30,0x50,0x4a,0x2c,0xd,0xfa,0x51,0x47,0x20,0x18,0x1b,0xf1,0xdd,0x55,0xdd,0xff,0x6,0xf1,0x81,0x98,0xc1,0xdf,0xd6,0xf4,0xc9,0x1b,0xd2,0xc8,0x12,0xed,0xe0,0x5,0xe6,0xc5,0xd9,0xea,0xd2,0x98,0xe0,0xb9,0xfc,0xf2,0xa6,0xdc,0xf7,0xf0,0xd4,0xd0,0xc0,0xd6,0xa4,0xa5,0xd5,0xe,0xbd,0xbc,0xdb,0xee,0x11,0xe2,0xb8,0x1a,0xca,0xfb,0xdc,0xc5,0xd2,0x1,0xcb,0xdc,0x7,0xcc,0xca,0xe1,0xa9,0xf4,0xbd,0xbe,0xb6,0xe,0xfc,0xea,0xdd,0xf3,0xd0,0xaf,0x9f,0xe4,0x3,0xe5,0x11,0xea,0x17,0xea,0xd7,0x44,0x3,0xd2,0xa9,0xbb,0xb1,0x12,0xc5,0xcc,0xf5,0xe6,0xc8,0xdd,0x26,0xc2,0xb9,0xc6,0x8,0xd8,0xd4,0xce,0xbe,0xc9,0xed,0xce,0xee,0xf5,0xf7,0xec,0xd,0x9a,0xd3,0xe5,0xd9,0xae,0xd5,0xb,0xc9,0x9b,0x8b,0xf7,0xf1,0xf0,0xea,0xec,0xd7,0xc3,0x43,0xff,0x1f,0xfd,0x7f,0x32,0x4,0x5,0x36,0xfa,0x2e,0xef,0xe1,0xff,0xe7,0x1c,0xeb,0x39,0xf5,0x16,0x2c,0x16,0xfa,0x49,0x39,0x26,0x1f,0x26,0x8,0x10,0xe9,0x52,0x20,0x34,0x16,0xe1,0x48,0x22,0xe8,0x2e,0xec,0x3c,0xc,0x21,0x11,0x24,0x3a,0xe9,0xe9,0xf4,0x4e,0x30,0x3b,0xf3,0xda,0xfa,0xf0,0xf4,0x57,0x5,0x33,0x27,0x2f,0x3a,0x37,0x1a,0xd9,0xfe,0x1b,0xdf,0x26,0x21,0x2e,0x15,0xe5,0xf0,0x1,0x2a,0x33,0xfe,0xf0,0x6,0x10,0xf0,0xf2,0x1,0x9,0xf6,0x36,0xff,0x27,0x0,0xda,0x0,0x2a,0x20,0xf4,0x3c,0x1b,0xfc,0x3,0x3e,0x2,0xe8,0xe4,0x12,0x13,0x7,0x2a,0xe2,0xb,0xd,0x3d,0x37,0xf4,0x4b,0x49,0xed,0x30,0x2f,0x7a,0x48,0xde,0xfc,0xe6,0xfe,0x1,0x37,0xc8,0x12,0x16,0xaf,0xa2,0xc5,0xd5,0xf9,0xbc,0xf,0xbd,0x27,0xc7,0xd7,0xbe,0xed,0xc8,0xc5,0xed,0x1e,0xc0,0x5,0xff,0xb1,0xba,0xb2,0xd2,0xf5,0x98,0xb,0xe6,0xbc,0xc1,0xbb,0xc3,0xfe,0x83,0xfc,0x6,0xf2,0xf4,0xa1,0xcf,0x2,0x29,0xee,0xb1,0x4,0x1c,0xdb,0xde,0xff,0xa3,0xb3,0xf8,0xd9,0xbe,0x15,0xbf,0xd1,0xda,0xe0,0xd0,0xf5,0xc8,0x2b,0xda,0x17,0xc9,0x2b,0xb4,0xee,0xcf,0xa3,0xc7,0x1,0xe7,0xc4,0xf4,0x10,0xe,0x18,0xfc,0xc0,0xc8,0x1f,0xeb,0xde,0x7,0x23,0x1f,0xd2,0xd2,0xf5,0xdf,0xd3,0xd0,0x97,0xde,0xc9,0xb5,0xe4,0xd3,0xc4,0xfa,0xd,0xd1,0xdb,0x15,0xdf,0xdb,0xdb,0xaa,0xf0,0xfd,0xb5,0xaa,0x15,0xbd,0xc6,0xae,0xe8,0x11,0xe8,0xd8,0xde,0x1f,0x81,0x0,0x0,0x0,0x0,0x22,0xe2,0xff,0xff,0x4,0x0,0x0,0x0,0x80,0x0,0x0,0x0,0x53,0x50,0x54,0x4e,0x53,0x47,0x6e,0x66,0x5d,0x54,0x44,0x57,0x40,0x3d,0x44,0x4f,0x3d,0x44,0x44,0x45,0x5e,0x5a,0x4d,0x62,0x61,0x5a,0x60,0x78,0x6a,0x48,0x43,0x42,0x41,0x3b,0x3c,0x6a,0x61,0x33,0x48,0x40,0x41,0x61,0x3d,0x4e,0x55,0x41,0x65,0x44,0x54,0x4b,0x59,0x5b,0x45,0x37,0x4c,0x4f,0x4d,0x52,0x7c,0x6f,0x4c,0x55,0x4c,0x5e,0x7f,0x50,0x4b,0x49,0x47,0x48,0x33,0x4c,0x51,0x38,0x47,0x4d,0x3a,0x57,0x50,0x65,0x57,0x4d,0x56,0x3c,0x35,0x4d,0x39,0x3c,0x2f,0x49,0x54,0x3c,0x4a,0x3a,0x45,0x44,0x4e,0x67,0x3c,0x5d,0x3d,0x64,0x5f,0x55,0x3d,0x4b,0x4b,0x4f,0x3a,0x5b,0x1a,0x4b,0x3f,0x3c,0x3d,0x4b,0x59,0x3c,0x55,0x4f,0x5a,0x50,0x58,0x4f,0x3d,0x43,0x7b,0x4b,0x0,0x0,0x0,0x0,0xb2,0xe2,0xff,0xff,0x4,0x0,0x0,0x0,0x0,0x8,0x0,0x0,0x73,0x74,0x7b,0x6d,0x77,0x50,0x5b,0x74,0x5f,0x74,0x78,0x7c,0x7e,0x5c,0x75,0x78,0x6d,0x75,0x79,0x7c,0x59,0x73,0x3b,0x79,0x77,0x6b,0x78,0x76,0x76,0x63,0x67,0x78,0x72,0x70,0x78,0x71,0x79,0x72,0x4f,0x6d,0x7a,0x75,0x79,0x47,0x9,0x66,0x77,0x78,0x7d,0x64,0x6c,0x74,0x7d,0x62,0x5d,0x71,0x6a,0x75,0x57,0x74,0x6e,0x6f,0x7e,0x58,0x7c,0x68,0x7b,0x51,0x7d,0x73,0x77,0x7d,0x74,0x6a,0x72,0x7c,0x79,0x70,0x7c,0x6d,0x74,0x76,0x7c,0x74,0x5f,0x7c,0x71,0x64,0x75,0x7b,0x67,0x33,0x78,0x74,0x75,0x79,0x7d,0x79,0x75,0x73,0x74,0x6e,0x6f,0x7b,0x75,0x79,0x70,0x7a,0x6d,0x7a,0x72,0x77,0x75,0x53,0x74,0x7a,0x7e,0x4c,0x7b,0x7b,0x69,0x6f,0x74,0x79,0x5f,0x5b,0x52,0x7d,0x6a,0x7d,0x78,0x6d,0x79,0x69,0x76,0x6c,0x7b,0x71,0x7a,0x7e,0x70,0x7c,0x6d,0x7e,0x7c,0x70,0x76,0x6f,0x74,0x49,0x4e,0x7a,0x64,0x7b,0x52,0x7a,0x68,0x77,0x75,0x20,0x73,0x73,0x75,0x79,0x7d,0x74,0x4d,0x63,0x7d,0x7d,0x7d,0x77,0x45,0x72,0x6f,0x74,0x78,0x78,0x63,0x45,0x78,0x66,0x6f,0x7c,0x7e,0x7c,0x7c,0x79,0x71,0x69,0x78,0x5d,0x6a,0x68,0x7c,0x7b,0x77,0x65,0x75,0x79,0x67,0x6f,0x75,0x76,0x72,0x71,0x79,0x59,0x6a,0x69,0x7c,0x6e,0x74,0x35,0x6e,0x31,0x73,0x6a,0x60,0x69,0x79,0x7c,0x70,0x77,0x48,0x7b,0x74,0x72,0x79,0x76,0x7c,0x71,0x7c,0x72,0x6b,0x7c,0x2e,0x6d,0x6c,0x79,0x79,0x73,0x61,0x75,0x66,0x7c,0x7c,0x7c,0x78,0x7b,0x74,0x74,0x75,0x72,0x7a,0x73,0x7a,0x7c,0x67,0x77,0x7a,0x67,0x60,0x76,0x71,0x78,0x73,0x57,0x7a,0x61,0x64,0x75,0x61,0x73,0x74,0x5a,0x7c,0x77,0x79,0x79,0x78,0x5c,0x54,0x68,0x71,0x7a,0x5d,0x62,0x5d,0x73,0x6b,0x7c,0x28,0x69,0x77,0x79,0x57,0x52,0x7d,0x73,0x43,0x6b,0x77,0x7b,0x79,0x71,0x72,0x77,0x78,0x58,0x6c,0x5c,0x78,0x7c,0x5c,0x79,0x77,0x79,0x6e,0x71,0x75,0x6f,0x78,0x7,0x78,0x4e,0x45,0x6e,0x75,0x5f,0x66,0x79,0xc6,0x1d,0x7a,0x55,0x6b,0x6a,0x5f,0x7d,0x52,0x7b,0x7b,0x66,0x78,0x79,0x77,0x65,0x76,0x79,0x7e,0x79,0x7b,0x65,0x6a,0x7b,0x7a,0x7c,0x70,0x7a,0x3b,0x79,0x73,0x79,0x47,0x74,0x7c,0x56,0x7a,0x76,0x5d,0x7a,0x7b,0x78,0x7e,0x78,0x70,0x70,0x5e,0x7b,0x7d,0x78,0x78,0x7c,0x43,0x72,0x72,0x7c,0x65,0x72,0x73,0x74,0x4a,0x75,0x7a,0x75,0x76,0x68,0x70,0x76,0x16,0x7c,0x77,0x75,0x7b,0x67,0x4e,0x69,0x64,0x20,0x64,0x72,0x7a,0x70,0x55,0x64,0x6d,0x78,0x78,0x7a,0x74,0x6f,0x6c,0x6a,0x7e,0x63,0x67,0x78,0x76,0x7b,0x7c,0x74,0x6a,0x7c,0x5e,0x73,0x7c,0x7c,0x4c,0x7b,0x65,0x7e,0x6c,0x75,0x6c,0x6c,0x79,0x3,0x6e,0x7e,0x7a,0x72,0x78,0x7a,0x6e,0x75,0x70,0x63,0x6d,0x7a,0x74,0x78,0x72,0x74,0x77,0x3d,0x6f,0x57,0x6d,0x79,0x6e,0x74,0x50,0x66,0x6c,0x6d,0x72,0x9,0x64,0x6b,0x7b,0x60,0x72,0x78,0x7a,0x63,0x6d,0x68,0x7c,0x73,0x78,0x66,0x77,0x77,0x7d,0x71,0x75,0x4e,0x7c,0x76,0x72,0x58,0x78,0x7d,0x39,0x6b,0x79,0xf,0x69,0x61,0x7d,0x72,0x7b,0x6b,0x6f,0x66,0x6c,0x78,0x5c,0x58,0x58,0x6f,0x1d,0x68,0x71,0x79,0x71,0xfd,0x7b,0x7e,0x77,0x6d,0x73,0x5e,0x57,0x7d,0x7c,0x75,0x71,0x6e,0x58,0x62,0x55,0x67,0x7a,0x7d,0x5e,0x5e,0x56,0x72,0x3d,0x77,0x76,0x7c,0x69,0x6e,0x7a,0x7c,0x6f,0x75,0x79,0x79,0x6e,0x75,0x73,0x66,0x75,0x6a,0x76,0x6e,0x6c,0x6b,0x7b,0x76,0x79,0x74,0x72,0x70,0x7e,0x73,0x77,0x78,0x7d,0x5e,0x7c,0x79,0x7b,0x7c,0x68,0x7a,0x7a,0x60,0x7d,0x73,0x79,0x7b,0x72,0x78,0x73,0x6a,0x72,0x5e,0xfb,0x6e,0x77,0x72,0x71,0x5f,0x3b,0x71,0x75,0x69,0x7b,0x6d,0x4b,0x6f,0x73,0x6d,0x75,0x7d,0x76,0x79,0x7d,0x75,0x7c,0x6e,0x6e,0x66,0x5e,0x4c,0x5b,0x65,0x68,0x7a,0x6c,0x79,0x58,0x7a,0x73,0x78,0x5b,0x78,0x7b,0x7d,0x6f,0x75,0x6e,0x5a,0x6c,0x6e,0x6c,0x75,0x76,0x60,0x7c,0x74,0x6e,0x30,0x69,0x6f,0x79,0x7c,0x55,0x7b,0x61,0x6a,0x7a,0x71,0x7b,0x74,0x4a,0x7c,0x6d,0x69,0x67,0x6f,0x55,0x74,0xc7,0x63,0x68,0x74,0x7b,0x6c,0x7b,0x76,0x7a,0x79,0x71,0x70,0x6c,0x6f,0x7c,0x6a,0x6e,0x7b,0x7b,0x7b,0x77,0x75,0x66,0x72,0x79,0x60,0x5a,0x7a,0x73,0x71,0x7c,0x56,0x72,0x6d,0x60,0x7b,0x63,0x79,0x3b,0x6c,0x57,0x70,0x6a,0x79,0x75,0x7d,0x5e,0x56,0x69,0x7b,0x65,0x63,0x4c,0x76,0x74,0x7a,0x48,0x79,0x70,0x7c,0x5a,0x7b,0x78,0x76,0x76,0x7b,0x6c,0x62,0x78,0x7a,0x7e,0x7c,0x77,0x5d,0x5d,0x70,0x6c,0x76,0x75,0x72,0x7c,0x6d,0x63,0x73,0x7a,0x7c,0x75,0x7c,0x59,0x72,0x76,0x7a,0x77,0x5d,0x77,0x71,0x43,0x7a,0x75,0x77,0x77,0x71,0x78,0x7e,0x78,0x7d,0x7a,0x7a,0x7c,0x6c,0x71,0x6b,0x26,0x7a,0x7a,0x73,0x72,0x7c,0x7b,0x75,0x76,0x76,0x68,0x75,0x75,0x77,0xae,0x7c,0x7c,0x39,0x72,0xfa,0x6f,0x7c,0x7e,0x7d,0x70,0x74,0x79,0x78,0x6d,0x7e,0x62,0x7c,0x79,0x77,0x7e,0x74,0x73,0x5a,0x77,0x76,0x68,0x77,0x7d,0x73,0x6b,0x7c,0x78,0x74,0x7b,0x79,0x56,0x3e,0x4f,0x79,0x7d,0x58,0x70,0x6c,0x75,0x70,0x7c,0x76,0x77,0x71,0x77,0x79,0x7b,0x71,0x79,0x68,0x7c,0x70,0x73,0x6d,0x73,0x7a,0x79,0x6f,0x7d,0x7c,0x65,0x40,0x4c,0x71,0x74,0x7c,0x30,0x75,0x68,0x7b,0x79,0x7a,0x10,0x59,0x6e,0x64,0x7b,0x75,0x78,0x79,0x2c,0x67,0x76,0x60,0x7b,0x66,0x7b,0x59,0x45,0x65,0x7e,0x5f,0x77,0x66,0x4c,0x77,0x66,0x72,0x33,0x7d,0x6a,0x6b,0x67,0x73,0x72,0x76,0x6e,0x7d,0x65,0x7d,0x6f,0x79,0x7b,0x72,0x7b,0x7a,0x6a,0x6d,0x62,0x77,0x6f,0x74,0x75,0x71,0x6d,0x75,0x79,0x76,0x6c,0x77,0x76,0x7c,0x3a,0x79,0x7e,0x7b,0x63,0x5f,0x80,0x75,0x5c,0x79,0x6a,0x6d,0x65,0x7e,0x7a,0x62,0x74,0x7b,0x7b,0x73,0x54,0x7a,0x79,0x7a,0x5f,0x54,0x71,0x6b,0x73,0x7b,0x7b,0x7a,0x7c,0x75,0x73,0x75,0x57,0x75,0x78,0x7a,0x7a,0x66,0x64,0x63,0x7c,0x7b,0x7d,0x73,0x7a,0x79,0x69,0x4f,0x70,0x69,0x7d,0x7c,0x42,0x71,0x73,0x68,0x79,0x7e,0x5d,0x79,0x79,0x76,0x7d,0x78,0x75,0x76,0x6f,0x72,0x5b,0x7c,0x68,0x7b,0x77,0x71,0x78,0x7a,0x7c,0x6c,0x61,0x72,0x71,0x5d,0x6a,0x31,0x6b,0x6d,0x76,0x57,0x6c,0x72,0x1c,0x59,0x77,0x7a,0x38,0x6e,0x78,0x69,0x63,0x69,0x78,0x75,0x69,0x73,0x67,0x7b,0x6f,0x7e,0x75,0x76,0x6a,0x77,0x72,0x78,0x7a,0x7b,0x72,0x5c,0x78,0x71,0x67,0x78,0x7d,0x7b,0x7b,0x78,0x75,0x6f,0x79,0x77,0x50,0x6c,0x62,0x6b,0x73,0x77,0x7c,0x7c,0x5b,0x7b,0x5e,0x74,0x5a,0x4e,0x75,0x7c,0x8,0x78,0x64,0x78,0x40,0x41,0x77,0x71,0x6d,0x7a,0x7d,0x78,0x69,0x65,0x71,0x69,0x72,0x56,0x73,0x57,0x75,0x77,0x78,0x7d,0x74,0x6d,0x7b,0x57,0x77,0x7b,0x79,0x73,0x71,0x6a,0x79,0x68,0x7a,0x79,0x78,0x70,0x78,0x74,0x74,0x72,0x56,0x7c,0x7e,0x75,0x7b,0x7b,0x7c,0x6c,0x6e,0x6e,0x75,0x73,0x78,0x72,0x7e,0x71,0x7e,0x78,0x5a,0x7c,0x7e,0x7e,0x67,0x78,0x74,0x78,0x73,0x6f,0x6d,0x50,0x71,0x77,0x76,0x5c,0x7b,0x76,0x79,0x7d,0x66,0x47,0x76,0x69,0x73,0x7a,0x77,0x32,0x73,0x66,0x74,0x45,0x6e,0x76,0x6b,0x7d,0x7c,0x18,0x6f,0x71,0x7b,0x6a,0x76,0x49,0x7c,0x79,0x7c,0x74,0x7c,0x79,0x7a,0x75,0x77,0x67,0x7d,0x7b,0x7a,0x72,0x6f,0x70,0x66,0x7a,0x71,0x7c,0x64,0x79,0x7d,0x7d,0x6a,0x7b,0x71,0x67,0x7c,0x6c,0x78,0x75,0x77,0x6e,0x74,0x69,0x69,0x49,0x7c,0x74,0x74,0x61,0x76,0x71,0x67,0x79,0x72,0x59,0x7d,0x6e,0x7a,0x78,0x6a,0x7a,0x73,0x23,0x4a,0x6f,0x7b,0x65,0x78,0x70,0x5d,0x75,0x72,0x75,0x7d,0x78,0x74,0x7b,0x70,0x78,0x6a,0x6d,0x6d,0x71,0x7c,0x77,0x7a,0x74,0x77,0x72,0x6b,0x7e,0x73,0x74,0x5a,0x7c,0x1f,0x7a,0x78,0x73,0x78,0x6e,0x7e,0x78,0x7c,0x78,0x19,0x7b,0x55,0x7a,0x7a,0x59,0x79,0x7c,0x78,0x3b,0x74,0x62,0x6e,0x77,0x53,0x78,0x76,0x57,0x71,0x75,0x7b,0x73,0x4c,0x7a,0x66,0x65,0x7b,0x77,0x75,0x71,0x7c,0x7e,0x7a,0x78,0x75,0x72,0x70,0x71,0x72,0xdb,0x7d,0x75,0x73,0x73,0x7e,0x73,0x43,0x6e,0x7b,0x7b,0x76,0x5c,0x76,0x54,0x71,0x7d,0x73,0x5d,0x7c,0x2d,0x48,0x78,0x63,0x70,0x79,0x7a,0x4a,0x7a,0x78,0x5c,0x7d,0x7c,0x74,0x73,0x77,0x73,0x31,0x7d,0x79,0x65,0x64,0x67,0x7e,0x63,0x72,0x7a,0x62,0x67,0x7d,0x72,0x7a,0xff,0x79,0x6c,0x6e,0x72,0x6f,0x73,0x6d,0x7c,0x70,0x79,0x76,0x74,0x57,0x78,0x73,0x6d,0x7e,0x7a,0x76,0x7c,0x74,0x7a,0x7b,0x72,0x7c,0x76,0x79,0x71,0x5a,0x5f,0x5b,0x73,0x7a,0x7b,0x79,0x78,0x76,0x6c,0x7d,0x67,0x7b,0x7c,0x6d,0x7d,0x6e,0x7e,0x5e,0x72,0x7c,0x79,0x6f,0x70,0x75,0x7d,0x5a,0x63,0x76,0x6f,0xd6,0x6e,0x79,0x7c,0x7b,0x79,0x66,0x72,0x73,0x7b,0x71,0x70,0x73,0x7a,0x78,0x69,0x7b,0x7a,0x7a,0x77,0x78,0x68,0x65,0x61,0x7a,0x76,0x78,0x77,0x7e,0x7b,0x4d,0x7a,0x76,0x7d,0x7a,0x75,0x76,0x7c,0x50,0x7a,0x58,0x71,0x7a,0x71,0x6c,0x71,0x62,0x72,0x7d,0x65,0x6d,0x20,0x7b,0x5e,0x79,0x77,0x2e,0x65,0x6f,0x79,0x47,0x7c,0x73,0x38,0x77,0x77,0x73,0x78,0x7b,0x77,0x5c,0x61,0x76,0x60,0x75,0x7a,0x71,0x77,0x78,0x7e,0x73,0x7c,0x79,0x76,0x71,0x7e,0x54,0x78,0x7c,0x6c,0xdf,0x6d,0x6b,0x67,0x79,0x78,0x7b,0x72,0x35,0x7c,0x66,0x6a,0x70,0x77,0x6a,0x4f,0x6a,0x7b,0x7c,0x6e,0x6e,0x63,0x7d,0x68,0x72,0xcd,0x6d,0x2f,0x78,0x6d,0x76,0x76,0x6e,0x70,0x46,0x5c,0x7a,0x56,0x4d,0x72,0x79,0x6b,0x50,0x70,0x77,0x7b,0x6b,0x35,0x6f,0x5e,0x77,0x70,0x35,0x57,0x70,0x78,0x72,0x79,0x73,0x5f,0x79,0x6c,0x7b,0x73,0x5d,0x60,0x75,0x67,0x65,0x6a,0x6a,0x7c,0x6e,0x7d,0x70,0x7d,0x75,0x66,0x77,0x62,0x6e,0x74,0x78,0x72,0x7b,0x40,0x6e,0xd2,0x79,0x6e,0x65,0x65,0x26,0x79,0x72,0x3b,0x5f,0x70,0x6f,0x7c,0x7e,0x71,0x7d,0x7c,0x51,0x7b,0x7d,0x7a,0x77,0x71,0x74,0x72,0x6d,0x75,0x7a,0x7b,0x63,0x4b,0x7e,0x76,0x74,0x73,0x79,0x7a,0x50,0x66,0x63,0x74,0x19,0x63,0x75,0x73,0x6f,0x7e,0x77,0x57,0x7e,0x4f,0x67,0x7a,0x76,0x6f,0x7b,0x7a,0x67,0x6f,0x75,0x70,0x6f,0x71,0x6e,0x67,0x7c,0x76,0x6c,0x77,0x75,0x76,0x6c,0x7c,0x76,0x6f,0x74,0x78,0x6d,0x6c,0x63,0x73,0x7a,0x60,0x73,0x70,0x5d,0x75,0x76,0x6e,0x75,0x7d,0x7b,0x6e,0x7d,0x78,0x7d,0x6b,0x42,0x77,0x7b,0x6c,0x40,0x7b,0x6f,0x77,0x6b,0x77,0x71,0x6d,0x7a,0x65,0x69,0x66,0x74,0x72,0x71,0x67,0x77,0x7b,0x5a,0x71,0x7d,0x70,0x7b,0x75,0x71,0x7c,0x79,0x6b,0x7b,0x6f,0x72,0x70,0x73,0x61,0x7c,0x69,0x7b,0x74,0x76,0x76,0x79,0x5f,0x7c,0x7a,0x76,0x73,0x79,0x61,0x6e,0x65,0x7c,0x76,0x75,0x69,0x7b,0x7b,0x6e,0x79,0x7b,0x6a,0x77,0x7b,0x67,0x6d,0x55,0x79,0x13,0x7b,0x7c,0x6f,0x7a,0x7c,0x7d,0xeb,0x74,0x6f,0x78,0x78,0x53,0x6f,0x76,0x7a,0x73,0x6f,0x6f,0x78,0x7d,0x7a,0x73,0x7d,0x73,0x6e,0x7e,0x72,0x77,0x6e,0x7b,0x7b,0x5f,0x69,0x75,0x44,0x5a,0x76,0x7b,0x75,0x7d,0x50,0x7b,0x7a,0x4e,0x6c,0x73,0x74,0x78,0x70,0x74,0x77,0x7d,0x66,0x60,0x7c,0x3d,0x6d,0x4a,0x76,0x60,0x63,0x71,0x62,0x70,0x7b,0x59,0x56,0x74,0x73,0x69,0x6d,0x7a,0x79,0x5b,0x75,0x74,0x6e,0x78,0x6c,0x73,0x75,0x7c,0x74,0x7d,0x52,0x4d,0x7c,0x7a,0x6d,0x6a,0x72,0x66,0x79,0x6a,0x78,0x7a,0x6a,0x78,0x6d,0x7b,0x7a,0x7c,0x71,0x76,0x5f,0x7d,0x6f,0x71,0x63,0x79,0x63,0x76,0x78,0x6d,0x74,0x7d,0x73,0x7d,0x7c,0x76,0x7c,0x6b,0x77,0x66,0x62,0x78,0x76,0x7b,0x78,0x63,0x6e,0x78,0x70,0x7e,0x7c,0x62,0x74,0x63,0x63,0x5c,0x7d,0x7b,0x74,0x77,0x75,0x72,0x6f,0x7a,0x73,0x6a,0x7c,0x7d,0x7a,0x76,0x79,0x62,0x7b,0x6b,0x7a,0x6e,0x6f,0x62,0x51,0x7c,0x7d,0x79,0x7c,0x5e,0x7a,0x76,0x77,0x4f,0x52,0x79,0x61,0x77,0x6e,0x69,0x69,0x77,0x5e,0x79,0x78,0x79,0x7d,0x7a,0x7a,0x7b,0x78,0x57,0x7e,0x74,0x79,0x7c,0x71,0x7c,0x7d,0x76,0x73,0x7d,0x77,0x79,0x65,0x6d,0x7c,0x4f,0x77,0xf4,0x72,0x77,0x78,0x77,0x7c,0x6b,0x78,0x7a,0x7d,0x77,0x73,0x7b,0x7a,0x6d,0x77,0x7d,0x7a,0x67,0x7d,0x62,0x7d,0x26,0x75,0x7d,0x68,0x7d,0x62,0x7d,0x6d,0x5a,0x62,0x7c,0x40,0x7d,0x7b,0x73,0x73,0x63,0x8,0x6e,0x73,0x5a,0x43,0x76,0x7a,0x76,0x7a,0x52,0x75,0x0,0x0,0x0,0x0,0xc2,0xea,0xff,0xff,0x4,0x0,0x0,0x0,0x4,0x0,0x0,0x0,0x2,0x0,0x0,0x0,0xd2,0xea,0xff,0xff,0x4,0x0,0x0,0x0,0xc,0x0,0x0,0x0,0x1,0x0,0x0,0x0,0x80,0x0,0x0,0x0,0x1,0x0,0x0,0x0,0x0,0x0,0x0,0x0,0x0,0x0,0x0,0x0,0xf2,0xea,0xff,0xff,0x4,0x0,0x0,0x0,0x0,0x8,0x0,0x0,0x35,0xb2,0xf7,0x43,0x2d,0x79,0xfc,0x2f,0x5e,0xa,0x2d,0x30,0x27,0x27,0x5,0x2d,0xcd,0x69,0x30,0x13,0x39,0xd6,0x41,0x3,0x4b,0xc,0x1d,0xc,0x1e,0x13,0xcc,0x47,0x1a,0x1b,0x20,0xec,0x24,0x39,0xfb,0xf,0x0,0x24,0xf1,0xb,0x2d,0xe,0x2a,0xd7,0xfe,0x1,0x2b,0x31,0xfa,0xe6,0x5,0xcf,0xd4,0x26,0x30,0x51,0x5,0x1,0xe1,0x48,0x2e,0xdb,0xf8,0xf1,0xd8,0x17,0xd8,0x17,0x58,0x26,0x15,0xd4,0xfb,0xe,0xd5,0xd,0x3,0x23,0xfd,0x16,0x2,0xf2,0x47,0xfd,0x11,0xf4,0x3,0xe6,0xfd,0xf5,0xf,0xf2,0x26,0x14,0xd9,0xea,0x52,0x68,0x7f,0xf4,0x26,0xe6,0x20,0x6,0xc7,0xe1,0x2e,0x0,0xf,0x4c,0x0,0x11,0x35,0xef,0x3,0x65,0x39,0x34,0xc1,0xf1,0xdc,0x0,0xd5,0x3e,0xd9,0x2d,0xd1,0xad,0xc1,0xa3,0xf,0x9,0xbe,0xf8,0x8,0xc3,0xe4,0xff,0x27,0x0,0x18,0xb6,0xe2,0xd2,0xda,0xf0,0xbf,0xdf,0xac,0xc,0xd2,0xfa,0xd4,0xd4,0xe9,0xa1,0xfe,0xef,0x14,0xf4,0xce,0xe5,0xfa,0x6,0xf,0xd2,0xe0,0xe1,0x98,0xb,0xc8,0xe4,0xeb,0x16,0xc,0xd3,0xfa,0x3,0xe7,0xfa,0xd9,0xfe,0xb9,0xe0,0xec,0xef,0xe8,0x9e,0xe6,0x10,0xc2,0x6,0x8,0xf9,0xfd,0xe,0xcb,0xe7,0xec,0xed,0x1f,0xb5,0xc6,0xc9,0x22,0xd1,0xe2,0xdc,0x1c,0xd3,0xe5,0xd6,0xd4,0xf6,0x15,0x9,0xda,0xfc,0xe9,0xf3,0xd5,0xad,0xda,0x1c,0xad,0x9d,0xe1,0xde,0xd8,0xd0,0x1b,0x17,0xd9,0x17,0x1e,0xf1,0xf,0xc3,0x11,0xe8,0xc2,0x5,0xeb,0xc5,0x81,0xc5,0x5,0xd3,0xda,0xdb,0x34,0x3,0x26,0xb8,0xe8,0x35,0x13,0x71,0x13,0x22,0x12,0x1,0x4,0xfb,0x12,0x1d,0x28,0x24,0xf9,0x3e,0x35,0xe5,0x1a,0xe5,0x46,0x3,0x2c,0xc,0x10,0x4a,0x3a,0x2d,0xe5,0x3f,0xd,0x4,0x9,0x30,0x41,0x34,0xf9,0x13,0xed,0xe,0x0,0x4,0x1a,0x0,0x15,0xf4,0xe7,0xea,0x21,0x30,0x7,0x21,0xef,0xe,0x2e,0x2e,0x2b,0x5c,0x42,0xfe,0x1c,0x37,0x33,0x10,0x1e,0xff,0x16,0xf7,0x39,0xdd,0x7f,0x14,0x17,0x21,0x28,0x54,0x5,0x2d,0xff,0xe4,0xe,0x40,0x10,0xfe,0x20,0xeb,0x1d,0x3b,0x12,0xe0,0x24,0xff,0x23,0xde,0x36,0x3a,0xe7,0xed,0x39,0x14,0x3c,0x10,0xde,0x38,0x19,0xf6,0xf9,0xb,0xf1,0x4,0xd1,0x4a,0xee,0xb,0x45,0xf9,0x3d,0x4f,0x45,0x19,0xd5,0x6,0xd4,0xe9,0xe8,0x37,0xe,0xb8,0x1d,0x7f,0x3f,0x5c,0xfe,0x2e,0x74,0xec,0x27,0xfb,0x18,0xfc,0xfd,0x3,0x25,0x69,0xf1,0xeb,0x12,0xfa,0x37,0x20,0x67,0x5,0x10,0x3e,0x43,0x61,0xe4,0x1e,0xf5,0xe3,0xf6,0x22,0x13,0xfb,0xe,0x36,0xc,0x2d,0xfc,0x1f,0x46,0x18,0x4,0x12,0xfa,0x4,0xe4,0x54,0x32,0xf2,0xe8,0xd4,0x2f,0x28,0x49,0x52,0x45,0x32,0x26,0x63,0x8,0xdc,0xe3,0x1b,0xe4,0x1a,0x31,0x32,0x4f,0x34,0xe6,0xf4,0x35,0x41,0x7,0x8,0x1d,0xe1,0xec,0x35,0xc9,0x5a,0x55,0xda,0xf1,0x7,0x14,0xf1,0x20,0x11,0x36,0xdf,0xf1,0x54,0xd3,0x9,0x1d,0x29,0x3d,0x9,0x1e,0xfe,0xb,0x12,0x13,0xe8,0x4,0xfa,0xe9,0x12,0x18,0xed,0x14,0xf0,0x55,0x23,0x3d,0x4d,0xfd,0x18,0xf1,0xf4,0xf1,0x1c,0x34,0xbf,0xf5,0x7f,0xfe,0x71,0xd5,0xf5,0x65,0x2c,0xfb,0x28,0x19,0xfa,0xeb,0x22,0x6,0x65,0x42,0x20,0x39,0xf3,0x3e,0x1e,0x3c,0x20,0x26,0x23,0x4a,0x5f,0xd9,0x3a,0x30,0xd7,0xfe,0x30,0x1a,0x19,0x2c,0x1,0xf9,0x4e,0x2,0xf5,0x27,0x19,0x11,0xeb,0x10,0xec,0xdf,0x3c,0x24,0xf2,0xe,0x2,0xf9,0x10,0x4a,0x7a,0x39,0x16,0xe,0x5c,0x45,0xfd,0xe2,0xf3,0x2,0x22,0x41,0xf4,0x45,0xc,0x36,0xf3,0x4,0x9,0x0,0x34,0x6,0xe2,0x2b,0x47,0xfd,0x16,0x61,0x12,0xeb,0x36,0x32,0xe6,0xd,0xed,0x44,0x2,0xed,0x2d,0xe3,0xed,0x37,0x71,0x4b,0x26,0xff,0x37,0x35,0xf7,0xf3,0x29,0x6,0xd,0xe0,0xc,0x25,0x2,0x33,0xf6,0xd,0x2c,0x5c,0x2f,0xf7,0x14,0xd,0x8,0xfa,0x28,0xca,0x2,0xed,0x94,0xe8,0xb2,0xdd,0xf0,0xc3,0xf4,0x8,0xc8,0x1b,0xe5,0xcf,0xd9,0xce,0xc0,0xf7,0xd6,0xc6,0x1,0xd7,0xa1,0xcf,0xb5,0xd1,0xc7,0x9a,0xa7,0xee,0xc9,0xde,0x2,0xce,0xed,0xda,0xdf,0xdd,0xe5,0x7,0xc8,0xf3,0xd5,0xb6,0xcd,0xd2,0x2,0x8,0x1f,0xee,0xc1,0xf9,0xdb,0xd8,0xfc,0xf6,0xbb,0xed,0x81,0xb4,0xd4,0xc,0x91,0xd8,0xe2,0x24,0xdd,0x0,0xeb,0xc6,0x22,0x86,0xdd,0x1d,0xe9,0xd8,0xc1,0xb4,0xab,0x1e,0xe0,0xdd,0xec,0x7,0xa7,0xa2,0x8,0xf3,0xf7,0xc9,0xfb,0xc8,0xf8,0xab,0xe7,0xc,0x96,0x0,0x15,0xa4,0xb3,0xef,0x16,0xfd,0x8,0xc7,0x5,0xda,0xf0,0x6,0xff,0xd2,0xfa,0xe3,0xd2,0xc9,0x13,0xd6,0xc2,0xc6,0xe5,0x4c,0xe9,0x1d,0xf3,0x30,0xce,0xe9,0x22,0x9,0xa2,0xd0,0x98,0xe5,0xed,0x81,0x1,0xe9,0xe2,0x9,0xd7,0x10,0xd5,0xcd,0xae,0xf7,0xc5,0xbe,0xc4,0xe1,0xa2,0xcb,0xcc,0xd2,0x9b,0x96,0xab,0xea,0xd2,0xec,0xc0,0xd8,0xb4,0xd5,0xda,0xda,0xda,0xd9,0xcf,0xd4,0xe1,0xc9,0xc1,0xba,0xec,0xcd,0xbf,0xfc,0xa0,0xef,0xe,0xe3,0x1f,0xf7,0xca,0xb4,0x92,0xe5,0xc6,0xea,0x97,0xef,0x0,0xdb,0xb7,0xd6,0xb9,0xec,0x3,0xa1,0xca,0x1,0xce,0xc0,0xa6,0xee,0xea,0x20,0xe9,0xde,0xaf,0xf4,0xde,0xdd,0xca,0xb3,0xc5,0xdd,0xca,0xd1,0xff,0xce,0x5,0xe4,0x9e,0x9,0xf7,0xa5,0xc1,0xcc,0xef,0xdf,0xba,0x1,0xd3,0x0,0xfc,0x14,0xd7,0xec,0xec,0x0,0xe3,0xa9,0x11,0xba,0x9c,0xc8,0xd7,0xf6,0xc1,0xea,0xf6,0xd,0xc2,0x2c,0xcc,0xe2,0x57,0x36,0x3f,0xf3,0xe9,0x24,0x4,0x5,0x19,0xf4,0xf0,0xfa,0xd,0x8,0x12,0x1e,0x13,0x25,0xc7,0x2e,0x25,0x11,0x26,0x1f,0x24,0x5f,0x16,0xb,0x17,0x24,0x1b,0x24,0x1f,0xd,0x3,0x5,0x1f,0x6,0x27,0x23,0xb,0x52,0x1b,0x3c,0x25,0x32,0x36,0xf8,0x16,0x34,0xff,0xee,0xe8,0x15,0x17,0x46,0x5e,0xff,0x3d,0xf3,0x35,0x11,0x14,0xfe,0x34,0xeb,0xf7,0x15,0x8,0x50,0x2b,0x16,0x5,0x8,0xb,0xec,0x32,0xdb,0x3,0x8,0x17,0xf5,0xf9,0x52,0x19,0x2,0xf0,0xf1,0x0,0x9,0xfa,0x45,0x37,0xfc,0x17,0x2d,0xe,0x2d,0x2e,0x7f,0xf,0x2f,0x10,0xe0,0xff,0xea,0x11,0xd,0x3,0x2d,0x33,0x2,0xea,0x66,0xe8,0x8,0xb,0x46,0x1d,0xf3,0x3f,0x26,0xfa,0xf,0x47,0xd4,0x6f,0xee,0xb9,0xf0,0x8c,0xf2,0xd8,0xc7,0xfc,0xe0,0x16,0x14,0xda,0xe9,0xf6,0x38,0xda,0xe5,0x2c,0xcd,0xe8,0xf2,0xe6,0xdd,0xee,0xd6,0xa4,0xd7,0xa2,0xe2,0xb3,0xf7,0x9,0x4,0xdf,0xb9,0xdd,0x16,0xdd,0xe2,0xdd,0xfa,0x11,0xc1,0xf6,0x14,0x7,0x17,0x2,0xc,0x82,0x23,0x11,0xef,0x30,0x14,0xde,0x95,0x81,0xe5,0xfa,0xe3,0xd7,0xa0,0xf3,0xf2,0xe2,0xeb,0xd8,0x3,0xfc,0x97,0xda,0xe4,0xec,0x13,0x9e,0xdb,0xf4,0x39,0x2d,0xe2,0xdf,0xf7,0xca,0xd1,0xd,0xf3,0xfc,0xff,0xfb,0xda,0x13,0xbd,0x2a,0x6,0xa7,0xee,0xe3,0xc5,0xe6,0xcb,0xee,0xf7,0x5,0xbc,0x19,0x10,0x23,0x11,0xfd,0x2,0xe5,0x2a,0xd,0xc0,0x16,0xf1,0xbb,0xcd,0xb4,0xfe,0x2,0x3f,0xd4,0x1e,0xdf,0x5,0xb6,0x31,0x2e,0x9,0x23,0x13,0xe2,0x30,0xf7,0x2e,0x2c,0x20,0x34,0xdc,0x4a,0xf6,0x4e,0x16,0x3a,0x5,0x17,0x23,0x59,0x3c,0x1f,0x18,0x3d,0x27,0x49,0xec,0x62,0x1d,0x1b,0x2b,0x12,0x1b,0x4e,0x1a,0xf5,0xf0,0x33,0x15,0x1a,0x58,0x1b,0x3f,0x8,0xfd,0x8,0xe5,0x51,0xf4,0x1e,0xf6,0xd,0x39,0x3b,0x25,0x7f,0x35,0xf2,0xe1,0x58,0x40,0x20,0x1c,0x24,0x17,0x17,0x19,0xdf,0x78,0x3d,0xdc,0x9,0x19,0x1,0xf1,0x1f,0xcd,0xe5,0xf3,0x21,0xe2,0x3f,0x39,0xfd,0x7,0x13,0x22,0x9,0x35,0xe4,0xfa,0xf2,0x1f,0x54,0x25,0x22,0x5c,0x60,0x4,0x25,0x26,0x1,0xe4,0x18,0xc,0xfd,0xfd,0x9,0xf7,0x3c,0xfa,0xf2,0x4b,0x6,0x6,0x36,0x56,0x1d,0xc0,0xe1,0xe1,0xf5,0xc9,0x12,0x41,0xb4,0xf,0x6b,0x35,0x5e,0x3d,0x10,0x6f,0x12,0x11,0x2b,0xe6,0x19,0x29,0x3b,0xe1,0x63,0x48,0xd,0x2c,0x1,0x5a,0x4e,0x42,0x3b,0x42,0x4b,0x7f,0x3b,0x15,0x62,0x27,0x13,0x5,0x22,0x4a,0xa,0x1e,0x55,0xe3,0x61,0xfa,0x33,0x47,0x3d,0x36,0x3e,0xf4,0x2e,0x3e,0x5e,0x39,0xe,0x10,0xf8,0xff,0x2d,0x48,0x54,0x48,0x49,0xb,0x56,0xe,0xf8,0x2c,0x44,0xfa,0x2e,0x57,0x2,0x71,0x11,0x3b,0x2c,0x2e,0x5d,0x48,0x32,0xee,0xdd,0x0,0x3a,0x28,0x4d,0x47,0xf7,0x3,0x2,0x4d,0x4e,0x1d,0xc,0xf,0x4c,0xf7,0x63,0xeb,0x19,0x3e,0x70,0x67,0x2c,0x3,0x3c,0x25,0x31,0x32,0x3f,0xd6,0x2e,0x36,0x29,0x35,0xf6,0x32,0x12,0x4b,0x3d,0x4c,0x11,0x14,0x14,0x10,0xf8,0xc8,0x5a,0x12,0xf3,0xd,0x67,0x21,0x76,0x35,0x32,0x6c,0x29,0x2c,0x4,0x33,0xfc,0xa,0x2d,0xfc,0x63,0x2,0x7,0x30,0x12,0x5b,0x53,0x2d,0x3c,0x39,0x41,0x3b,0x20,0xf7,0x6,0x16,0xa,0x40,0x1c,0x16,0x49,0x1c,0x1c,0x6,0x38,0x18,0x2f,0x68,0xfd,0x40,0x3b,0x14,0x2c,0x1e,0x51,0x15,0x47,0x2c,0x11,0x32,0x2c,0xed,0x7f,0x1e,0x24,0x17,0x6c,0x48,0xfa,0xe5,0x0,0x19,0x0,0x7,0x3,0x47,0x2f,0x25,0x1f,0x35,0x52,0x5,0x26,0x3,0x7,0x26,0x3a,0x32,0x8,0x46,0x7,0xe,0x7,0x2e,0x27,0x2a,0x1a,0x4e,0x6,0xf,0x6b,0xeb,0xfb,0x30,0x34,0x39,0x2b,0xd,0x1b,0x2d,0xc,0x3,0x1,0xe,0xe5,0x2f,0xd,0xf0,0x1,0x3f,0xc,0x31,0x24,0x3b,0x1c,0xd5,0x38,0xe5,0x13,0x9,0x37,0x3f,0xbe,0x24,0x4d,0x30,0x39,0xf0,0xfc,0x42,0x1a,0xc,0xf9,0xea,0x8,0xb,0x36,0x28,0x7f,0x40,0xff,0xf8,0xe8,0x4a,0x13,0x44,0xd,0xa,0x14,0x4f,0x23,0x1e,0x33,0xfe,0xe3,0x8,0x19,0xb,0x26,0x27,0x2f,0x5,0x36,0x6,0xe,0x23,0x3b,0xfd,0xe4,0x1c,0xd,0x7,0x48,0x20,0xff,0x27,0xde,0x3c,0x2d,0x48,0x6f,0x26,0x1c,0x30,0x6c,0x2c,0xef,0x18,0x30,0x37,0x41,0x1f,0x12,0x65,0x34,0xea,0x16,0x42,0x29,0x2c,0xf9,0xf9,0xf2,0x2e,0x4a,0x20,0x8,0x1c,0x27,0xee,0x44,0x2f,0x11,0x1e,0xfd,0x9,0x24,0xe,0x77,0x14,0xe0,0x42,0x39,0x37,0xe0,0x1d,0x40,0x31,0x2c,0x2c,0x1a,0xdd,0xdb,0xd,0x2e,0xe2,0xfe,0x1e,0xe,0x14,0xf,0x2f,0x2c,0x15,0x38,0xfd,0x29,0xdd,0x3,0xd1,0x24,0xd,0x81,0xb2,0x99,0xde,0x0,0xc0,0xcc,0xb6,0xdb,0xf7,0xcf,0xd9,0xdf,0xfe,0xc0,0x2,0xf2,0xef,0xcf,0xd5,0xb0,0xd8,0xce,0xfd,0xe1,0xba,0xac,0xcc,0xb3,0xc4,0xd7,0xce,0xd6,0xb6,0xc8,0xd7,0xe5,0xfe,0xec,0xd3,0xc2,0xc8,0xdc,0xbb,0xe4,0xb3,0xdd,0xe1,0xbe,0xd8,0xc3,0x6,0x13,0xf0,0xb1,0xc5,0xb3,0xca,0xa5,0x11,0xbb,0xf3,0xe9,0xf8,0xb9,0xdd,0xd8,0xbe,0xea,0xc1,0xba,0xc1,0xc4,0xcb,0xca,0xee,0xd2,0x3,0xff,0xb9,0xe7,0xbf,0xba,0xa7,0xf3,0xbf,0xe4,0xf1,0xb8,0xfd,0xd9,0x92,0xe0,0xf4,0xc6,0xd3,0xfd,0xb9,0xc4,0xb5,0x4,0xfe,0xe3,0xfd,0x11,0xf6,0xd8,0xd2,0xf4,0xe2,0xce,0xe0,0xc5,0x93,0xd5,0xb5,0xa5,0xb6,0xc0,0x3b,0xc3,0xe2,0xf5,0x35,0xd8,0x12,0xdf,0x11,0x6d,0x2e,0x42,0x21,0xc,0x33,0xf2,0x26,0x2a,0xfa,0xf1,0xa,0xf3,0xec,0x28,0x42,0x2,0x3b,0x3c,0xed,0x8,0x53,0x4a,0xb,0x44,0x22,0x2e,0x6,0x52,0x3,0x10,0x31,0x33,0xd,0x3c,0x30,0x39,0xe0,0x49,0xf5,0xe,0x64,0xe9,0x26,0xd3,0xfc,0x13,0xe,0x4a,0xf2,0x7,0xf,0xd9,0xf,0xf,0x41,0x7f,0x4b,0x1b,0x14,0x27,0x32,0x23,0x19,0xf,0x26,0x20,0x5,0x22,0x49,0x12,0xfa,0x13,0xf2,0x32,0x32,0xf8,0xfe,0xed,0x1b,0x1,0xd5,0x40,0x3b,0xc,0x16,0x10,0x1a,0xf3,0x5,0xda,0x18,0xe0,0x1d,0x61,0x11,0x1a,0x36,0x31,0x65,0x1e,0x15,0xa,0xe,0xef,0x1c,0x28,0x13,0xbf,0xd7,0x1f,0x23,0xea,0x23,0x2b,0x16,0x26,0x48,0x2c,0xf9,0x18,0x6,0x29,0x16,0xf8,0xe9,0xd,0xf4,0xa9,0xfd,0xd5,0x26,0xb,0xe1,0xe7,0xd5,0xf8,0x27,0xe5,0x24,0xee,0xfd,0xb6,0xe4,0x9,0xfb,0x26,0xe5,0xc3,0xc3,0xd1,0xe6,0xe4,0xd1,0xbf,0x0,0xc4,0xe8,0xfe,0xe1,0xef,0xbe,0xe4,0xdc,0xc,0xe9,0x3,0x1,0x6,0xbf,0xf9,0xcf,0x15,0xfd,0xe9,0xc,0xae,0x9,0xf1,0x5,0x16,0xe0,0xe8,0xe2,0x81,0xcf,0x0,0xb,0xd4,0xc6,0x14,0xe9,0xdd,0xe1,0xf8,0xfe,0x11,0xae,0xed,0xf3,0xf5,0xe2,0xcf,0xee,0xf7,0x23,0x22,0xf4,0xf8,0xfc,0xcd,0xb2,0x7,0xfb,0xfd,0xe2,0x2,0xdd,0x1d,0xef,0xf4,0x1,0xee,0x6,0xf4,0xe6,0xd4,0xb6,0xe5,0xd9,0x10,0xef,0xe1,0x1b,0xe4,0xf4,0x28,0xe8,0xf5,0xea,0xf6,0xc8,0xfc,0xdd,0xaf,0xde,0xf4,0xfa,0xf8,0x1,0xfd,0x33,0xf0,0x0,0x0,0x0,0x0,0x2,0xf3,0xff,0xff,0x4,0x0,0x0,0x0,0x0,0x4,0x0,0x0,0xf,0x9,0xfd,0xce,0xf5,0xb3,0xe9,0x36,0x11,0xe6,0x13,0x14,0x15,0xc,0xe3,0x0,0xdc,0xee,0x36,0xf5,0xe4,0x6,0xfe,0xd3,0xfe,0x1,0xea,0x20,0xc,0xdf,0xdd,0xb7,0xe7,0xb,0xf5,0xd8,0xde,0xd5,0xd,0x19,0xe6,0x81,0x10,0xe1,0xde,0xe3,0xd8,0xd8,0xd8,0xf,0x12,0xdc,0x24,0xe1,0xe2,0xb,0xd6,0x1a,0xd2,0xdd,0xf0,0xd7,0xf4,0x3a,0x24,0x1c,0x11,0x0,0xea,0xf8,0xf3,0x1a,0xc,0x1a,0x14,0x13,0xe1,0xf3,0xf6,0x22,0x7,0x10,0x14,0xdc,0xf7,0xf8,0x30,0xfa,0x2,0x6,0xf0,0xe2,0xcf,0xe6,0x26,0xde,0xd9,0x20,0xf2,0xfc,0xd7,0x1,0xd,0xd4,0xd,0xe4,0xfe,0x18,0xe,0x6,0xf9,0x1a,0xd1,0xf5,0xe7,0xf0,0x3a,0x6,0x17,0xe9,0x21,0x4b,0x17,0x2a,0xed,0x1,0xe6,0xe1,0xec,0x14,0xe0,0xfa,0x1b,0xe1,0xf4,0x34,0x3a,0xb1,0xe3,0x21,0xf3,0x13,0x30,0x51,0xa,0x6,0x11,0xf1,0x1c,0x4d,0x4b,0xf3,0x1c,0x18,0xe1,0x62,0x7f,0x1e,0x3,0x18,0xde,0x21,0xd7,0xf1,0x46,0x16,0xfb,0x23,0x13,0xfb,0xed,0xd9,0x22,0xe6,0xd9,0x9c,0xff,0x27,0xdd,0xe0,0x1b,0xe6,0xe1,0xd8,0xe8,0x53,0x2,0xe0,0xf8,0x1b,0xf6,0xa,0x2b,0xfc,0x4d,0x8,0xec,0x22,0x28,0x3b,0x2f,0x50,0xe9,0xf4,0x82,0x31,0x31,0x46,0x51,0xfc,0xf3,0xed,0x2b,0x26,0x53,0xf7,0x1a,0xf2,0x24,0xce,0xf3,0x58,0xda,0x31,0xf7,0x57,0xdc,0x1b,0xd1,0x7,0x16,0xfe,0x6,0x5,0xf9,0xef,0xaf,0x17,0x4e,0xe2,0xc4,0xf0,0x1,0xf3,0x46,0xf0,0x37,0x1e,0x43,0x68,0xf6,0x3c,0xfe,0xe1,0xfe,0x8,0xfb,0x1b,0xf1,0xc,0x4c,0xa0,0xf9,0x14,0x2f,0x29,0x41,0xea,0xfe,0x17,0x7,0x29,0x28,0x19,0x29,0xe2,0x18,0x13,0x5a,0x24,0xf0,0x9,0xf6,0x51,0xdb,0x1c,0xee,0x49,0xd8,0xa,0xfc,0x3e,0x5f,0x8,0xea,0xf9,0x21,0x4,0xdf,0x23,0xf6,0xf0,0xd,0xc6,0x27,0xc0,0xf2,0x28,0x1e,0xf5,0x19,0x1a,0x8,0x9,0x1e,0xf7,0x1d,0xeb,0x7,0x37,0xfd,0xfa,0x23,0xd0,0xd1,0xfb,0x44,0x28,0x36,0x3d,0x21,0xd,0x1b,0x3b,0x2a,0x42,0x21,0xf2,0x15,0x1c,0x16,0x2,0x2d,0x12,0x11,0xf,0xf8,0xf4,0xa,0xd8,0x2,0xfe,0x23,0x56,0xfd,0x39,0xf,0x7f,0x1e,0xb,0xf9,0x17,0x45,0x23,0xd2,0x23,0xff,0x3c,0x10,0x30,0x16,0x2d,0x14,0xf1,0x1b,0x17,0x63,0x34,0x24,0x4,0xdb,0x8,0xbd,0xcb,0x1d,0xd8,0x1b,0x2,0x1b,0xee,0xf3,0xca,0xf5,0x23,0xdb,0x1e,0x23,0x33,0xf1,0xec,0xf4,0x5,0xc,0x7,0x10,0xc3,0xf,0x34,0x22,0xed,0xfb,0xa4,0x6d,0xff,0x15,0x45,0x1c,0xe2,0x12,0xdf,0x43,0x3,0xd3,0xf7,0xed,0x38,0x1c,0x19,0x2b,0xeb,0xf8,0x5,0xd,0x5,0x48,0xa,0xf4,0x36,0x14,0x26,0xe,0x8,0x7f,0x22,0xf1,0x0,0xd2,0xf0,0xc4,0x18,0xb1,0xf5,0xf5,0xd4,0x4a,0x2c,0x39,0x5,0x15,0x2b,0x31,0x8,0x20,0x1b,0x1,0x6,0x1,0xfb,0xe0,0x33,0xd9,0xe7,0x26,0xeb,0xd,0x8,0xff,0xaf,0x4,0xef,0x29,0xc7,0x37,0xe4,0x4b,0x21,0x18,0xeb,0x1,0x1f,0xde,0xe0,0x14,0x25,0x17,0x6,0x52,0xfc,0xfd,0x4d,0xbf,0xdf,0xde,0xd6,0x4c,0x34,0xe8,0x0,0x3c,0xf9,0x0,0xb,0x2b,0xb2,0x17,0x38,0xfc,0x3b,0xe9,0xc1,0x2a,0x26,0x5a,0xff,0x0,0xf0,0x9,0x37,0xd8,0x1c,0x1d,0x1d,0x3c,0xe5,0xe5,0xfd,0xc9,0x14,0xf9,0xeb,0x3f,0xd,0x3,0xa,0x1a,0xe2,0x11,0x95,0x14,0xcd,0xd8,0x4c,0xc4,0x1b,0xfa,0xfb,0xd5,0xdb,0x51,0x3d,0x0,0x1f,0x22,0x21,0xa,0x22,0x1e,0xbf,0xf,0xf9,0x15,0x31,0x3a,0x18,0xf7,0x4d,0x4b,0x2e,0xcc,0x59,0x7a,0xf1,0x28,0xd8,0xdd,0x71,0x10,0xd3,0xea,0x1d,0xda,0xf2,0xe3,0xe6,0xdf,0x32,0x2,0x17,0x4d,0x12,0x21,0x3,0x2e,0x1c,0x5,0x22,0x24,0x29,0x25,0x33,0xe,0x3,0xb,0x5b,0xdf,0x1c,0xf8,0xa0,0xd6,0x1f,0xb,0xe3,0xd,0x19,0xdf,0x7f,0x2d,0xcf,0x24,0x11,0xf,0x4a,0x1e,0xb7,0xe5,0x35,0xf4,0x20,0xdf,0x2b,0xdc,0x25,0xf9,0xd7,0x0,0x81,0x1b,0x2b,0xf7,0xf3,0xe0,0xdd,0xe4,0xec,0xf9,0x8,0xe5,0x6,0x44,0x14,0xd1,0x22,0x1b,0xfa,0xda,0xf,0xf5,0x14,0xc0,0xf2,0x16,0xcc,0xf3,0x10,0x1f,0x2e,0xdb,0xf8,0x21,0x3,0x1e,0xdf,0x12,0x8,0x10,0xc,0xff,0xe9,0xf0,0xf6,0xd7,0xf4,0x1d,0x15,0x9,0xed,0xe,0xd2,0xfc,0xd6,0xfb,0xea,0x1e,0x7,0xfc,0x5,0xe0,0x6,0xcd,0x0,0xd1,0x7,0x1a,0xd4,0xe3,0x1a,0xc7,0x7,0x8,0xd2,0xe4,0x17,0xf3,0xe3,0x7,0xf,0xd,0xeb,0xe,0xea,0xf4,0xf8,0x10,0xe6,0xdd,0xe7,0x12,0x35,0xeb,0x9,0xda,0xa4,0xf4,0xdf,0xd5,0x1f,0x24,0xd8,0x14,0x7,0xd,0x17,0xc,0xdf,0x4,0xa,0x1b,0xee,0x6,0xbd,0xb9,0xf5,0x10,0xeb,0xff,0xfa,0x22,0xfc,0xff,0x47,0x0,0x33,0x14,0xda,0x13,0x29,0x9b,0xf8,0xfe,0xe6,0x10,0xb9,0xf1,0xfc,0x20,0xe4,0xfe,0x9,0x18,0xfc,0x31,0x26,0x7f,0xad,0xf5,0xea,0x8d,0xe8,0xee,0xd4,0x16,0xec,0x26,0x1c,0x3,0x3a,0x4d,0xf3,0x1a,0xd7,0x21,0xdc,0xc7,0x10,0xb8,0xff,0x7,0xcf,0x0,0x58,0xb6,0xf7,0x2d,0xf4,0xcc,0xe6,0x8e,0xfc,0xe,0xbd,0x65,0xd5,0xd9,0x7,0xa4,0xca,0xe9,0x4d,0xd4,0xe4,0x6f,0x2,0x36,0xe4,0x2e,0x1,0x22,0x45,0x34,0xcc,0x10,0xce,0xed,0x15,0x24,0xe9,0x0,0xbb,0xf5,0xcd,0x1c,0xfa,0x12,0xc4,0xfd,0xf4,0xc5,0xde,0xf4,0x31,0x28,0xe1,0x4,0xb0,0xfb,0x7,0xce,0xe5,0x29,0x15,0x94,0xb7,0xd4,0xf7,0xe9,0x1e,0x5f,0x7,0x27,0x1a,0xe9,0x14,0xee,0xce,0x37,0xfa,0xc2,0x2,0xcf,0xf6,0x85,0x68,0xb2,0xc6,0x3a,0xfa,0xed,0xcb,0xeb,0xe8,0xcc,0x1e,0xd5,0xe,0x4,0xe5,0xe5,0xff,0xbd,0x2,0x26,0x10,0xbd,0xd5,0x2e,0xf2,0x17,0x4,0xca,0xc5,0xbc,0x9c,0x33,0x81,0x0,0xcf,0xe0,0xb6,0xe8,0xf,0xc8,0xdf,0xeb,0x7,0xed,0xa,0xce,0xf,0xea,0xd9,0xf6,0x12,0xf9,0x4,0xa4,0xfd,0xcf,0xd8,0x1,0xb,0xe2,0xf5,0x25,0xf,0xe7,0xf0,0x2,0xe6,0xab,0x18,0xf6,0xdd,0xf9,0xa9,0x94,0xd,0x8,0x1b,0xf7,0xf4,0xc3,0x9d,0xc2,0x1,0xd9,0xfc,0xdb,0xf0,0xcd,0xcf,0xb7,0x19,0xc9,0xc5,0xbe,0x14,0x0,0x16,0xbe,0x6,0xf5,0x14,0xda,0xeb,0xe4,0xda,0x78,0xaa,0xf8,0x22,0x1f,0xe9,0xe0,0xe8,0xbb,0x22,0x2f,0x40,0xec,0x14,0x4,0xff,0xf5,0x18,0x0,0x0,0x0,0x0,0x12,0xf7,0xff,0xff,0x4,0x0,0x0,0x0,0x0,0x4,0x0,0x0,0x4f,0x81,0x4d,0xe1,0xb2,0x7e,0x42,0xd5,0x25,0x3a,0x46,0x43,0x53,0xf5,0x33,0x81,0xad,0x7f,0x13,0x4a,0x54,0x73,0x1b,0xc8,0x6e,0xcb,0x42,0xdb,0xf7,0x7f,0x5d,0xb8,0xd5,0x99,0x57,0x7f,0x12,0x1d,0xad,0xf2,0xcb,0x9,0x97,0x12,0xcd,0x63,0xf3,0x7f,0x54,0x1e,0x99,0x7b,0xf8,0x7f,0x8b,0x72,0x7d,0xfb,0x81,0xfb,0x8f,0x12,0xfe,0x23,0xe8,0x56,0x1a,0xeb,0xf9,0xb9,0x81,0x22,0xf,0x20,0x46,0xc5,0x2f,0xd6,0x2,0x81,0xc4,0x31,0x81,0xe6,0x91,0xdc,0xab,0x79,0x51,0xbb,0x25,0x1d,0xf2,0x81,0x68,0x4b,0x6f,0xd5,0x5a,0x81,0x3b,0x2f,0xd5,0x3c,0x64,0x6b,0xad,0x93,0x9e,0xc1,0x2e,0x7f,0xe6,0x81,0x86,0xa2,0xeb,0x62,0xc5,0xba,0x6e,0x9b,0xaa,0x43,0x12,0x38,0x7f,0x4,0x63,0xed,0xc0,0x8,0x19,0x8a,0x7f,0xe9,0x0,0xa,0x7f,0xa7,0xdd,0x4d,0x41,0xb8,0x64,0xa,0xd1,0xcc,0xdc,0xb4,0x7f,0xc6,0xa3,0x81,0x7a,0xac,0xc6,0x5b,0x1b,0x48,0xc3,0x7f,0xb9,0x3e,0x86,0x48,0x45,0x61,0x81,0x31,0x6f,0x8b,0x56,0x12,0xae,0xb,0x81,0xb1,0xce,0x47,0x6,0xa3,0x2f,0x6,0x7f,0x68,0xfb,0xa,0x7e,0x15,0xc6,0x63,0xf7,0x37,0x1a,0x74,0x50,0x81,0xd9,0x1e,0x3c,0x11,0x7f,0xa2,0x2,0x75,0xc1,0xe1,0x4,0xbb,0x92,0x81,0x41,0x65,0x23,0x29,0xea,0xad,0xa3,0xe,0x81,0xd,0x14,0x10,0xc8,0xea,0x38,0x81,0xef,0xe3,0x77,0x43,0x6,0x4e,0x7c,0x7f,0xe9,0x82,0xe6,0xdb,0x7f,0xfb,0xcc,0x2,0x6d,0xd8,0x76,0x21,0x81,0xc7,0x43,0xd2,0xf,0x7a,0x86,0xac,0xc7,0x81,0x65,0x5f,0xcf,0x34,0xe5,0xc0,0x85,0xe8,0xe5,0x7,0x7f,0x3b,0xf5,0x8b,0xbf,0x68,0x58,0x57,0x42,0xf3,0x81,0xb8,0x1d,0xeb,0x7,0x91,0x2f,0x7f,0xc9,0xf3,0xc5,0x4,0x7f,0x61,0x29,0x0,0x11,0x8e,0x7f,0x50,0xa1,0xab,0x28,0x45,0x9d,0xc3,0xdc,0xc6,0x81,0xda,0x21,0x97,0x17,0x4c,0x7f,0x35,0x13,0xf0,0x27,0x92,0xdc,0xcd,0xd6,0x9,0x6b,0x81,0x56,0x4f,0xe2,0x88,0x25,0x40,0xff,0x7f,0x5c,0x93,0x73,0xe3,0x7b,0x7f,0x14,0x17,0xc9,0xa6,0xe5,0x20,0x0,0x95,0xa,0xa8,0xf4,0x11,0x70,0x7f,0x81,0x33,0xa5,0xbf,0x6d,0x48,0x54,0x11,0x2b,0x55,0x59,0x9d,0x81,0x7a,0xa7,0x41,0xb7,0xc3,0x5d,0xc0,0xb6,0x81,0x95,0x86,0x45,0x69,0xac,0x72,0x3f,0x99,0x81,0x6c,0xf4,0xc4,0x35,0x7f,0x1a,0xa6,0xb0,0x87,0x7f,0x46,0x57,0xcd,0x3a,0x53,0x41,0x2f,0xbc,0xf1,0x63,0x81,0x12,0x26,0x23,0xd7,0xf4,0x19,0xc8,0x8a,0x81,0x20,0x86,0xa,0x7f,0x8d,0xa0,0xce,0xc9,0x30,0xbb,0xe,0xff,0x9b,0x66,0x28,0x7d,0xa9,0x7f,0xe4,0x77,0x39,0x5f,0x48,0x81,0xc2,0x32,0x48,0xe5,0x7f,0x1f,0xe0,0xd8,0xae,0x58,0xcb,0x5,0x90,0x8a,0x5c,0x4d,0x3d,0x7f,0x8b,0x17,0x4a,0x5c,0xfc,0x7f,0xa8,0xcc,0xdf,0x1d,0x3,0x8c,0xa6,0xb8,0xe2,0xf0,0x7f,0x4b,0x75,0x66,0x40,0x7f,0xca,0x95,0xd4,0xf4,0x3a,0xe4,0x7f,0x6c,0xe,0x8b,0xf9,0xbd,0x17,0x58,0x39,0x92,0x3d,0xb9,0x7f,0xc,0x2c,0xed,0xd8,0x4,0xe4,0x81,0x19,0x30,0x78,0xa5,0x26,0x5d,0x25,0x81,0x3a,0xca,0x2,0x32,0x9,0x5d,0xdf,0x34,0x81,0x48,0x81,0x1c,0x28,0xda,0x4c,0x63,0x32,0xe8,0x4,0xf3,0xf0,0x23,0x81,0xd,0xdb,0xd2,0x9b,0x81,0x91,0x48,0xb1,0xc1,0xe5,0x1e,0x45,0x7f,0xf1,0x55,0xef,0xd8,0xa8,0xa,0x7,0x8a,0x81,0xd3,0xb6,0x44,0xf7,0x11,0x68,0x14,0xa0,0x7f,0x8b,0x72,0xb6,0x4,0x5b,0x50,0x22,0x2e,0xd5,0x81,0xd8,0xe0,0x7f,0x49,0x41,0x45,0xfe,0xca,0x94,0x9b,0x81,0x48,0x9d,0xc3,0xe2,0x97,0xd4,0x7d,0xfd,0xc8,0xc7,0x88,0x7f,0xf9,0x7c,0xcd,0x2,0x7f,0x63,0xee,0x3e,0x6b,0x8e,0xed,0x65,0x0,0xd1,0x81,0x2f,0x34,0xba,0xb3,0x53,0x8,0x7f,0xd7,0x2e,0xf9,0xec,0x65,0xd2,0x2c,0x6e,0x4b,0x6,0xd3,0x7f,0xe6,0x81,0xed,0xce,0xdc,0x96,0xc7,0xae,0x72,0xa0,0x28,0xc1,0x81,0x6,0xa9,0x58,0x81,0xbe,0x72,0x39,0x19,0xc5,0x7e,0xa1,0xc3,0xad,0x2b,0x8,0x8,0x81,0x32,0xd,0x7f,0x9c,0x8e,0xec,0x3c,0x2,0xde,0x1f,0xe0,0x39,0x14,0x1a,0xc2,0x9e,0x7f,0x40,0x6a,0x97,0x81,0xe1,0xa,0x27,0x5f,0x34,0x81,0xf4,0x45,0x12,0x35,0x9d,0x63,0xab,0x2b,0xd1,0x81,0xb5,0xeb,0x58,0x46,0x2f,0x90,0xc,0x97,0x14,0xe6,0x53,0x81,0xc3,0x4,0x69,0x9c,0xc3,0x41,0x12,0x7f,0x43,0x7,0x7f,0xe9,0xb6,0x71,0xbc,0x32,0xc3,0x63,0x14,0xef,0xe5,0x81,0xe2,0x0,0x18,0xf9,0x28,0x2a,0xd5,0x13,0xa0,0x81,0x3f,0xef,0xae,0x0,0x92,0xd1,0xcf,0x24,0x7f,0x7f,0xd,0x49,0xd7,0x0,0x76,0xb6,0xd6,0x81,0x8,0x68,0x76,0x3a,0xaa,0x18,0xc4,0x12,0xe7,0x25,0xc2,0x2f,0x9f,0x7f,0x1f,0x7a,0x81,0xa7,0x28,0x1f,0xd2,0x36,0x28,0x6f,0x1,0xc8,0xa6,0x9b,0xfa,0xbd,0x7f,0xc6,0x16,0x7f,0xf7,0x32,0xa0,0xb7,0x28,0x17,0x81,0x19,0x9,0xb8,0xb4,0x14,0xd3,0x81,0xdf,0xe5,0xc,0x42,0x12,0x2b,0x93,0x1b,0x2,0x28,0x57,0x81,0xa6,0x4e,0xfd,0x7f,0xd8,0x23,0x97,0x19,0xb4,0x70,0x4a,0x9b,0xdd,0x81,0xc,0x31,0x24,0x78,0x8d,0xfa,0x1a,0x7f,0x6b,0x24,0xc0,0xb6,0x56,0x42,0xef,0x7f,0x15,0xb4,0xf8,0xc4,0x9b,0x23,0xee,0x32,0xc4,0xe2,0x7f,0x27,0x36,0xcb,0xb0,0xfa,0x54,0x1f,0xc1,0x7f,0x7f,0xb9,0x81,0x0,0x44,0x10,0x13,0xf8,0x26,0x5e,0x65,0x63,0x81,0x63,0xf3,0x1b,0x3a,0x37,0x6e,0x7f,0xd,0x55,0xc5,0x50,0x62,0xcd,0x9d,0xee,0x12,0xe7,0x95,0x81,0xf1,0x96,0x3e,0xcc,0xdc,0x7f,0x86,0xdb,0x6e,0x2d,0x81,0xa5,0xdb,0x36,0x68,0x60,0x6c,0x81,0xb9,0x5d,0xfb,0x2b,0xe0,0x2a,0x7,0x56,0x4d,0x7f,0xcc,0x48,0xc1,0x15,0xc0,0x1,0x7f,0x5b,0xc8,0xb2,0xf3,0xaf,0x32,0x36,0x7f,0x60,0xca,0xda,0x6f,0x33,0xc7,0x65,0xd4,0xd0,0xe7,0x65,0x81,0x48,0x0,0xe9,0x64,0x7f,0xdb,0x5c,0xbe,0x1d,0x88,0xb,0x26,0x43,0x7f,0xbc,0x85,0x4e,0x3,0xdb,0x5c,0x14,0x81,0xf7,0x1b,0xb3,0xf9,0xa0,0x81,0xc0,0x6b,0x16,0x1e,0x53,0x17,0x7f,0x1a,0xfc,0xf3,0x2f,0x27,0xc4,0x40,0x7f,0xd7,0x6a,0x54,0xd7,0x31,0x4f,0xe,0x81,0xd1,0x44,0x5b,0x2b,0x1d,0xf7,0xc3,0x81,0x2e,0xf4,0xc2,0x3f,0xdf,0xba,0x99,0x0,0x0,0x0,0x0,0x98,0xf1,0xff,0xff,0x1,0x0,0x0,0x0,0x10,0x0,0x0,0x0,0xc,0x0,0x14,0x0,0x4,0x0,0x8,0x0,0xc,0x0,0x10,0x0,0xc,0x0,0x0,0x0,0xfc,0x3,0x0,0x0,0xec,0x3,0x0,0x0,0xdc,0x3,0x0,0x0,0x4,0x0,0x0,0x0,0x12,0x0,0x0,0x0,0x90,0x3,0x0,0x0,0x48,0x3,0x0,0x0,0x0,0x3,0x0,0x0,0xbc,0x2,0x0,0x0,0x94,0x2,0x0,0x0,0x60,0x2,0x0,0x0,0x2c,0x2,0x0,0x0,0xf8,0x1,0x0,0x0,0xc8,0x1,0x0,0x0,0x94,0x1,0x0,0x0,0x70,0x1,0x0,0x0,0x3c,0x1,0x0,0x0,0x8,0x1,0x0,0x0,0xd4,0x0,0x0,0x0,0xa0,0x0,0x0,0x0,0x6c,0x0,0x0,0x0,0x38,0x0,0x0,0x0,0x4,0x0,0x0,0x0,0x12,0xfe,0xff,0xff,0x0,0x0,0x0,0xb,0x4,0x0,0x0,0x0,0x18,0x0,0x0,0x0,0xc,0x0,0x0,0x0,0x4,0x0,0x0,0x0,0x28,0xf2,0xff,0xff,0x1,0x0,0x0,0x0,0x19,0x0,0x0,0x0,0x2,0x0,0x0,0x0,0x17,0x0,0x0,0x0,0x18,0x0,0x0,0x0,0x42,0xfe,0xff,0xff,0x0,0x0,0x0,0x15,0x2,0x0,0x0,0x0,0x18,0x0,0x0,0x0,0xc,0x0,0x0,0x0,0x4,0x0,0x0,0x0,0x58,0xf2,0xff,0xff,0x1,0x0,0x0,0x0,0x18,0x0,0x0,0x0,0x2,0x0,0x0,0x0,0x0,0x0,0x0,0x0,0x8,0x0,0x0,0x0,0x72,0xfe,0xff,0xff,0x0,0x0,0x0,0x1b,0x5,0x0,0x0,0x0,0x18,0x0,0x0,0x0,0xc,0x0,0x0,0x0,0x4,0x0,0x0,0x0,0x88,0xf2,0xff,0xff,0x1,0x0,0x0,0x0,0x17,0x0,0x0,0x0,0x2,0x0,0x0,0x0,0x16,0x0,0x0,0x0,0x6,0x0,0x0,0x0,0xa2,0xfe,0xff,0xff,0x0,0x0,0x0,0x15,0x2,0x0,0x0,0x0,0x18,0x0,0x0,0x0,0xc,0x0,0x0,0x0,0x4,0x0,0x0,0x0,0xb8,0xf2,0xff,0xff,0x1,0x0,0x0,0x0,0x16,0x0,0x0,0x0,0x2,0x0,0x0,0x0,0x15,0x0,0x0,0x0,0xb,0x0,0x0,0x0,0xd2,0xfe,0xff,0xff,0x0,0x0,0x0,0xb,0x4,0x0,0x0,0x0,0x18,0x0,0x0,0x0,0xc,0x0,0x0,0x0,0x4,0x0,0x0,0x0,0xe8,0xf2,0xff,0xff,0x1,0x0,0x0,0x0,0x15,0x0,0x0,0x0,0x2,0x0,0x0,0x0,0x13,0x0,0x0,0x0,0x14,0x0,0x0,0x0,0x2,0xff,0xff,0xff,0x0,0x0,0x0,0x15,0x2,0x0,0x0,0x0,0x18,0x0,0x0,0x0,0xc,0x0,0x0,0x0,0x4,0x0,0x0,0x0,0x18,0xf3,0xff,0xff,0x1,0x0,0x0,0x0,0x14,0x0,0x0,0x0,0x2,0x0,0x0,0x0,0x12,0x0,0x0,0x0,0xe,0x0,0x0,0x0,0x32,0xff,0xff,0xff,0x0,0x0,0x0,0x15,0x2,0x0,0x0,0x0,0x18,0x0,0x0,0x0,0xc,0x0,0x0,0x0,0x4,0x0,0x0,0x0,0x48,0xf3,0xff,0xff,0x1,0x0,0x0,0x0,0x13,0x0,0x0,0x0,0x2,0x0,0x0,0x0,0x1b,0x0,0x0,0x0,0x1,0x0,0x0,0x0,0xfe,0xfe,0xff,0xff,0x7,0x0,0x0,0x0,0x10,0x0,0x0,0x0,0x4,0x0,0x0,0x0,0x1,0x0,0x0,0x0,0x1b,0x0,0x0,0x0,0x1,0x0,0x0,0x0,0x11,0x0,0x0,0x0,0x82,0xff,0xff,0xff,0x0,0x0,0x0,0x15,0x2,0x0,0x0,0x0,0x18,0x0,0x0,0x0,0xc,0x0,0x0,0x0,0x4,0x0,0x0,0x0,0x98,0xf3,0xff,0xff,0x1,0x0,0x0,0x0,0x12,0x0,0x0,0x0,0x2,0x0,0x0,0x0,0xf,0x0,0x0,0x0,0xa,0x0,0x0,0x0,0xb2,0xff,0xff,0xff,0x0,0x0,0x0,0x21,0x3,0x0,0x0,0x0,0x18,0x0,0x0,0x0,0xc,0x0,0x0,0x0,0x4,0x0,0x0,0x0,0xc8,0xf3,0xff,0xff,0x1,0x0,0x0,0x0,0x11,0x0,0x0,0x0,0x1,0x0,0x0,0x0,0x1a,0x0,0x0,0x0,0x7a,0xff,0xff,0xff,0x6,0x0,0x0,0x0,0x10,0x0,0x0,0x0,0x4,0x0,0x0,0x0,0x1,0x0,0x0,0x0,0x1a,0x0,0x0,0x0,0x1,0x0,0x0,0x0,0x10,0x0,0x0,0x0,0x0,0x0,0xe,0x0,0x18,0x0,0x8,0x0,0xc,0x0,0x10,0x0,0x7,0x0,0x14,0x0,0xe,0x0,0x0,0x0,0x0,0x0,0x0,0x15,0x2,0x0,0x0,0x0,0x18,0x0,0x0,0x0,0xc,0x0,0x0,0x0,0x4,0x0,0x0,0x0,0x24,0xf4,0xff,0xff,0x1,0x0,0x0,0x0,0x10,0x0,0x0,0x0,0x2,0x0,0x0,0x0,0xf,0x0,0x0,0x0,0x7,0x0,0x0,0x0,0xda,0xff,0xff,0xff,0x1,0x0,0x0,0x0,0x10,0x0,0x0,0x0,0x4,0x0,0x0,0x0,0x1,0x0,0x0,0x0,0xf,0x0,0x0,0x0,0x2,0x0,0x0,0x0,0xd,0x0,0x0,0x0,0x5,0x0,0x0,0x0,0x0,0x0,0xa,0x0,0x10,0x0,0x4,0x0,0x8,0x0,0xc,0x0,0xa,0x0,0x0,0x0,0x1,0x0,0x0,0x0,0x10,0x0,0x0,0x0,0x4,0x0,0x0,0x0,0x1,0x0,0x0,0x0,0xe,0x0,0x0,0x0,0x2,0x0,0x0,0x0,0x0,0x0,0x0,0x0,0x5,0x0,0x0,0x0,0x46,0xff,0xff,0xff,0x0,0x0,0x0,0x8,0x28,0x0,0x0,0x0,0x1c,0x0,0x0,0x0,0x10,0x0,0x0,0x0,0x0,0x0,0xa,0x0,0x8,0x0,0x6,0x0,0x0,0x0,0x7,0x0,0xa,0x0,0x0,0x0,0x0,0x0,0x1,0x1,0x1,0x0,0x0,0x0,0xd,0x0,0x0,0x0,0x3,0x0,0x0,0x0,0xc,0x0,0x0,0x0,0x2,0x0,0x0,0x0,0xff,0xff,0xff,0xff,0xca,0xff,0xff,0xff,0x0,0x0,0x0,0x8,0x1c,0x0,0x0,0x0,0x10,0x0,0x0,0x0,0x4,0x0,0x0,0x0,0x76,0xff,0xff,0xff,0x0,0x0,0x0,0x1,0x1,0x0,0x0,0x0,0xc,0x0,0x0,0x0,0x3,0x0,0x0,0x0,0x0,0x0,0x0,0x0,0x3,0x0,0x0,0x0,0xff,0xff,0xff,0xff,0x0,0x0,0xe,0x0,0x14,0x0,0x0,0x0,0x8,0x0,0xc,0x0,0x7,0x0,0x10,0x0,0xe,0x0,0x0,0x0,0x0,0x0,0x0,0x8,0x1c,0x0,0x0,0x0,0x10,0x0,0x0,0x0,0x4,0x0,0x0,0x0,0xba,0xff,0xff,0xff,0x0,0x0,0x0,0x1,0x1,0x0,0x0,0x0,0xb,0x0,0x0,0x0,0x3,0x0,0x0,0x0,0x0,0x0,0x0,0x0,0x4,0x0,0x0,0x0,0xff,0xff,0xff,0xff,0x0,0x0,0xe,0x0,0x16,0x0,0x0,0x0,0x8,0x0,0xc,0x0,0x7,0x0,0x10,0x0,0xe,0x0,0x0,0x0,0x0,0x0,0x0,0x8,0x28,0x0,0x0,0x0,0x1c,0x0,0x0,0x0,0x10,0x0,0x0,0x0,0x0,0x0,0xa,0x0,0x8,0x0,0x0,0x0,0x0,0x0,0x7,0x0,0xa,0x0,0x0,0x0,0x0,0x0,0x0,0x1,0x1,0x0,0x0,0x0,0xa,0x0,0x0,0x0,0x3,0x0,0x0,0x0,0x0,0x0,0x0,0x0,0x9,0x0,0x0,0x0,0xff,0xff,0xff,0xff,0x2,0x0,0x0,0x0,0x19,0x0,0x0,0x0,0x15,0x0,0x0,0x0,0x2,0x0,0x0,0x0,0x0,0x0,0x0,0x0,0x1,0x0,0x0,0x0,0x1c,0x0,0x0,0x0,0xb4,0x9,0x0,0x0,0x54,0x9,0x0,0x0,0x14,0x7,0x0,0x0,0x98,0x6,0x0,0x0,0x14,0x6,0x0,0x0,0xf0,0x5,0x0,0x0,0xcc,0x5,0x0,0x0,0x80,0x5,0x0,0x0,0x3c,0x5,0x0,0x0,0xb8,0x4,0x0,0x0,0x78,0x4,0x0,0x0,0x34,0x4,0x0,0x0,0xf0,0x3,0x0,0x0,0xac,0x3,0x0,0x0,0x68,0x3,0x0,0x0,0x24,0x3,0x0,0x0,0xe0,0x2,0x0,0x0,0xb8,0x2,0x0,0x0,0x58,0x2,0x0,0x0,0x14,0x2,0x0,0x0,0xd0,0x1,0x0,0x0,0x8c,0x1,0x0,0x0,0x48,0x1,0x0,0x0,0x4,0x1,0x0,0x0,0xc0,0x0,0x0,0x0,0x7c,0x0,0x0,0x0,0x60,0x0,0x0,0x0,0x14,0x0,0x0,0x0,0x0,0x0,0xe,0x0,0x10,0x0,0x8,0x0,0x7,0x0,0x0,0x0,0x0,0x0,0xc,0x0,0xe,0x0,0x0,0x0,0x0,0x0,0x0,0x9,0x28,0x0,0x0,0x0,0x4,0x0,0x0,0x0,0xcc,0xf6,0xff,0xff,0x14,0x0,0x0,0x0,0x4,0x0,0x0,0x0,0x1,0x0,0x0,0x0,0x80,0xff,0xff,0xff,0xff,0xff,0xff,0xff,0x1,0x0,0x0,0x0,0x81,0x80,0x80,0x3b,0x3,0x0,0x0,0x0,0x1,0x0,0x0,0x0,0x80,0x0,0x0,0x0,0x10,0x0,0x0,0x0,0x0,0x0,0x6,0x0,0x8,0x0,0x4,0x0,0x6,0x0,0x0,0x0,0x4,0x0,0x0,0x0,0x3,0x0,0x0,0x0,0x1,0x0,0x0,0x0,0x80,0x0,0x0,0x0,0x10,0x0,0x0,0x0,0x42,0xf7,0xff,0xff,0x0,0x0,0x9,0x1,0x2c,0x0,0x0,0x0,0x4,0x0,0x0,0x0,0x2c,0xf7,0xff,0xff,0x18,0x0,0x0,0x0,0x4,0x0,0x0,0x0,0x1,0x0,0x0,0x0,0x80,0xff,0xff,0xff,0xff,0xff,0xff,0xff,0x0,0x0,0x0,0x0,0x1,0x0,0x0,0x0,0x3b,0xc3,0x76,0x3e,0x2,0x0,0x0,0x0,0x1,0x0,0x0,0x0,0x80,0x0,0x0,0x0,0x82,0xf7,0xff,0xff,0x0,0x0,0x9,0x1,0x2c,0x0,0x0,0x0,0x4,0x0,0x0,0x0,0x6c,0xf7,0xff,0xff,0x18,0x0,0x0,0x0,0x4,0x0,0x0,0x0,0x1,0x0,0x0,0x0,0x80,0xff,0xff,0xff,0xff,0xff,0xff,0xff,0x0,0x0,0x0,0x0,0x1,0x0,0x0,0x0,0x2b,0x38,0xc1,0x3b,0x2,0x0,0x0,0x0,0x1,0x0,0x0,0x0,0x80,0x0,0x0,0x0,0xc2,0xf7,0xff,0xff,0x0,0x0,0x9,0x1,0x2c,0x0,0x0,0x0,0x4,0x0,0x0,0x0,0xac,0xf7,0xff,0xff,0x18,0x0,0x0,0x0,0x4,0x0,0x0,0x0,0x1,0x0,0x0,0x0,0x80,0xff,0xff,0xff,0xff,0xff,0xff,0xff,0x0,0x0,0x0,0x0,0x1,0x0,0x0,0x0,0xdb,0xc,0x73,0x3e,0x2,0x0,0x0,0x0,0x1,0x0,0x0,0x0,0x80,0x0,0x0,0x0,0x2,0xf8,0xff,0xff,0x0,0x0,0x9,0x1,0x28,0x0,0x0,0x0,0x4,0x0,0x0,0x0,0xec,0xf7,0xff,0xff,0x14,0x0,0x0,0x0,0x4,0x0,0x0,0x0,0x1,0x0,0x0,0x0,0x80,0xff,0xff,0xff,0xff,0xff,0xff,0xff,0x1,0x0,0x0,0x0,0xc3,0x3d,0x43,0x3d,0x3,0x0,0x0,0x0,0x1,0x0,0x0,0x0,0x80,0x0,0x0,0x0,0x10,0x0,0x0,0x0,0x42,0xf8,0xff,0xff,0x0,0x0,0x9,0x1,0x28,0x0,0x0,0x0,0x4,0x0,0x0,0x0,0x2c,0xf8,0xff,0xff,0x14,0x0,0x0,0x0,0x4,0x0,0x0,0x0,0x1,0x0,0x0,0x0,0x14,0x0,0x0,0x0,0x0,0x0,0x0,0x0,0x1,0x0,0x0,0x0,0x96,0x60,0x9,0x3d,0x3,0x0,0x0,0x0,0x1,0x0,0x0,0x0,0x80,0x0,0x0,0x0,0x10,0x0,0x0,0x0,0x82,0xf8,0xff,0xff,0x0,0x0,0x9,0x1,0x28,0x0,0x0,0x0,0x4,0x0,0x0,0x0,0x6c,0xf8,0xff,0xff,0x14,0x0,0x0,0x0,0x4,0x0,0x0,0x0,0x1,0x0,0x0,0x0,0x6,0x0,0x0,0x0,0x0,0x0,0x0,0x0,0x1,0x0,0x0,0x0,0x9e,0x99,0x7f,0x3c,0x3,0x0,0x0,0x0,0x1,0x0,0x0,0x0,0x80,0x0,0x0,0x0,0x10,0x0,0x0,0x0,0xc2,0xf8,0xff,0xff,0x0,0x0,0x9,0x1,0x28,0x0,0x0,0x0,0x4,0x0,0x0,0x0,0xac,0xf8,0xff,0xff,0x14,0x0,0x0,0x0,0x4,0x0,0x0,0x0,0x1,0x0,0x0,0x0,0x18,0x0,0x0,0x0,0x0,0x0,0x0,0x0,0x1,0x0,0x0,0x0,0x70,0xae,0xca,0x3c,0x3,0x0,0x0,0x0,0x1,0x0,0x0,0x0,0x80,0x0,0x0,0x0,0x10,0x0,0x0,0x0,0x2,0xf9,0xff,0xff,0x0,0x0,0x9,0x1,0x2c,0x0,0x0,0x0,0x4,0x0,0x0,0x0,0xec,0xf8,0xff,0xff,0x18,0x0,0x0,0x0,0x4,0x0,0x0,0x0,0x1,0x0,0x0,0x0,0x6,0x0,0x0,0x0,0x0,0x0,0x0,0x0,0x0,0x0,0x0,0x0,0x1,0x0,0x0,0x0,0xaf,0x8c,0x85,0x3c,0x3,0x0,0x0,0x0,0x1,0x0,0x0,0x0,0x80,0x0,0x0,0x0,0x10,0x0,0x0,0x0,0x0,0x0,0x16,0x0,0x10,0x0,0x8,0x0,0x0,0x0,0x0,0x0,0x0,0x0,0xc,0x0,0x0,0x0,0x0,0x0,0x0,0x0,0x7,0x0,0x16,0x0,0x0,0x0,0x0,0x0,0x0,0x1,0xc,0x0,0x0,0x0,0x4,0x0,0x0,0x0,0xc0,0xf8,0xff,0xff,0x3,0x0,0x0,0x0,0x1,0x0,0x0,0x0,0x80,0x0,0x0,0x0,0x10,0x0,0x0,0x0,0x82,0xf9,0xff,0xff,0x0,0x0,0x9,0x1,0x28,0x0,0x0,0x0,0x4,0x0,0x0,0x0,0x6c,0xf9,0xff,0xff,0x14,0x0,0x0,0x0,0x4,0x0,0x0,0x0,0x1,0x0,0x0,0x0,0x7f,0x0,0x0,0x0,0x0,0x0,0x0,0x0,0x1,0x0,0x0,0x0,0xfa,0x59,0x8e,0x3d,0x3,0x0,0x0,0x0,0x1,0x0,0x0,0x0,0x80,0x0,0x0,0x0,0x10,0x0,0x0,0x0,0xc2,0xf9,0xff,0xff,0x0,0x0,0x9,0x1,0x28,0x0,0x0,0x0,0x4,0x0,0x0,0x0,0xac,0xf9,0xff,0xff,0x14,0x0,0x0,0x0,0x4,0x0,0x0,0x0,0x1,0x0,0x0,0x0,0x80,0xff,0xff,0xff,0xff,0xff,0xff,0xff,0x1,0x0,0x0,0x0,0x8d,0x48,0x8b,0x3b,0x3,0x0,0x0,0x0,0x1,0x0,0x0,0x0,0x80,0x0,0x0,0x0,0x1,0x0,0x0,0x0,0x2,0xfa,0xff,0xff,0x0,0x0,0x9,0x1,0x28,0x0,0x0,0x0,0x4,0x0,0x0,0x0,0xec,0xf9,0xff,0xff,0x14,0x0,0x0,0x0,0x4,0x0,0x0,0x0,0x1,0x0,0x0,0x0,0x80,0xff,0xff,0xff,0xff,0xff,0xff,0xff,0x1,0x0,0x0,0x0,0xf9,0xe8,0xad,0x3b,0x3,0x0,0x0,0x0,0x1,0x0,0x0,0x0,0x80,0x0,0x0,0x0,0x1,0x0,0x0,0x0,0x42,0xfa,0xff,0xff,0x0,0x0,0x9,0x1,0x2c,0x0,0x0,0x0,0x4,0x0,0x0,0x0,0x2c,0xfa,0xff,0xff,0x18,0x0,0x0,0x0,0x4,0x0,0x0,0x0,0x1,0x0,0x0,0x0,0x80,0xff,0xff,0xff,0xff,0xff,0xff,0xff,0x0,0x0,0x0,0x0,0x1,0x0,0x0,0x0,0x8d,0x48,0x8b,0x3b,0x2,0x0,0x0,0x0,0x1,0x0,0x0,0x0,0x80,0x0,0x0,0x0,0x82,0xfa,0xff,0xff,0x0,0x0,0x9,0x1,0x2c,0x0,0x0,0x0,0x4,0x0,0x0,0x0,0x6c,0xfa,0xff,0xff,0x18,0x0,0x0,0x0,0x4,0x0,0x0,0x0,0x1,0x0,0x0,0x0,0x1,0x0,0x0,0x0,0x0,0x0,0x0,0x0,0x0,0x0,0x0,0x0,0x1,0x0,0x0,0x0,0x1,0xfd,0xfe,0x3b,0x2,0x0,0x0,0x0,0x1,0x0,0x0,0x0,0x8,0x0,0x0,0x0,0xc2,0xfa,0xff,0xff,0x0,0x0,0x9,0x1,0x2c,0x0,0x0,0x0,0x4,0x0,0x0,0x0,0xac,0xfa,0xff,0xff,0x18,0x0,0x0,0x0,0x4,0x0,0x0,0x0,0x1,0x0,0x0,0x0,0x3,0x0,0x0,0x0,0x0,0x0,0x0,0x0,0x0,0x0,0x0,0x0,0x1,0x0,0x0,0x0,0x8e,0x7f,0x85,0x3c,0x2,0x0,0x0,0x0,0x1,0x0,0x0,0x0,0x10,0x0,0x0,0x0,0x2,0xfb,0xff,0xff,0x0,0x0,0x9,0x1,0x28,0x0,0x0,0x0,0x4,0x0,0x0,0x0,0xec,0xfa,0xff,0xff,0x14,0x0,0x0,0x0,0x4,0x0,0x0,0x0,0x1,0x0,0x0,0x0,0x5,0x0,0x0,0x0,0x0,0x0,0x0,0x0,0x1,0x0,0x0,0x0,0xd8,0xeb,0x5e,0x3c,0x2,0x0,0x0,0x0,0x1,0x0,0x0,0x0,0x10,0x0,0x0,0x0,0xd6,0xfd,0xff,0xff,0x0,0x0,0x9,0x1,0x6c,0x0,0x0,0x0,0x8,0x0,0x0,0x0,0x4,0x0,0x0,0x0,0x2c,0xfb,0xff,0xff,0x18,0x0,0x0,0x0,0x4,0x0,0x0,0x0,0x1,0x0,0x0,0x0,0x0,0x0,0x0,0x0,0x0,0x0,0x0,0x0,0x0,0x0,0x0,0x0,0x10,0x0,0x0,0x0,0xd4,0x56,0xda,0x3a,0x96,0x53,0xfc,0x3a,0xc4,0xc0,0x0,0x3b,0x59,0x4a,0xe0,0x3a,0x27,0xd0,0xf8,0x3a,0xe3,0x25,0x9,0x3b,0x46,0x61,0x7,0x3b,0x3a,0x97,0xeb,0x3a,0x12,0xf,0xe,0x3b,0xa1,0x7,0xc6,0x3a,0x4d,0x3d,0x27,0x3b,0xca,0xd4,0x36,0x3b,0xe7,0x9,0x16,0x3b,0x3,0x6a,0x12,0x3b,0xc7,0xa3,0xe,0x3b,0x43,0xed,0xce,0x3a,0x2,0x0,0x0,0x0,0x10,0x0,0x0,0x0,0x80,0x0,0x0,0x0,0x56,0xfe,0xff,0xff,0x0,0x0,0x9,0x1,0x2c,0x0,0x0,0x0,0x7,0x0,0x0,0x0,0x4,0x0,0x0,0x0,0xac,0xfb,0xff,0xff,0x14,0x0,0x0,0x0,0x4,0x0,0x0,0x0,0x1,0x0,0x0,0x0,0x80,0xff,0xff,0xff,0xff,0xff,0xff,0xff,0x1,0x0,0x0,0x0,0x5c,0xc6,0xac,0x3b,0x2,0x0,0x0,0x0,0x1,0x0,0x0,0x0,0x80,0x0,0x0,0x0,0x96,0xfe,0xff,0xff,0x0,0x0,0x9,0x1,0x30,0x0,0x0,0x0,0x6,0x0,0x0,0x0,0x4,0x0,0x0,0x0,0xec,0xfb,0xff,0xff,0x18,0x0,0x0,0x0,0x4,0x0,0x0,0x0,0x1,0x0,0x0,0x0,0x7f,0x0,0x0,0x0,0x0,0x0,0x0,0x0,0x0,0x0,0x0,0x0,0x1,0x0,0x0,0x0,0x1f,0x39,0xb8,0x3d,0x3,0x0,0x0,0x0,0x1,0x0,0x0,0x0,0x80,0x0,0x0,0x0,0x10,0x0,0x0,0x0,0xde,0xfe,0xff,0xff,0x0,0x0,0x2,0x1,0x10,0x0,0x0,0x0,0x5,0x0,0x0,0x0,0x4,0x0,0x0,0x0,0xac,0xfb,0xff,0xff,0x1,0x0,0x0,0x0,0x1,0x0,0x0,0x0,0xfe,0xfe,0xff,0xff,0x0,0x0,0x2,0x1,0x10,0x0,0x0,0x0,0x4,0x0,0x0,0x0,0x4,0x0,0x0,0x0,0xcc,0xfb,0xff,0xff,0x1,0x0,0x0,0x0,0x3,0x0,0x0,0x0,0x1e,0xff,0xff,0xff,0x0,0x0,0x9,0x1,0x6c,0x0,0x0,0x0,0x3,0x0,0x0,0x0,0x4,0x0,0x0,0x0,0x74,0xfc,0xff,0xff,0x18,0x0,0x0,0x0,0x4,0x0,0x0,0x0,0x1,0x0,0x0,0x0,0x0,0x0,0x0,0x0,0x0,0x0,0x0,0x0,0x0,0x0,0x0,0x0,0x10,0x0,0x0,0x0,0xd2,0xb2,0x0,0x3b,0x2c,0xb5,0x6,0x3b,0x26,0x88,0xe,0x3b,0x30,0xc4,0x7,0x3b,0xa3,0xba,0xf,0x3b,0x76,0x88,0x11,0x3b,0xf1,0xd4,0x15,0x3b,0x85,0x38,0x23,0x3b,0x6a,0x90,0xe9,0x3a,0xc8,0x60,0x1,0x3b,0x9f,0x8c,0xfa,0x3a,0x1,0x87,0x2b,0x3b,0xb8,0x55,0xf9,0x3a,0x2a,0x34,0x8,0x3b,0xe9,0x8f,0x7,0x3b,0xfd,0x99,0x22,0x3b,0x2,0x0,0x0,0x0,0x10,0x0,0x0,0x0,0x80,0x0,0x0,0x0,0x9e,0xff,0xff,0xff,0x0,0x0,0x9,0x1,0x4c,0x0,0x0,0x0,0x2,0x0,0x0,0x0,0x4,0x0,0x0,0x0,0xf4,0xfc,0xff,0xff,0x18,0x0,0x0,0x0,0x4,0x0,0x0,0x0,0x1,0x0,0x0,0x0,0x0,0x0,0x0,0x0,0x0,0x0,0x0,0x0,0x0,0x0,0x0,0x0,0x8,0x0,0x0,0x0,0x16,0x0,0x3a,0x3b,0xea,0x6c,0xfa,0x3a,0x86,0x3a,0x25,0x3b,0x51,0x65,0x17,0x3b,0x56,0x12,0xf5,0x3a,0xd6,0x32,0x53,0x3b,0x0,0xbd,0xfa,0x3a,0xc5,0x2b,0x10,0x3b,0x2,0x0,0x0,0x0,0x8,0x0,0x0,0x0,0x80,0x0,0x0,0x0,0x0,0x0,0x16,0x0,0x14,0x0,0x8,0x0,0x6,0x0,0xc,0x0,0x0,0x0,0x10,0x0,0x0,0x0,0x0,0x0,0x0,0x0,0x7,0x0,0x16,0x0,0x0,0x0,0x0,0x0,0x9,0x1,0x28,0x2,0x0,0x0,0x1,0x0,0x0,0x0,0x4,0x0,0x0,0x0,0x6c,0xfd,0xff,0xff,0x14,0x0,0x0,0x0,0x4,0x0,0x0,0x0,0x1,0x0,0x0,0x0,0x0,0x0,0x0,0x0,0x0,0x0,0x0,0x0,0x80,0x0,0x0,0x0,0x17,0x1d,0x26,0x3b,0xe4,0xc8,0x50,0x3b,0xa7,0x57,0x26,0x3b,0x67,0xa2,0xe9,0x3a,0xa6,0x71,0x3f,0x3b,0x9e,0xf3,0x25,0x3b,0xdc,0xc8,0x16,0x3b,0x64,0xc5,0x19,0x3b,0xd0,0x93,0x86,0x3b,0x7e,0xa0,0x6d,0x3b,0x74,0x9c,0x2e,0x3b,0x22,0xaa,0x43,0x3b,0x6f,0x63,0x7a,0x3b,0xa7,0xb5,0x21,0x3b,0x8e,0x93,0x24,0x3b,0x2a,0x24,0x29,0x3b,0xf,0xc9,0x2c,0x3b,0x74,0x7c,0x31,0x3b,0x26,0x4a,0x86,0x3b,0x71,0x3c,0x4f,0x3b,0x4f,0xd3,0x15,0x3b,0xdd,0x16,0x2c,0x3b,0x5c,0x2c,0x5e,0x3b,0xe5,0xd9,0x3c,0x3b,0xbf,0xea,0x6d,0x3b,0xab,0xa5,0x46,0x3b,0x74,0x84,0x17,0x3b,0xf3,0x11,0x69,0x3b,0x4,0x31,0x6c,0x3b,0x0,0x3f,0xc,0x3b,0xcc,0xb5,0x28,0x3b,0x46,0x98,0x19,0x3b,0xe4,0xb3,0x46,0x3b,0xbb,0x54,0xef,0x3a,0x99,0x17,0x21,0x3b,0xe7,0xec,0xaa,0x3b,0x8d,0x58,0x80,0x3b,0x4,0x92,0x19,0x3b,0xd0,0xf1,0x5b,0x3b,0xc6,0x8b,0x39,0x3b,0xb7,0x4e,0x2a,0x3b,0x36,0xb1,0x5a,0x3b,0x33,0x53,0x2f,0x3b,0x70,0x84,0x28,0x3b,0xab,0x8e,0x37,0x3b,0x3f,0xab,0x2e,0x3b,0xc9,0x98,0x46,0x3b,0x2c,0x57,0x22,0x3b,0x30,0x77,0x63,0x3b,0x51,0x1d,0x7b,0x3b,0xe3,0xe1,0x60,0x3b,0x13,0x5e,0x7,0x3b,0x58,0x0,0x2b,0x3b,0xf9,0xf7,0x2e,0x3b,0xf2,0x35,0x1c,0x3b,0x47,0x2d,0x17,0x3b,0x3d,0x59,0x26,0x3b,0x48,0xcd,0x2f,0x3b,0xcc,0x57,0xe,0x3b,0x3d,0xb4,0x5d,0x3b,0xeb,0x95,0x6d,0x3b,0xac,0x18,0x2e,0x3b,0x30,0xb4,0x87,0x3b,0xcc,0x3d,0x4b,0x3b,0x77,0x4f,0x68,0x3b,0x48,0x5f,0x40,0x3b,0xc5,0x5f,0x84,0x3b,0xf2,0xf1,0x1d,0x3b,0xf5,0x35,0x2e,0x3b,0x58,0x32,0x2b,0x3b,0x97,0x87,0x60,0x3b,0xcf,0xed,0x4f,0x3b,0x79,0xc4,0x4e,0x3b,0xe1,0xdd,0x2c,0x3b,0xd7,0x2,0xa7,0x3a,0x3d,0x26,0x42,0x3b,0x17,0x52,0x5c,0x3b,0x3e,0x5d,0x52,0x3b,0xa,0x84,0x36,0x3b,0x7e,0x19,0x37,0x3b,0x11,0x89,0x2d,0x3b,0x87,0x6a,0x2f,0x3b,0x3e,0xef,0x35,0x3b,0x98,0xbe,0x5b,0x3b,0x95,0x94,0x45,0x3b,0x3e,0x6a,0x22,0x3b,0xb4,0xb1,0x59,0x3b,0xdb,0x1e,0x3f,0x3b,0x95,0x1e,0x2e,0x3b,0x10,0x3b,0x30,0x3b,0x1d,0x19,0x4d,0x3b,0x6e,0xf2,0x5b,0x3b,0xab,0x78,0x37,0x3b,0xd1,0xb7,0x21,0x3b,0x3e,0x8b,0x37,0x3b,0x74,0x94,0x4a,0x3b,0x11,0x33,0x46,0x3b,0x3b,0x1d,0x7,0x3b,0xd1,0x2d,0x1e,0x3b,0xf8,0xe1,0x90,0x3b,0xf3,0xaa,0x64,0x3b,0x5c,0xf1,0x69,0x3b,0xf3,0x4c,0x5a,0x3b,0x3,0x79,0x1,0x3b,0xe,0xe9,0xcf,0x3a,0xfe,0xc,0x4a,0x3b,0x39,0x2e,0x50,0x3b,0xca,0xe6,0x60,0x3b,0xa1,0x9f,0x2c,0x3b,0x1a,0x69,0xa1,0x3b,0xb4,0x87,0x5a,0x3b,0xe1,0x8d,0x2c,0x3b,0x4d,0x3e,0x38,0x3b,0xd9,0x3e,0xf,0x3b,0x1c,0x8b,0x19,0x3b,0x18,0x2d,0x5b,0x3b,0x59,0x2a,0x47,0x3b,0x16,0x24,0x30,0x3b,0xac,0xac,0x4f,0x3b,0x0,0x9b,0x2a,0x3b,0xc3,0xbd,0x39,0x3b,0xca,0x2a,0x64,0x3b,0x7e,0x85,0x46,0x3b,0x42,0xc0,0x21,0x3b,0xd2,0x5b,0x22,0x3b,0x65,0xd0,0x3a,0x3b,0x65,0xb4,0x79,0x3b,0x4e,0x62,0x55,0x3b,0x2,0x0,0x0,0x0,0x80,0x0,0x0,0x0,0x8,0x0,0x0,0x0,0xba,0xff,0xff,0xff,0x0,0x0,0x9,0x1,0x2c,0x0,0x0,0x0,0x4,0x0,0x0,0x0,0xa4,0xff,0xff,0xff,0x18,0x0,0x0,0x0,0x4,0x0,0x0,0x0,0x1,0x0,0x0,0x0,0x15,0x0,0x0,0x0,0x0,0x0,0x0,0x0,0x0,0x0,0x0,0x0,0x1,0x0,0x0,0x0,0xc8,0x4d,0xe2,0x3c,0x3,0x0,0x0,0x0,0x1,0x0,0x0,0x0,0x80,0x0,0x0,0x0,0x10,0x0,0x0,0x0,0x0,0x0,0x16,0x0,0x10,0x0,0x8,0x0,0x6,0x0,0x0,0x0,0x0,0x0,0xc,0x0,0x0,0x0,0x0,0x0,0x0,0x0,0x7,0x0,0x16,0x0,0x0,0x0,0x0,0x0,0x9,0x1,0x38,0x0,0x0,0x0,0x10,0x0,0x0,0x0,0xc,0x0,0xc,0x0,0x0,0x0,0x0,0x0,0x4,0x0,0x8,0x0,0xc,0x0,0x0,0x0,0x18,0x0,0x0,0x0,0x4,0x0,0x0,0x0,0x1,0x0,0x0,0x0,0x80,0xff,0xff,0xff,0xff,0xff,0xff,0xff,0x0,0x0,0x0,0x0,0x1,0x0,0x0,0x0,0xf9,0xe8,0xad,0x3b,0x2,0x0,0x0,0x0,0x1,0x0,0x0,0x0,0x80,0x0,0x0,0x0,0x8,0x0,0x0,0x0,0x8c,0x0,0x0,0x0,0x70,0x0,0x0,0x0,0x54,0x0,0x0,0x0,0x44,0x0,0x0,0x0,0x3c,0x0,0x0,0x0,0x28,0x0,0x0,0x0,0x1c,0x0,0x0,0x0,0x4,0x0,0x0,0x0,0xf8,0xff,0xff,0xff,0x72,0x0,0x0,0x0,0xc,0x0,0x8,0x0,0x0,0x0,0x0,0x0,0x0,0x0,0x4,0x0,0xc,0x0,0x0,0x0,0x6,0x0,0x0,0x0,0xd4,0xff,0xff,0xff,0x0,0x0,0x0,0x4a,0x4a,0x0,0x0,0x0,0x4,0x0,0x4,0x0,0x4,0x0,0x0,0x0,0xe8,0xff,0xff,0xff,0x0,0x0,0x0,0x2f,0x2f,0x0,0x0,0x0,0xf4,0xff,0xff,0xff,0x0,0x0,0x0,0x12,0x12,0x0,0x0,0x0,0xc,0x0,0xc,0x0,0x7,0x0,0x0,0x0,0x0,0x0,0x8,0x0,0xc,0x0,0x0,0x0,0x0,0x0,0x0,0x16,0x16,0x0,0x0,0x0,0xc,0x0,0x10,0x0,0x7,0x0,0x0,0x0,0x8,0x0,0xc,0x0,0xc,0x0,0x0,0x0,0x0,0x0,0x0,0x9,0x5,0x0,0x0,0x0,0x9,0x0,0x0,0x0};
