#include <cstdint>

#include "model_step_ssm_int8_har_model_data.h"

alignas(16) const unsigned char g_model_step_ssm_int8_har_model_data[] = {0x1c,0x0,0x0,0x0,0x54,0x46,0x4c,0x33,0x0,0x0,0x12,0x0,0x18,0x0,0x4,0x0,0x8,0x0,0xc,0x0,0x0,0x0,0x10,0x0,0x0,0x0,0x14,0x0,0x12,0x0,0x0,0x0,0x3,0x0,0x0,0x0,0xfc,0x2f,0x0,0x0,0xe0,0x21,0x0,0x0,0x68,0x0,0x0,0x0,0x4,0x0,0x0,0x0,0x2,0x0,0x0,0x0,0x38,0x0,0x0,0x0,0x4,0x0,0x0,0x0,0xd8,0xff,0xff,0xff,0x8,0x0,0x0,0x0,0xa,0x0,0x0,0x0,0x17,0x0,0x0,0x0,0x6b,0x65,0x65,0x70,0x5f,0x73,0x74,0x61,0x62,0x6c,0x65,0x68,0x6c,0x6f,0x5f,0x63,0x6f,0x6e,0x73,0x74,0x61,0x6e,0x74,0x0,0x8,0x0,0xc,0x0,0x4,0x0,0x8,0x0,0x8,0x0,0x0,0x0,0x8,0x0,0x0,0x0,0x9,0x0,0x0,0x0,0x13,0x0,0x0,0x0,0x6d,0x69,0x6e,0x5f,0x72,0x75,0x6e,0x74,0x69,0x6d,0x65,0x5f,0x76,0x65,0x72,0x73,0x69,0x6f,0x6e,0x0,0xb,0x0,0x0,0x0,0x6c,0x21,0x0,0x0,0x58,0x1d,0x0,0x0,0x44,0x19,0x0,0x0,0x30,0x11,0x0,0x0,0xc,0x11,0x0,0x0,0xf8,0x10,0x0,0x0,0xe4,0x8,0x0,0x0,0x50,0x8,0x0,0x0,0x3c,0x0,0x0,0x0,0x18,0x0,0x0,0x0,0x4,0x0,0x0,0x0,0xe2,0xd9,0xff,0xff,0x4,0x0,0x0,0x0,0x4,0x0,0x0,0x0,0x74,0x72,0x75,0x65,0xf2,0xd9,0xff,0xff,0x4,0x0,0x0,0x0,0x10,0x0,0x0,0x0,0x32,0x2e,0x30,0x2e,0x30,0x0,0x0,0x0,0x0,0x0,0x0,0x0,0x0,0x0,0x0,0x0,0x0,0x0,0x0,0x0,0x12,0xda,0xff,0xff,0x4,0x0,0x0,0x0,0x0,0x8,0x0,0x0,0x12,0xef,0xec,0x4,0xe9,0xfb,0x10,0xb,0xee,0x1,0xe2,0xa5,0x9f,0xda,0xcb,0xf7,0x3,0xe5,0xdd,0xda,0xf4,0x6,0xc3,0xef,0xf,0x14,0xf7,0x23,0xde,0xcd,0xf5,0x11,0xe8,0x24,0xda,0x94,0xfc,0x92,0xf6,0xd7,0x1,0xc1,0xeb,0x6,0xfc,0xd1,0x14,0x8,0xee,0xf4,0xd8,0xdf,0x13,0x23,0xdd,0xd5,0xab,0xf8,0xc7,0xf6,0xe,0xfa,0xd7,0xf8,0xfb,0xc6,0xef,0xd1,0xe1,0x8,0xe8,0xc7,0xe6,0xed,0xda,0xcf,0x22,0xd2,0xe4,0xd6,0x81,0x15,0xf6,0xbb,0xf6,0xdc,0xfb,0xe3,0xcd,0xd2,0x24,0xf0,0xa,0xb7,0x11,0xf8,0x3,0xf4,0x8,0xe6,0xc8,0xae,0xf5,0x1e,0x28,0x30,0xf0,0x0,0xef,0xc9,0x12,0xf4,0xd9,0x14,0xda,0xf4,0xec,0xe4,0x25,0xf8,0xf,0xf6,0xe8,0x6,0xb5,0xff,0xe5,0xf6,0x1d,0x22,0x35,0x5,0xc,0xff,0xf4,0x1e,0xe7,0xdc,0xf,0x2b,0x3c,0x4,0x16,0x22,0xf9,0x2d,0x2,0xb,0xde,0x27,0x40,0xf2,0xe7,0xe3,0x19,0xed,0xda,0x1b,0xe,0x1a,0x0,0xeb,0x10,0x3e,0x9,0x2f,0x1c,0x1,0x19,0x20,0xde,0x20,0xe3,0xfb,0x23,0xd,0xff,0xf3,0x12,0x10,0xc,0xea,0xf9,0x1e,0x11,0xe4,0x41,0xa,0xf7,0x1f,0xf5,0xc,0x28,0x3,0x0,0x6,0x24,0xda,0x3b,0x41,0xfb,0x28,0x1b,0x5,0xf5,0xf7,0x11,0x17,0x7f,0xde,0xd7,0x3,0x17,0x2d,0x9,0x1b,0xf9,0x1e,0x15,0x21,0xe7,0x15,0x12,0xe,0x32,0xd7,0x16,0x3,0x1d,0x27,0xeb,0x5,0xf0,0xb7,0xb,0xe,0x13,0x14,0xd5,0xd,0x3f,0xee,0xf2,0xf2,0x35,0xfc,0xef,0xe3,0xf9,0xd1,0xdd,0x1,0x13,0x2b,0xeb,0x16,0xee,0xe4,0xdc,0x22,0xed,0x0,0xe9,0x1,0x2b,0x33,0xf9,0xf5,0xc8,0x16,0xd6,0xc9,0xe9,0x1,0xd2,0xdd,0xf3,0xf1,0xdc,0xca,0xd5,0xd9,0xe8,0xe2,0x15,0xce,0xd6,0xd2,0xf6,0x13,0xc5,0xa4,0xc1,0xd2,0xea,0xde,0xfd,0xcd,0x8,0xfc,0xea,0xbb,0x13,0xed,0xca,0xf0,0xfd,0xd5,0xd8,0xf6,0xfb,0xd9,0xdd,0x2a,0xb0,0xef,0xf6,0xc8,0xff,0xc8,0xf0,0xdf,0xf5,0xce,0xd7,0x38,0xbc,0xe4,0xcc,0xed,0xbc,0xc9,0xc5,0xe1,0x11,0xcf,0x81,0xf3,0x8,0xee,0xe8,0xdb,0xdf,0xf7,0xc5,0xd1,0x0,0x15,0xdf,0xbb,0xed,0xf4,0xb6,0x31,0xe1,0xec,0xb8,0xdb,0xd3,0xd7,0xef,0xfc,0x8,0x2b,0xf3,0x2,0xf6,0xdc,0xe8,0x9,0xe4,0x18,0xde,0xbb,0x26,0xfc,0x4,0xec,0xf1,0xca,0xc6,0xd8,0xd7,0xd2,0x0,0xc6,0xa9,0x6,0x23,0xe,0xec,0xbb,0x1d,0x28,0x21,0xce,0xcc,0xf,0xf2,0x0,0xe5,0xd3,0x15,0xf7,0x26,0x1c,0xa8,0xe0,0xfa,0xfc,0x18,0x22,0xef,0x81,0xf7,0x15,0xcb,0x9,0x2,0x94,0xae,0xd1,0xcf,0x23,0xde,0xd8,0xbf,0xf1,0x1c,0xd8,0x25,0x20,0xbd,0x9,0x4,0x9a,0x13,0xdf,0x6,0xf3,0xb2,0x2d,0xdc,0x0,0xe8,0xba,0xa,0xee,0xce,0xba,0x29,0xc5,0x2a,0x1c,0xa8,0xa0,0x22,0xfd,0xcc,0xb1,0x0,0x11,0xcd,0xcb,0x97,0xe5,0x1a,0xfc,0xc2,0xfd,0x5,0x26,0xc8,0xcc,0x22,0x16,0xf1,0xd5,0xe8,0xf9,0xb9,0xd1,0x1e,0x30,0xb1,0xa6,0xfe,0xdb,0xd0,0x63,0xb4,0xf0,0xfc,0xe0,0x40,0x3,0xda,0xd8,0xb4,0x2c,0xb5,0xdd,0x30,0xe0,0x19,0xe9,0x2e,0xf4,0x87,0x0,0x21,0xe2,0xf2,0xd0,0xe4,0x26,0xda,0x17,0xf6,0xea,0xea,0x33,0xf3,0xf3,0xd9,0xfa,0xc9,0xf2,0x14,0xe4,0xe,0xee,0x24,0xfa,0xdc,0x10,0x17,0xf,0xf2,0xed,0xfd,0xbd,0xe4,0xa,0xc3,0x1a,0xd2,0x81,0xeb,0xcd,0xdc,0xde,0xde,0xdb,0xf8,0x9,0xe0,0xe6,0xeb,0xf6,0xde,0xd2,0x12,0xcf,0x9,0xfc,0xe6,0xd7,0xba,0xd,0xc4,0xf1,0xf3,0xfe,0xe5,0xfe,0xe5,0x9,0xfb,0x1b,0xfb,0x40,0xe5,0xdc,0xd1,0x18,0xe1,0xd1,0xd,0xba,0xea,0xc0,0x9f,0xfb,0x16,0xb6,0xf7,0xd1,0xfa,0xe4,0xd4,0xc9,0xe5,0xfe,0x16,0xcf,0x29,0xea,0xca,0x2,0xee,0x10,0xf4,0xcf,0xe1,0xe3,0xeb,0x25,0xfe,0x12,0xc6,0xd0,0xf9,0xea,0xc9,0xf1,0x13,0x9,0xcc,0xf1,0x2e,0xe4,0x1e,0xf2,0x19,0xed,0xca,0xdf,0x14,0x8,0x1b,0xf8,0xbb,0xa,0xec,0x0,0x1e,0xfb,0xe6,0xf8,0xfd,0xdb,0xb7,0xe1,0xe4,0x3,0x31,0xce,0xf1,0xd9,0x2d,0xf9,0xbf,0xf6,0xd3,0x13,0xfa,0xe8,0x7,0xc0,0xb,0xe5,0xc8,0xe,0x8,0xa5,0xe2,0xd3,0xf6,0xfb,0xf0,0xb7,0xd8,0xe6,0x8,0xce,0xf8,0x1e,0xf6,0xbe,0xd0,0xee,0xf5,0x23,0xee,0xb9,0xf5,0xfb,0xbd,0xa,0xa,0xc4,0xe0,0xf1,0x11,0x4,0x23,0x9,0xc5,0x2c,0xe2,0xfb,0x2,0x7,0xf8,0xeb,0xd5,0xc0,0xe2,0xd8,0x81,0x20,0x19,0xc3,0xdb,0xc4,0xfc,0xec,0xf1,0xb2,0xed,0xee,0xe7,0xcb,0xf5,0xca,0xc4,0xfc,0xdb,0xee,0xf9,0xcb,0x7,0xe6,0x7,0xf8,0xf9,0x11,0xc3,0xdb,0x25,0xed,0xce,0xf6,0xd9,0xf2,0xdb,0xd7,0x10,0x7,0x18,0xdd,0xe7,0xf4,0xc1,0x14,0xe,0xff,0x2,0x5,0xf6,0x12,0x19,0x1f,0x25,0xfa,0xe,0x1b,0xf9,0xfc,0xe4,0xde,0xec,0xbd,0xc,0xd9,0xff,0x17,0x1f,0xd1,0xd9,0x16,0x21,0x6,0xda,0x27,0xfc,0xdc,0x9,0xdb,0xe0,0xfb,0xf,0x81,0x14,0xdc,0xe5,0xf,0x1e,0xdf,0xe4,0x1,0x1f,0x2,0xec,0xe2,0xcd,0xfb,0xf5,0x6,0x3,0xdf,0xe0,0xe3,0xbd,0x24,0xbb,0xe5,0x21,0xc3,0xed,0xf6,0xf7,0x5,0x16,0xfc,0xe9,0x39,0xfb,0xbe,0x8,0xe9,0xd6,0xe0,0xe0,0xdd,0xfb,0xf3,0xb3,0xea,0xf0,0xbc,0xba,0xe6,0x9,0x11,0xc,0x9b,0xee,0x7,0xda,0xc0,0xe5,0xd4,0xf5,0xff,0xb,0x2,0xd6,0xe8,0xd6,0xf2,0xed,0x2c,0xf1,0x9,0xf2,0xff,0x13,0xa,0xc6,0xea,0xd5,0xf4,0xe2,0xd0,0xf,0x7,0xa,0xd6,0xf5,0xfd,0xd9,0xea,0xf8,0xf8,0xe,0x40,0x18,0x24,0x25,0x17,0xf0,0xd,0x1b,0xbe,0x25,0x13,0x2f,0xe0,0xee,0x27,0x1d,0x5,0xfe,0x18,0xf0,0x3b,0xc,0x2d,0xf,0xdc,0xfa,0x2,0x1c,0x4a,0x0,0x38,0x45,0xf6,0x9,0x51,0xe0,0x68,0xdd,0x10,0x9,0x2a,0xee,0xeb,0xc8,0x3,0xee,0xef,0x16,0xe,0xee,0x0,0x39,0xe6,0x3,0x27,0x2c,0xf3,0x22,0x1,0x23,0x33,0xf7,0x4b,0x8,0x21,0xc,0x12,0xf4,0xf8,0x3b,0xf1,0x3c,0xe0,0x34,0x19,0x10,0x4,0x12,0x22,0x7f,0xdc,0xfb,0x3c,0x28,0x1f,0xfe,0x9,0xd6,0x20,0xcc,0xda,0xb,0x3b,0x29,0x35,0xd,0xfd,0x1,0x25,0x25,0x4d,0x11,0xd2,0xec,0x9,0x3c,0x1a,0xe7,0x34,0xce,0x23,0x5c,0xfe,0x18,0x18,0x26,0xed,0xca,0xeb,0xd8,0x4,0xe,0x23,0xf0,0x4,0x2c,0x28,0xec,0xef,0xd8,0x10,0x4,0x19,0xf9,0x7,0x1a,0x2c,0xf1,0xaa,0xd7,0xe3,0xdb,0xdb,0xed,0xd2,0x8,0xc0,0xe9,0x15,0xbe,0xe5,0x17,0xe0,0xd5,0xec,0xee,0xf1,0xf4,0xec,0xd7,0xfc,0xdb,0x81,0xe8,0xb7,0xf2,0xe5,0xe,0xae,0x10,0xb,0x1b,0xdd,0xf0,0xea,0xee,0xf9,0xd2,0xe7,0xf3,0x19,0xf0,0xd4,0xdf,0xe7,0xb0,0xef,0x1b,0xed,0xe1,0xe4,0xf7,0x0,0x1,0xdc,0xf9,0x38,0x0,0xf5,0xea,0xf1,0xf2,0xc1,0x3,0xbc,0xe9,0xe9,0x98,0xf5,0xf6,0xb0,0xcc,0xc3,0x25,0xc,0xdf,0xb5,0xf4,0xef,0x0,0xea,0x22,0xe6,0xd9,0x26,0xfa,0xef,0xee,0xbc,0xd1,0x6,0x18,0xe,0xd0,0xf9,0xd2,0xc0,0xff,0xf3,0xc7,0xda,0xe6,0xe,0xc3,0xee,0xfd,0x18,0x5,0xeb,0x21,0xd4,0xdc,0x4,0xdb,0xf4,0x2,0xee,0xf5,0x12,0x10,0x1a,0xe,0x5,0x3c,0xe,0x5,0xd8,0xca,0xfc,0x1,0xd6,0xe7,0xde,0xdd,0xf0,0xe,0x24,0xba,0x8,0xfd,0xee,0xea,0x1f,0x46,0xd4,0xdd,0xdf,0xeb,0x27,0x14,0xd0,0xf0,0xae,0x1e,0xef,0xff,0xb7,0x21,0xd,0x5,0xda,0x13,0x8,0xe,0xed,0xe7,0xce,0xa,0xfc,0xe1,0xdf,0xc9,0xd,0xd0,0xee,0x1e,0xd4,0x16,0x8,0xea,0xf8,0x1,0xe5,0xe8,0x43,0xc6,0xda,0xe5,0x9,0xe9,0xcc,0x4,0xfb,0xf4,0xe8,0x81,0xec,0x11,0xf2,0xe4,0xc4,0xe9,0x3,0xe7,0xb5,0xfe,0xff,0x2,0xd5,0xf0,0xf4,0xeb,0x26,0xf9,0xee,0xe9,0xc0,0x1,0x3,0xd,0x32,0xf0,0xfe,0xe8,0xe3,0x5c,0xd8,0xe0,0x28,0x11,0xef,0xd3,0xee,0x45,0x17,0x5,0x32,0x18,0xf7,0xba,0xf0,0xfc,0x6,0xf9,0xfd,0xd5,0xd,0x9,0xdc,0x37,0x1b,0x11,0x18,0xc7,0x15,0xae,0x35,0x18,0xcf,0x28,0xd9,0xa8,0xfa,0x9,0xf6,0xee,0xdb,0x6,0xe,0xf0,0x16,0xd6,0xb0,0xff,0xd7,0xb7,0x3f,0xa3,0xb8,0xe4,0xf1,0xd8,0xef,0xce,0xfb,0xde,0xd,0xde,0xa1,0x13,0x25,0xc9,0xa2,0xdc,0xca,0xf6,0xf6,0xbb,0xd4,0xcd,0x5,0xf2,0x1,0x13,0xc4,0xe9,0xd0,0xf9,0xfc,0x1b,0xcd,0xeb,0x28,0xf2,0xec,0xcf,0x2e,0xf,0x13,0xc1,0xa3,0xff,0x90,0xa4,0xe,0x25,0xe5,0xa8,0xa2,0xd7,0x2a,0xf7,0x81,0xdc,0x27,0xc5,0xd6,0xdb,0xcb,0xfa,0xc,0xbb,0xdf,0xd4,0xa9,0x7,0xc0,0xff,0x3,0xd3,0xd6,0xb8,0xd4,0x4,0xfe,0xab,0x44,0xb3,0x37,0xae,0xf7,0x59,0xf5,0x2a,0xfa,0x3,0xf1,0xe6,0xcc,0xc1,0x13,0xf4,0xc,0xa5,0x23,0x23,0xc,0x1d,0xeb,0xfc,0x3b,0xdc,0xb5,0xb2,0xd5,0xb,0xb9,0x10,0xb5,0xd1,0xe3,0xff,0xc0,0xa7,0xf6,0x5,0x5,0xe0,0x12,0x28,0xba,0xd6,0x0,0xbb,0xfd,0xf2,0x81,0xb1,0xa7,0xd2,0x8,0xe4,0x8d,0xc6,0xe5,0xf2,0xbd,0xd9,0xff,0xe8,0xf1,0xef,0xb8,0x23,0x2c,0xd6,0xe7,0xed,0xe,0xe2,0xd7,0x2b,0xc4,0x25,0xd5,0xf6,0xeb,0xf5,0xe6,0x2,0x39,0xf0,0xc1,0xbf,0xbd,0xf8,0xfe,0xd2,0xb1,0x13,0xcb,0x9d,0xd8,0xeb,0xc3,0xff,0xd8,0xba,0xf0,0xf4,0xb6,0x12,0xf7,0x19,0xb3,0x16,0xf1,0xc7,0xfe,0xf4,0xf6,0xfb,0xc9,0xc1,0xd9,0x15,0x32,0xe4,0x19,0xc4,0xb4,0x38,0xab,0xb8,0xd4,0xcd,0xcf,0xdc,0xf7,0x5,0xc4,0xd9,0x13,0xf5,0x1c,0xa2,0xbc,0xef,0xdd,0xf9,0x16,0x41,0x12,0x4,0xe2,0xe2,0x1e,0xe6,0xff,0x1f,0x4e,0x27,0x1b,0x14,0x32,0xc,0x3b,0x7,0x4,0x1,0xf8,0x1c,0xef,0x1b,0x1b,0x17,0xde,0xf9,0x31,0xef,0x1c,0xf,0xf6,0x3c,0x7f,0x46,0x24,0x28,0xe7,0xe9,0x57,0xd,0x2,0xea,0x2c,0xe3,0xfa,0x3b,0x25,0xec,0xf,0xeb,0xf7,0x29,0x19,0x30,0x9,0x17,0xf4,0x4,0xb,0xe5,0x28,0x2a,0x3,0x9,0x22,0x34,0xff,0x2f,0x9,0x0,0x2a,0x2f,0x29,0xd,0xe,0x13,0x39,0x5f,0xef,0xb,0x56,0xc,0x28,0x23,0xec,0x3,0x22,0xe9,0x8,0x18,0x35,0xe1,0x18,0x3d,0xc6,0x1,0x11,0x43,0x2d,0x2e,0x4,0x19,0xed,0x34,0xfc,0xb,0x38,0xe6,0x23,0x36,0x17,0xfc,0xf7,0x26,0x7,0xbb,0xda,0xf9,0xde,0xfe,0x7,0x36,0x8,0x0,0x1f,0x11,0xc6,0xc4,0xef,0x2,0xea,0x0,0xfb,0xf1,0xf7,0x11,0xf5,0xda,0xe1,0xd5,0xd5,0xef,0xff,0xec,0x2,0x30,0xdb,0xbd,0xe3,0xd2,0xf3,0xe3,0xee,0x4,0xa8,0x8,0x13,0xf4,0x1f,0xfa,0xe0,0xe6,0xb5,0x9,0xd1,0x13,0xa5,0xfd,0xf2,0xe1,0x1,0xfb,0xfa,0xee,0xf8,0xe,0xe7,0x4,0xed,0xde,0xdb,0xeb,0xf8,0xca,0xe0,0xfa,0xf7,0xef,0xd8,0xfe,0xd1,0xfb,0xf7,0xe2,0x9,0xd1,0xee,0xe4,0xd1,0xf6,0xda,0xd3,0xc9,0xe4,0xcb,0x81,0xb,0x5,0xe1,0xc0,0xe9,0x10,0x7,0x7,0xa7,0xea,0xfc,0xdc,0xbc,0x5,0xde,0xf4,0x23,0xfa,0x10,0xf9,0xcf,0x4,0xb,0xb,0x2a,0xd1,0x16,0xe2,0xe8,0x11,0xd1,0xf4,0xe9,0xe2,0x1c,0xc4,0xd2,0x35,0xfb,0xf4,0xec,0xfe,0xd9,0xca,0xfd,0xe6,0xfd,0xe2,0x3,0xdd,0xeb,0xff,0x15,0x12,0x3,0xea,0x9,0xb,0xc5,0xba,0x9,0xfa,0xf8,0xea,0xe1,0xfe,0xe1,0x1d,0x15,0xd7,0xf3,0xe0,0xfb,0xd2,0xec,0x7,0xd1,0xfb,0xe8,0xd4,0x1f,0xe9,0x81,0xe2,0xa4,0xfd,0x6,0xe4,0xb1,0xfd,0xf4,0xef,0xd9,0xeb,0xf9,0xf9,0xee,0xfb,0xdf,0x6,0x7,0xe5,0xe8,0xfc,0x26,0xbf,0x1,0x23,0xe1,0x16,0xea,0xe9,0xfa,0xea,0xfa,0xe3,0x11,0xc7,0xd6,0x3,0xf2,0xd1,0xdb,0xdc,0xc6,0x11,0xbf,0x9b,0xfc,0xfa,0xcb,0xde,0xbf,0xfe,0x2,0xd7,0xa5,0xe0,0xe2,0xd1,0xb8,0x2,0xdd,0xe6,0x5,0xe0,0xf9,0xe1,0xe4,0xdf,0xe5,0x6,0x33,0xfa,0x16,0xea,0xea,0x18,0xe9,0xc6,0xd,0xed,0x4,0xc2,0xe6,0x10,0xe1,0x14,0xf5,0xc,0xf2,0xe5,0x0,0xf2,0x12,0xf,0xf8,0xc3,0xf5,0xc3,0xf9,0x1f,0xbf,0xf,0x22,0xfc,0xe3,0xcb,0xec,0x98,0xd3,0xf9,0xf2,0xd3,0xba,0xfd,0xd2,0xc8,0xdd,0xe3,0xdf,0xe1,0xf7,0xe4,0xe3,0xbc,0xf7,0xf4,0xf3,0x18,0x81,0xcd,0xd6,0x7,0xbb,0x22,0xa3,0xce,0xc,0x9,0xc3,0x18,0xc5,0x17,0x0,0xf7,0xd0,0x1,0x9,0xb9,0xb3,0xd8,0xed,0xbd,0xc9,0x32,0xc1,0x1,0xc0,0xf1,0xc2,0x20,0xf3,0xcd,0x26,0xbf,0xa3,0xd7,0xac,0xc9,0xc8,0xda,0xb4,0xcf,0xe4,0xa0,0xb,0xf4,0xd6,0x13,0xd4,0xce,0xe6,0x9,0x8f,0xcb,0x6,0x5,0xc0,0xe4,0xd1,0xd6,0xd5,0xfe,0xf,0xb2,0xee,0xf8,0xe0,0xfd,0x3,0xe1,0xc,0xf8,0xd0,0x47,0x2,0xe5,0xf3,0xdd,0xe9,0xb3,0xb6,0x10,0xe0,0x1a,0x10,0xf6,0xf2,0xaa,0xc6,0xbc,0xf9,0x0,0x0,0x0,0x0,0x22,0xe2,0xff,0xff,0x4,0x0,0x0,0x0,0x80,0x0,0x0,0x0,0x41,0x41,0x3c,0x5c,0x61,0x3a,0x40,0x5e,0x6e,0x41,0x40,0x5b,0x51,0x38,0x6c,0x53,0x50,0x41,0x47,0x40,0x41,0x3f,0x51,0x44,0x3a,0x4b,0x43,0x42,0x3a,0x57,0x59,0x42,0x37,0x49,0x4a,0x56,0x40,0x40,0x38,0x72,0x41,0x49,0x48,0x35,0x50,0x60,0x3a,0x3a,0x44,0x52,0x47,0x56,0x49,0x45,0x38,0x4a,0x54,0x4f,0x48,0x46,0x40,0x4e,0x4c,0x41,0x4c,0x40,0x49,0x4c,0x52,0x2d,0x49,0x62,0x41,0x63,0x40,0x4d,0x38,0x49,0x35,0x58,0x5f,0x3a,0x53,0x5a,0x44,0x4b,0x3a,0x36,0x3c,0x48,0x4c,0x3e,0x40,0x30,0x3c,0x34,0x45,0x67,0x34,0x41,0x34,0x51,0x4c,0x59,0x40,0x56,0x49,0x57,0x56,0x58,0x3e,0x2f,0x75,0x37,0x41,0x3c,0x53,0x3b,0x7f,0x4d,0x37,0x4f,0x56,0x5e,0x58,0x5d,0x3c,0x4f,0x0,0x0,0x0,0x0,0xb2,0xe2,0xff,0xff,0x4,0x0,0x0,0x0,0x0,0x8,0x0,0x0,0x79,0x61,0x69,0x7d,0x77,0x7b,0x77,0x7c,0x76,0x7d,0x62,0x7c,0x59,0x78,0x5e,0x6f,0x76,0x7b,0x74,0x76,0x7d,0x79,0x77,0x7e,0x7a,0x77,0x6b,0x64,0x79,0x30,0x69,0x6c,0x71,0x7b,0x71,0x75,0x7c,0x78,0x79,0x7e,0x7d,0x79,0x7e,0x6c,0x7a,0x7d,0x7a,0x79,0x78,0x7a,0x71,0x79,0x71,0x6a,0x71,0x76,0x7b,0x74,0x56,0x74,0x79,0x77,0x60,0x7a,0x76,0x6c,0x7a,0x7b,0x7e,0x67,0x6c,0x58,0x78,0x7d,0x5c,0x78,0x4f,0x78,0x78,0x7b,0x7c,0x74,0x6f,0x7a,0x7d,0x6d,0x7c,0x75,0x7c,0x7e,0x77,0x77,0x70,0x75,0x48,0x79,0x7b,0x7c,0x7c,0x7d,0x67,0x7b,0x7d,0x7a,0x73,0x70,0x64,0x73,0x78,0x74,0x7c,0x6e,0x6c,0x79,0x70,0x78,0x68,0x79,0x60,0x74,0x7c,0x75,0x7d,0x7d,0x7e,0x7e,0x76,0x7a,0x6f,0x68,0x71,0x7a,0x72,0x71,0x7c,0x74,0x7c,0x6f,0x6e,0x7c,0x78,0x79,0x71,0x4a,0x5c,0x6d,0x62,0x78,0x7c,0x79,0x78,0x7c,0x75,0x78,0x7c,0x7a,0x69,0x7d,0x7c,0x7e,0x70,0x70,0x7e,0x7d,0x7b,0x60,0x7c,0x6e,0x5b,0x62,0x7b,0x7b,0x6f,0x7d,0x7b,0x7c,0x73,0x79,0x7b,0x7a,0x7c,0x70,0x66,0x7c,0x1c,0x6d,0x7d,0x7a,0x75,0x7a,0x76,0x5b,0x69,0x52,0x74,0x78,0x7f,0x78,0x75,0x7a,0x7c,0x60,0x77,0x7b,0x6e,0x7d,0x73,0x79,0x70,0x7c,0x6b,0x70,0x7e,0x79,0x6e,0x60,0x7b,0x70,0x7a,0x5d,0x78,0x72,0x70,0x7d,0x48,0x77,0x76,0x77,0x76,0x78,0x7d,0x4d,0x78,0x6c,0x71,0x6b,0x79,0x77,0x7a,0x79,0x7d,0x7c,0x7b,0x6e,0x78,0x7c,0x6b,0x71,0x46,0x6e,0x79,0x6d,0x75,0x7b,0x7a,0x76,0x79,0x7a,0x4f,0x5b,0x7c,0x78,0x6e,0x7a,0x79,0x7a,0x68,0x79,0x7c,0x73,0x65,0x7b,0x77,0x73,0x7b,0x7d,0x73,0x6a,0x72,0x79,0x74,0x6c,0x7a,0x7b,0x7b,0x7e,0x7d,0x77,0x7a,0x76,0x76,0x51,0x7a,0x71,0x7c,0x7d,0x72,0x77,0x78,0x7b,0x7d,0x78,0x72,0x74,0x74,0x73,0x71,0x75,0x7b,0x7a,0x7a,0x7e,0x79,0x76,0x79,0x72,0x7e,0x60,0x6e,0x79,0x5b,0x66,0x79,0x7d,0x71,0x5a,0x5a,0x72,0x5d,0x6d,0x5e,0x6c,0x3d,0x7c,0x7c,0x7e,0x71,0x7b,0x7d,0x4b,0x6c,0x6c,0x60,0x6b,0x73,0x7a,0x78,0x72,0x7d,0x59,0x6d,0x3b,0x73,0x73,0x58,0x7c,0x69,0x7d,0x7d,0x74,0x76,0x75,0x77,0x75,0x70,0x73,0x7d,0x77,0x7d,0x7c,0x76,0x75,0x75,0x6d,0x7d,0x60,0x7b,0x7d,0x69,0x77,0x58,0x6f,0x79,0x75,0x7b,0x6f,0x74,0x5d,0x78,0x7e,0x77,0x7e,0x7d,0x4d,0x78,0x50,0x7a,0x7b,0x60,0x7d,0x7c,0x70,0x7e,0x79,0x7d,0x7e,0x74,0x7a,0x79,0x7d,0x7b,0x7e,0x47,0x7b,0x5b,0x75,0x6f,0x6d,0x77,0x7d,0x78,0x76,0x61,0x7b,0x7d,0x7e,0x76,0x7b,0x51,0x78,0x7c,0x61,0x69,0x77,0x79,0x7e,0x77,0x4c,0x79,0x7a,0x32,0x79,0x7c,0x73,0x7b,0x77,0x7e,0x7b,0x7b,0x73,0x6c,0x75,0x5f,0x78,0x7c,0x7b,0x7e,0x5a,0x61,0x6e,0x7d,0x6e,0x77,0x7a,0x7e,0x78,0x6e,0x7a,0x79,0x70,0x7e,0x7c,0x6e,0x7b,0x7a,0x7c,0x72,0x7d,0x78,0x7a,0x73,0x6e,0x64,0x7c,0x79,0x75,0x75,0x7c,0x78,0x6f,0x7b,0x7a,0x78,0x71,0x76,0x72,0x7e,0x71,0x7a,0x75,0x7e,0x7c,0x78,0x7b,0x78,0x7c,0x7c,0x57,0x77,0x7d,0x7d,0x75,0x73,0x7f,0x7b,0x7a,0x65,0x63,0x78,0x4d,0x77,0x66,0x72,0x78,0x71,0x79,0x78,0x5f,0x7d,0x7d,0x60,0x64,0x71,0x79,0x6c,0x7d,0x6d,0x6e,0x7b,0x7c,0x7c,0x7e,0x7b,0x77,0x78,0x76,0x7a,0x6d,0x7e,0x60,0x67,0x67,0x78,0x73,0x7a,0x7b,0x70,0x4c,0x7c,0x7d,0x7a,0x77,0x77,0x78,0x76,0x71,0x76,0x7a,0x72,0x7c,0x79,0x6e,0x71,0x7b,0x7a,0x75,0x7c,0x7c,0x7d,0x7a,0x76,0x77,0x7e,0x74,0x73,0x4d,0x7c,0x7c,0x66,0x75,0x7a,0x78,0x79,0x7c,0x7d,0x71,0x65,0x70,0x7c,0x7c,0x7b,0x6e,0x7c,0x7e,0x45,0x6a,0x7a,0x79,0x7c,0x7a,0x7d,0x7b,0x79,0x73,0x78,0x76,0x7d,0x74,0x7d,0x7e,0x5d,0x7c,0x6d,0x73,0x7b,0x65,0x76,0x75,0x71,0x7b,0x7e,0x73,0x7d,0x7c,0x5b,0x7e,0x7c,0x7e,0x60,0x78,0x7b,0x71,0x7a,0x7a,0x6a,0x7c,0x80,0x7b,0x7b,0x7c,0x72,0x78,0x4d,0x77,0x7c,0x74,0x58,0x78,0x7e,0x69,0x68,0x6c,0x61,0x30,0x7c,0x7a,0x7b,0x7e,0x77,0x74,0x68,0x76,0x78,0x6b,0x5a,0x78,0x79,0x6d,0x7b,0x7e,0x6c,0x5b,0x6b,0x70,0x73,0x7a,0x77,0x7b,0x38,0x73,0x7d,0x7c,0x73,0x78,0x7e,0x57,0x5f,0x7a,0x72,0x58,0x64,0x66,0x7d,0x7c,0x69,0x63,0x7d,0x77,0x6f,0x74,0x68,0x7d,0x74,0x73,0x6f,0x7d,0x79,0x7b,0x7e,0x77,0x75,0x28,0x7c,0x7d,0x73,0x7b,0x7a,0x63,0x7c,0x66,0x7a,0x73,0x7a,0x3c,0x7d,0x79,0x78,0x69,0x7a,0x79,0x7c,0x7b,0x78,0x7b,0x7d,0x74,0x73,0x65,0x77,0x70,0x78,0x7a,0x70,0x7d,0x7a,0x7a,0x7d,0x4e,0x74,0x77,0x61,0x7c,0x7b,0x7a,0x76,0x7c,0x77,0x3f,0x7e,0x7c,0x7c,0x72,0x69,0x75,0x7b,0x78,0x71,0x7b,0x71,0x7b,0x6f,0x74,0x7a,0x73,0x78,0x79,0x75,0x77,0x7b,0x7a,0x60,0x79,0x7a,0x3a,0x61,0x7d,0x78,0x7d,0x75,0x73,0x72,0x7a,0x7f,0x7d,0x7e,0x7e,0x76,0x76,0x7b,0x72,0x77,0x7b,0x7c,0x7d,0x7c,0x7a,0x7d,0x7c,0x76,0x56,0x6f,0x7a,0x7c,0x72,0x67,0x7b,0x77,0x73,0x78,0x24,0x7c,0x63,0x79,0x7b,0x7e,0x73,0x79,0x7e,0x78,0x79,0x7c,0x7e,0x7b,0x79,0x7a,0x79,0x7c,0x7d,0x76,0x7e,0x7b,0x75,0x77,0x7a,0x6f,0x75,0x6d,0x7b,0x79,0x7c,0x7a,0x74,0x6c,0x6f,0x73,0x7b,0x76,0x77,0x5f,0x70,0x75,0x6f,0x7e,0x7a,0x79,0x5c,0x7d,0x64,0x73,0x6e,0x7c,0x7e,0x72,0x77,0x73,0x7b,0x77,0x7b,0x7a,0x79,0x78,0x7b,0x7c,0x7c,0x6f,0x78,0x74,0x77,0x75,0x6e,0x76,0x7a,0x79,0x7b,0x78,0x75,0x7d,0x75,0x74,0x72,0x77,0x64,0x79,0x7a,0x7a,0x71,0x78,0x57,0x51,0x7b,0x7a,0x6a,0x36,0x7e,0x77,0x78,0x7b,0x6e,0x7d,0x7b,0x6b,0x72,0x7c,0x78,0x69,0x79,0x7a,0x70,0x61,0x7a,0x76,0x78,0x74,0x6e,0x79,0x79,0x71,0x76,0x74,0x7a,0x7c,0x7e,0x78,0x7c,0x79,0x6d,0x73,0x74,0x6b,0x6a,0x7d,0x7d,0x79,0x7d,0x79,0x76,0x74,0x76,0x7e,0x74,0x75,0x77,0x6a,0x71,0x79,0x7a,0x7d,0x74,0x7c,0x7c,0x75,0x4f,0x75,0x7d,0x7b,0x7d,0x79,0x7c,0x7c,0x7e,0x7d,0x7b,0x74,0x76,0x70,0x75,0x7c,0x6b,0x78,0x7d,0x7b,0x43,0x7a,0x6e,0x39,0x7a,0x6f,0x67,0x7d,0x51,0x7e,0x7f,0x77,0x70,0x67,0x7c,0x7e,0x65,0x7a,0x56,0x5e,0x7c,0x7b,0x66,0x7d,0x7b,0x59,0x77,0x7b,0x7b,0x76,0x71,0x4f,0x73,0x6c,0xf9,0x5d,0x77,0x7c,0x72,0x7a,0x76,0x79,0x5c,0x7d,0x7b,0x7d,0x7b,0x7d,0x75,0x7b,0x7d,0x7f,0x7a,0x6a,0x78,0x7c,0x7e,0x75,0x7d,0x3d,0x7b,0x79,0x79,0x66,0x78,0x79,0x7b,0x7e,0x78,0x77,0x7c,0x66,0x66,0x74,0x76,0x7c,0x7e,0x70,0x67,0x7d,0x7a,0x7c,0x71,0x7a,0x7d,0x6c,0x6e,0x7a,0x77,0x7d,0x7c,0x7b,0x4c,0x75,0x79,0x7b,0x7c,0x7d,0x5f,0x60,0x79,0x7e,0x54,0x5b,0x67,0x7e,0x71,0x5a,0x72,0x7a,0x7a,0x69,0x78,0x6f,0x6c,0x71,0x75,0x76,0x77,0x6a,0x43,0x72,0x7c,0x6f,0x77,0x78,0x63,0x74,0x70,0x45,0x5d,0x73,0x6e,0x50,0x6f,0x72,0x76,0x7a,0x73,0x77,0x77,0x7d,0x52,0x76,0x7a,0x77,0x7b,0x77,0x7f,0x7c,0x6f,0x77,0x70,0x60,0x72,0x7d,0x76,0x76,0x7e,0x76,0x7c,0x75,0x59,0x7e,0x7a,0x7a,0x5b,0x7a,0x78,0x58,0x78,0x71,0x7b,0x6f,0x59,0x7b,0x7d,0x79,0x7a,0x7b,0x5c,0x7a,0x7d,0x7e,0x6d,0x7a,0x6f,0x6e,0x7b,0x7d,0x7a,0x75,0x7d,0x72,0x7c,0x74,0x7d,0x7a,0x78,0x78,0x7b,0x6e,0x67,0x7d,0x6c,0x65,0x7e,0x7d,0x7b,0x79,0x77,0x7a,0x77,0x7d,0x79,0x7a,0x77,0x62,0x76,0x7c,0x71,0x77,0x76,0x79,0x72,0x7e,0x7b,0x70,0x30,0x79,0x7b,0x78,0x73,0x36,0x69,0x78,0x76,0x74,0x4f,0x74,0x7c,0x66,0x7e,0x74,0x7d,0x6e,0x2f,0x79,0x7e,0x7c,0x7d,0x7e,0x7c,0x77,0x6e,0x75,0x7d,0x7c,0x73,0x6e,0x7d,0x64,0x7b,0x7b,0x74,0x7c,0x78,0x75,0x79,0x7d,0x7e,0x41,0x7c,0x7b,0x4f,0x7a,0x7c,0x79,0x6d,0x75,0x79,0x54,0x77,0x78,0x7d,0x7c,0x7c,0x72,0x79,0x7d,0x78,0x7b,0x78,0x66,0x79,0x78,0xbf,0x52,0x7e,0x7a,0x7b,0x3e,0x6d,0x7b,0x74,0x7d,0x7c,0x6f,0x73,0x76,0x78,0x67,0x7c,0x72,0x75,0x72,0x75,0x72,0x75,0x66,0x7e,0x6a,0x6d,0x79,0x77,0x78,0x51,0x4e,0x5b,0x62,0x7c,0x57,0x73,0x7d,0x78,0x78,0x74,0x7e,0x77,0x76,0x7c,0x76,0x79,0x7c,0x7a,0x6e,0x75,0x72,0x5f,0x72,0x76,0x65,0x7a,0x74,0x6a,0x7c,0x7c,0x7b,0x7c,0x79,0x32,0x76,0x64,0x79,0x78,0x5e,0x7b,0x6f,0x78,0x6f,0x7a,0x71,0x76,0x7b,0x5e,0x7a,0x67,0x7d,0x7d,0x54,0x59,0x7b,0x75,0x73,0x6f,0x7b,0x7a,0x7b,0x71,0x7c,0x75,0x6d,0x7c,0x7b,0x7d,0x74,0x7e,0x7a,0x7a,0x7e,0x77,0x66,0x7b,0x70,0x7b,0x7c,0x78,0x70,0x5e,0x4d,0x7a,0x79,0x65,0x7a,0x7c,0x68,0x7e,0x6e,0x70,0x67,0x7c,0x7d,0x69,0x67,0x7c,0x7e,0x79,0x22,0x7a,0x7e,0x7c,0x52,0x69,0x5d,0x5a,0x71,0x79,0x6b,0x73,0x69,0x64,0x6d,0x45,0x7c,0x77,0x7b,0x78,0x78,0x7f,0x7b,0x7e,0x7d,0x7a,0x6a,0x7b,0x7b,0x70,0x23,0x78,0x7d,0x71,0x7a,0x67,0x76,0x7b,0x73,0x7b,0x7e,0x6e,0x7c,0x5f,0x7c,0x7c,0x59,0x7b,0x75,0x69,0x76,0x70,0x7e,0x67,0x5d,0x78,0x7c,0x7b,0x68,0x7c,0x6c,0x7d,0x7d,0x76,0x61,0x7d,0x5f,0x7c,0x7a,0x7b,0x74,0x77,0x7d,0x7c,0x7a,0x57,0x72,0x7b,0x5e,0x69,0x70,0x7a,0x78,0x72,0x6d,0x7e,0x6f,0x78,0x66,0x73,0x74,0x7a,0x7c,0x76,0x6c,0x7c,0x75,0x71,0x5a,0x73,0x7d,0x68,0x73,0x6c,0x6a,0x58,0x7b,0x76,0x7d,0x7a,0x7d,0x72,0x72,0x7c,0x7c,0x7d,0x79,0x72,0x7c,0x72,0x76,0x7b,0x7c,0x77,0x77,0x7c,0x79,0x78,0x79,0x77,0x78,0x69,0x75,0x71,0x63,0x7a,0x5f,0x7b,0x7a,0x7c,0x71,0x7b,0x72,0x7d,0x71,0x78,0xe8,0x7d,0x77,0x7b,0x76,0x69,0x58,0x76,0x6f,0x7a,0x7a,0x7d,0x6c,0x61,0x7e,0x79,0x7c,0x70,0x7d,0x7c,0x62,0x7d,0x6e,0x67,0x6b,0x7b,0x73,0x7d,0x79,0x79,0x76,0x7d,0x6c,0x7a,0x73,0x6f,0x7a,0x7c,0x76,0x7a,0x78,0x7d,0x65,0x5d,0x7d,0x6b,0x7b,0x7d,0x6a,0x71,0x7d,0x75,0x7b,0x6a,0x79,0x7b,0x7b,0x7d,0x7b,0x7c,0x74,0x76,0x75,0x7c,0x77,0x3b,0x75,0x7d,0x7c,0x6a,0x7d,0x5c,0x7c,0x79,0x7d,0x75,0x76,0x7d,0x7a,0x77,0x79,0x5f,0x7a,0x7d,0x7d,0x7a,0x78,0x7e,0x7d,0x7d,0x76,0x74,0x6b,0x7d,0x78,0x79,0x3c,0x6b,0x71,0x7d,0x7a,0x51,0x79,0x78,0x7a,0x6d,0x73,0x71,0x79,0x78,0x77,0x72,0x72,0x5f,0x6e,0x6b,0x7c,0x5c,0x61,0x72,0x7d,0x75,0x7a,0x7c,0x7b,0x67,0x7d,0x69,0x63,0x79,0x7d,0x79,0x74,0x5a,0x6b,0x63,0x61,0x7b,0x7c,0x5f,0x79,0x7d,0x7a,0x63,0x7c,0x77,0x3b,0x7b,0x78,0x76,0x7b,0x7d,0x7a,0x46,0x7c,0x7c,0x6f,0x70,0x7a,0x7c,0x77,0x7b,0x7b,0x7b,0x79,0x72,0x70,0x71,0x7a,0x77,0x65,0x78,0x53,0x76,0x71,0x7c,0x73,0x74,0x6e,0x50,0x60,0x71,0x7b,0x78,0x7c,0x7d,0x78,0x7b,0x79,0x7b,0x5e,0x76,0x77,0x75,0x60,0x44,0x7d,0x7b,0x38,0x7c,0x73,0x7d,0x75,0x7d,0x74,0x63,0x7c,0x7d,0x74,0x77,0x7c,0x7a,0x7b,0x63,0x78,0x71,0x7b,0x72,0x7d,0x7a,0x78,0x7e,0x66,0x7d,0x7c,0x7c,0x7d,0x6b,0x7a,0x68,0x58,0x61,0x70,0x74,0x78,0x74,0x77,0x75,0x55,0x7e,0x6a,0x7a,0x68,0x77,0x79,0x7b,0x78,0x7e,0x77,0x68,0x69,0x76,0x41,0x7c,0x70,0x7d,0x7a,0x71,0x7d,0x7a,0x7d,0x67,0x74,0x69,0x51,0x7e,0x7b,0x68,0x70,0x6f,0x6a,0x79,0x70,0x7e,0x72,0x7b,0x7b,0x7a,0x4b,0x71,0x7a,0x7c,0x7c,0x64,0x7d,0x7d,0x7c,0x78,0x75,0x7b,0x7e,0x6d,0x7b,0x77,0x7d,0x75,0x7c,0x6d,0x6a,0x77,0x6f,0x7d,0x76,0x77,0x7e,0x76,0x7c,0x7a,0x79,0x4e,0x73,0x71,0x6c,0x67,0x7d,0x7d,0x7a,0x6d,0x76,0x7d,0x6f,0x7d,0x7d,0x72,0x7d,0x35,0x7c,0x79,0x77,0x7d,0x6d,0x74,0x73,0x73,0x59,0x7b,0x7c,0x7d,0x7c,0x7a,0x74,0x7d,0x77,0x7a,0x79,0x7c,0x7d,0x7c,0x7b,0x6e,0x79,0x76,0x7c,0x71,0x4f,0x7c,0x76,0x79,0x5e,0x75,0x7d,0x7c,0x73,0x7c,0x4b,0x7a,0x74,0x7e,0x73,0x77,0x79,0x77,0x7a,0x7b,0x78,0x64,0x7d,0x76,0x73,0x7c,0x7c,0x79,0x5f,0x67,0x7c,0x74,0x70,0x7d,0x7b,0x79,0x77,0x5f,0x78,0x77,0x7b,0x68,0x4b,0x7a,0x75,0x79,0x74,0x73,0x6e,0x6c,0x79,0x78,0x64,0x7e,0x67,0x76,0x74,0x78,0x77,0x70,0x67,0x74,0x7c,0x75,0x77,0x78,0x7a,0x79,0x78,0x69,0x7c,0x6a,0x6d,0x7b,0x78,0x7a,0x7a,0x77,0x6c,0x76,0x7c,0x77,0x73,0x7b,0x71,0x6d,0x4c,0x50,0x7c,0x77,0x77,0x76,0x65,0x76,0x7d,0x68,0x7a,0x75,0x7c,0x7e,0x7d,0x7c,0x79,0x73,0x7e,0x65,0x70,0x78,0x7b,0x7d,0x78,0x7b,0x7b,0x6a,0x71,0x79,0x79,0x7c,0x78,0x75,0x0,0x0,0x0,0x0,0xc2,0xea,0xff,0xff,0x4,0x0,0x0,0x0,0x4,0x0,0x0,0x0,0x2,0x0,0x0,0x0,0xd2,0xea,0xff,0xff,0x4,0x0,0x0,0x0,0xc,0x0,0x0,0x0,0x1,0x0,0x0,0x0,0x80,0x0,0x0,0x0,0x1,0x0,0x0,0x0,0x0,0x0,0x0,0x0,0x0,0x0,0x0,0x0,0xf2,0xea,0xff,0xff,0x4,0x0,0x0,0x0,0x0,0x8,0x0,0x0,0x8,0x1,0xff,0xb,0xe3,0x2,0xf3,0xc1,0x1c,0xea,0xf8,0xb1,0x92,0x1,0xe6,0xd7,0x2,0x1a,0x10,0x23,0xd1,0x2a,0xbb,0xd9,0xe3,0xd4,0x4,0xfb,0x0,0x93,0xfc,0xb,0xd2,0xdb,0xe2,0x81,0xe0,0xd4,0xe2,0xe7,0xea,0xac,0xc5,0x4,0xee,0xc4,0xf1,0x14,0xd,0xf3,0xdc,0x17,0xd6,0xff,0x21,0xb1,0xca,0xf1,0xdc,0xe9,0x10,0xca,0x1a,0xf1,0xd6,0x54,0x17,0xca,0xd,0xb6,0x83,0xc2,0x5,0xba,0xd6,0xf1,0xe9,0xc8,0xf8,0xa9,0x86,0xe0,0xea,0xca,0xdc,0xe0,0x98,0x24,0xdc,0xa8,0x27,0xf6,0x11,0xd8,0x3,0xdc,0xe4,0x3,0xd8,0x22,0x13,0x8e,0xaa,0xf8,0xc,0xc9,0x6,0x26,0x93,0xeb,0xfa,0xb1,0xf5,0x15,0xc6,0xcb,0xc0,0xca,0x1c,0xe9,0xd3,0xdc,0x3f,0x2,0xcb,0xc6,0xc,0x14,0x14,0x24,0xf8,0xed,0xd,0x22,0x9,0x4f,0x22,0x23,0xef,0x15,0x14,0x1b,0xe5,0xf2,0x10,0xed,0x3b,0xf0,0x46,0xfb,0x2f,0x26,0xf3,0xf6,0x1e,0x7,0xf5,0x57,0x9,0x14,0x18,0xe1,0xf1,0x7f,0x22,0x7,0xf,0x12,0xdd,0x7,0x3c,0x1f,0x15,0x11,0x21,0x10,0xf0,0x17,0xe7,0x1b,0x1c,0xf3,0xd1,0x7,0x57,0xeb,0x30,0x1d,0x24,0xc,0x2c,0xef,0x20,0xf7,0x22,0x35,0xb,0x24,0x3d,0x58,0x29,0x29,0x10,0x1c,0x22,0xf0,0xea,0x16,0x45,0x10,0xf9,0x26,0x3d,0x1f,0x4a,0xe5,0xf8,0x38,0x11,0xe4,0x7,0x27,0xdd,0xe,0x1e,0x32,0xf,0x1d,0x4,0x68,0x5,0x1f,0xe6,0xf,0xf4,0xee,0xd,0x23,0x16,0xe8,0x2f,0x2b,0xa,0xf5,0x2c,0x1f,0x6,0x2e,0x2b,0x19,0xc7,0x1a,0x11,0x17,0xf,0x10,0xe3,0x1,0xcc,0x2,0xd6,0xfb,0xde,0xb2,0xf3,0xd6,0xd7,0xec,0xa3,0xf1,0xf6,0x9,0xff,0x4,0xbe,0xbb,0xc4,0xe1,0xd0,0xe2,0xf8,0xf8,0xff,0xd1,0xef,0x81,0xe9,0xf5,0xfa,0xf4,0xe8,0x9d,0xa8,0xee,0xfb,0xf,0xe3,0xce,0xdf,0xb7,0xb3,0xe7,0xe9,0xf4,0xea,0xf5,0xf3,0xe8,0xe1,0x5,0x18,0xe4,0xa5,0xf2,0xdb,0xe6,0xe7,0xd6,0xea,0xd8,0x1,0xe5,0xf9,0xe0,0xdc,0xca,0xab,0xac,0xdc,0xc2,0xfc,0xe1,0xf9,0xc1,0xe7,0xb9,0xc1,0xe2,0xdf,0xeb,0xdd,0xe0,0xb5,0xf8,0xa,0xd3,0x1,0xe6,0xd4,0xbe,0xfe,0xe5,0xe7,0xed,0xeb,0x1e,0xd0,0xc5,0xaf,0xdb,0x7,0x1,0xf5,0x17,0xb9,0xce,0xf5,0xc9,0xd3,0xcd,0xa6,0xba,0xeb,0xcd,0x1d,0xee,0x1c,0xcd,0x12,0xdb,0xcf,0x8d,0xec,0xe,0xd5,0xa,0x5,0xde,0x9,0x1a,0x1d,0xc3,0x1c,0xe8,0xf7,0xe1,0xd5,0xd,0xf5,0x4,0x12,0x16,0xc6,0xfb,0xcc,0xea,0xd9,0x6,0xf9,0xe2,0xff,0xe5,0xf7,0xbd,0xf3,0xff,0x10,0x14,0xe8,0x81,0xb8,0xd0,0x16,0x1a,0xe2,0xaf,0x6,0xe9,0xef,0xd5,0xf7,0xe0,0xe7,0xde,0xf4,0xfb,0xea,0xdb,0x22,0xef,0xd1,0xf9,0xc8,0xa,0x7,0x10,0xe3,0xea,0xda,0xef,0xda,0xc7,0xe2,0xe3,0xc8,0x88,0xe5,0xca,0x2,0xbf,0xfa,0x7,0x1,0xfb,0xf2,0xec,0x1a,0xd9,0xbf,0xb0,0xe1,0xfc,0xd9,0xe0,0xed,0xef,0xcb,0xe0,0xf9,0xf4,0x8,0xa,0x5,0x17,0xf0,0xe5,0xde,0xfb,0xd2,0xef,0xfe,0x23,0xdc,0xf3,0xf6,0xfc,0xdb,0x9,0xc3,0xb,0x2,0xfd,0x27,0xd5,0x7,0xf6,0x4,0xc8,0xd0,0xd7,0xb,0xef,0xfb,0x11,0xd2,0x1f,0xb9,0xc,0xe9,0x86,0xff,0x1b,0xe,0xee,0xce,0xdc,0xf7,0xc8,0x6,0x1e,0xe1,0xdf,0xc5,0xd7,0xc8,0xd,0x22,0x7,0xec,0xfb,0x7,0x9c,0xba,0xcf,0xe1,0xdc,0x17,0x83,0xad,0xdd,0x9,0xf0,0xe5,0xe2,0xed,0xa,0xd0,0xfb,0xe5,0xbf,0xee,0xcb,0xfe,0xec,0x1e,0x15,0x5,0xe0,0xcf,0xe7,0xc5,0xce,0xde,0x14,0xda,0xf,0x1b,0x1e,0xf0,0x8,0xff,0x2,0x81,0xa9,0x4,0xbd,0x1,0xeb,0xe4,0xed,0x15,0xb7,0xbc,0xd0,0xe0,0xf6,0xd8,0xe3,0xe4,0xfb,0x1,0xe3,0xe7,0xdd,0x8,0x98,0x12,0xe3,0xf5,0xf5,0xd9,0xe1,0xbf,0xa1,0xc6,0xf8,0xd4,0x15,0x24,0x14,0xc1,0xe8,0x5,0xf4,0xd7,0xde,0xac,0xc8,0xdb,0xc6,0x20,0xc6,0x17,0xb8,0x2a,0xff,0xd6,0xcf,0xf3,0xf8,0x7,0x9,0x3,0x11,0xce,0xe0,0xf7,0xcf,0xc,0x9,0xf3,0xf8,0xe7,0xee,0xc9,0xfc,0xd1,0xe9,0xf3,0x6,0xa8,0x1,0xd5,0xda,0xe,0xfa,0x3,0xeb,0xf7,0xab,0xd2,0x6,0xdf,0xde,0xd,0x81,0xcc,0xc4,0xd,0xf6,0xeb,0xea,0xeb,0xe7,0xe1,0xb6,0xdf,0xed,0xf4,0x0,0xdf,0xf9,0xe4,0x17,0xff,0xd9,0xcc,0x31,0xc8,0xcc,0x10,0xe8,0xe5,0xd3,0x28,0xfb,0xa,0xd9,0x1,0xe1,0xac,0x9e,0xa,0xc6,0x0,0xd,0x9,0x6,0xeb,0xb3,0xc9,0x18,0x21,0xe9,0xbe,0xda,0xa5,0xf8,0xec,0xe2,0x9,0xf3,0xfb,0xd8,0x17,0xf1,0xdd,0xe,0xe8,0xd,0xe9,0xbd,0xe0,0x19,0xfa,0xa7,0x1f,0xed,0xd7,0xb0,0xfa,0xd7,0xd2,0x1c,0xd2,0xf6,0xde,0xff,0x13,0xd4,0xfd,0xe3,0x14,0xdf,0xd6,0xae,0xee,0xe2,0xda,0xee,0x1,0xf1,0xff,0x12,0xf2,0xe4,0xef,0xb,0xe3,0xfb,0xc5,0x0,0xff,0x5,0xf5,0xd8,0xf8,0x5,0xf1,0xc,0xca,0xec,0x12,0xf7,0x17,0x12,0x4,0xac,0x6,0xf,0xf8,0x20,0x23,0x9a,0xee,0xcc,0xdf,0x0,0x1c,0xca,0xe0,0xe3,0xd6,0xb7,0xf2,0xd0,0x1d,0xe4,0xe4,0xda,0x15,0xc,0x9,0xcd,0xa7,0xf5,0xa,0xdf,0xfb,0xef,0x13,0x7,0x6,0x28,0xe3,0xe,0xe6,0xe6,0xa9,0x81,0xed,0xe3,0xea,0xf7,0x7,0xd8,0xe1,0xc9,0xd8,0x1b,0x1,0xe8,0xc3,0xe3,0xbb,0x18,0x0,0xca,0xf9,0xf,0xed,0xe7,0xea,0xe2,0x4,0xe0,0xed,0xfd,0xcf,0xf0,0xfb,0x13,0xf1,0xcf,0xf7,0x21,0xc2,0xc8,0xeb,0x5,0xe9,0x24,0xd9,0x11,0xfd,0xec,0x2a,0x18,0x12,0xb7,0x4c,0x13,0xf5,0xb8,0xef,0xde,0xf5,0xf1,0x3c,0xd7,0x3,0xc,0xc8,0x43,0x36,0x1e,0xd5,0x1e,0x1b,0xe5,0x21,0x2f,0x27,0xd,0x33,0xc7,0x56,0x23,0x24,0xb,0x16,0xdd,0x23,0xa,0xd6,0x5c,0xef,0xd9,0xf4,0xfd,0xfe,0x57,0x28,0x41,0xf9,0x15,0xd6,0x51,0x30,0xef,0x44,0x5b,0xe4,0x1b,0xf8,0x17,0xf8,0xfa,0xdd,0xc6,0x2b,0xa,0x1a,0x1,0x8,0x32,0x26,0x38,0x13,0xd,0xda,0x7,0xef,0x1f,0x26,0x7f,0x48,0x36,0xc,0xd3,0x6,0xdc,0xda,0x21,0x26,0x10,0x5b,0xff,0x11,0x63,0x29,0x25,0x4a,0x25,0xf5,0x3a,0x34,0xde,0x13,0x13,0x2,0x16,0x25,0xfe,0xdb,0x1a,0xa,0x27,0x18,0xdc,0x4,0xe,0xc5,0x29,0x3f,0x48,0xe7,0x12,0xfd,0x4,0x4c,0xe0,0x3b,0xb,0x17,0x1c,0xed,0x38,0x84,0x8,0x47,0x2c,0x0,0xec,0xd,0xc0,0xef,0xd3,0xd7,0xf1,0xb7,0xc3,0x0,0xd8,0xd3,0xe3,0xc1,0xa,0xdf,0xf,0xdf,0xf8,0xd4,0xf9,0xb0,0xf,0xdd,0x22,0x13,0xdc,0xe9,0xfa,0xfb,0xb3,0xfd,0xc5,0xc5,0xc,0xdb,0x9f,0xd2,0xb2,0xde,0xdb,0x17,0x81,0xea,0xc8,0xf0,0xbd,0x1b,0xc0,0xe4,0xea,0xfa,0xe,0xfe,0xe5,0x13,0xd5,0xa7,0x8,0xe1,0xe6,0x15,0xe5,0xe9,0xd2,0xec,0xff,0x14,0xc3,0xaf,0xb6,0xb2,0x91,0x15,0xb8,0x1,0xaa,0x20,0x0,0xd3,0x92,0xc8,0x10,0x6,0xc3,0xc6,0xd9,0x95,0xcf,0xcd,0xb2,0xd,0xe7,0xc5,0x9b,0xd6,0xc5,0xc3,0xea,0xc6,0xe1,0xc5,0xc2,0x9e,0xd5,0xf1,0xeb,0x20,0x23,0x81,0xd8,0xf8,0xd1,0xfe,0xcd,0x89,0xb1,0xc2,0xde,0x2e,0xd3,0x16,0x9c,0x11,0x8e,0xaf,0xbe,0xb0,0x8,0xed,0xc,0x2,0xe,0xb4,0x6,0x25,0xd2,0xf5,0xdf,0xd,0xcf,0xd2,0xe6,0xeb,0xd6,0xd,0xf5,0xf3,0x25,0xc8,0xda,0xca,0xda,0xcd,0x14,0x3,0xf9,0xf9,0x8f,0x1c,0xa,0x8,0xee,0x1a,0x98,0xa6,0xb5,0xda,0xd,0xfd,0x94,0xd0,0xe2,0xee,0xcc,0xfd,0xdd,0x4,0x8,0xc6,0xc2,0xdc,0xe9,0x25,0xcf,0xb4,0x1e,0xb3,0xfc,0x16,0xec,0xbf,0xe4,0xc9,0x23,0xf4,0xe6,0x21,0xbe,0xbb,0x96,0xf4,0xf8,0xf2,0xf4,0x17,0xf2,0xdb,0xb0,0xa5,0x1e,0x17,0xe8,0xe8,0xa2,0x81,0x6,0xd7,0xe1,0xe9,0xe1,0xd0,0xb6,0xf9,0x16,0xf4,0xc5,0xde,0x3,0xc9,0xc3,0xf3,0xe,0xeb,0xac,0x2b,0xef,0xd5,0xed,0xd6,0xfa,0xd9,0xc0,0xd4,0xdb,0xd0,0xd8,0xe2,0xfb,0x1e,0xb3,0xc,0x1b,0xc5,0xf5,0xc1,0xe5,0x7,0xd9,0xeb,0xde,0xf2,0xf9,0x14,0xb0,0xe4,0xfb,0x17,0xe2,0xc4,0xee,0xfd,0x2,0xe4,0xee,0xfa,0x1c,0xf7,0xe4,0xf5,0xf0,0x9,0xe1,0x3,0xf0,0x9,0xe9,0xb7,0xe0,0x4,0xe4,0xf5,0x81,0xd7,0x5,0xdb,0xef,0xfb,0xc5,0xf0,0xe2,0xda,0xbc,0x1,0xfd,0xf3,0xee,0x0,0x19,0x3,0x25,0x8,0x17,0xce,0xe1,0xfc,0xea,0x5,0xdd,0x10,0xd7,0xd,0x1b,0xe8,0xeb,0xe9,0xe9,0xa4,0xa8,0xea,0xf2,0xdd,0xee,0xf5,0xc8,0xe9,0xfc,0xdc,0x7,0x8,0xa3,0xdd,0xd2,0x3,0xe2,0xe3,0xfa,0x10,0xea,0xa,0xda,0xf5,0x24,0x8,0xfb,0x23,0xe4,0x3,0xc1,0xf6,0xfc,0xe7,0xdd,0xfe,0xa,0xaf,0xd2,0xf7,0xef,0xd2,0x17,0xe6,0xea,0xcb,0x5,0x8,0xeb,0x1d,0xba,0x26,0xef,0xe1,0xc3,0xfb,0xb,0x1f,0xe7,0xc7,0x1e,0xa,0xcc,0xff,0x9b,0xf1,0x33,0x32,0xbf,0x91,0xc,0xf7,0xcf,0xda,0x3,0xec,0xcd,0xbf,0xfe,0xe0,0x2f,0xeb,0xdc,0x12,0xdf,0xe7,0x8d,0xa,0xe4,0x21,0x19,0x20,0x90,0xd7,0xbd,0xd5,0x0,0x0,0x8f,0xc9,0xf,0xf6,0xcb,0xe4,0xbd,0xff,0xf7,0xee,0xe5,0xa,0x9,0x21,0xc4,0x93,0x15,0xda,0x1c,0x1d,0xd4,0xd2,0x1b,0xdd,0x37,0xfd,0xf,0xfb,0xdd,0xac,0x90,0xda,0xcf,0xfc,0xd,0xe2,0xbd,0xdf,0xda,0x81,0xe4,0xe4,0xce,0xcd,0x8c,0xa5,0xe2,0x10,0xc8,0x30,0xd0,0xa,0xd0,0x2,0xfa,0xf5,0xc5,0x17,0xfd,0xed,0xb9,0xea,0xf9,0xeb,0xfd,0x1f,0xea,0xca,0x6,0x19,0xf3,0xbb,0xcc,0xc2,0xdd,0xe0,0xd1,0x7,0xf0,0xfc,0xae,0x2a,0xfb,0xe1,0x8a,0xd8,0xec,0x1f,0x13,0xf5,0x12,0x7,0xd,0x26,0x4b,0xf2,0x20,0x6,0xc,0x3a,0x12,0x1a,0x2b,0xd,0x21,0x5,0x1f,0x0,0x1d,0x21,0x1,0x1,0x13,0xf5,0x1e,0xff,0x43,0xff,0x1b,0xf2,0x1,0xfa,0x7f,0x2a,0xa,0x2,0xd4,0xef,0x49,0x4,0x0,0xc,0x2a,0x4,0xfe,0xfb,0x21,0xe,0x10,0xfa,0x22,0x1,0x9,0x27,0x18,0x1f,0xf0,0x1d,0xf6,0x9,0x21,0x24,0xfc,0xfc,0x16,0xe7,0x11,0x38,0x51,0xfd,0x21,0x25,0xfd,0xf3,0x15,0x19,0xc,0x4e,0xf9,0xf5,0x13,0x9,0x1c,0x37,0xa,0x23,0xd,0xfd,0xf2,0x6,0x39,0xf0,0xf9,0x2f,0xf,0xf7,0xf8,0xf9,0x44,0x2b,0x11,0xfb,0x1c,0xff,0x18,0x36,0x20,0xa,0xec,0x12,0x19,0x21,0xfa,0x1e,0x1c,0xe1,0x1a,0x2,0x1a,0xea,0x39,0x34,0x1e,0x1e,0x12,0x15,0x7,0xd8,0xe1,0xcb,0xef,0x4,0xbc,0xde,0xf1,0xec,0xf9,0xd7,0xf7,0xdb,0xfc,0xd3,0xe,0xbe,0x1d,0xcb,0xd0,0xc5,0x11,0xd6,0xd7,0xdf,0xe1,0xdf,0xa8,0xcc,0xdb,0xe5,0xe8,0xf5,0x92,0xcb,0xbd,0x15,0x7,0xf5,0xbe,0xe7,0xec,0xc4,0xcc,0xf2,0xf2,0xe2,0xe5,0xe9,0xe2,0xd2,0xd2,0xf7,0xd2,0xd0,0xc,0xd1,0xd4,0x1,0xfb,0xe4,0xdb,0xd9,0x1,0xe8,0xd0,0xe1,0x6,0xde,0x81,0xba,0xc7,0xd4,0xfb,0x6,0xfa,0xf8,0xb9,0xa1,0xe6,0xee,0xf6,0xce,0xac,0xd2,0xe4,0xf0,0xe3,0xf8,0x7,0xbd,0xdb,0xe8,0xe7,0x0,0xf7,0x6,0x4,0xbb,0xdc,0xd9,0x1,0x15,0xcc,0x1b,0xf5,0xe3,0xca,0xe3,0xf4,0xe5,0xbf,0xb2,0xde,0xdc,0xff,0xf7,0xc4,0x13,0xd0,0xe9,0xda,0xb2,0xd7,0xd0,0x12,0xd,0x19,0x3,0x6,0xd7,0xfa,0xd4,0xc1,0x6,0xf7,0x23,0xe6,0xd6,0xfa,0xd5,0xd5,0xb0,0xeb,0xb7,0xf4,0xcc,0xd,0xc6,0xd9,0xd5,0xda,0x9,0x15,0xd9,0x81,0xc7,0xe,0xe0,0x2,0xe,0x84,0xa3,0xee,0xf3,0xf1,0xec,0xcc,0xf0,0xb2,0xc1,0xa4,0xfe,0xc7,0xa,0xb5,0xd3,0xe3,0x19,0xe,0xf6,0xcb,0xd3,0xf7,0xa0,0xc0,0x13,0xe3,0xed,0xe0,0xfd,0xd3,0xf2,0xce,0xe7,0xed,0xb2,0xbd,0xde,0xb1,0xda,0xda,0xfb,0xbd,0xe3,0xb7,0x83,0xed,0x11,0xc4,0xaa,0xc5,0x92,0xe,0x17,0xd3,0x16,0xd1,0x2,0xe9,0xed,0x1e,0xc0,0xf2,0xd6,0x11,0xc3,0x9a,0xb0,0xa,0xf0,0xb2,0x31,0xfc,0x9d,0xba,0x2,0xc9,0x98,0xe0,0xb4,0xd8,0xb2,0xee,0xfb,0xe5,0x0,0xa2,0xf3,0xe2,0xe1,0x8d,0xe8,0xa,0xd4,0xf,0xe9,0xe,0xe1,0x7,0x9,0xb3,0xe,0xf2,0xd4,0xb9,0xd6,0xee,0xd6,0xcb,0xd1,0xc6,0xdc,0xf6,0xcf,0xd4,0xb4,0xf,0xd0,0xfa,0xf1,0xf7,0xe1,0x82,0xe0,0xe9,0xe8,0x27,0x8,0x82,0xdc,0xb6,0xa,0xe1,0x5,0xca,0xd2,0xc6,0xe6,0xea,0xcf,0xdb,0x0,0xe7,0xe0,0xf3,0xe4,0x7,0x1f,0xc8,0x81,0xe5,0xcc,0x0,0xee,0xaa,0xc9,0xd2,0xfb,0x3,0xe1,0xbd,0xb8,0x3,0xd4,0x99,0xd6,0xa8,0xc2,0xd1,0x18,0xc3,0xe3,0xc1,0x8e,0xb,0x9,0xdf,0xc5,0x98,0xc2,0xdf,0xf3,0xe6,0xf4,0x9,0xbb,0xb8,0xf4,0xd2,0xe3,0x1a,0x12,0xa,0xfa,0xe2,0xbe,0xd6,0xd0,0xc4,0xeb,0x2a,0xb1,0xec,0x5,0xf0,0xc4,0x18,0xd6,0xca,0x89,0xff,0xdf,0xd9,0x20,0xe7,0xfb,0x0,0xdd,0xd3,0xe7,0xf7,0x0,0x0,0x0,0x0,0x2,0xf3,0xff,0xff,0x4,0x0,0x0,0x0,0x0,0x4,0x0,0x0,0x11,0xf8,0xfd,0x11,0x48,0xe6,0xed,0xe8,0x15,0xf5,0x19,0xec,0xdc,0xfd,0x22,0x1,0x19,0x24,0x27,0xb,0xd,0xd,0x12,0x22,0xd8,0x5,0x15,0xa,0x33,0xf9,0xd5,0xe9,0x2c,0xef,0x15,0xff,0xb,0x22,0x1,0xd,0xeb,0xf6,0xcc,0xea,0x2a,0xea,0x26,0x1,0xfc,0x1b,0x14,0x8,0xe5,0xf3,0x43,0x21,0xef,0xfb,0x3,0x26,0xf8,0xff,0x8,0x1f,0xee,0x23,0xf4,0x8,0x20,0xd7,0xf1,0xc4,0x1d,0xf1,0x3,0x27,0xfd,0xe,0x21,0x27,0x58,0xf5,0xe1,0xe7,0xce,0xdb,0xc6,0x19,0xfb,0x7f,0xeb,0x1a,0xda,0x2b,0xfe,0xfc,0xf0,0xb6,0x38,0xff,0x4,0x25,0x22,0x25,0xf0,0xbc,0x20,0xf5,0x22,0x21,0x9,0xf0,0xbc,0xb,0xdd,0xe5,0x6,0xf,0xce,0xa,0x18,0x1b,0xee,0x2b,0x25,0xc5,0x29,0x1,0xe6,0x24,0x9b,0xf2,0x64,0x9,0x3b,0xff,0xb,0x16,0xd8,0xd5,0xa7,0xfd,0x2a,0xdf,0xe3,0xc1,0xb4,0xfc,0x7f,0xe3,0xc3,0xb,0xc2,0xec,0xe8,0xde,0x5,0xc9,0xd2,0xeb,0xeb,0xdb,0x6f,0xed,0xc8,0xea,0xf7,0xf4,0x6,0x1a,0x2b,0xb4,0x27,0xa1,0xf9,0xfb,0xbd,0xe8,0xdc,0xee,0xde,0xc9,0xc5,0xe9,0x11,0xe5,0xbe,0x4,0x21,0xc9,0x10,0xf4,0xb3,0xe3,0x18,0xf1,0xf5,0x6d,0xd8,0xb5,0xc2,0xec,0xc6,0xe2,0xea,0xeb,0x8,0xdb,0xcf,0xef,0xf4,0xd8,0xed,0xdb,0x3,0xc4,0x1e,0xa0,0xe7,0xf,0xf0,0xb5,0x0,0xd5,0xaf,0x38,0xcf,0x1e,0xc9,0xc7,0xf3,0x17,0xcf,0xd,0xc7,0xa,0x8,0x1,0x1d,0xd8,0xc2,0xf7,0x1a,0x1b,0x20,0xd9,0xf3,0xde,0x1e,0x17,0xd8,0x2c,0xd3,0xe2,0xb,0xe0,0xe8,0x3a,0x15,0x6,0xcb,0xf,0xf8,0xdb,0xeb,0xf3,0x3,0xfc,0xd,0x17,0xe2,0x18,0xa,0x39,0x22,0xfa,0x36,0x1e,0xf8,0x2f,0xfd,0x2a,0x10,0x24,0x18,0xa5,0xd9,0x17,0x1f,0xeb,0x61,0x46,0xea,0x16,0x5,0x29,0xc,0x7,0xf,0xd9,0xc5,0xc0,0xd,0x7,0x3f,0x28,0xec,0x49,0xe,0x29,0x7,0xe7,0xf2,0xd6,0x2,0xa,0x6,0x3d,0xe4,0x2,0x2d,0xf6,0xef,0xee,0x18,0xa,0xd9,0xce,0x13,0x8,0x11,0x34,0x1d,0x1d,0x29,0x26,0x43,0xed,0xf5,0xfb,0x27,0xe1,0xb,0xde,0x2c,0xaa,0x9,0x17,0x5,0xe0,0xeb,0xe9,0x1c,0xef,0xea,0x10,0x22,0x1a,0x14,0xf5,0xfb,0x7f,0xed,0x12,0x25,0x28,0x27,0xc,0xf3,0xde,0xe3,0xec,0x32,0xec,0xf4,0xeb,0xd8,0xd6,0xb,0x15,0x7,0xdd,0xe8,0xf3,0xf,0x23,0x40,0x1b,0x8e,0x6,0xe5,0x33,0x11,0xdd,0x40,0xc2,0x50,0xd6,0xb3,0xd0,0xf5,0x3e,0x5,0xf4,0x97,0xe0,0x2c,0x1d,0x59,0x1d,0x14,0x4c,0xb,0x29,0x63,0xf4,0xf8,0xf2,0xbe,0x15,0xe3,0xe6,0x21,0x3c,0x2d,0xe2,0xc,0x22,0x25,0xf2,0xee,0x1e,0x2f,0x2f,0xcf,0xef,0x40,0x1b,0x48,0x1,0xdc,0xf1,0xf2,0x1e,0x36,0x2f,0xf2,0xf4,0xc,0xe3,0x21,0x52,0x2f,0xf4,0xc,0x41,0x3f,0xaa,0x12,0xfc,0x58,0x35,0x18,0x5,0xde,0xf4,0x10,0x84,0x2c,0xe1,0xbc,0xcc,0x19,0xf9,0xeb,0x13,0xcf,0xe8,0xe6,0xe6,0x3c,0x4d,0xbe,0x6,0xee,0x47,0x13,0xe4,0x30,0xfa,0xce,0x23,0x5e,0xef,0x2a,0x1a,0xfc,0x2,0x31,0x16,0xc9,0xc,0x12,0x34,0xff,0xee,0x7f,0x97,0x7,0x12,0xc1,0x31,0x12,0xd2,0x21,0x15,0xec,0xb,0x31,0xbd,0xcc,0x32,0x13,0x52,0x1,0x2f,0xf2,0xe5,0xf2,0x2c,0xae,0x45,0x3d,0xfa,0xff,0xc,0xea,0xb2,0x9,0xff,0xe1,0x2e,0x31,0x19,0x32,0xfc,0xca,0xd1,0x34,0x7f,0x1,0x7,0x23,0xf,0xe,0xe6,0xea,0x15,0xf3,0xf7,0xe9,0xd9,0x2a,0x1,0xf0,0x13,0xbf,0x56,0xd,0xe8,0x2a,0x1a,0x29,0xf0,0x0,0x6e,0xee,0xb,0x1d,0xe3,0xd7,0x5f,0x2f,0x53,0x3,0xe7,0x21,0x72,0xfd,0x4f,0x5,0xb,0xae,0xc4,0xf0,0x42,0xd1,0x4b,0x6,0x28,0xc,0x18,0xea,0xb7,0xfc,0xfa,0xd9,0x29,0x4,0x84,0x2d,0xe5,0x58,0x4b,0x2d,0xe0,0xd0,0xe2,0x11,0xb1,0x67,0x30,0x2a,0xd9,0x16,0x18,0x25,0x26,0x78,0x9,0xc,0xcd,0xd6,0xcf,0xef,0x41,0x11,0x14,0xc1,0x14,0x21,0x1,0x17,0xf6,0x8f,0xf6,0xd8,0xf,0xf1,0xbe,0x2,0x6d,0x6a,0x24,0x1,0x16,0xfc,0xb,0x15,0x2a,0x81,0x4,0x51,0x2a,0x3c,0xf4,0x3,0x1d,0xea,0x9,0x34,0xbd,0xc9,0xf8,0xeb,0xd1,0xd2,0x4b,0x6,0x21,0xed,0xed,0x23,0x5c,0x8,0x18,0x2b,0xe7,0x48,0x30,0x25,0x33,0x23,0x28,0x25,0x9c,0xee,0x38,0xe,0xcf,0xd5,0x20,0x15,0xff,0xf,0x1f,0x2a,0x28,0xf9,0xf6,0x60,0x23,0x9,0x19,0x1e,0xac,0x2d,0x10,0x1f,0xb8,0x30,0x8,0x1c,0x2e,0xc4,0x26,0xc7,0xf5,0xfc,0x1a,0x3,0x37,0x15,0xd1,0x1e,0xef,0x4c,0x33,0xd9,0xf7,0xdf,0x9,0xe5,0x7,0xe6,0x6d,0xcb,0x2c,0xc7,0x5,0xca,0x34,0x15,0x22,0x45,0x4c,0xeb,0xea,0x28,0xd,0xff,0x38,0xd,0xbb,0x6,0x50,0xed,0x20,0x18,0xe2,0xd,0xcb,0x4d,0xf4,0x16,0x25,0xe0,0xe8,0xea,0xdf,0xdb,0xfd,0xd2,0xc,0x1b,0xe0,0x6,0xe1,0x7f,0xcc,0xf6,0xee,0x22,0x1,0x2,0xdf,0x4,0xb1,0xfe,0xda,0xfe,0x13,0x1,0xe9,0xe8,0xc3,0x1f,0x38,0x10,0xce,0x30,0xfc,0x16,0xc7,0xdc,0x9f,0xd4,0x23,0xef,0xd1,0xd8,0x11,0xcf,0x32,0xc1,0xe2,0xb1,0x4d,0xc,0x9,0xea,0xa,0xc6,0xec,0xfd,0xc9,0x4,0x10,0xd5,0xed,0xce,0xdb,0xc,0x16,0x7,0x1c,0xd3,0xdd,0xbf,0x1d,0xe9,0xa9,0xe7,0xb1,0xe,0xd4,0xf3,0xb9,0x47,0xf7,0xf5,0xec,0xf7,0xef,0xce,0x1f,0xeb,0xd1,0xa0,0x43,0xbd,0x0,0xd9,0x38,0xe1,0xc4,0x1b,0xd2,0xc1,0xb,0xe9,0xf5,0xe,0x2,0xd,0xfa,0xdb,0xfd,0x17,0x17,0xf9,0x9,0xf5,0x11,0xcb,0xfd,0x10,0x9,0xc4,0x1c,0x11,0xe4,0x16,0xe3,0xec,0xb,0x16,0xb0,0xb,0xdf,0xfa,0x38,0xda,0x1f,0xf3,0xec,0x2d,0xf2,0x1,0x15,0xb0,0xeb,0xf7,0xbb,0x6,0xe3,0x9f,0x2c,0x28,0xee,0x5b,0x45,0xf6,0xc9,0x19,0xee,0xf,0x13,0x7,0xd8,0xe8,0xec,0xf9,0xd9,0x1a,0x4,0x11,0x2b,0xf5,0x1d,0xf9,0xc,0x2c,0xf0,0x17,0xc3,0xee,0x3b,0x3c,0xeb,0x22,0x9,0xe7,0xd7,0xb8,0xdc,0xc8,0xe2,0xeb,0x35,0x26,0x34,0x11,0xdf,0xf4,0x1c,0x57,0xbc,0x18,0xf7,0x7f,0xea,0x70,0xcf,0x22,0xe3,0xf2,0x13,0x51,0xcf,0x1e,0x35,0xe2,0x2c,0x33,0x1,0xfb,0xe2,0x29,0x23,0xd9,0x45,0xf1,0x14,0xc7,0x2c,0x4d,0xe3,0xe1,0xd3,0x1c,0x16,0x26,0xff,0x6,0x13,0xe3,0xd0,0x15,0x29,0xa,0xc1,0xea,0xc,0x0,0x0,0x0,0x0,0x12,0xf7,0xff,0xff,0x4,0x0,0x0,0x0,0x0,0x4,0x0,0x0,0x81,0xe5,0xe8,0x5f,0x36,0x86,0x3,0xca,0x15,0x81,0x28,0x1a,0x93,0x64,0xea,0x81,0xe4,0xcc,0x50,0x98,0x70,0x7f,0x8,0xb1,0x7f,0xa8,0x2f,0x18,0x2d,0x11,0x29,0xc9,0x7f,0x8d,0xf,0xd8,0xd9,0xd6,0xdb,0xfa,0xd,0xbb,0xc4,0xeb,0x46,0xf1,0x81,0x2,0x81,0x10,0xef,0xd3,0xc4,0xd0,0x35,0xf6,0x9d,0x9c,0xd1,0x7f,0xe4,0xd0,0x31,0xd7,0xc4,0x67,0x81,0xcc,0x46,0x3b,0x40,0xac,0xe2,0x3d,0x9a,0x36,0x90,0x7f,0x3c,0x58,0xad,0x34,0x1b,0x7f,0xdf,0xba,0x39,0x49,0x39,0x1a,0xe,0x27,0x7f,0x12,0xc1,0xbc,0x4f,0x61,0x87,0xa4,0x74,0x81,0x0,0x91,0xe1,0x7f,0xbd,0x28,0xfa,0xc9,0x5f,0xd3,0x7f,0xd2,0x5b,0x27,0x3c,0x3a,0xea,0x23,0x29,0x31,0x25,0xc0,0x2b,0x81,0xed,0xb0,0x54,0x8e,0xbe,0xc8,0xd0,0x81,0x46,0xd7,0x5c,0xe6,0xa,0x72,0xb9,0x19,0x81,0x56,0x45,0xf0,0x13,0x25,0x37,0x85,0x81,0x48,0xfc,0xf5,0xaf,0xdb,0xb7,0x7f,0x93,0x19,0x1b,0xb4,0xcf,0x13,0x1a,0x32,0x7f,0xd2,0x8f,0x87,0x30,0x10,0x6a,0x12,0xfd,0x81,0xd8,0x3e,0x8a,0x13,0x9f,0x81,0x1d,0x8a,0xd1,0x39,0xd7,0x56,0x81,0x18,0xbd,0x54,0xbd,0xe8,0xf1,0x96,0xca,0x81,0xd1,0xd5,0x8,0x9,0x81,0x45,0x32,0xc1,0x95,0xec,0xd3,0x7f,0xf1,0x5d,0xab,0x3f,0x4f,0xe0,0x12,0x7f,0xa4,0xad,0x1e,0x6d,0x2a,0x66,0x5a,0xa5,0x7f,0xd7,0x55,0x52,0x84,0xc0,0xb8,0x53,0x59,0x81,0x26,0x28,0x5a,0xe8,0x2a,0x8a,0x2,0x7f,0x64,0xa,0xf7,0x3b,0xce,0x4a,0xac,0x8f,0x7f,0xf0,0x94,0x6a,0x0,0x62,0xbb,0x8,0x39,0x74,0x81,0xe0,0x25,0xd6,0x9a,0x8b,0x89,0x56,0x6f,0x7f,0x29,0x6,0x5e,0x95,0xdf,0x14,0xc9,0x7f,0x7f,0x89,0xf1,0x19,0xa3,0x31,0x88,0xe7,0x49,0x27,0x12,0xd2,0x7f,0x30,0xa1,0x48,0x54,0x67,0xd,0x40,0x61,0x9d,0x1b,0x81,0x20,0x87,0xa4,0x7f,0x91,0xcc,0x1f,0xb,0xcd,0x81,0xbf,0xc3,0x58,0x19,0xb1,0xdc,0x5,0x7f,0x73,0xa4,0xb2,0x82,0xe6,0x6e,0x7f,0x70,0x5b,0xaa,0x8c,0xc7,0x50,0x36,0xfd,0xc3,0x55,0xfe,0x9f,0xb9,0x7f,0xdd,0x65,0x81,0xeb,0xad,0xc5,0x1,0xdb,0xf4,0x33,0x7f,0x1c,0xdf,0x95,0xc2,0x43,0xa4,0x15,0x3d,0xb3,0xc0,0x81,0x21,0xd5,0xf0,0xc2,0xde,0x40,0xe3,0x6d,0xf2,0x7f,0x2a,0xda,0xdc,0xbf,0x7a,0x65,0x7f,0x22,0x33,0xec,0xc7,0x56,0x81,0x2e,0x13,0x13,0x49,0xa6,0x24,0x66,0x81,0x78,0x1,0xb8,0x9c,0x3a,0xde,0xbd,0xa7,0xf5,0xa7,0x81,0xc4,0xf2,0x9f,0x44,0x37,0x5,0x7f,0xd4,0x52,0xf1,0x10,0x40,0x81,0x9b,0x2f,0x28,0x67,0x7f,0xae,0xb8,0xc0,0x36,0xeb,0x51,0x52,0xc2,0x2e,0xe2,0x7f,0xff,0x20,0x82,0xc,0x7b,0x7f,0xd2,0xcd,0x79,0xf8,0xf8,0xa7,0xdd,0xd6,0x34,0x2c,0x62,0x19,0x8d,0x7f,0x48,0xd6,0x7f,0x40,0x17,0xdf,0xf2,0x88,0x58,0x65,0xd4,0xd6,0xa6,0x81,0x4b,0x99,0xd7,0xcd,0x8a,0xab,0xcb,0x81,0xb3,0xa8,0xaa,0x52,0x87,0xcf,0x81,0x1f,0x3a,0x83,0x8f,0x92,0xf4,0xcf,0x59,0xbe,0x7f,0xe8,0x6d,0x74,0xad,0xbe,0x43,0x81,0x56,0xe6,0x1f,0x7f,0xd0,0xb,0x14,0xa2,0x24,0xb9,0x6b,0xfb,0xd5,0xf3,0xa0,0x63,0x7f,0x3a,0x6c,0xf7,0x5d,0x7f,0xd5,0x7e,0xec,0x85,0x1c,0xb1,0x4a,0xb2,0xda,0xe8,0x7f,0xbd,0x2f,0xbc,0x23,0x3f,0xe9,0x69,0x81,0xb0,0x55,0x4c,0xe5,0x85,0x77,0x3b,0xdc,0x81,0x5,0x15,0x16,0xad,0x8d,0xbd,0x7f,0x17,0x6a,0x7f,0x52,0x3,0x81,0x28,0xf7,0x16,0x7,0x33,0xe3,0x4,0x66,0x81,0x2,0x1d,0xeb,0x66,0x27,0xf3,0x14,0x82,0xd4,0x81,0xe4,0x49,0x37,0x47,0xac,0x68,0xd2,0x7f,0x81,0x5d,0x6a,0x7e,0x89,0xc8,0x2,0xdd,0xeb,0xa5,0xe5,0xcf,0x7f,0xa,0xf0,0xa6,0xdf,0x8d,0xab,0xc0,0x50,0xee,0x81,0x4d,0x89,0xee,0x45,0xb7,0x7f,0xf,0x1c,0x97,0x42,0xb6,0x1c,0x7f,0x9f,0x1a,0xdc,0x82,0xd7,0xaa,0x6f,0x2a,0x7f,0xad,0x61,0x22,0x7f,0x10,0xd7,0x78,0x1d,0x40,0x99,0xdc,0x81,0xd3,0xa0,0xce,0xeb,0x0,0x1d,0x17,0xd3,0xa5,0x9,0x7a,0x26,0x7f,0x3a,0x98,0x50,0xf2,0x43,0xc6,0x10,0x7b,0x81,0x6,0x60,0xb1,0x1a,0xf9,0xf5,0xb0,0x37,0x81,0x2,0xec,0x2b,0x4c,0x7f,0xd2,0xc9,0xd8,0xd3,0x36,0x7f,0xcc,0x68,0xa6,0xc0,0x89,0xd8,0x3e,0xce,0x63,0xd,0x81,0xbb,0xce,0x32,0x81,0x6,0xc6,0x33,0x51,0xa7,0xfa,0xe7,0x64,0xfb,0x61,0xde,0x81,0xbe,0x16,0xca,0x81,0x75,0x37,0x33,0xfc,0x78,0xe9,0x4b,0x5c,0x7f,0x5,0x5a,0x96,0xf,0xaf,0x6d,0x45,0xd,0xd5,0xc8,0x98,0x9e,0x81,0x7,0xc4,0xd1,0xd0,0xc1,0xe1,0x95,0x7f,0x2c,0x7f,0x1c,0x84,0xc0,0xbb,0xd6,0x3e,0x75,0x7f,0x3d,0xad,0x4,0x1a,0xb7,0x0,0x61,0x34,0x1a,0x7f,0x22,0x29,0x5f,0x98,0xe0,0xc5,0x7f,0xfb,0x3c,0x2a,0x3a,0x4b,0xd4,0x75,0x6c,0x0,0x7f,0xc,0x3a,0xd9,0x65,0xd1,0x7f,0x3f,0xf8,0xb6,0xf1,0x4,0xc0,0x62,0x96,0x9d,0xe2,0x44,0x7f,0x4e,0x5b,0xb4,0x7f,0x1b,0x3a,0xba,0x6d,0xfe,0x7f,0xfb,0x6c,0xeb,0xb8,0x5b,0xb6,0xd4,0xbc,0xe9,0x51,0x8,0x7f,0x2c,0x55,0xd0,0xa4,0x18,0x57,0xe6,0x7c,0x11,0x1f,0x81,0x99,0x7f,0x97,0x17,0x7,0xa7,0xc7,0x9b,0x1b,0x81,0x9f,0xee,0xa4,0x89,0xde,0x10,0x55,0xb3,0xcc,0xc,0x42,0x7f,0x38,0x84,0xd6,0xc9,0xdf,0xec,0x7f,0x3b,0xa2,0xde,0x92,0xec,0x87,0x81,0xdf,0xdb,0x3c,0xd0,0x6e,0xf6,0x13,0x35,0x7f,0x91,0x56,0x78,0xa8,0xae,0x4d,0x7f,0xf,0x75,0xa4,0x81,0x15,0xf,0x22,0x7f,0xc9,0x5,0xe4,0x90,0x8e,0xfb,0x7f,0xc,0xc8,0x14,0xcb,0x85,0x51,0x9b,0x38,0x6f,0x7f,0xa1,0x95,0xb0,0xe2,0x79,0xc7,0xe9,0x81,0xf9,0x6c,0x4c,0x59,0xe3,0x76,0xe,0x7f,0x91,0xab,0x65,0x15,0x89,0x9c,0x7f,0x45,0x4f,0x2e,0xd3,0x7f,0xd8,0x9d,0x69,0x48,0x35,0x4,0x3,0x29,0x81,0xb3,0x49,0xac,0x2f,0x95,0x12,0x81,0xcf,0xad,0x86,0xb5,0x26,0x43,0xeb,0x5f,0x96,0x6e,0x49,0x81,0x6,0x54,0x3a,0x3f,0xc6,0x74,0xe8,0x7f,0xf5,0x21,0x29,0xfb,0x3a,0xd0,0xa7,0xc5,0x24,0x7f,0x95,0xc4,0x55,0xff,0xad,0xf5,0x93,0xa8,0x81,0x7f,0xf7,0x3d,0x4,0x20,0xf7,0x1b,0xdf,0x19,0xe9,0xdb,0xaf,0x5c,0x7f,0x6c,0xd2,0x4d,0x9,0xfa,0xc8,0x36,0x81,0xdf,0xe5,0x0,0x0,0x0,0x0,0x98,0xf1,0xff,0xff,0x1,0x0,0x0,0x0,0x10,0x0,0x0,0x0,0xc,0x0,0x14,0x0,0x4,0x0,0x8,0x0,0xc,0x0,0x10,0x0,0xc,0x0,0x0,0x0,0xfc,0x3,0x0,0x0,0xec,0x3,0x0,0x0,0xdc,0x3,0x0,0x0,0x4,0x0,0x0,0x0,0x12,0x0,0x0,0x0,0x90,0x3,0x0,0x0,0x48,0x3,0x0,0x0,0x0,0x3,0x0,0x0,0xbc,0x2,0x0,0x0,0x94,0x2,0x0,0x0,0x60,0x2,0x0,0x0,0x2c,0x2,0x0,0x0,0xf8,0x1,0x0,0x0,0xc8,0x1,0x0,0x0,0x94,0x1,0x0,0x0,0x70,0x1,0x0,0x0,0x3c,0x1,0x0,0x0,0x8,0x1,0x0,0x0,0xd4,0x0,0x0,0x0,0xa0,0x0,0x0,0x0,0x6c,0x0,0x0,0x0,0x38,0x0,0x0,0x0,0x4,0x0,0x0,0x0,0x12,0xfe,0xff,0xff,0x0,0x0,0x0,0xb,0x4,0x0,0x0,0x0,0x18,0x0,0x0,0x0,0xc,0x0,0x0,0x0,0x4,0x0,0x0,0x0,0x28,0xf2,0xff,0xff,0x1,0x0,0x0,0x0,0x19,0x0,0x0,0x0,0x2,0x0,0x0,0x0,0x17,0x0,0x0,0x0,0x18,0x0,0x0,0x0,0x42,0xfe,0xff,0xff,0x0,0x0,0x0,0x15,0x2,0x0,0x0,0x0,0x18,0x0,0x0,0x0,0xc,0x0,0x0,0x0,0x4,0x0,0x0,0x0,0x58,0xf2,0xff,0xff,0x1,0x0,0x0,0x0,0x18,0x0,0x0,0x0,0x2,0x0,0x0,0x0,0x0,0x0,0x0,0x0,0x8,0x0,0x0,0x0,0x72,0xfe,0xff,0xff,0x0,0x0,0x0,0x1b,0x5,0x0,0x0,0x0,0x18,0x0,0x0,0x0,0xc,0x0,0x0,0x0,0x4,0x0,0x0,0x0,0x88,0xf2,0xff,0xff,0x1,0x0,0x0,0x0,0x17,0x0,0x0,0x0,0x2,0x0,0x0,0x0,0x16,0x0,0x0,0x0,0x6,0x0,0x0,0x0,0xa2,0xfe,0xff,0xff,0x0,0x0,0x0,0x15,0x2,0x0,0x0,0x0,0x18,0x0,0x0,0x0,0xc,0x0,0x0,0x0,0x4,0x0,0x0,0x0,0xb8,0xf2,0xff,0xff,0x1,0x0,0x0,0x0,0x16,0x0,0x0,0x0,0x2,0x0,0x0,0x0,0x15,0x0,0x0,0x0,0xb,0x0,0x0,0x0,0xd2,0xfe,0xff,0xff,0x0,0x0,0x0,0xb,0x4,0x0,0x0,0x0,0x18,0x0,0x0,0x0,0xc,0x0,0x0,0x0,0x4,0x0,0x0,0x0,0xe8,0xf2,0xff,0xff,0x1,0x0,0x0,0x0,0x15,0x0,0x0,0x0,0x2,0x0,0x0,0x0,0x13,0x0,0x0,0x0,0x14,0x0,0x0,0x0,0x2,0xff,0xff,0xff,0x0,0x0,0x0,0x15,0x2,0x0,0x0,0x0,0x18,0x0,0x0,0x0,0xc,0x0,0x0,0x0,0x4,0x0,0x0,0x0,0x18,0xf3,0xff,0xff,0x1,0x0,0x0,0x0,0x14,0x0,0x0,0x0,0x2,0x0,0x0,0x0,0x12,0x0,0x0,0x0,0xe,0x0,0x0,0x0,0x32,0xff,0xff,0xff,0x0,0x0,0x0,0x15,0x2,0x0,0x0,0x0,0x18,0x0,0x0,0x0,0xc,0x0,0x0,0x0,0x4,0x0,0x0,0x0,0x48,0xf3,0xff,0xff,0x1,0x0,0x0,0x0,0x13,0x0,0x0,0x0,0x2,0x0,0x0,0x0,0x1b,0x0,0x0,0x0,0x1,0x0,0x0,0x0,0xfe,0xfe,0xff,0xff,0x7,0x0,0x0,0x0,0x10,0x0,0x0,0x0,0x4,0x0,0x0,0x0,0x1,0x0,0x0,0x0,0x1b,0x0,0x0,0x0,0x1,0x0,0x0,0x0,0x11,0x0,0x0,0x0,0x82,0xff,0xff,0xff,0x0,0x0,0x0,0x15,0x2,0x0,0x0,0x0,0x18,0x0,0x0,0x0,0xc,0x0,0x0,0x0,0x4,0x0,0x0,0x0,0x98,0xf3,0xff,0xff,0x1,0x0,0x0,0x0,0x12,0x0,0x0,0x0,0x2,0x0,0x0,0x0,0xf,0x0,0x0,0x0,0xa,0x0,0x0,0x0,0xb2,0xff,0xff,0xff,0x0,0x0,0x0,0x21,0x3,0x0,0x0,0x0,0x18,0x0,0x0,0x0,0xc,0x0,0x0,0x0,0x4,0x0,0x0,0x0,0xc8,0xf3,0xff,0xff,0x1,0x0,0x0,0x0,0x11,0x0,0x0,0x0,0x1,0x0,0x0,0x0,0x1a,0x0,0x0,0x0,0x7a,0xff,0xff,0xff,0x6,0x0,0x0,0x0,0x10,0x0,0x0,0x0,0x4,0x0,0x0,0x0,0x1,0x0,0x0,0x0,0x1a,0x0,0x0,0x0,0x1,0x0,0x0,0x0,0x10,0x0,0x0,0x0,0x0,0x0,0xe,0x0,0x18,0x0,0x8,0x0,0xc,0x0,0x10,0x0,0x7,0x0,0x14,0x0,0xe,0x0,0x0,0x0,0x0,0x0,0x0,0x15,0x2,0x0,0x0,0x0,0x18,0x0,0x0,0x0,0xc,0x0,0x0,0x0,0x4,0x0,0x0,0x0,0x24,0xf4,0xff,0xff,0x1,0x0,0x0,0x0,0x10,0x0,0x0,0x0,0x2,0x0,0x0,0x0,0xf,0x0,0x0,0x0,0x7,0x0,0x0,0x0,0xda,0xff,0xff,0xff,0x1,0x0,0x0,0x0,0x10,0x0,0x0,0x0,0x4,0x0,0x0,0x0,0x1,0x0,0x0,0x0,0xf,0x0,0x0,0x0,0x2,0x0,0x0,0x0,0xd,0x0,0x0,0x0,0x5,0x0,0x0,0x0,0x0,0x0,0xa,0x0,0x10,0x0,0x4,0x0,0x8,0x0,0xc,0x0,0xa,0x0,0x0,0x0,0x1,0x0,0x0,0x0,0x10,0x0,0x0,0x0,0x4,0x0,0x0,0x0,0x1,0x0,0x0,0x0,0xe,0x0,0x0,0x0,0x2,0x0,0x0,0x0,0x0,0x0,0x0,0x0,0x5,0x0,0x0,0x0,0x46,0xff,0xff,0xff,0x0,0x0,0x0,0x8,0x28,0x0,0x0,0x0,0x1c,0x0,0x0,0x0,0x10,0x0,0x0,0x0,0x0,0x0,0xa,0x0,0x8,0x0,0x6,0x0,0x0,0x0,0x7,0x0,0xa,0x0,0x0,0x0,0x0,0x0,0x1,0x1,0x1,0x0,0x0,0x0,0xd,0x0,0x0,0x0,0x3,0x0,0x0,0x0,0xc,0x0,0x0,0x0,0x2,0x0,0x0,0x0,0xff,0xff,0xff,0xff,0xca,0xff,0xff,0xff,0x0,0x0,0x0,0x8,0x1c,0x0,0x0,0x0,0x10,0x0,0x0,0x0,0x4,0x0,0x0,0x0,0x76,0xff,0xff,0xff,0x0,0x0,0x0,0x1,0x1,0x0,0x0,0x0,0xc,0x0,0x0,0x0,0x3,0x0,0x0,0x0,0x0,0x0,0x0,0x0,0x3,0x0,0x0,0x0,0xff,0xff,0xff,0xff,0x0,0x0,0xe,0x0,0x14,0x0,0x0,0x0,0x8,0x0,0xc,0x0,0x7,0x0,0x10,0x0,0xe,0x0,0x0,0x0,0x0,0x0,0x0,0x8,0x1c,0x0,0x0,0x0,0x10,0x0,0x0,0x0,0x4,0x0,0x0,0x0,0xba,0xff,0xff,0xff,0x0,0x0,0x0,0x1,0x1,0x0,0x0,0x0,0xb,0x0,0x0,0x0,0x3,0x0,0x0,0x0,0x0,0x0,0x0,0x0,0x4,0x0,0x0,0x0,0xff,0xff,0xff,0xff,0x0,0x0,0xe,0x0,0x16,0x0,0x0,0x0,0x8,0x0,0xc,0x0,0x7,0x0,0x10,0x0,0xe,0x0,0x0,0x0,0x0,0x0,0x0,0x8,0x28,0x0,0x0,0x0,0x1c,0x0,0x0,0x0,0x10,0x0,0x0,0x0,0x0,0x0,0xa,0x0,0x8,0x0,0x0,0x0,0x0,0x0,0x7,0x0,0xa,0x0,0x0,0x0,0x0,0x0,0x0,0x1,0x1,0x0,0x0,0x0,0xa,0x0,0x0,0x0,0x3,0x0,0x0,0x0,0x0,0x0,0x0,0x0,0x9,0x0,0x0,0x0,0xff,0xff,0xff,0xff,0x2,0x0,0x0,0x0,0x19,0x0,0x0,0x0,0x15,0x0,0x0,0x0,0x2,0x0,0x0,0x0,0x0,0x0,0x0,0x0,0x1,0x0,0x0,0x0,0x1c,0x0,0x0,0x0,0xb4,0x9,0x0,0x0,0x54,0x9,0x0,0x0,0x14,0x7,0x0,0x0,0x98,0x6,0x0,0x0,0x14,0x6,0x0,0x0,0xf0,0x5,0x0,0x0,0xcc,0x5,0x0,0x0,0x80,0x5,0x0,0x0,0x3c,0x5,0x0,0x0,0xb8,0x4,0x0,0x0,0x78,0x4,0x0,0x0,0x34,0x4,0x0,0x0,0xf0,0x3,0x0,0x0,0xac,0x3,0x0,0x0,0x68,0x3,0x0,0x0,0x24,0x3,0x0,0x0,0xe0,0x2,0x0,0x0,0xb8,0x2,0x0,0x0,0x58,0x2,0x0,0x0,0x14,0x2,0x0,0x0,0xd0,0x1,0x0,0x0,0x8c,0x1,0x0,0x0,0x48,0x1,0x0,0x0,0x4,0x1,0x0,0x0,0xc0,0x0,0x0,0x0,0x7c,0x0,0x0,0x0,0x60,0x0,0x0,0x0,0x14,0x0,0x0,0x0,0x0,0x0,0xe,0x0,0x10,0x0,0x8,0x0,0x7,0x0,0x0,0x0,0x0,0x0,0xc,0x0,0xe,0x0,0x0,0x0,0x0,0x0,0x0,0x9,0x28,0x0,0x0,0x0,0x4,0x0,0x0,0x0,0xcc,0xf6,0xff,0xff,0x14,0x0,0x0,0x0,0x4,0x0,0x0,0x0,0x1,0x0,0x0,0x0,0x80,0xff,0xff,0xff,0xff,0xff,0xff,0xff,0x1,0x0,0x0,0x0,0x81,0x80,0x80,0x3b,0x3,0x0,0x0,0x0,0x1,0x0,0x0,0x0,0x80,0x0,0x0,0x0,0x10,0x0,0x0,0x0,0x0,0x0,0x6,0x0,0x8,0x0,0x4,0x0,0x6,0x0,0x0,0x0,0x4,0x0,0x0,0x0,0x3,0x0,0x0,0x0,0x1,0x0,0x0,0x0,0x80,0x0,0x0,0x0,0x10,0x0,0x0,0x0,0x42,0xf7,0xff,0xff,0x0,0x0,0x9,0x1,0x2c,0x0,0x0,0x0,0x4,0x0,0x0,0x0,0x2c,0xf7,0xff,0xff,0x18,0x0,0x0,0x0,0x4,0x0,0x0,0x0,0x1,0x0,0x0,0x0,0x80,0xff,0xff,0xff,0xff,0xff,0xff,0xff,0x0,0x0,0x0,0x0,0x1,0x0,0x0,0x0,0x54,0x41,0xdd,0x3d,0x2,0x0,0x0,0x0,0x1,0x0,0x0,0x0,0x80,0x0,0x0,0x0,0x82,0xf7,0xff,0xff,0x0,0x0,0x9,0x1,0x2c,0x0,0x0,0x0,0x4,0x0,0x0,0x0,0x6c,0xf7,0xff,0xff,0x18,0x0,0x0,0x0,0x4,0x0,0x0,0x0,0x1,0x0,0x0,0x0,0x80,0xff,0xff,0xff,0xff,0xff,0xff,0xff,0x0,0x0,0x0,0x0,0x1,0x0,0x0,0x0,0x36,0x11,0xa4,0x3b,0x2,0x0,0x0,0x0,0x1,0x0,0x0,0x0,0x80,0x0,0x0,0x0,0xc2,0xf7,0xff,0xff,0x0,0x0,0x9,0x1,0x2c,0x0,0x0,0x0,0x4,0x0,0x0,0x0,0xac,0xf7,0xff,0xff,0x18,0x0,0x0,0x0,0x4,0x0,0x0,0x0,0x1,0x0,0x0,0x0,0x80,0xff,0xff,0xff,0xff,0xff,0xff,0xff,0x0,0x0,0x0,0x0,0x1,0x0,0x0,0x0,0xcf,0xb1,0xd8,0x3d,0x2,0x0,0x0,0x0,0x1,0x0,0x0,0x0,0x80,0x0,0x0,0x0,0x2,0xf8,0xff,0xff,0x0,0x0,0x9,0x1,0x28,0x0,0x0,0x0,0x4,0x0,0x0,0x0,0xec,0xf7,0xff,0xff,0x14,0x0,0x0,0x0,0x4,0x0,0x0,0x0,0x1,0x0,0x0,0x0,0x81,0xff,0xff,0xff,0xff,0xff,0xff,0xff,0x1,0x0,0x0,0x0,0xd9,0x5e,0x72,0x3c,0x3,0x0,0x0,0x0,0x1,0x0,0x0,0x0,0x80,0x0,0x0,0x0,0x10,0x0,0x0,0x0,0x42,0xf8,0xff,0xff,0x0,0x0,0x9,0x1,0x28,0x0,0x0,0x0,0x4,0x0,0x0,0x0,0x2c,0xf8,0xff,0xff,0x14,0x0,0x0,0x0,0x4,0x0,0x0,0x0,0x1,0x0,0x0,0x0,0x20,0x0,0x0,0x0,0x0,0x0,0x0,0x0,0x1,0x0,0x0,0x0,0x46,0xf6,0x75,0x3c,0x3,0x0,0x0,0x0,0x1,0x0,0x0,0x0,0x80,0x0,0x0,0x0,0x10,0x0,0x0,0x0,0x82,0xf8,0xff,0xff,0x0,0x0,0x9,0x1,0x28,0x0,0x0,0x0,0x4,0x0,0x0,0x0,0x6c,0xf8,0xff,0xff,0x14,0x0,0x0,0x0,0x4,0x0,0x0,0x0,0x1,0x0,0x0,0x0,0x18,0x0,0x0,0x0,0x0,0x0,0x0,0x0,0x1,0x0,0x0,0x0,0x9e,0xf9,0xd9,0x3b,0x3,0x0,0x0,0x0,0x1,0x0,0x0,0x0,0x80,0x0,0x0,0x0,0x10,0x0,0x0,0x0,0xc2,0xf8,0xff,0xff,0x0,0x0,0x9,0x1,0x28,0x0,0x0,0x0,0x4,0x0,0x0,0x0,0xac,0xf8,0xff,0xff,0x14,0x0,0x0,0x0,0x4,0x0,0x0,0x0,0x1,0x0,0x0,0x0,0x24,0x0,0x0,0x0,0x0,0x0,0x0,0x0,0x1,0x0,0x0,0x0,0x94,0xa1,0x41,0x3c,0x3,0x0,0x0,0x0,0x1,0x0,0x0,0x0,0x80,0x0,0x0,0x0,0x10,0x0,0x0,0x0,0x2,0xf9,0xff,0xff,0x0,0x0,0x9,0x1,0x2c,0x0,0x0,0x0,0x4,0x0,0x0,0x0,0xec,0xf8,0xff,0xff,0x18,0x0,0x0,0x0,0x4,0x0,0x0,0x0,0x1,0x0,0x0,0x0,0x19,0x0,0x0,0x0,0x0,0x0,0x0,0x0,0x0,0x0,0x0,0x0,0x1,0x0,0x0,0x0,0x16,0xb1,0x19,0x3c,0x3,0x0,0x0,0x0,0x1,0x0,0x0,0x0,0x80,0x0,0x0,0x0,0x10,0x0,0x0,0x0,0x0,0x0,0x16,0x0,0x10,0x0,0x8,0x0,0x0,0x0,0x0,0x0,0x0,0x0,0xc,0x0,0x0,0x0,0x0,0x0,0x0,0x0,0x7,0x0,0x16,0x0,0x0,0x0,0x0,0x0,0x0,0x1,0xc,0x0,0x0,0x0,0x4,0x0,0x0,0x0,0xc0,0xf8,0xff,0xff,0x3,0x0,0x0,0x0,0x1,0x0,0x0,0x0,0x80,0x0,0x0,0x0,0x10,0x0,0x0,0x0,0x82,0xf9,0xff,0xff,0x0,0x0,0x9,0x1,0x28,0x0,0x0,0x0,0x4,0x0,0x0,0x0,0x6c,0xf9,0xff,0xff,0x14,0x0,0x0,0x0,0x4,0x0,0x0,0x0,0x1,0x0,0x0,0x0,0x7f,0x0,0x0,0x0,0x0,0x0,0x0,0x0,0x1,0x0,0x0,0x0,0x37,0xdf,0xf4,0x3c,0x3,0x0,0x0,0x0,0x1,0x0,0x0,0x0,0x80,0x0,0x0,0x0,0x10,0x0,0x0,0x0,0xc2,0xf9,0xff,0xff,0x0,0x0,0x9,0x1,0x28,0x0,0x0,0x0,0x4,0x0,0x0,0x0,0xac,0xf9,0xff,0xff,0x14,0x0,0x0,0x0,0x4,0x0,0x0,0x0,0x1,0x0,0x0,0x0,0x80,0xff,0xff,0xff,0xff,0xff,0xff,0xff,0x1,0x0,0x0,0x0,0x3c,0x99,0x85,0x3b,0x3,0x0,0x0,0x0,0x1,0x0,0x0,0x0,0x80,0x0,0x0,0x0,0x1,0x0,0x0,0x0,0x2,0xfa,0xff,0xff,0x0,0x0,0x9,0x1,0x28,0x0,0x0,0x0,0x4,0x0,0x0,0x0,0xec,0xf9,0xff,0xff,0x14,0x0,0x0,0x0,0x4,0x0,0x0,0x0,0x1,0x0,0x0,0x0,0x80,0xff,0xff,0xff,0xff,0xff,0xff,0xff,0x1,0x0,0x0,0x0,0x6d,0xdf,0x90,0x3b,0x3,0x0,0x0,0x0,0x1,0x0,0x0,0x0,0x80,0x0,0x0,0x0,0x1,0x0,0x0,0x0,0x42,0xfa,0xff,0xff,0x0,0x0,0x9,0x1,0x2c,0x0,0x0,0x0,0x4,0x0,0x0,0x0,0x2c,0xfa,0xff,0xff,0x18,0x0,0x0,0x0,0x4,0x0,0x0,0x0,0x1,0x0,0x0,0x0,0x80,0xff,0xff,0xff,0xff,0xff,0xff,0xff,0x0,0x0,0x0,0x0,0x1,0x0,0x0,0x0,0x3c,0x99,0x85,0x3b,0x2,0x0,0x0,0x0,0x1,0x0,0x0,0x0,0x80,0x0,0x0,0x0,0x82,0xfa,0xff,0xff,0x0,0x0,0x9,0x1,0x2c,0x0,0x0,0x0,0x4,0x0,0x0,0x0,0x6c,0xfa,0xff,0xff,0x18,0x0,0x0,0x0,0x4,0x0,0x0,0x0,0x1,0x0,0x0,0x0,0x5,0x0,0x0,0x0,0x0,0x0,0x0,0x0,0x0,0x0,0x0,0x0,0x1,0x0,0x0,0x0,0xbd,0x28,0xd3,0x3b,0x2,0x0,0x0,0x0,0x1,0x0,0x0,0x0,0x8,0x0,0x0,0x0,0xc2,0xfa,0xff,0xff,0x0,0x0,0x9,0x1,0x2c,0x0,0x0,0x0,0x4,0x0,0x0,0x0,0xac,0xfa,0xff,0xff,0x18,0x0,0x0,0x0,0x4,0x0,0x0,0x0,0x1,0x0,0x0,0x0,0x22,0x0,0x0,0x0,0x0,0x0,0x0,0x0,0x0,0x0,0x0,0x0,0x1,0x0,0x0,0x0,0xf,0xeb,0x12,0x3c,0x2,0x0,0x0,0x0,0x1,0x0,0x0,0x0,0x10,0x0,0x0,0x0,0x2,0xfb,0xff,0xff,0x0,0x0,0x9,0x1,0x28,0x0,0x0,0x0,0x4,0x0,0x0,0x0,0xec,0xfa,0xff,0xff,0x14,0x0,0x0,0x0,0x4,0x0,0x0,0x0,0x1,0x0,0x0,0x0,0x19,0x0,0x0,0x0,0x0,0x0,0x0,0x0,0x1,0x0,0x0,0x0,0xb5,0xae,0x0,0x3c,0x2,0x0,0x0,0x0,0x1,0x0,0x0,0x0,0x10,0x0,0x0,0x0,0xd6,0xfd,0xff,0xff,0x0,0x0,0x9,0x1,0x6c,0x0,0x0,0x0,0x8,0x0,0x0,0x0,0x4,0x0,0x0,0x0,0x2c,0xfb,0xff,0xff,0x18,0x0,0x0,0x0,0x4,0x0,0x0,0x0,0x1,0x0,0x0,0x0,0x0,0x0,0x0,0x0,0x0,0x0,0x0,0x0,0x0,0x0,0x0,0x0,0x10,0x0,0x0,0x0,0xc5,0xdd,0x20,0x3b,0xd3,0x7e,0x26,0x3b,0xfe,0xcd,0x25,0x3b,0x57,0x43,0xe3,0x3a,0xa4,0xbf,0x24,0x3b,0x53,0x58,0x26,0x3b,0x24,0x40,0x21,0x3b,0x74,0x8f,0xf3,0x3a,0x6,0xf9,0x39,0x3b,0xb6,0x26,0x3a,0x3b,0x1b,0xe5,0xd3,0x3a,0x4f,0x16,0xf9,0x3a,0x54,0xe8,0x23,0x3b,0xbe,0x8e,0x3d,0x3b,0xc5,0xe4,0x3b,0x3b,0x1f,0xdc,0x6,0x3b,0x2,0x0,0x0,0x0,0x10,0x0,0x0,0x0,0x80,0x0,0x0,0x0,0x56,0xfe,0xff,0xff,0x0,0x0,0x9,0x1,0x2c,0x0,0x0,0x0,0x7,0x0,0x0,0x0,0x4,0x0,0x0,0x0,0xac,0xfb,0xff,0xff,0x14,0x0,0x0,0x0,0x4,0x0,0x0,0x0,0x1,0x0,0x0,0x0,0x80,0xff,0xff,0xff,0xff,0xff,0xff,0xff,0x1,0x0,0x0,0x0,0x3d,0x3,0xb1,0x3b,0x2,0x0,0x0,0x0,0x1,0x0,0x0,0x0,0x80,0x0,0x0,0x0,0x96,0xfe,0xff,0xff,0x0,0x0,0x9,0x1,0x30,0x0,0x0,0x0,0x6,0x0,0x0,0x0,0x4,0x0,0x0,0x0,0xec,0xfb,0xff,0xff,0x18,0x0,0x0,0x0,0x4,0x0,0x0,0x0,0x1,0x0,0x0,0x0,0x7f,0x0,0x0,0x0,0x0,0x0,0x0,0x0,0x0,0x0,0x0,0x0,0x1,0x0,0x0,0x0,0x35,0x21,0xc,0x3e,0x3,0x0,0x0,0x0,0x1,0x0,0x0,0x0,0x80,0x0,0x0,0x0,0x10,0x0,0x0,0x0,0xde,0xfe,0xff,0xff,0x0,0x0,0x2,0x1,0x10,0x0,0x0,0x0,0x5,0x0,0x0,0x0,0x4,0x0,0x0,0x0,0xac,0xfb,0xff,0xff,0x1,0x0,0x0,0x0,0x1,0x0,0x0,0x0,0xfe,0xfe,0xff,0xff,0x0,0x0,0x2,0x1,0x10,0x0,0x0,0x0,0x4,0x0,0x0,0x0,0x4,0x0,0x0,0x0,0xcc,0xfb,0xff,0xff,0x1,0x0,0x0,0x0,0x3,0x0,0x0,0x0,0x1e,0xff,0xff,0xff,0x0,0x0,0x9,0x1,0x6c,0x0,0x0,0x0,0x3,0x0,0x0,0x0,0x4,0x0,0x0,0x0,0x74,0xfc,0xff,0xff,0x18,0x0,0x0,0x0,0x4,0x0,0x0,0x0,0x1,0x0,0x0,0x0,0x0,0x0,0x0,0x0,0x0,0x0,0x0,0x0,0x0,0x0,0x0,0x0,0x10,0x0,0x0,0x0,0x3f,0xb,0xa,0x3b,0xff,0x6,0x17,0x3b,0xdf,0x93,0x2a,0x3b,0x26,0x8b,0x15,0x3b,0x5,0x61,0x10,0x3b,0xdf,0x15,0x32,0x3b,0xae,0x7c,0x1d,0x3b,0x36,0x7e,0xeb,0x3a,0x2d,0x80,0x7,0x3b,0xde,0x2e,0x11,0x3b,0xa1,0x4,0x2c,0x3b,0x4a,0x37,0x0,0x3b,0xbf,0xc6,0x47,0x3b,0x7f,0xd6,0x2e,0x3b,0x9c,0x96,0x5,0x3b,0x66,0xe5,0xc,0x3b,0x2,0x0,0x0,0x0,0x10,0x0,0x0,0x0,0x80,0x0,0x0,0x0,0x9e,0xff,0xff,0xff,0x0,0x0,0x9,0x1,0x4c,0x0,0x0,0x0,0x2,0x0,0x0,0x0,0x4,0x0,0x0,0x0,0xf4,0xfc,0xff,0xff,0x18,0x0,0x0,0x0,0x4,0x0,0x0,0x0,0x1,0x0,0x0,0x0,0x0,0x0,0x0,0x0,0x0,0x0,0x0,0x0,0x0,0x0,0x0,0x0,0x8,0x0,0x0,0x0,0xed,0xab,0x2f,0x3b,0xba,0x9e,0x15,0x3b,0x97,0x4e,0x22,0x3b,0x38,0x77,0xec,0x3a,0x2f,0x6a,0xe6,0x3a,0x91,0x14,0x9,0x3b,0xb,0x74,0x19,0x3b,0xd6,0x61,0x1c,0x3b,0x2,0x0,0x0,0x0,0x8,0x0,0x0,0x0,0x80,0x0,0x0,0x0,0x0,0x0,0x16,0x0,0x14,0x0,0x8,0x0,0x6,0x0,0xc,0x0,0x0,0x0,0x10,0x0,0x0,0x0,0x0,0x0,0x0,0x0,0x7,0x0,0x16,0x0,0x0,0x0,0x0,0x0,0x9,0x1,0x28,0x2,0x0,0x0,0x1,0x0,0x0,0x0,0x4,0x0,0x0,0x0,0x6c,0xfd,0xff,0xff,0x14,0x0,0x0,0x0,0x4,0x0,0x0,0x0,0x1,0x0,0x0,0x0,0x0,0x0,0x0,0x0,0x0,0x0,0x0,0x0,0x80,0x0,0x0,0x0,0x56,0xb,0x13,0x3b,0xc8,0x5c,0xe1,0x3a,0x21,0x52,0x2d,0x3b,0x55,0x5a,0x5b,0x3b,0x4a,0x8f,0x3e,0x3b,0x2,0xac,0x67,0x3b,0x37,0xcc,0x78,0x3b,0xe5,0xdd,0x50,0x3b,0xcb,0xf9,0x69,0x3b,0xca,0x25,0xff,0x3a,0x82,0x51,0x31,0x3b,0x76,0xfe,0x79,0x3b,0xf6,0x3,0x40,0x3b,0x87,0x7b,0x33,0x3b,0x17,0x89,0xa2,0x3b,0xd3,0xab,0x8b,0x3b,0x9f,0x53,0x55,0x3b,0xb2,0xf0,0x3a,0x3b,0x59,0x56,0x24,0x3b,0x85,0x79,0x52,0x3b,0x29,0x3c,0x62,0x3b,0xfe,0xf4,0xe,0x3b,0x9d,0xb4,0xf4,0x3a,0x1f,0x6d,0x27,0x3b,0xe8,0x61,0x98,0x3b,0x42,0xbc,0x55,0x3b,0x86,0x30,0x3a,0x3b,0x3b,0xf1,0x28,0x3b,0xe5,0xc3,0x31,0x3b,0x24,0x8c,0x29,0x3b,0xa7,0x74,0x71,0x3b,0xb,0x1c,0x46,0x3b,0x2f,0x71,0xc,0x3b,0xa5,0x6e,0x2e,0x3b,0xfa,0xad,0x82,0x3b,0x2e,0x73,0x89,0x3b,0xec,0x2f,0x2e,0x3b,0xe1,0x5b,0x3e,0x3b,0xb3,0x2c,0x3c,0x3b,0xaa,0xdb,0x58,0x3b,0xac,0x77,0x3b,0x3b,0xb7,0x38,0x15,0x3b,0xac,0xc5,0x3e,0x3b,0xb7,0xd,0x22,0x3b,0x7b,0x1e,0x39,0x3b,0xd7,0x5e,0x55,0x3b,0xa9,0x32,0x2e,0x3b,0xca,0x8d,0x16,0x3b,0x39,0x14,0x45,0x3b,0x50,0x43,0xd,0x3b,0xf2,0x6d,0x19,0x3b,0xda,0x3,0x19,0x3b,0xd0,0x38,0x3c,0x3b,0xb2,0xf4,0x32,0x3b,0x82,0x55,0x15,0x3b,0xff,0x48,0x34,0x3b,0x10,0xf8,0x51,0x3b,0x78,0x7,0x4a,0x3b,0xf5,0x58,0x10,0x3b,0xb9,0xc,0x2,0x3b,0xff,0xeb,0x1d,0x3b,0xd8,0xdc,0x2d,0x3b,0x6c,0x2c,0x2d,0x3b,0xa5,0x3,0xf9,0x3a,0x28,0x72,0x55,0x3b,0x21,0xc9,0x52,0x3b,0x81,0xa3,0x45,0x3b,0x5a,0xbd,0x95,0x3b,0x84,0x92,0x1d,0x3b,0xbd,0xba,0x41,0x3b,0x29,0x6e,0x22,0x3b,0xe8,0x3d,0x8e,0x3b,0x3,0xdd,0x27,0x3b,0x13,0x49,0x6a,0x3b,0xa7,0x42,0x22,0x3b,0x6,0x40,0x2b,0x3b,0x66,0xc0,0x2a,0x3b,0xae,0xd4,0x4a,0x3b,0xc5,0xa4,0x37,0x3b,0x45,0x1,0x3d,0x3b,0x5d,0x6a,0x45,0x3b,0x7a,0x11,0x5c,0x3b,0x32,0xb,0x4a,0x3b,0xf9,0xd3,0x57,0x3b,0xef,0x45,0x41,0x3b,0x5b,0x6c,0x61,0x3b,0x97,0x70,0x1b,0x3b,0x26,0x57,0x3e,0x3b,0xe,0xc,0x4d,0x3b,0xe4,0x1f,0x31,0x3b,0x86,0xa3,0x48,0x3b,0x9e,0x5b,0x38,0x3b,0xe6,0x78,0xe,0x3b,0x89,0x6d,0x31,0x3b,0xe6,0x9c,0x4b,0x3b,0x18,0x5f,0x18,0x3b,0xb2,0x67,0x44,0x3b,0x76,0x35,0x8f,0x3b,0x44,0x5b,0x22,0x3b,0x96,0x7c,0x1a,0x3b,0xf9,0xd0,0x26,0x3b,0x31,0x8f,0x3f,0x3b,0xdd,0x6c,0x1d,0x3b,0x7c,0x17,0x6b,0x3b,0x78,0xf7,0x45,0x3b,0x35,0x1f,0x3b,0x3b,0xc2,0xa2,0x27,0x3b,0x3e,0x9e,0x45,0x3b,0x77,0xc,0x87,0x3b,0x7b,0xa1,0x3a,0x3b,0x81,0x61,0x31,0x3b,0x55,0xa1,0x2c,0x3b,0x30,0x21,0x27,0x3b,0xcb,0x8,0x2e,0x3b,0x5d,0xba,0x35,0x3b,0xc6,0xc6,0x1b,0x3b,0x11,0x41,0x4b,0x3b,0xfe,0x60,0x31,0x3b,0x31,0x42,0x5f,0x3b,0xa,0x1d,0x5a,0x3b,0x43,0xb9,0x22,0x3b,0x9c,0x7a,0x44,0x3b,0x39,0xd1,0x32,0x3b,0x20,0x87,0x69,0x3b,0x7c,0x2b,0x28,0x3b,0x58,0x40,0xa5,0x3b,0xa6,0xeb,0x2f,0x3b,0xd7,0xc6,0x87,0x3b,0x2,0x0,0x0,0x0,0x80,0x0,0x0,0x0,0x8,0x0,0x0,0x0,0xba,0xff,0xff,0xff,0x0,0x0,0x9,0x1,0x2c,0x0,0x0,0x0,0x4,0x0,0x0,0x0,0xa4,0xff,0xff,0xff,0x18,0x0,0x0,0x0,0x4,0x0,0x0,0x0,0x1,0x0,0x0,0x0,0x1f,0x0,0x0,0x0,0x0,0x0,0x0,0x0,0x0,0x0,0x0,0x0,0x1,0x0,0x0,0x0,0x88,0xe5,0x5b,0x3c,0x3,0x0,0x0,0x0,0x1,0x0,0x0,0x0,0x80,0x0,0x0,0x0,0x10,0x0,0x0,0x0,0x0,0x0,0x16,0x0,0x10,0x0,0x8,0x0,0x6,0x0,0x0,0x0,0x0,0x0,0xc,0x0,0x0,0x0,0x0,0x0,0x0,0x0,0x7,0x0,0x16,0x0,0x0,0x0,0x0,0x0,0x9,0x1,0x38,0x0,0x0,0x0,0x10,0x0,0x0,0x0,0xc,0x0,0xc,0x0,0x0,0x0,0x0,0x0,0x4,0x0,0x8,0x0,0xc,0x0,0x0,0x0,0x18,0x0,0x0,0x0,0x4,0x0,0x0,0x0,0x1,0x0,0x0,0x0,0x80,0xff,0xff,0xff,0xff,0xff,0xff,0xff,0x0,0x0,0x0,0x0,0x1,0x0,0x0,0x0,0x6d,0xdf,0x90,0x3b,0x2,0x0,0x0,0x0,0x1,0x0,0x0,0x0,0x80,0x0,0x0,0x0,0x8,0x0,0x0,0x0,0x8c,0x0,0x0,0x0,0x70,0x0,0x0,0x0,0x54,0x0,0x0,0x0,0x44,0x0,0x0,0x0,0x3c,0x0,0x0,0x0,0x28,0x0,0x0,0x0,0x1c,0x0,0x0,0x0,0x4,0x0,0x0,0x0,0xf8,0xff,0xff,0xff,0x72,0x0,0x0,0x0,0xc,0x0,0x8,0x0,0x0,0x0,0x0,0x0,0x0,0x0,0x4,0x0,0xc,0x0,0x0,0x0,0x6,0x0,0x0,0x0,0xd4,0xff,0xff,0xff,0x0,0x0,0x0,0x4a,0x4a,0x0,0x0,0x0,0x4,0x0,0x4,0x0,0x4,0x0,0x0,0x0,0xe8,0xff,0xff,0xff,0x0,0x0,0x0,0x2f,0x2f,0x0,0x0,0x0,0xf4,0xff,0xff,0xff,0x0,0x0,0x0,0x12,0x12,0x0,0x0,0x0,0xc,0x0,0xc,0x0,0x7,0x0,0x0,0x0,0x0,0x0,0x8,0x0,0xc,0x0,0x0,0x0,0x0,0x0,0x0,0x16,0x16,0x0,0x0,0x0,0xc,0x0,0x10,0x0,0x7,0x0,0x0,0x0,0x8,0x0,0xc,0x0,0xc,0x0,0x0,0x0,0x0,0x0,0x0,0x9,0x5,0x0,0x0,0x0,0x9,0x0,0x0,0x0};
