#include <cstdint>

#include "./models/model_int8_model_data.h"

alignas(16) const unsigned char g_model_int8_model_data[] = {0x20,0x0,0x0,0x0,0x54,0x46,0x4c,0x33,0x0,0x0,0x0,0x0,0x14,0x0,0x20,0x0,0x1c,0x0,0x18,0x0,0x14,0x0,0x10,0x0,0xc,0x0,0x0,0x0,0x8,0x0,0x4,0x0,0x14,0x0,0x0,0x0,0x1c,0x0,0x0,0x0,0x84,0x0,0x0,0x0,0xe0,0x0,0x0,0x0,0xd4,0x22,0x0,0x0,0xe4,0x22,0x0,0x0,0x68,0x35,0x0,0x0,0x3,0x0,0x0,0x0,0x1,0x0,0x0,0x0,0x4,0x0,0x0,0x0,0x6a,0xdb,0xff,0xff,0xc,0x0,0x0,0x0,0x1c,0x0,0x0,0x0,0x3c,0x0,0x0,0x0,0xf,0x0,0x0,0x0,0x73,0x65,0x72,0x76,0x69,0x6e,0x67,0x5f,0x64,0x65,0x66,0x61,0x75,0x6c,0x74,0x0,0x1,0x0,0x0,0x0,0x4,0x0,0x0,0x0,0x94,0xff,0xff,0xff,0x16,0x0,0x0,0x0,0x4,0x0,0x0,0x0,0x8,0x0,0x0,0x0,0x6f,0x75,0x74,0x70,0x75,0x74,0x5f,0x30,0x0,0x0,0x0,0x0,0x1,0x0,0x0,0x0,0x4,0x0,0x0,0x0,0x2a,0xdf,0xff,0xff,0x4,0x0,0x0,0x0,0x6,0x0,0x0,0x0,0x61,0x72,0x67,0x73,0x5f,0x30,0x0,0x0,0x2,0x0,0x0,0x0,0x38,0x0,0x0,0x0,0x4,0x0,0x0,0x0,0xd8,0xff,0xff,0xff,0xd,0x0,0x0,0x0,0x4,0x0,0x0,0x0,0x17,0x0,0x0,0x0,0x6b,0x65,0x65,0x70,0x5f,0x73,0x74,0x61,0x62,0x6c,0x65,0x68,0x6c,0x6f,0x5f,0x63,0x6f,0x6e,0x73,0x74,0x61,0x6e,0x74,0x0,0x8,0x0,0xc,0x0,0x8,0x0,0x4,0x0,0x8,0x0,0x0,0x0,0xc,0x0,0x0,0x0,0x4,0x0,0x0,0x0,0x13,0x0,0x0,0x0,0x6d,0x69,0x6e,0x5f,0x72,0x75,0x6e,0x74,0x69,0x6d,0x65,0x5f,0x76,0x65,0x72,0x73,0x69,0x6f,0x6e,0x0,0xe,0x0,0x0,0x0,0xf0,0x21,0x0,0x0,0x60,0x20,0x0,0x0,0x48,0x10,0x0,0x0,0xf8,0x1,0x0,0x0,0xe4,0x1,0x0,0x0,0xcc,0x1,0x0,0x0,0xbc,0x0,0x0,0x0,0xa8,0x0,0x0,0x0,0x88,0x0,0x0,0x0,0x6c,0x0,0x0,0x0,0x50,0x0,0x0,0x0,0x38,0x0,0x0,0x0,0x18,0x0,0x0,0x0,0x4,0x0,0x0,0x0,0xda,0xdf,0xff,0xff,0x4,0x0,0x0,0x0,0x4,0x0,0x0,0x0,0x74,0x72,0x75,0x65,0xea,0xdf,0xff,0xff,0x4,0x0,0x0,0x0,0x10,0x0,0x0,0x0,0x32,0x2e,0x30,0x2e,0x30,0x0,0x0,0x0,0x0,0x0,0x0,0x0,0x0,0x0,0x0,0x0,0x6,0xe0,0xff,0xff,0x4,0x0,0x0,0x0,0x8,0x0,0x0,0x0,0x3,0x0,0x0,0x0,0x2,0x0,0x0,0x0,0x1a,0xe0,0xff,0xff,0x4,0x0,0x0,0x0,0xc,0x0,0x0,0x0,0x1,0x0,0x0,0x0,0xa,0x0,0x0,0x0,0x40,0x0,0x0,0x0,0x32,0xe0,0xff,0xff,0x4,0x0,0x0,0x0,0xc,0x0,0x0,0x0,0x0,0x0,0x0,0x0,0x2,0x0,0x0,0x0,0x1,0x0,0x0,0x0,0x4a,0xe0,0xff,0xff,0x4,0x0,0x0,0x0,0x10,0x0,0x0,0x0,0x1,0x0,0x0,0x0,0x40,0x0,0x0,0x0,0x1,0x0,0x0,0x0,0xa,0x0,0x0,0x0,0x66,0xe0,0xff,0xff,0x4,0x0,0x0,0x0,0x4,0x0,0x0,0x0,0x40,0x0,0x0,0x0,0x76,0xe0,0xff,0xff,0x4,0x0,0x0,0x0,0x0,0x1,0x0,0x0,0x0,0x0,0x0,0x0,0x1,0x0,0x0,0x0,0x2,0x0,0x0,0x0,0x3,0x0,0x0,0x0,0x4,0x0,0x0,0x0,0x5,0x0,0x0,0x0,0x6,0x0,0x0,0x0,0x7,0x0,0x0,0x0,0x8,0x0,0x0,0x0,0x9,0x0,0x0,0x0,0xa,0x0,0x0,0x0,0xb,0x0,0x0,0x0,0xc,0x0,0x0,0x0,0xd,0x0,0x0,0x0,0xe,0x0,0x0,0x0,0xf,0x0,0x0,0x0,0x10,0x0,0x0,0x0,0x11,0x0,0x0,0x0,0x12,0x0,0x0,0x0,0x13,0x0,0x0,0x0,0x14,0x0,0x0,0x0,0x15,0x0,0x0,0x0,0x16,0x0,0x0,0x0,0x17,0x0,0x0,0x0,0x18,0x0,0x0,0x0,0x19,0x0,0x0,0x0,0x1a,0x0,0x0,0x0,0x1b,0x0,0x0,0x0,0x1c,0x0,0x0,0x0,0x1d,0x0,0x0,0x0,0x1e,0x0,0x0,0x0,0x1f,0x0,0x0,0x0,0x20,0x0,0x0,0x0,0x21,0x0,0x0,0x0,0x22,0x0,0x0,0x0,0x23,0x0,0x0,0x0,0x24,0x0,0x0,0x0,0x25,0x0,0x0,0x0,0x26,0x0,0x0,0x0,0x27,0x0,0x0,0x0,0x28,0x0,0x0,0x0,0x29,0x0,0x0,0x0,0x2a,0x0,0x0,0x0,0x2b,0x0,0x0,0x0,0x2c,0x0,0x0,0x0,0x2d,0x0,0x0,0x0,0x2e,0x0,0x0,0x0,0x2f,0x0,0x0,0x0,0x30,0x0,0x0,0x0,0x31,0x0,0x0,0x0,0x32,0x0,0x0,0x0,0x33,0x0,0x0,0x0,0x34,0x0,0x0,0x0,0x35,0x0,0x0,0x0,0x36,0x0,0x0,0x0,0x37,0x0,0x0,0x0,0x38,0x0,0x0,0x0,0x39,0x0,0x0,0x0,0x3a,0x0,0x0,0x0,0x3b,0x0,0x0,0x0,0x3c,0x0,0x0,0x0,0x3d,0x0,0x0,0x0,0x3e,0x0,0x0,0x0,0x3f,0x0,0x0,0x0,0x82,0xe1,0xff,0xff,0x4,0x0,0x0,0x0,0x8,0x0,0x0,0x0,0x1,0x0,0x0,0x0,0x40,0x0,0x0,0x0,0x96,0xe1,0xff,0xff,0x4,0x0,0x0,0x0,0x4,0x0,0x0,0x0,0xcd,0xcc,0xcc,0x3d,0xa6,0xe1,0xff,0xff,0x4,0x0,0x0,0x0,0x40,0xe,0x0,0x0,0xe1,0xf7,0xc2,0x24,0x2b,0xf,0xa6,0xb8,0xcf,0xe8,0xd8,0xce,0xb9,0xde,0xd2,0x27,0xfc,0x15,0xf6,0x2b,0x58,0x59,0x38,0x20,0x1e,0xcc,0xc8,0xbd,0xd5,0x2e,0xd0,0x16,0xfb,0xcf,0xa,0x57,0xc5,0x46,0xb5,0x2c,0x46,0xe3,0xe3,0x35,0xd,0xd9,0x7f,0xfb,0x48,0x7d,0x7,0x6,0x2f,0xa1,0xda,0xe6,0x31,0xc6,0xa6,0x49,0x13,0x6d,0xb4,0x24,0xef,0xe7,0x4e,0xf,0x32,0x68,0x4c,0xf2,0x8,0xeb,0xe4,0xad,0x31,0xfd,0x93,0xf4,0xa,0xdc,0x13,0x7f,0xe2,0x14,0x46,0x10,0xf,0x2e,0xd0,0xc,0xa9,0xbd,0x9f,0xce,0xba,0x6,0xda,0xf9,0xc9,0x7,0xed,0x74,0x5b,0xb9,0xe5,0x18,0xe3,0x24,0xb8,0x56,0xf,0x6e,0x9d,0xdb,0x17,0xda,0xfd,0x10,0xff,0xf7,0xf5,0x53,0x32,0x27,0xcd,0xef,0xad,0xf8,0x5,0xfd,0xe1,0xde,0xe4,0x10,0xf0,0x38,0xf5,0x1f,0xe3,0xa,0x14,0x42,0x11,0xcc,0x4a,0x2e,0xe9,0xe0,0x12,0xfd,0x9,0x3b,0x3f,0xba,0xbb,0x7,0xe3,0x95,0x29,0x45,0x28,0x45,0xf2,0x35,0x7f,0x0,0x2b,0xfd,0x6c,0xc1,0xda,0xb9,0xdc,0xfe,0xe,0x9,0x2c,0xf9,0xd6,0x10,0xde,0xe9,0x32,0xe0,0x6,0xed,0xd1,0x1d,0xd5,0x3f,0x4d,0x5c,0x36,0xe7,0x3f,0xd1,0xee,0xc,0xe7,0x41,0xc6,0x4d,0xed,0x10,0xcd,0xaa,0xe3,0x6,0x26,0x7e,0xcd,0xd6,0x36,0xe2,0xaa,0x1a,0x3,0xfb,0x4a,0xbe,0x11,0x7a,0xa0,0xfd,0xef,0x7f,0xd8,0xec,0xaf,0xf8,0xf9,0xe0,0xdc,0xf2,0xd1,0x2b,0xd2,0xd9,0xf,0xd6,0x2b,0xaf,0x3f,0x7,0x1c,0x5,0xb1,0xc1,0xe5,0x3f,0xa,0x25,0x6,0x2f,0xdc,0x48,0x38,0xdd,0x35,0x43,0xfa,0xd0,0x15,0x13,0xfd,0xe4,0xf7,0x1,0xdb,0x30,0xf1,0x81,0x3,0xe1,0xe1,0x6e,0xf0,0xf8,0x7c,0x8,0x7,0xd7,0x78,0xeb,0x74,0xb5,0xcb,0xb7,0xc3,0xb,0x47,0xd2,0x14,0xc8,0xa3,0xde,0xc3,0x12,0xe4,0x32,0x41,0xfb,0xfa,0xe6,0xf4,0x16,0xb8,0xf9,0xa3,0x9f,0x5a,0xd6,0xe7,0xcd,0x49,0xbc,0x44,0xfe,0x4e,0xef,0xde,0x1e,0x1,0xc9,0x63,0xf7,0xf0,0x49,0x34,0xd1,0xbf,0x2,0x18,0x36,0x63,0x17,0x79,0xd3,0x2d,0x81,0xa8,0xd0,0x40,0x55,0x5e,0xf3,0x2b,0xb1,0xd7,0x6d,0x21,0xea,0xfa,0x1e,0xce,0xaa,0xff,0xb4,0xbb,0xee,0xb8,0xec,0xf3,0x24,0x4b,0x6,0x36,0xc3,0xcc,0x39,0x4d,0xa,0x59,0xb2,0xae,0x81,0xca,0xc4,0xe2,0x5,0xf,0xdf,0xeb,0xd6,0x16,0xe3,0xd,0x5b,0x31,0x3d,0xf0,0x1c,0x7f,0xbf,0x66,0xe,0x9,0xfc,0xa8,0xee,0x35,0x36,0x6,0xe4,0x16,0xea,0x44,0x2d,0x5a,0xf7,0x3a,0xa0,0xdb,0x24,0xe2,0xf2,0x13,0xc1,0xd0,0x2c,0x10,0x24,0x52,0xe1,0xcb,0xd4,0x4f,0xd,0xa8,0x74,0xfa,0xf6,0xd4,0xce,0x23,0xb9,0xc,0xfd,0xaa,0xb1,0x19,0xe1,0xfb,0x4b,0x22,0xdf,0x3a,0xff,0xd8,0x7f,0xc0,0x1c,0xd9,0x50,0xc3,0xc,0xda,0x19,0xed,0xd3,0xf6,0xce,0x3d,0x81,0xb2,0xec,0x29,0x38,0x2c,0x52,0x45,0x5,0xf5,0x23,0x2b,0x10,0xf7,0x2f,0x30,0x89,0xf0,0xf3,0xf1,0xd2,0x38,0xe0,0xe8,0xfd,0xf4,0xfe,0x17,0x19,0xea,0x54,0x2b,0xef,0xc3,0xde,0x15,0x5,0xf8,0xde,0xfd,0xfd,0x1f,0x9e,0x41,0xa8,0xad,0xe7,0x25,0x14,0x62,0xf9,0x90,0x5,0xb,0xe6,0xfc,0xf6,0x17,0xd2,0xee,0xf2,0xbb,0xb,0x18,0x1c,0x38,0x2c,0x27,0x2e,0xe8,0xe3,0xfb,0x19,0xb8,0x0,0xef,0xf8,0xbc,0x4,0x4e,0xb5,0x1c,0xc5,0x5d,0x5e,0xdd,0x12,0x32,0xc0,0x44,0xe5,0xdb,0x27,0x2e,0xdb,0x97,0x1a,0xc3,0x3a,0x5f,0xf9,0x26,0xe7,0xf2,0x81,0x47,0x3e,0x56,0xde,0xff,0xf8,0x36,0xf3,0x1b,0x5f,0xf8,0x6d,0xda,0x22,0xc4,0x26,0xca,0x14,0xc6,0x31,0xe5,0xf5,0x1d,0x2b,0x14,0xee,0xe4,0xe1,0xfc,0xd5,0xdf,0xfe,0x61,0x1,0x23,0x9,0xef,0x9,0xcc,0xdf,0xca,0xfc,0x15,0xec,0xd3,0x71,0x35,0x2e,0xdd,0xad,0xf,0x5,0xdd,0x46,0x1b,0xdb,0x81,0x41,0x2e,0x1f,0xfd,0xc9,0xf0,0xd1,0x16,0xc0,0x26,0xb7,0x59,0xd,0x4,0xce,0x33,0x15,0x47,0xe0,0x22,0x8,0xfe,0xdb,0x12,0x43,0xee,0x2b,0x9f,0xc9,0x40,0xdf,0xda,0x9,0xe3,0xd,0xb,0xfb,0xf,0xb3,0xf2,0xa5,0x2,0xf3,0x51,0xd,0x64,0x7f,0x57,0x0,0x0,0xaf,0xe,0xcf,0xee,0x42,0xda,0xca,0xff,0xff,0xbd,0xd8,0xe0,0x2a,0x1a,0xfa,0x2c,0x9,0x38,0xbc,0x43,0x9,0x25,0xbc,0xd9,0xc4,0x3d,0x1b,0xd,0xcb,0xe,0xd5,0x19,0x24,0xd2,0x22,0x22,0xd6,0xe5,0x16,0xa7,0x1a,0xf9,0x36,0xdb,0x8,0x11,0x3,0x27,0x1e,0xfc,0xf7,0x1f,0x1,0x81,0xc3,0xd9,0xf3,0x41,0x34,0xd1,0xb,0x18,0x24,0x1b,0xf0,0x28,0xf2,0x8,0x14,0xcd,0xfc,0xc1,0x10,0x76,0xa4,0x4b,0xbd,0x96,0xd5,0xe4,0x2f,0x39,0x2e,0x3b,0x36,0xeb,0x30,0xf7,0xee,0x32,0xd4,0xd9,0x17,0x47,0xee,0x19,0x24,0xef,0xda,0x1c,0xb,0xd3,0x81,0xf,0xb2,0x48,0x3c,0x73,0xe,0x38,0x36,0x2a,0x72,0xed,0x25,0xe7,0xe6,0x66,0x23,0xb,0xc6,0x0,0x36,0x4,0xd1,0x1a,0x27,0x1e,0xbf,0xe1,0x1f,0xb8,0x6f,0x30,0xfe,0xf0,0xf7,0xfe,0x3e,0x0,0xde,0x3d,0x40,0xe9,0x23,0x28,0xc5,0xf2,0xcf,0xe8,0x2d,0x2a,0xd2,0xd,0x1c,0xf2,0xe6,0x20,0x2f,0xaf,0xd4,0x95,0xf5,0x36,0xe3,0xf1,0x36,0x50,0x3b,0xea,0xf3,0xc,0xc1,0xd3,0x2d,0xf3,0xed,0x81,0xc6,0xb4,0xd,0xf1,0xe5,0xd7,0xf1,0xc9,0xc,0x10,0x29,0x17,0xf5,0xb,0xc,0x19,0x3,0x1b,0x4,0x2c,0x31,0x22,0x32,0xd5,0x5,0xf4,0x1f,0xe9,0x4,0x15,0xec,0x1d,0x28,0x1f,0xf,0xd5,0xbd,0xce,0xe6,0xd,0x44,0xec,0x13,0xe0,0xc,0xc5,0xef,0xfd,0x2,0x5d,0xc3,0xd1,0x50,0xb4,0xd0,0xf9,0x7f,0xfa,0xcb,0xdc,0x7,0xf2,0x13,0xad,0xf5,0xc5,0x12,0x2,0x9f,0xf6,0xa,0x3a,0x52,0x3b,0x2,0xc4,0x9,0xeb,0x55,0x72,0x22,0xe4,0xaa,0x14,0x20,0xd1,0x3,0xec,0xd1,0xf6,0x3,0xdb,0x2e,0xf7,0x11,0xf1,0x0,0x3c,0xdb,0xe7,0x25,0x3f,0xaf,0xdb,0xd8,0x2c,0x78,0x96,0xae,0x51,0x81,0x8a,0xe6,0x6d,0xdc,0xf4,0x99,0xbd,0x6,0xf7,0xde,0x25,0x1d,0xf4,0xd7,0x9a,0xd5,0xcf,0x34,0xe9,0xe7,0x16,0x25,0xd7,0x21,0xe7,0x19,0xdc,0x10,0xfc,0xe,0x2e,0x21,0x34,0xff,0x35,0xdf,0x1a,0x6,0x57,0x1,0xef,0x33,0x30,0x60,0xe2,0xe6,0xb,0xda,0x81,0xb,0xb6,0x34,0x11,0xf0,0x4d,0x61,0xb3,0xb1,0x25,0x2c,0x48,0x53,0xac,0xb7,0x13,0xa,0x34,0x1d,0x34,0xe5,0x8,0xa3,0xe9,0x21,0x3b,0xde,0x3c,0xde,0x3e,0x9,0xdc,0x0,0x13,0xcf,0xc4,0xf1,0x5,0x8,0x38,0xce,0xc9,0x2f,0xcb,0xd2,0xe8,0x10,0xf,0xeb,0x12,0x35,0xba,0x7,0xe3,0xec,0x28,0x11,0x81,0x91,0x1c,0xe0,0x33,0x1,0xee,0xf0,0xa,0x40,0xf9,0x31,0x75,0x26,0xb7,0xc9,0x6,0xca,0xe9,0xf7,0xd0,0x9d,0x32,0x0,0xb3,0xd,0xf8,0x38,0x5b,0x12,0xdb,0x7f,0x4c,0x49,0xb1,0x2,0xf0,0x85,0xcd,0xe9,0xfd,0xfa,0xc9,0x3f,0x2b,0x29,0x2d,0xe7,0xd4,0xf,0xd9,0xc0,0x3e,0xf0,0x4a,0x53,0x46,0xef,0x29,0x16,0x3f,0x1e,0x26,0xe0,0x77,0xf0,0xeb,0xbe,0x2d,0x59,0x5,0x18,0xab,0xea,0x1b,0x17,0xe4,0xe6,0x15,0xac,0xf6,0x7,0x61,0xd7,0x28,0xe1,0x52,0x0,0x35,0xe4,0xcc,0x17,0x10,0xa9,0xdf,0x30,0xd1,0xfb,0xe2,0x18,0xe3,0x1c,0x18,0xfb,0x3c,0xd0,0xd5,0x16,0xce,0x27,0x17,0xd2,0x19,0x2d,0x81,0x86,0x18,0xfa,0x2b,0x53,0xbf,0x57,0xf1,0x33,0xa1,0xa7,0xe1,0xe3,0x75,0x42,0x10,0x1e,0xdb,0xe3,0xed,0x46,0x20,0x4a,0xe5,0x11,0x81,0xbb,0xcc,0x10,0xf2,0x83,0xbc,0xab,0x64,0xdc,0x39,0x29,0x1e,0xe9,0xe5,0x31,0x39,0x44,0x1e,0x2a,0xc2,0xd7,0x16,0xea,0x1,0x23,0x3,0xc,0xcc,0xa,0x9d,0x36,0x55,0xa6,0xd8,0x1d,0xe6,0x12,0x93,0x62,0xc6,0x5e,0x1f,0x5,0x30,0x7,0xe6,0x4f,0x25,0x3d,0x1c,0xae,0x38,0xc1,0x44,0x2f,0x1,0x12,0x28,0xd8,0xf4,0xfc,0x5b,0x34,0x10,0xd9,0xea,0xb0,0x2c,0x17,0xfa,0xb6,0xcb,0x36,0xca,0xf8,0xdb,0x51,0x1b,0x15,0x45,0xcf,0x26,0xe9,0xf2,0xee,0xf7,0x24,0x81,0xbd,0xa9,0xd,0xe6,0x25,0x97,0xa6,0xfb,0x6c,0x9f,0xc1,0xed,0xc6,0xe,0x2e,0xf6,0xaa,0xda,0x36,0xf,0x1d,0xc1,0x9d,0x15,0x2,0x17,0xd8,0xf,0x21,0xc6,0x52,0x4a,0x53,0xd5,0xfd,0x23,0xb7,0xf2,0x14,0x24,0x26,0xbc,0x4,0xc8,0x28,0xfa,0xb4,0xf9,0xde,0x47,0x46,0xb5,0xed,0x15,0xf1,0xd4,0x6a,0xe6,0xed,0x7e,0xe3,0xe8,0x7f,0x8f,0xbe,0x13,0x6e,0x16,0x44,0xe7,0xcf,0x8,0xdf,0x1c,0xf7,0xf9,0xbc,0xf3,0xa3,0x8,0x3,0x4a,0xec,0xf4,0xf7,0x2b,0x0,0x1c,0xf3,0xf5,0xf,0xb4,0xdb,0xd0,0x21,0xcf,0xa5,0xd2,0x49,0xd3,0x16,0x3,0x3a,0x38,0x41,0x44,0xd5,0xf4,0x26,0x24,0xda,0xf8,0x47,0x81,0xf1,0xc,0xfe,0x38,0x42,0xa6,0xdf,0xb2,0x45,0xc7,0xfe,0x40,0x39,0xad,0x5,0xe0,0x22,0xde,0xfe,0xb0,0xb,0x6,0xf0,0x22,0x56,0x23,0xf,0x5,0x11,0xda,0xe8,0x5c,0xfb,0xca,0xe,0xd1,0xe3,0xc9,0xc8,0xf2,0x26,0xd4,0xc3,0x2,0x10,0x23,0x24,0xeb,0xc8,0xf8,0xa8,0x3d,0x17,0x17,0x6,0x2f,0xf1,0xa,0x1f,0x1,0xd3,0xad,0xe8,0xfd,0xe2,0x2d,0x81,0x0,0xd9,0xdc,0x46,0xc,0xeb,0x10,0xf3,0x37,0xa6,0x6a,0xbb,0x26,0x14,0x45,0x84,0xf6,0xa9,0xea,0xca,0xec,0xb2,0x20,0x14,0x9,0x4d,0x1c,0x5f,0x32,0xf4,0xd7,0x39,0xef,0x3c,0xe3,0x24,0xc3,0xbf,0x55,0x1d,0x64,0xf1,0xbf,0xc1,0x2,0xd3,0x81,0x83,0xc3,0xdd,0x36,0x33,0x2,0xd1,0x46,0x22,0x35,0xe6,0xd,0x62,0x2c,0x55,0xbd,0x5c,0x1a,0xfd,0x6a,0x3e,0x3a,0x6a,0xad,0xc8,0x8a,0x2c,0xc2,0x9,0x19,0xb7,0x9b,0xac,0x1e,0x30,0x4b,0x32,0x20,0xc3,0x34,0xd4,0xc0,0x5d,0xcd,0xcf,0x90,0x12,0xaf,0x3,0xaf,0xa4,0x3d,0xd2,0x1d,0xac,0x6e,0xcb,0x45,0xd8,0xf6,0x61,0xdd,0xb7,0x35,0x7f,0x2f,0x87,0xca,0xc1,0x16,0x4b,0x47,0x6,0x18,0x24,0x2b,0x14,0x7,0xfb,0x29,0x1,0xc5,0xe1,0xd0,0xf4,0x18,0x3,0xc9,0x19,0xdb,0x44,0x2c,0x8,0xef,0x4,0xf8,0x2e,0x18,0xe1,0x16,0xd8,0xe,0xc1,0xd4,0xa,0x1d,0x3,0x19,0xca,0xda,0xf9,0xff,0xa3,0xf3,0x1,0xe6,0x11,0xdc,0x0,0x30,0xfa,0xf3,0xc6,0x7f,0x62,0x47,0xc,0x11,0xdf,0xfd,0xe9,0xfc,0xe6,0xe2,0xde,0x23,0xc9,0xb2,0x51,0x37,0xf2,0xce,0xd7,0x28,0xe3,0xd,0x29,0xc2,0x1c,0xf4,0xcf,0xe2,0x35,0x4,0x26,0x30,0xa,0x17,0x22,0x1d,0x44,0x17,0x28,0xbe,0xaa,0x10,0x1c,0x13,0x15,0x2b,0xe6,0xd4,0xde,0xda,0xfc,0x29,0x81,0x4f,0x2a,0xf9,0xd4,0xa2,0xe5,0x31,0x48,0x44,0xe9,0xbf,0xa2,0xca,0x6e,0xca,0x2a,0x3a,0x48,0xf9,0x17,0xc4,0x19,0xe8,0xdc,0xee,0x28,0x9,0x41,0x24,0x42,0x3f,0x8,0x2f,0x1e,0x40,0xd2,0x51,0xde,0x19,0xeb,0xa7,0xf9,0x1e,0xf,0x29,0xa9,0x28,0x19,0xb6,0xd9,0x7f,0x4a,0xe0,0xd4,0xea,0xc,0x54,0x9a,0xf3,0xa5,0x60,0x3a,0x21,0xee,0x4,0xc5,0xfc,0x1a,0x1e,0xf0,0xc5,0xc8,0xd5,0x1a,0xf6,0x44,0xc,0x30,0x26,0x29,0xc9,0xdb,0x22,0x22,0xf,0xd1,0xcf,0x0,0xec,0x0,0xc3,0xcb,0x9,0xc3,0xda,0x25,0x41,0x3c,0xc,0x36,0xe5,0xa,0x1,0x3e,0xca,0x35,0x26,0x88,0xc9,0xc8,0x6,0x3c,0xe9,0xea,0x45,0xc4,0xef,0x81,0xfc,0xed,0x55,0x39,0x16,0xb2,0x1,0xad,0xdf,0xf,0x7,0x6a,0x28,0x1d,0x97,0x7,0xdf,0xce,0xd0,0xf7,0xa8,0x11,0xc3,0x34,0x52,0x46,0x49,0x97,0x38,0x57,0xf8,0xda,0x60,0x2d,0xf5,0xad,0xc7,0xc7,0xdd,0xa,0xbd,0xb3,0xf5,0x41,0x21,0x31,0x40,0x7f,0xe3,0x2c,0xd5,0xf,0xfb,0xfa,0x3,0xbb,0x48,0x9,0xd0,0xf8,0xeb,0xf0,0x9,0x13,0x3,0xfb,0x17,0x28,0xf8,0xc2,0xcb,0xc9,0xec,0xdb,0x2d,0x9,0xd9,0xe6,0x27,0x3b,0x1b,0x7,0x2f,0xf6,0xc,0xe7,0xe,0xfa,0x19,0xfd,0x2d,0x1b,0xdf,0xd3,0x1a,0xc5,0x2d,0x37,0xff,0xcd,0x32,0x25,0x90,0xfe,0x2f,0xf2,0x4a,0xd8,0xd4,0x7f,0xed,0x20,0xad,0x2d,0xf5,0xd,0xc0,0x14,0xe,0x0,0xdb,0x10,0x32,0xa4,0xdd,0xb7,0xc7,0x7,0x53,0xb2,0xfa,0xce,0xa,0x31,0xc7,0xff,0x28,0xe5,0xef,0x13,0xf,0x4f,0x42,0x9,0xbd,0x3e,0xd6,0x23,0x8,0x54,0xa,0xd3,0x1a,0x41,0x12,0xf3,0xd9,0xde,0x18,0x9c,0x81,0x8e,0x8,0x13,0x2e,0x3f,0x1e,0x26,0x1f,0x3,0x1f,0x55,0x8,0xa7,0xff,0xb8,0xce,0x22,0x26,0xa1,0x55,0x9c,0x2a,0xb7,0xa0,0xf,0x54,0x7,0x76,0xf,0xdf,0xc1,0x30,0xf,0xf9,0xca,0xe4,0x83,0x6,0xf,0xd3,0xdb,0x27,0xab,0x55,0xbc,0x2d,0x3c,0x17,0x95,0xda,0x84,0x7d,0x51,0x50,0x2c,0xeb,0xf,0xc8,0x17,0x40,0x6d,0x68,0xec,0x7f,0x23,0xaa,0x86,0x5,0x6d,0xd4,0xc8,0xa7,0xcc,0x3b,0x53,0xb2,0xf5,0x16,0xc3,0xef,0xce,0x77,0x42,0xf6,0x1e,0xe0,0xbe,0x4b,0xc,0x42,0xc8,0xea,0xd7,0xda,0x11,0x18,0xaf,0xf7,0xfe,0xea,0x33,0xfe,0xf,0xa,0x3e,0x45,0xc8,0x81,0xf,0x31,0x34,0x1e,0x50,0x9f,0x6,0xc9,0xb0,0xed,0xf9,0xe4,0x49,0x1e,0x5d,0x83,0xde,0xf4,0x2a,0xc,0xaf,0x11,0xbe,0x28,0x16,0xd6,0xa3,0x17,0xf5,0x55,0x2f,0x7f,0xe4,0x41,0xe,0xe7,0x30,0x2e,0x6,0x3,0xd3,0x8a,0x2c,0xe7,0xea,0xdf,0xd8,0xdd,0xe9,0xb9,0xdc,0xf1,0x6,0xfa,0xe9,0x30,0xe4,0x23,0x1,0x22,0xcc,0x62,0x1d,0xff,0x11,0xdf,0xfe,0xec,0xda,0xad,0xf7,0x22,0x10,0x2a,0xf9,0xfd,0xff,0xc5,0xe5,0xd7,0xfa,0x25,0xe3,0xc5,0x24,0xb5,0x62,0x22,0x5a,0xd9,0x13,0x2b,0xdf,0x4a,0x56,0x25,0xcf,0xe5,0x81,0xbe,0x20,0xd7,0xd0,0xd9,0xfd,0xe2,0xcb,0x14,0xf2,0xe4,0x3f,0x22,0x55,0xe9,0x4a,0xea,0xcd,0x1a,0x67,0xe,0xab,0xe3,0xf4,0xe1,0xa4,0x1,0xbe,0x93,0x20,0xf0,0x0,0x29,0xe0,0x1e,0x17,0xcc,0x23,0x38,0xf9,0x4,0xd9,0xeb,0x30,0x7,0x9,0xed,0x2e,0xe,0x15,0x5,0x20,0x21,0xee,0xe9,0x27,0xeb,0xd2,0xd3,0x2c,0xf2,0xd7,0x21,0x2d,0xf3,0x24,0x1b,0xc,0xf0,0xd6,0x13,0x9b,0x50,0x1f,0x1e,0xf4,0x2b,0xd5,0x2e,0x4,0xb6,0x38,0x31,0x98,0x18,0x1c,0xe0,0x81,0xc5,0x9d,0xc2,0x1b,0x16,0x22,0xfe,0x7,0xea,0xea,0x63,0xf2,0xef,0xeb,0xb1,0xc3,0xd2,0x9,0xe6,0x32,0x6,0x5,0x1b,0x57,0xfe,0x9,0x50,0x39,0xda,0x32,0x38,0x20,0x2e,0xde,0xca,0xec,0xf7,0xf1,0x57,0xd7,0x7f,0x91,0x19,0xbc,0xf4,0xd2,0x12,0xdd,0xbd,0x56,0xc5,0xa8,0x4c,0x9f,0xe8,0xc3,0x2d,0xed,0x2a,0xfe,0xcc,0xbc,0xd5,0x7,0x42,0xe6,0x9e,0xeb,0xfb,0xe3,0xdb,0x6c,0xda,0x2e,0xfa,0x1d,0x23,0x7f,0x4f,0xf4,0xfa,0xbc,0xb6,0xf7,0x3f,0x4a,0xf,0xfc,0x1,0xa4,0x43,0x3d,0x47,0xd1,0xf9,0x10,0xec,0x27,0x17,0xe2,0x28,0xe9,0xbc,0x16,0x9b,0xbd,0x53,0x3e,0xdb,0x94,0xc7,0xc8,0x49,0x3c,0x15,0xce,0x2b,0xe4,0x5,0xe5,0x1,0xd9,0xcd,0xd,0xf4,0x5b,0x3c,0xed,0x3,0x5a,0xe1,0x66,0x9e,0x22,0xe1,0x1,0xda,0xbf,0x5c,0x91,0xf4,0xec,0xc9,0xb5,0x13,0xc,0x65,0x2,0xef,0xb6,0x49,0x27,0x9,0x3,0x93,0x30,0x1,0x4e,0x9,0x3c,0x25,0x6c,0xe4,0xea,0xeb,0xfd,0xec,0x21,0x49,0x44,0x81,0x9c,0xa2,0x24,0x19,0x1b,0xf6,0x37,0x9d,0xe0,0x78,0xfd,0x74,0x2e,0x26,0xeb,0xf0,0x9,0x31,0xcb,0xfb,0xfb,0xb9,0xf9,0x2d,0x62,0x7f,0x58,0x8e,0xe7,0x2f,0x46,0x7,0x5f,0xf2,0xb7,0xfd,0xcf,0xeb,0xb3,0xe7,0x28,0x92,0x1a,0xd7,0xf7,0x29,0x1b,0x5e,0xe6,0xe4,0xe9,0x3,0x3e,0xe1,0xeb,0x99,0x73,0xb7,0x9f,0xff,0x57,0x4b,0xeb,0xdf,0xfe,0xf5,0xf6,0xe0,0xd7,0xf1,0xf7,0x2c,0x9,0xe4,0xd8,0xd5,0xda,0x3,0x2,0x4c,0x2,0xfd,0xc,0x35,0x9,0x1c,0xdd,0xdd,0xbc,0x53,0xe2,0x19,0xda,0xeb,0x13,0x40,0x3,0x8,0x98,0x10,0xda,0xcf,0x17,0x14,0x35,0xd1,0x3e,0xed,0xf1,0x54,0xac,0xd5,0xe0,0x7f,0xee,0x46,0x6,0xf6,0xa6,0x0,0xf7,0xc1,0xed,0xb0,0xe0,0x27,0xe4,0x16,0x0,0x7f,0x31,0x49,0xe1,0xce,0x28,0x35,0x34,0xb3,0xf0,0xd9,0x4,0xd6,0xe9,0xc4,0x1d,0xf4,0xef,0xf6,0x37,0xef,0x2,0x20,0xf7,0xef,0xcd,0x2d,0xf5,0xea,0x13,0x1f,0x48,0x13,0x27,0xe8,0xea,0xa7,0x11,0x15,0x99,0xf2,0xd1,0xea,0xf8,0x40,0xc0,0xda,0xfa,0xbe,0xd7,0x37,0x43,0xb1,0x4c,0xfe,0xda,0xf5,0x16,0x2e,0xf8,0x1a,0xf8,0x15,0x42,0x31,0x37,0xe6,0x21,0xd1,0xb9,0xe5,0x3e,0xcc,0xf4,0xe5,0xd,0xea,0xc0,0xc9,0x7,0xc0,0xdc,0x4b,0xde,0xcf,0x3d,0xc7,0xe9,0x6f,0x61,0xee,0x58,0xbc,0x8d,0x6f,0xc6,0xae,0xde,0x7f,0x3,0xd6,0x1b,0x36,0xed,0x8,0x26,0x1d,0x35,0xd6,0x75,0xe8,0x58,0x28,0x32,0xdf,0xec,0xee,0xfb,0xe1,0xf8,0xda,0xc0,0x48,0xb0,0xa,0x1f,0x4e,0x46,0xcc,0xcb,0x35,0xa8,0xc2,0xe5,0x1f,0xfb,0x19,0x6b,0xef,0x50,0x3,0xe1,0xb,0xcb,0x7,0x16,0x5,0xbe,0xf3,0xba,0xe9,0xfd,0x81,0xd1,0x2b,0x6a,0x1f,0xa,0x33,0xde,0x30,0x8,0x2c,0xa9,0xb5,0x10,0xe2,0x70,0x1,0xd1,0x9e,0x7f,0xf1,0x5a,0x4,0x2d,0xb7,0x30,0xf2,0x6,0x4b,0xd6,0xf5,0x90,0xe3,0x1d,0xfa,0xf8,0x31,0xa2,0x23,0xc1,0xc0,0x2e,0xb7,0xf1,0xbf,0x11,0x1d,0xf2,0x14,0x6c,0x66,0x5b,0x16,0x1,0x89,0x85,0x53,0x3e,0x44,0x23,0xbd,0xd7,0x10,0xa7,0xa9,0xc0,0xe7,0xd2,0x55,0x12,0x5,0x3f,0xb8,0x1d,0xf5,0x33,0xa0,0x46,0xa6,0xe3,0xe0,0x3f,0xfd,0x0,0xda,0xea,0x2,0x9e,0x4f,0x6b,0xef,0xe5,0x1,0xe2,0xd8,0x11,0x26,0xe,0x1b,0x5d,0x51,0x41,0xc,0x2e,0x13,0xe1,0xc7,0xc4,0xb1,0xd5,0x60,0x6c,0x7f,0xf0,0xbf,0xb4,0xcc,0x51,0x3c,0xf5,0xd5,0xb6,0xd7,0x5,0xe6,0xa,0x13,0xa0,0xf1,0xa1,0xce,0xf7,0x1,0x21,0x37,0xef,0x1b,0xfb,0x7f,0x17,0x23,0x2a,0x0,0xa9,0xe0,0x5d,0x51,0xcd,0x17,0x31,0xd7,0x48,0xe7,0x56,0x12,0x75,0x4,0xd7,0xdc,0x5,0xf3,0x1e,0xbc,0x2a,0xa0,0xcc,0xdc,0x5,0xf1,0xf9,0xdc,0xfa,0xcc,0x49,0x93,0x37,0x7f,0x0,0xb1,0x11,0xd4,0xee,0x42,0x3,0x27,0xd2,0xb5,0x2e,0xac,0x4e,0xcc,0x39,0xf7,0x3b,0xc3,0x50,0xfc,0xe1,0x25,0x23,0xcf,0xbc,0xfc,0x2c,0x26,0xc5,0x26,0x7,0xe9,0xd5,0x31,0x18,0x1f,0xdc,0x1f,0xad,0x46,0x17,0xdc,0xd7,0x7b,0xa7,0xe6,0x38,0xb7,0x47,0x6a,0x8d,0x17,0xe0,0x15,0xc4,0x4a,0x7b,0xab,0xea,0xc7,0xb,0xf6,0x34,0xf4,0xd2,0xcd,0xda,0x95,0x81,0x3b,0xe,0x25,0x3,0xe,0x16,0x25,0x6,0x3f,0xd9,0xe3,0x1d,0xe3,0x9f,0x2d,0xd0,0xba,0xb,0xe,0x55,0x36,0xd,0x31,0x49,0xfa,0xdc,0xd1,0x61,0x40,0xe6,0x3f,0xf3,0xfb,0xe6,0x1e,0x2a,0x51,0x1b,0xcc,0x6b,0x31,0xbe,0x92,0x4b,0x5e,0xe,0x3,0xe9,0x1f,0xc4,0x1d,0x17,0xd0,0xe7,0x30,0xe4,0xfd,0xff,0x3b,0x55,0xef,0x30,0xfb,0xdd,0xe4,0x2f,0xfd,0xed,0x85,0xbc,0xf5,0xaf,0xd8,0xdf,0x46,0x89,0xe,0x3a,0xf7,0x1c,0xd7,0xc4,0xd5,0xc7,0x24,0x5,0x35,0x26,0x4f,0xa8,0x18,0xe5,0xe4,0xda,0xc3,0xbb,0x27,0xae,0x21,0x81,0xf6,0x64,0xc5,0xd7,0x1b,0xc8,0x7,0x1d,0xbb,0xe4,0xf1,0x9,0x2e,0xb,0x6a,0xf2,0x3f,0xcf,0x1c,0x19,0xe5,0xf,0x4,0xc0,0xe6,0xfb,0x1c,0x24,0x33,0xf9,0xe9,0x15,0x7,0x33,0xe7,0x32,0x4,0xf0,0xfe,0xc2,0x99,0x52,0xe2,0x36,0xfc,0x47,0xa6,0xc5,0x17,0xb2,0x5b,0x6c,0xc6,0x8,0x8,0x2f,0x81,0xa,0xff,0xd7,0x6b,0x4f,0x10,0xec,0x1c,0xc9,0x52,0x50,0x44,0x38,0xe3,0x88,0xed,0xb5,0xbc,0xbc,0xd5,0x2,0xdc,0xc3,0x40,0x15,0x47,0x15,0xa6,0x16,0x3d,0x17,0x16,0x49,0x9,0xd,0x9d,0xb9,0xc7,0xb2,0x30,0x59,0xbd,0xe7,0xe2,0xfd,0xee,0x51,0x16,0x33,0x53,0xe2,0xac,0x7f,0xb4,0x4e,0xe4,0x7e,0xf3,0xf7,0xe,0x33,0xfa,0x1,0xd9,0xb9,0xd0,0x2,0xbe,0x49,0xcc,0xfc,0xd3,0x4e,0xe8,0x17,0xe9,0x1b,0x13,0x4a,0xec,0x27,0x2,0x2b,0x24,0xc0,0xc7,0xf,0x0,0xc3,0x9,0x5,0x5,0xed,0xe5,0xe5,0xf0,0xa,0x14,0xc0,0x1a,0x25,0xd5,0x24,0x7f,0x62,0x16,0x20,0xd3,0xd5,0x46,0xd8,0x14,0x25,0x1e,0x55,0x6e,0x4d,0x6,0x26,0xc8,0xd9,0x2d,0xc8,0x2d,0xe1,0x35,0x18,0xbe,0x8,0x2a,0x21,0xf1,0x29,0x25,0x4b,0x28,0x27,0xff,0xd2,0xd5,0x21,0x1,0xb5,0x22,0xfa,0x10,0x12,0x1,0xe7,0x48,0xdf,0x1a,0x9a,0xb3,0x95,0x11,0xf7,0xfb,0x49,0x62,0xfb,0x3a,0xb,0x93,0x4d,0x26,0x95,0x7f,0x34,0xd3,0x82,0x18,0xc,0xc0,0xcc,0x1f,0xe3,0xfa,0x68,0xc2,0x1c,0x14,0xa3,0x41,0xd9,0xe,0xb5,0x46,0xc,0x37,0x5,0xa5,0x95,0xf5,0x10,0xfa,0xd4,0xd2,0x2c,0xee,0x1b,0xc4,0x5,0xa1,0xe0,0xf6,0x65,0x5b,0x1d,0xe1,0x2c,0xdf,0x2e,0x4,0x3c,0xd,0xeb,0x83,0xd1,0xe,0xc7,0x7f,0x18,0xe4,0x47,0x59,0xd1,0xc9,0x2c,0x30,0xac,0x2,0xf2,0xeb,0xeb,0xff,0xd,0xca,0x2e,0x90,0xf4,0xfc,0x55,0xd3,0x36,0xd7,0x10,0xf5,0xa,0xef,0xfb,0x28,0xf3,0xe3,0xe2,0x36,0x2e,0x15,0x17,0x4c,0xc9,0xe9,0xe5,0x17,0x32,0xc,0x9,0x1d,0xd5,0x34,0xef,0xd2,0x2c,0xe1,0x81,0x97,0xb8,0xea,0x2d,0x4c,0xbc,0xe1,0x5,0xe,0x7,0xe5,0x3,0x9,0x54,0xf0,0xfc,0xea,0xdb,0xfa,0xfd,0x2c,0xe3,0x29,0x2e,0x25,0xff,0xf7,0x9,0xcc,0xc1,0xd1,0xf5,0xff,0x37,0x2d,0xc2,0x64,0x21,0xbf,0xb5,0xdf,0xba,0x14,0xa6,0x8,0xe7,0x6,0xe4,0x2a,0x2d,0x71,0xb5,0x2b,0xc5,0x20,0xf8,0x59,0x19,0xf3,0x46,0xd2,0xdb,0x22,0x81,0xe0,0x43,0x28,0xef,0xd2,0x41,0x3e,0x3e,0x10,0x15,0xf7,0x1f,0x2d,0xdc,0x2,0x15,0x1e,0xcd,0x16,0x22,0xc3,0xa4,0x24,0x28,0x28,0x2,0x12,0x5,0x45,0xd4,0x2c,0x34,0xd8,0x44,0xc5,0xd,0x33,0xf3,0xbc,0xeb,0x20,0xf1,0xdf,0x4a,0xbc,0xa1,0x6,0xd3,0x9b,0x44,0x5c,0xe9,0x54,0xf3,0x12,0x60,0xd8,0xf0,0xf4,0x7f,0x2a,0xd0,0xeb,0xfe,0x20,0x21,0xb,0xe8,0x9,0x6f,0xf2,0x3c,0x21,0xfd,0xe5,0xa3,0x1d,0xf0,0xd3,0xd1,0xc6,0x10,0xb3,0xea,0xf7,0x1a,0x36,0xbd,0xec,0x56,0x26,0x1a,0x78,0xe0,0x28,0xca,0x2,0xe8,0xa6,0x0,0xf0,0x11,0x25,0x4c,0x11,0xde,0x63,0xfb,0x23,0xeb,0xf,0x23,0x3,0x43,0x7f,0xe,0xbd,0xf8,0x1f,0x18,0xfa,0xe8,0x1a,0xe7,0xd,0x32,0x81,0xf1,0x9,0xe6,0x18,0x42,0x44,0xf9,0x27,0xde,0x18,0x2,0x51,0x2,0xe6,0xf0,0xc8,0x21,0x1b,0x16,0xa8,0xc9,0x38,0xac,0x1e,0x15,0xb,0xfb,0x2a,0x5c,0x14,0xfc,0xed,0x11,0xc3,0xe1,0x21,0x98,0xf2,0xc7,0xeb,0x13,0xbd,0xeb,0xe6,0xcc,0x23,0xf6,0xf2,0xef,0xff,0xff,0x4,0x0,0x0,0x0,0x0,0x10,0x0,0x0,0x7f,0x7,0x17,0x44,0xcc,0xa4,0xda,0xd,0xe5,0xa0,0xf2,0x32,0xc9,0x1c,0x22,0x4c,0xef,0x1,0xd2,0xec,0xa7,0x11,0x9,0x61,0xe7,0x2,0xee,0xc0,0x39,0xbc,0xc,0xc5,0x2a,0x1a,0x9f,0xce,0xc2,0x25,0x13,0xf5,0x2f,0x1,0x3,0x1a,0x2,0xef,0x3c,0xf,0xe,0xe5,0xfc,0xa3,0xf,0xcd,0xaf,0x12,0x31,0x5,0xa2,0xf5,0xf2,0x20,0xe9,0xe2,0x7f,0xb6,0x1a,0x5d,0x67,0x29,0xdc,0x12,0xf3,0xfb,0xc6,0xb2,0x40,0xf0,0xc9,0x3d,0x25,0x79,0x11,0xfc,0xf9,0xff,0xf3,0x71,0x22,0x0,0xb,0x9d,0x34,0xd5,0xf7,0xfc,0xbf,0x30,0x63,0x1d,0xf0,0xd,0x7,0xf8,0xef,0x15,0xbb,0xee,0xf4,0xd6,0x34,0xee,0xb8,0x53,0xf9,0xf0,0x10,0x2,0xe6,0xe,0xef,0xf6,0x43,0x2b,0xcc,0x29,0xf4,0xe1,0x73,0x2,0x24,0x40,0x7f,0x10,0x5,0x4f,0xf,0x1,0xfc,0x3d,0xc3,0x23,0xff,0x45,0x15,0x33,0xd9,0x13,0xcb,0xf0,0xae,0x48,0xd4,0xed,0xe2,0xeb,0x2c,0xfd,0xf3,0xb9,0x9,0x30,0x19,0x9,0xbe,0xd4,0xd5,0xe9,0xe6,0x10,0x3,0x2f,0x7,0xe5,0x3c,0xac,0x14,0xa,0xeb,0xf9,0x15,0xce,0xdb,0x33,0x25,0xf6,0xe,0xcf,0x4,0x1a,0x16,0xa2,0x6b,0x3a,0x4,0x38,0xec,0x8a,0x2b,0x72,0xfe,0xb3,0xef,0xc,0x9a,0xd3,0xf9,0x33,0xd,0xf5,0xb6,0xf5,0x86,0xe7,0xc7,0x58,0xb4,0xf6,0xfb,0xc6,0x45,0xaf,0x4b,0xa0,0x22,0x5,0x90,0xbe,0xe5,0xe4,0xf6,0xbb,0x1c,0xf0,0x4,0x49,0x26,0x25,0x77,0x26,0x26,0xbf,0xe6,0x87,0x13,0xf6,0xc8,0x4f,0x61,0x16,0x81,0xdc,0xf8,0x43,0xf1,0xc5,0xf8,0x1f,0xe6,0x9e,0x2,0x2,0x4e,0x4a,0x9,0x8,0x59,0x72,0xd0,0x1b,0x30,0xbc,0x5,0x97,0x9e,0x15,0xca,0xda,0xbc,0xc4,0xab,0x26,0x97,0x7f,0xf3,0x14,0x1c,0xf3,0x21,0x18,0xad,0x2b,0xfb,0x1e,0xd,0x44,0xc1,0xac,0x2f,0x59,0xd1,0x34,0x12,0x99,0x2d,0xbd,0xeb,0x22,0xb,0xfa,0x13,0xf4,0x48,0x7,0x21,0xdf,0xd1,0xfe,0x3d,0xba,0xff,0x9,0xc4,0xbd,0xd4,0xb3,0x53,0x31,0x28,0xf3,0x1e,0x7f,0x99,0x1a,0x74,0x2,0xf1,0xcc,0xa8,0xd5,0xbb,0xe5,0xf7,0xb3,0x10,0x29,0xb4,0x23,0xd7,0x2c,0x11,0x0,0xa,0xf1,0xa9,0xe5,0x3a,0x37,0x34,0xdc,0xcb,0xb5,0x4f,0x3e,0xef,0x19,0xf7,0x2a,0x29,0x9b,0xd4,0x95,0xd8,0xe,0xe6,0x3,0x5a,0x3a,0xf1,0xaa,0x42,0x5,0xed,0x35,0x97,0x41,0xd,0x18,0x10,0xc3,0x44,0x12,0xfd,0xe6,0xd7,0x90,0x2e,0xf2,0xe1,0x2,0xc3,0xff,0x1,0xdd,0xfb,0x2e,0x16,0xca,0xdf,0xd2,0x7f,0x5e,0x5a,0xe0,0xd,0xd8,0x14,0xe5,0x24,0xdf,0xba,0xf3,0xe1,0x12,0x31,0xf8,0xe1,0x3e,0x1c,0xc4,0xce,0x47,0xcf,0x26,0xe0,0xf5,0x5,0xcc,0xf,0x32,0xbf,0xef,0x1,0x2f,0x8,0x1c,0x1b,0xea,0x7c,0xe8,0x22,0x65,0xa,0x4,0x7,0xfa,0x9,0xcf,0xbd,0xd6,0xf3,0xee,0xf4,0x4e,0x1c,0x44,0x1,0x5,0xd3,0xde,0xf6,0x7a,0xd,0x4,0x2,0x81,0x11,0xc2,0x21,0xe3,0xe8,0x7,0x2c,0xe2,0xd7,0x17,0x14,0xdd,0x1a,0x17,0xe1,0x4,0x20,0x16,0x53,0x2,0x1,0x13,0xf9,0xc8,0x8,0xa,0x9d,0x4,0x37,0xf4,0xe7,0xf0,0x16,0xfb,0xdd,0x2d,0x81,0xf1,0xe0,0xaa,0xca,0x26,0xd,0xef,0xfd,0xb,0x11,0xf6,0x37,0xed,0xf2,0xcf,0xb6,0xf5,0xc,0xf2,0x3a,0x21,0xf7,0x9e,0x19,0xf8,0x1e,0x47,0xd7,0x3c,0xe2,0x1d,0xfc,0xe2,0x12,0xfc,0x27,0xe4,0xe9,0xa,0xfc,0x2,0xed,0xf1,0xef,0xef,0xca,0xf2,0xef,0x1b,0x1b,0x23,0xfe,0x24,0x47,0xd8,0xd8,0x1e,0x20,0x25,0xe5,0xe0,0x4,0xfe,0x7f,0xbd,0x12,0x67,0xe8,0x9,0xdc,0xc5,0x1e,0x22,0xda,0xf4,0xeb,0xd,0x14,0x5b,0x44,0x35,0x25,0x2c,0xf3,0xec,0x39,0x73,0x35,0xe,0xda,0x9d,0xf4,0x14,0xf8,0xfe,0xfc,0x1f,0xfe,0x16,0x14,0x26,0x37,0xcf,0xea,0x43,0xd8,0xde,0x1f,0x3c,0x5,0xd,0x18,0x18,0x16,0x11,0xf0,0xa,0xd2,0xe5,0x1,0xf3,0xe5,0x21,0x1d,0xfa,0xe4,0x3c,0xd9,0xe9,0x2f,0x31,0x51,0x18,0xff,0x18,0xb,0xf1,0xab,0x8b,0x3a,0xf8,0x81,0x46,0x33,0x45,0x1a,0xd3,0x13,0x1,0xcd,0x44,0xfc,0xe6,0x3f,0xe3,0x7b,0xda,0xee,0xeb,0x13,0x4a,0x75,0x9,0xef,0xe8,0xd,0xd1,0x11,0xe,0xf2,0xf,0x13,0xf8,0xf7,0xf4,0xef,0x29,0x15,0xca,0xeb,0x11,0xd2,0x12,0xe2,0xce,0x41,0x18,0x2d,0x6,0x18,0xec,0x81,0x37,0xe6,0xd7,0xd6,0xcb,0x32,0x2c,0xfb,0xcd,0x2b,0xf4,0x6,0xd4,0x17,0xfc,0xd9,0xcc,0xd6,0xea,0xc6,0x37,0xfd,0xc3,0xd5,0x6,0x18,0x52,0x25,0x6,0x23,0xf6,0x33,0xda,0xb7,0xc6,0xd6,0xe8,0xe1,0x17,0x34,0xcf,0x6,0x31,0xfd,0xfe,0xf9,0x1c,0x2,0xd5,0xd,0xdf,0xd2,0xd4,0x7,0x1a,0x20,0xf8,0xce,0xec,0x32,0x7,0x1b,0xee,0x7f,0x0,0x10,0x45,0x1d,0xe0,0x10,0x27,0xf6,0xeb,0xfa,0x42,0xc8,0x25,0x2d,0x3c,0x22,0x13,0xc8,0x13,0xea,0xf2,0xcf,0x2f,0xd3,0xff,0xbd,0xd9,0x5,0xe6,0x14,0xf2,0x11,0x21,0xdd,0xf7,0xe4,0xe9,0x6,0xff,0xe9,0xfb,0xf,0x10,0xfb,0x7,0x25,0xe6,0x19,0xe2,0x8,0xeb,0x8,0xe7,0xe4,0xa,0x3e,0x7,0xde,0xee,0xea,0xa,0x22,0xc2,0x55,0x3d,0x2c,0x7f,0x7b,0xfd,0x35,0x65,0x7,0xd2,0xcf,0xc7,0xf4,0x1c,0xa8,0x5d,0x4b,0x5c,0x2,0xe9,0xf4,0xf,0x0,0x5c,0xdd,0x6,0x11,0xe2,0x73,0xdc,0x18,0xc1,0x28,0x4e,0x17,0x6,0xa0,0xe3,0xe6,0xd0,0xfd,0x7,0xc5,0x15,0x2d,0xf5,0x49,0xff,0xed,0x20,0x11,0x93,0xe1,0xee,0xbd,0x35,0x3b,0xcb,0x1b,0x8,0x10,0x18,0x1e,0xba,0x37,0xdc,0xc2,0x4b,0x81,0xf7,0xd1,0xdf,0x1c,0x1b,0xd0,0xb8,0xfd,0xe0,0xd8,0x0,0x38,0x1c,0xfa,0x1a,0x1b,0xf1,0x22,0x6d,0x10,0x28,0xf7,0x99,0xbd,0x27,0x12,0x8,0xc4,0xc7,0xfd,0xe5,0xe,0x25,0x3c,0x2,0xf6,0x3c,0xee,0xe0,0xa,0xf9,0x14,0x3d,0xe9,0xf8,0xf,0xf6,0xe8,0x2c,0xf0,0xc5,0x3,0xd3,0xe1,0x13,0x1d,0x3,0xdb,0x44,0x1b,0x97,0xc6,0xe0,0x98,0x30,0x81,0xa1,0xf1,0x54,0xb,0xc5,0x52,0x5,0xe1,0xc1,0xf9,0x2f,0x51,0x33,0x1d,0xc4,0x5b,0x2,0x3c,0xeb,0x27,0x9d,0xb1,0x2c,0x6,0x5b,0xb5,0xdf,0x25,0xc5,0x3a,0x15,0xef,0x22,0xc4,0x23,0x1,0x98,0x12,0xe9,0xa1,0x38,0xbd,0x2c,0x42,0x33,0xd,0x33,0x18,0xbc,0xab,0xd,0x2,0x46,0x14,0xec,0xd0,0x51,0x4e,0x59,0x56,0x53,0x14,0xde,0x26,0x69,0xf3,0x96,0xf9,0xf4,0xc9,0x21,0x1e,0x36,0xe9,0x2b,0x94,0x8,0xc2,0x34,0x6,0x6d,0xa8,0xdd,0xf2,0xfc,0x7f,0xa8,0x31,0xb4,0x2a,0x17,0xb3,0xe2,0xad,0xcb,0xc5,0xd0,0x31,0xfc,0xfc,0x17,0x6,0xe1,0x38,0x4,0x1d,0x19,0xfc,0x9f,0x8,0xc1,0xa6,0x34,0x3b,0xd,0xbf,0xdf,0xfc,0xfa,0x2f,0xc7,0xd4,0xba,0x14,0x9d,0xcc,0x48,0x1,0xb5,0xf6,0x77,0xe,0x65,0x2,0x47,0x60,0x8c,0xbf,0xb1,0x2a,0x3e,0x41,0xf0,0x1d,0x92,0xc,0x2d,0xd5,0x35,0xac,0x1d,0xc,0x34,0xb,0xee,0x9,0x2f,0x5d,0x3,0xf3,0x5d,0xdb,0xf4,0x30,0xb3,0xda,0xc,0xd7,0xd6,0xf9,0xff,0x21,0x7f,0x7,0x2e,0x2d,0xdf,0xd6,0x47,0x5f,0xfc,0xb4,0x19,0xfa,0x27,0xc9,0x46,0x5e,0x1b,0x2c,0xae,0x59,0x3c,0xd7,0xad,0x5d,0x31,0x11,0x1,0x19,0xa2,0x92,0xb5,0xbd,0xc7,0xbf,0x2b,0xd5,0xce,0xc0,0xbf,0x5,0x51,0x52,0xe6,0x2f,0xa3,0x68,0x37,0xe5,0x11,0xa1,0xc4,0xe0,0xf3,0x32,0xf3,0xcf,0x7b,0xc,0xc0,0xe7,0xc9,0xe2,0xfa,0xc2,0xf0,0xe,0xab,0xe3,0x68,0x1b,0x49,0x0,0xbe,0x4,0xf7,0x5b,0x81,0x51,0xc9,0xf4,0xba,0xcb,0x24,0xb2,0xc4,0x2,0x5d,0x3e,0x65,0xfb,0x5,0x35,0xdc,0xe8,0xdd,0x1d,0xc,0x3c,0xb4,0x21,0xe0,0xb,0x1a,0xa1,0xc0,0x81,0x4a,0xc6,0x30,0xfb,0x0,0xe0,0x46,0x58,0x2f,0xf1,0x23,0xb0,0x2e,0xea,0xe0,0xda,0x16,0xee,0xc1,0xe,0x22,0x2e,0x4d,0x37,0x33,0x27,0xec,0xe5,0x1e,0x15,0x22,0xfd,0xd5,0xfc,0x12,0xda,0x15,0x28,0x9d,0x76,0x51,0x12,0x32,0xf0,0x3c,0x35,0x45,0xfc,0x2f,0x26,0xe3,0xbe,0xb8,0xfe,0x22,0xef,0xe4,0xb0,0x81,0xf2,0x5,0xbd,0x41,0xe3,0x11,0xf1,0xe3,0x16,0x29,0xf3,0x32,0xf3,0x2,0xde,0x3c,0xc3,0xc3,0xf6,0x1c,0x5,0xda,0xe6,0xc5,0x5,0xf9,0xd4,0x3b,0xf6,0x4,0x45,0x7,0xd9,0x2e,0x34,0xd,0xc5,0x1a,0x3f,0xdc,0x39,0xdc,0xea,0x8d,0xc9,0x25,0xd4,0xfc,0xd6,0x58,0x5e,0x79,0xdd,0x37,0x4c,0xc2,0xae,0xb0,0xd4,0x3f,0x2e,0xcd,0x1b,0xbf,0x2a,0x14,0xb6,0x54,0x94,0x53,0xc,0xd7,0x19,0xcd,0x81,0x1d,0x3b,0xe4,0x9,0x41,0xbc,0xff,0x26,0x13,0xfa,0x17,0xe8,0xd4,0x14,0xb6,0xf5,0x78,0xf5,0x25,0x5d,0xfd,0x3c,0x63,0x9,0xd0,0xa7,0xff,0x21,0xd8,0xfa,0x75,0x1,0xb4,0x1a,0xa7,0x5c,0x26,0x7,0xb8,0x0,0x4c,0xb2,0xec,0x58,0x37,0xfe,0x89,0xb2,0xeb,0xfa,0xeb,0xcc,0xdb,0xef,0x41,0xbb,0x4f,0x2,0xcf,0xfd,0xf1,0x34,0xe7,0x97,0xc5,0xb,0x3a,0xf0,0x1,0x6,0xbc,0x35,0x31,0x33,0x3c,0x48,0xee,0x68,0x81,0xd7,0xa4,0xfe,0x4a,0xe3,0x2f,0x63,0x11,0xa9,0x0,0x64,0xf0,0x13,0xf4,0x99,0x39,0x1,0x5,0x1d,0xc6,0x1c,0xfd,0xee,0xe0,0xcb,0x98,0x41,0xf8,0xe3,0xfb,0xd0,0xd,0x1,0xf0,0x10,0x10,0x19,0xd3,0xfd,0xe5,0x7f,0x44,0x52,0xe2,0xd,0xdb,0xfb,0x2,0x20,0xc5,0xd2,0xea,0xe1,0xf7,0x7,0xfd,0xd0,0x14,0xf6,0xe0,0xe6,0x37,0xb5,0x21,0x6,0xfe,0xff,0xcb,0x10,0x16,0xdf,0xe0,0x20,0x3e,0xed,0x1f,0xf4,0xe7,0xfb,0x1,0x10,0xe6,0x93,0xb4,0xfa,0xab,0x33,0xc2,0x2f,0x29,0xba,0xcd,0x5c,0xfd,0xc5,0xb9,0xad,0x15,0x1,0xb1,0xfb,0x28,0x2f,0x10,0xb3,0xf3,0xb6,0x53,0x1d,0x22,0x29,0xc7,0xa0,0xc4,0x57,0x4e,0xf3,0x3a,0x22,0xe7,0xd,0x2e,0x23,0x48,0xf9,0x3b,0x49,0xcc,0x19,0x63,0xdc,0xf9,0x14,0xe3,0x4f,0x4d,0x81,0xec,0x24,0xde,0x17,0x3a,0xd7,0xde,0xd7,0xa5,0xad,0x1a,0xd4,0xd8,0xb,0x5d,0x1c,0x5c,0xf1,0xee,0x41,0xc7,0xf3,0xb9,0x31,0x23,0x41,0xe4,0x30,0x81,0x50,0x25,0xd2,0x14,0xa8,0x43,0xdb,0x51,0xf7,0xe6,0xe1,0x2f,0x58,0x2e,0x20,0x1f,0xbe,0x23,0x20,0xd0,0x10,0x17,0xb3,0xe0,0x14,0xef,0x30,0x60,0xe6,0x3f,0x56,0xfa,0xfa,0x2e,0x33,0x0,0x15,0xe8,0x15,0x25,0x1b,0xd2,0xc,0x28,0xa1,0x2f,0xb9,0xb5,0x2d,0xef,0xd1,0x99,0x52,0xd3,0xd6,0x24,0x59,0x62,0x23,0xdc,0x2f,0xda,0x5d,0x7f,0x5d,0x12,0xc,0xb6,0xf5,0xd7,0xca,0x34,0xeb,0xe9,0x23,0xd2,0xfc,0x34,0xf1,0xc0,0x1b,0x2e,0xc5,0x9a,0x34,0x7,0x1d,0x40,0xbf,0x60,0x39,0x2a,0x1e,0x35,0xf8,0xb8,0xdb,0xea,0xe2,0x36,0xec,0x17,0xca,0x39,0xe9,0xdb,0xc8,0x87,0x21,0x5a,0xcb,0xd1,0x1a,0x7f,0xcf,0xd8,0x43,0xe,0xfa,0x93,0xc9,0x35,0x4c,0x0,0x73,0xe,0x10,0xb3,0x17,0x7,0x21,0x25,0xae,0x4d,0xf0,0x1d,0xee,0xf0,0x3a,0x5e,0x13,0xfb,0xd,0x36,0xb9,0x43,0xd1,0xec,0xd9,0x30,0xbf,0xe8,0xbf,0x3,0xec,0x5e,0xb,0x37,0x54,0xe7,0x93,0x14,0x39,0x10,0xb5,0xba,0x12,0xfa,0x11,0x2a,0x24,0x4c,0xfe,0x81,0x41,0x39,0xe4,0xb0,0x20,0x1b,0xc6,0x20,0x35,0x7,0xc3,0xc3,0xbb,0xd8,0xd0,0x40,0xe2,0x4e,0xb9,0x3,0x2d,0x17,0x51,0xe1,0x17,0x8e,0x45,0xec,0x8e,0x98,0xb7,0xe2,0xf0,0x10,0x4c,0x6,0x5,0x48,0x3,0xcf,0x39,0x3a,0x14,0xe1,0xff,0xaa,0xc7,0xf2,0x98,0x26,0x20,0xe8,0xaa,0xb9,0x23,0x2e,0x29,0xcd,0x96,0xb8,0xb8,0x8a,0xc1,0x5a,0xb9,0xbb,0xfa,0x36,0x1d,0xc2,0x5d,0x16,0xdd,0x83,0xac,0xe2,0x2e,0x3,0x5c,0xdd,0x28,0x81,0x46,0x2b,0x2e,0x21,0xdd,0x25,0xee,0x1c,0xd0,0xea,0x2b,0x9,0x2b,0xfe,0xfc,0x24,0xd8,0xf5,0x21,0xbe,0xce,0xd9,0xa4,0xe,0x0,0x8,0x25,0x50,0x30,0xa,0x45,0xc5,0xb1,0x28,0x54,0x23,0xce,0xce,0xe9,0xf,0x81,0x28,0xeb,0xdc,0xc6,0xb6,0x10,0xb,0xe8,0xe1,0x3b,0x2c,0x8,0x9,0xa,0xd5,0xe1,0xb2,0xde,0xd4,0x0,0xa,0x2e,0x96,0x12,0x1d,0x1b,0x41,0xef,0x25,0x1d,0xf1,0x15,0xc1,0xc8,0xba,0xf7,0xff,0xee,0x4,0xec,0xe0,0xd,0x1d,0xf5,0xf2,0xed,0x32,0x0,0xcf,0xee,0x24,0xf,0xf5,0xfa,0xe,0x0,0x24,0xef,0xf0,0x31,0x13,0x3,0x21,0x7,0xd5,0xfe,0x7f,0x6f,0xe8,0x1c,0x10,0xf3,0xc,0x91,0x9a,0x6b,0xed,0x92,0x45,0xff,0x4b,0x14,0xd0,0x2,0x9,0x12,0x30,0x37,0xe5,0x67,0xc6,0x48,0xfc,0xff,0x12,0xf0,0x3c,0x53,0x11,0xc7,0x5,0xe4,0x10,0x2d,0x26,0xab,0xa9,0x38,0x6,0xfc,0x51,0x9e,0x4c,0xa,0xd2,0xd5,0xb9,0xa,0xfe,0x98,0xf6,0x57,0x54,0xf9,0x1c,0xfc,0x18,0x2d,0x4d,0x15,0xfd,0xce,0x8f,0x48,0x56,0x7,0xbf,0x4a,0x72,0xc1,0xa,0x2b,0x52,0x36,0x9c,0xd0,0xd5,0x86,0xc,0xd8,0x51,0xaf,0xdb,0xcb,0xe1,0x49,0xc5,0x57,0xce,0x43,0xf7,0x81,0xaa,0xcb,0x41,0x1f,0xcd,0x2a,0xfb,0x33,0x37,0x34,0x6,0x46,0x3e,0x45,0x9f,0x3,0xad,0xc1,0xe,0x84,0x54,0x75,0xf6,0xad,0x9e,0x4e,0x21,0x19,0xe5,0x81,0xda,0xd4,0xb8,0xe9,0xd,0xf5,0xec,0xe4,0x21,0xfd,0xb8,0x2d,0xfa,0xd7,0xd0,0xf2,0xdf,0x1b,0x5,0x3f,0x16,0xf5,0x89,0x3b,0xf2,0x20,0x26,0x0,0x1c,0xfc,0x24,0xed,0xdf,0x40,0x8,0x29,0xc,0x13,0x0,0xff,0x0,0x6,0xdc,0xf6,0xee,0xae,0xf,0xd9,0xfa,0x1,0x20,0xec,0xc,0x4f,0xd6,0xca,0x1b,0x56,0x33,0xe4,0xdb,0x15,0x4,0x70,0xc2,0x10,0x53,0xe3,0xd,0xe5,0xf7,0x12,0x30,0xe6,0x37,0xd4,0x8,0x23,0x39,0x2e,0xa,0xf4,0x35,0x1a,0xd9,0xf3,0x69,0xf6,0x20,0xc4,0x81,0xd1,0x1b,0xf8,0xd,0xd3,0xed,0xee,0x1f,0x34,0xb,0x28,0xf9,0xb,0x39,0xf1,0xe5,0xe0,0x33,0x3c,0xf3,0x12,0x27,0xf0,0xc,0x1b,0xf6,0xec,0xd1,0x2f,0xeb,0xdf,0xe0,0xfb,0xf,0xc,0x23,0xd0,0xb8,0xb0,0xef,0x95,0x2,0x82,0xd4,0xde,0x19,0xf8,0xa3,0x7f,0x9,0x11,0xd8,0xeb,0x9,0x36,0xfc,0x5,0xe0,0x18,0xe1,0x36,0xe0,0x4d,0xfd,0x8,0x41,0xc5,0xa,0xcf,0xd5,0x57,0xa8,0x2e,0x0,0x18,0xf0,0xf5,0x61,0xf2,0xe0,0xfe,0x1d,0xb0,0x39,0xb4,0x3d,0x3a,0x7a,0xee,0xf4,0x1a,0xc9,0xde,0xf3,0x16,0x1f,0xf0,0x1e,0xce,0xfd,0x81,0xf9,0xb,0xe2,0x25,0x2b,0x7,0xcd,0xea,0x25,0xb7,0x97,0x38,0xf2,0xde,0xd5,0xed,0x38,0x2f,0xda,0x4b,0xf8,0xfd,0xb9,0x29,0xec,0x57,0x3c,0x2,0x8,0x2,0x30,0x6,0xfe,0x69,0xf1,0xfe,0xff,0xef,0x16,0x18,0x26,0xce,0xe2,0xf8,0xd2,0xaa,0x2a,0xb7,0x3b,0xf7,0x36,0x4,0xf,0x1b,0x3,0xac,0xfc,0x4e,0x41,0xf9,0xfc,0xe,0x1b,0x21,0x3c,0xfa,0x44,0xeb,0x9e,0x30,0x18,0xfa,0x8b,0xf8,0x34,0xe2,0xc,0x38,0x70,0xb,0xb5,0xd5,0xd8,0x97,0x0,0x22,0x37,0xed,0xe6,0xf0,0x3,0x1c,0xb7,0x2e,0xec,0x4a,0xd9,0xb8,0xbf,0xe4,0x2f,0xeb,0xb6,0xb,0xf0,0xf9,0x35,0x5,0xe7,0x59,0x39,0x11,0xad,0xee,0xa1,0xd4,0xfc,0xa3,0x46,0x76,0xd5,0x81,0xc0,0x46,0x1b,0x1c,0xee,0x81,0x2e,0x5,0xd2,0xf7,0xe4,0x33,0x14,0xf3,0xfd,0xf,0xba,0xd,0xec,0xf4,0xf5,0xf4,0xe4,0xf5,0xe5,0xec,0xd,0xa,0xa6,0xff,0xf7,0x2f,0x44,0x2d,0xf9,0xd,0xf8,0x15,0xee,0x16,0xf4,0xe3,0xfd,0xfb,0xfa,0x12,0xd6,0xfe,0x2b,0xf6,0xf7,0xdc,0x2b,0xfd,0xff,0xc,0xf1,0xea,0xf2,0xfd,0x13,0xd2,0xf7,0x14,0x17,0x7,0xe9,0xf,0xeb,0xfe,0xc8,0xae,0xfe,0xab,0x42,0x9c,0xb7,0x10,0x19,0xd8,0xd4,0x44,0xfb,0xd2,0xf1,0x12,0x22,0x73,0xfc,0x54,0xaf,0x53,0x14,0x7f,0x8,0x15,0xa6,0xc1,0x3d,0xd3,0x63,0xc0,0xa8,0x10,0x9,0x72,0x24,0xfa,0xb,0xf9,0x61,0xca,0x9b,0xe9,0x13,0xac,0x3c,0xc6,0x42,0x45,0x44,0x7,0xb,0x65,0xe3,0xd8,0xe,0xf,0x43,0x17,0x4,0xeb,0x5f,0x82,0x6,0xfb,0xcc,0xd0,0x35,0xd8,0xb5,0xd,0x29,0xcb,0x81,0x61,0xce,0xbb,0xe3,0xf6,0x20,0x3c,0xe5,0x34,0x12,0x16,0xa7,0x48,0xf1,0x66,0xa,0x5,0xf9,0xf7,0x3f,0xe4,0xc7,0x22,0xf9,0xb,0xdd,0x10,0x21,0x15,0x2b,0xdf,0xc7,0x1e,0x3,0xab,0x1f,0xc6,0x2c,0xf2,0x35,0x4,0x24,0x35,0xf3,0xae,0xee,0x17,0x29,0xf,0xf0,0x6,0x1b,0xb9,0x15,0x13,0x99,0x15,0x15,0x15,0xed,0xf0,0x3c,0x38,0x48,0xe6,0x3b,0x26,0x97,0xc7,0xaf,0xfb,0x15,0xff,0x2,0xfa,0x81,0xe9,0x1,0xba,0x67,0xaf,0x29,0xf3,0x8,0x0,0xd3,0xd8,0x36,0x16,0x16,0xe1,0x49,0xaf,0xee,0xff,0x1d,0x5,0x1b,0xdc,0xa8,0x8,0xac,0x15,0x2c,0x2c,0xe,0x4b,0xf1,0x1a,0x58,0x20,0xc,0xc0,0xda,0x1f,0xd8,0x7f,0xd,0x20,0x46,0x18,0x0,0x11,0x3b,0x1b,0xd7,0xee,0xe6,0xcc,0xea,0xf2,0x50,0x51,0x54,0xcc,0xff,0xc5,0xec,0x6,0x5a,0xdc,0x18,0xd9,0x8c,0x17,0xb9,0x14,0xf0,0xfd,0x2d,0x2,0xa,0xca,0x7,0x2,0xba,0x30,0x20,0xf6,0xe,0x1c,0x22,0x4f,0xe8,0x10,0xef,0xe,0xa2,0xdc,0x12,0xbb,0xe,0x42,0xf8,0xc4,0xe8,0x31,0x21,0xfe,0xfa,0x7f,0xf7,0x24,0xd,0x12,0xe8,0xea,0x2c,0xfb,0xfe,0x43,0x7e,0xa2,0x6,0x50,0xfb,0xf5,0xd3,0xbc,0x2b,0xe7,0xf8,0xdb,0x33,0xcb,0x5,0xa1,0xe1,0xde,0xb,0x27,0xd6,0x25,0xf6,0xaa,0x1e,0xf6,0xfd,0xd,0xff,0xf3,0xa,0x10,0x29,0xf,0x1f,0x4a,0xc7,0x41,0xf9,0xf3,0xb,0xf6,0xf6,0xf0,0x16,0x60,0x24,0xe3,0xe8,0xdf,0x4,0x27,0xcd,0x57,0x31,0x1f,0x63,0x2f,0xb4,0xd,0x24,0x11,0xa6,0xf5,0x46,0xbe,0xf3,0xf4,0x53,0x13,0xe,0xa5,0xd7,0xbb,0x2b,0xe9,0x6d,0xbf,0xbc,0xd9,0xea,0x6e,0xdf,0x35,0x91,0x4a,0x40,0xb7,0xc1,0x98,0xfe,0xed,0xf1,0xd,0xe,0xe1,0x2b,0x33,0xde,0x29,0x1d,0x33,0x1,0xc7,0xe1,0xbf,0xc5,0x96,0x3f,0x4c,0xf1,0x81,0xb4,0x15,0x2f,0xfc,0xfa,0xbc,0xc8,0xf3,0x1e,0xa8,0xc2,0xbc,0xd1,0x29,0xb9,0xc3,0x88,0x51,0x9e,0xea,0x3e,0x9,0x60,0x30,0xc2,0x3,0xd2,0x30,0x55,0x43,0x17,0x2d,0xd1,0xfb,0xdc,0x1,0x41,0xc4,0xfe,0x51,0x95,0xf8,0xf7,0x2e,0x3,0x1,0x24,0x7,0xb2,0x4e,0xd6,0x11,0x6c,0xa6,0x32,0x2f,0xfb,0xc6,0xea,0x12,0xed,0xd2,0xbd,0xa3,0x1a,0x36,0x16,0xef,0x7f,0xc7,0xd4,0xb2,0xbe,0xc0,0x3c,0xc8,0xae,0xf7,0x58,0x1e,0x15,0x16,0x14,0x45,0xa9,0xc5,0xd2,0x18,0x2f,0x30,0xce,0x22,0x87,0x47,0x34,0x7,0xdb,0x81,0x5c,0xd8,0x44,0xd1,0xcc,0x1d,0x26,0x39,0xfa,0x1d,0x4e,0xdd,0x31,0x32,0xdc,0xd2,0xc,0xc4,0xf7,0x2b,0xe4,0x1d,0x38,0x4,0x4c,0x22,0xb8,0xed,0x38,0x1,0xf3,0xe1,0xca,0xee,0x46,0xd3,0xcf,0xb1,0xd3,0x81,0xf1,0xeb,0xe0,0x26,0x17,0xf4,0xb2,0x5,0xc0,0xc7,0x12,0x33,0xe2,0x22,0xd9,0xf8,0x1c,0x52,0xee,0x51,0x2c,0x31,0xc2,0xfe,0xe2,0xdc,0x45,0xf5,0xb2,0x4,0xc2,0x3c,0x22,0x40,0xe6,0x15,0xfb,0x13,0xf2,0x6,0x38,0x1,0x34,0x1,0x19,0xf4,0xe3,0x9,0x39,0x14,0xdd,0xfe,0xd2,0xcf,0x2c,0x9,0x5,0xce,0x59,0x8f,0xcc,0xf6,0xa7,0xaa,0x39,0xe2,0x9a,0xf4,0x46,0x30,0xf2,0x11,0xd7,0x28,0xa0,0xe2,0xeb,0x18,0x1,0x4b,0x4,0x30,0x81,0x48,0x1,0x1b,0x22,0x96,0x57,0xc0,0x56,0xd2,0xbf,0x37,0xfb,0x42,0xf9,0x20,0xff,0xfb,0xe3,0x11,0xd5,0xcf,0x3,0xe3,0xf7,0x3,0x8,0x32,0x35,0xe9,0x41,0x5f,0xd8,0xc9,0x13,0x26,0x27,0x0,0xa,0xee,0xa,0x7f,0xd4,0x3e,0x55,0x65,0x39,0xb9,0xf2,0xea,0x24,0xce,0xe8,0x33,0x28,0x8,0x14,0x35,0x53,0xf6,0x38,0xf,0xd9,0xcf,0x5c,0xdf,0xe4,0xf2,0x94,0xfa,0x1,0x17,0xf1,0xc3,0x28,0x62,0x42,0x4,0xe1,0xfe,0xe1,0xd4,0x1,0xf5,0xdc,0xdc,0x17,0xc,0xfb,0xca,0x22,0x2d,0xf0,0xfb,0xec,0xc,0x1c,0xca,0x14,0x3c,0xff,0xc7,0x28,0xe6,0xc5,0x81,0x58,0xf1,0xe0,0xda,0xc0,0x47,0x4a,0xfc,0x97,0xcf,0xdd,0xfe,0xab,0xbf,0x4e,0xdf,0x95,0xd4,0x97,0xd5,0x52,0xa,0xc4,0xec,0xe,0x3b,0x7f,0x4b,0x99,0xf9,0xb7,0xa,0xff,0xa6,0xa9,0xb4,0xe7,0x0,0xc6,0x31,0xb6,0xe2,0x1f,0xb,0xfb,0xe8,0x1b,0xd,0xa5,0xdf,0xcf,0xcb,0x12,0xb0,0x4a,0xeb,0xa2,0xfa,0x1,0x53,0x2d,0xe5,0x67,0x2b,0x2f,0xea,0x31,0x23,0xc4,0x3b,0xd,0xc,0xe1,0xe4,0x6,0xbb,0xfd,0xfe,0x5d,0x6b,0xfb,0xdc,0xf3,0xf2,0x2d,0x8,0x38,0xd6,0xf,0x19,0xd7,0x25,0xaa,0x1e,0xe9,0xfd,0x23,0xd6,0xbb,0xbc,0x2f,0x15,0xc1,0x2a,0xfb,0x21,0x25,0x14,0x12,0x47,0x2f,0x11,0xe7,0xf,0x81,0xd9,0x9,0x98,0x2a,0x52,0xce,0xef,0xda,0x46,0x15,0xe0,0x2,0x94,0xe3,0xae,0xa6,0xcb,0x5c,0xba,0xbc,0xe,0x45,0x3e,0xed,0x4a,0x7,0x44,0x81,0xde,0xa1,0x37,0x18,0x2c,0xe6,0xd,0x8c,0x3a,0x9,0xf1,0x27,0x9f,0x66,0xeb,0x4f,0xd2,0xf5,0xef,0x19,0x5a,0x2,0x2c,0x26,0xd1,0x20,0x1f,0xd8,0xe2,0x7,0x8d,0x2,0x29,0xca,0x2a,0x6b,0x17,0x26,0x72,0xcf,0xcb,0x52,0xd,0x43,0x12,0xee,0x8,0x31,0xda,0x13,0xf6,0x81,0xd0,0x1a,0x1,0xbe,0xb,0x2d,0x2c,0x4d,0xd4,0x16,0x51,0xe7,0xec,0xd7,0xef,0x34,0xa,0xc3,0xf2,0x81,0x2e,0x12,0x9d,0x42,0xae,0x16,0xd2,0x30,0x1e,0xfa,0xa0,0x40,0x52,0x3a,0xe,0x24,0xad,0xcd,0x1f,0x3,0xf1,0x1b,0xb,0xf5,0x31,0x95,0xee,0x9,0xe,0x49,0xfb,0xef,0x4e,0xfb,0x9,0x2,0xde,0xe,0xdc,0xf4,0xc9,0xed,0xff,0xd4,0xba,0x23,0xfa,0xf4,0xd2,0x4e,0x44,0x4f,0x23,0x1f,0x60,0xa5,0xd9,0xb0,0xfe,0x34,0x25,0xc8,0xd5,0x9f,0xf0,0x24,0xf9,0x7f,0xaf,0x70,0xf9,0xe6,0x2e,0xfc,0xd0,0x42,0x2d,0x1,0x20,0x31,0xcd,0xdc,0x29,0x17,0xed,0x10,0xd6,0xf8,0x5,0xd,0x4,0x74,0xfa,0xf6,0x6d,0x0,0xdd,0x53,0xc,0xc,0xbf,0xef,0x23,0xf4,0xf8,0x3b,0xe8,0x3e,0xae,0xc9,0xe7,0x24,0x14,0xd8,0xd4,0xde,0x14,0xc2,0x2,0x49,0xfd,0xd7,0xdf,0xcd,0xab,0x17,0x1c,0x5d,0x15,0xe6,0x3f,0xee,0x10,0xb0,0x18,0xc2,0xf6,0xe0,0xc8,0x9a,0xf1,0x2e,0x33,0xe2,0x3a,0x1b,0x4,0x24,0x24,0x1a,0x31,0x39,0xf3,0xe6,0x16,0xca,0xc7,0xdc,0x9b,0xf9,0x49,0xf3,0x81,0xe6,0x48,0xf,0xa,0x45,0x9b,0xf3,0xd8,0x8a,0xd7,0x38,0xe3,0xef,0x8,0x52,0x3c,0x57,0xe5,0x24,0x48,0xb5,0xbd,0xa5,0xd,0x1c,0x24,0x8,0x5,0x81,0x9,0x1e,0xf0,0x6f,0xc4,0x34,0xdb,0x18,0x7,0xf3,0xbe,0x27,0x14,0xf6,0xd,0x40,0xe7,0xe3,0x23,0x6,0xfb,0x0,0xe6,0xee,0x13,0xaf,0xf4,0x61,0xf1,0x2f,0x53,0xf4,0x5,0x2a,0x2a,0xa,0xcf,0xf2,0x12,0xe5,0x36,0x59,0x16,0x12,0xfa,0xac,0x48,0x42,0x29,0xa2,0xf2,0x43,0x9d,0xd,0xf0,0x4a,0x31,0xbb,0x95,0xc6,0xa7,0x29,0x14,0x7f,0xa9,0xff,0xc7,0xf7,0x41,0xad,0x50,0xbd,0x3d,0x31,0xaf,0xb9,0xb5,0xf9,0x27,0xb6,0x2a,0xcc,0xe9,0x42,0x26,0x1,0x43,0xe9,0x1c,0xa4,0xcd,0xb5,0xef,0x5,0xa6,0x32,0x42,0xcf,0x81,0xdd,0x4e,0x2a,0x23,0xfb,0xc6,0x9,0x1b,0x28,0xfe,0xf8,0x14,0x4,0x0,0xe4,0xb5,0x81,0x40,0xec,0xbd,0xf8,0xe3,0x18,0x2f,0xf6,0x1b,0x23,0x24,0x1c,0x28,0xfa,0x6b,0x1d,0x42,0x0,0x14,0xe9,0x8,0xeb,0x49,0x1,0xfa,0xe7,0xfc,0xf2,0xfc,0xff,0xdb,0x3,0xb,0xd3,0xd5,0x2b,0xaf,0x27,0xf7,0xc,0xf1,0xcc,0xfb,0x1,0xba,0xfb,0x11,0x49,0xfb,0x15,0x5,0xee,0x7f,0x33,0x9,0x69,0xbf,0xda,0xe8,0x7,0x0,0xac,0x2b,0x46,0xe3,0xf2,0x45,0x40,0x1e,0xe9,0xd4,0xfb,0xcf,0xf7,0x21,0x72,0xec,0x14,0xd6,0xc2,0x20,0xfd,0x27,0xbc,0x18,0x5,0xc2,0xb4,0xc9,0x30,0x16,0x8,0x0,0x5,0x15,0x3e,0x13,0x31,0x2d,0x8,0x13,0xf7,0x17,0xc4,0xf,0xdf,0xb6,0x14,0x72,0xdd,0xac,0xf2,0x26,0x10,0x1f,0x20,0x7f,0xa4,0xd5,0x6,0xb3,0x21,0xb8,0xc2,0x7,0x27,0x5,0x29,0x6,0x22,0x2c,0x35,0x4c,0x5,0x33,0x31,0x35,0xbe,0x1e,0x62,0x11,0x2c,0xab,0x88,0xc0,0xfe,0xd1,0x2c,0xd3,0x18,0x1,0x2f,0x52,0x1c,0x13,0x21,0xfd,0x1f,0x20,0xd3,0xe9,0x27,0x2a,0xed,0xb,0x9,0x22,0x15,0xfd,0x40,0x2a,0xac,0x16,0x16,0xe3,0x17,0x11,0xd7,0xe9,0x2b,0xd5,0xb9,0xea,0x81,0xc9,0x66,0xc6,0xba,0xfc,0x45,0x12,0x0,0xef,0x0,0x2e,0xc1,0xfc,0xcd,0x2c,0xe5,0x27,0xdc,0x2a,0x99,0x43,0x35,0x4,0xfc,0x98,0x55,0x6,0x4c,0xed,0xf9,0x2e,0x54,0x35,0x18,0xe2,0x31,0xd1,0xe5,0xfa,0xef,0xdf,0x6,0xf3,0xd4,0x1c,0xe9,0xd,0x30,0xfa,0xd,0x6c,0xbb,0xc8,0x31,0x5e,0xee,0xde,0xf1,0xe6,0x1e,0x45,0x10,0xe9,0xfb,0xca,0x4,0x0,0x15,0xdf,0xe1,0x44,0x7f,0xc4,0x35,0x71,0xd4,0xdd,0xe7,0xc3,0x18,0x3,0xd2,0xfc,0x19,0xc9,0x4,0xd1,0xa,0xfa,0x2c,0xf7,0xde,0x32,0x1a,0x8b,0x3,0x0,0xff,0xe3,0x1f,0xe1,0xee,0x5,0x2c,0x14,0xef,0xf,0xbf,0x23,0xce,0x15,0x1,0xf8,0xff,0xfc,0x18,0x4a,0xf,0xdf,0xf6,0xd7,0x10,0xb,0xb8,0x1e,0x3,0x6,0x6b,0x16,0xeb,0xc6,0xef,0xd,0xed,0xa5,0xb5,0x43,0xcc,0xa6,0x59,0x51,0x25,0xf1,0xed,0xd2,0x20,0xc,0x7f,0x17,0x1,0x22,0xba,0x47,0xd4,0xea,0x17,0x6,0x1d,0x5a,0xb1,0xe4,0x24,0xfc,0xcc,0x36,0x16,0xdf,0xef,0x2f,0x5,0xee,0x56,0xbe,0x45,0x25,0xdc,0xfd,0x1,0xe6,0xf,0xe2,0xc6,0xca,0x19,0x39,0xe8,0xcf,0x58,0x0,0x0,0x6,0x0,0x8,0x0,0x4,0x0,0x6,0x0,0x0,0x0,0x4,0x0,0x0,0x0,0x80,0x1,0x0,0x0,0x1a,0xe1,0xdb,0x1f,0xed,0xfb,0x5a,0xeb,0x1,0xd7,0x13,0x33,0xcf,0x12,0xea,0xeb,0x26,0xd4,0x2d,0xcf,0xeb,0xde,0xe,0x7f,0x3,0xd0,0xf3,0xe3,0x2d,0xed,0x39,0x1c,0x11,0x10,0xa4,0xff,0x1a,0x12,0x42,0xe6,0x1a,0xd8,0x0,0xd0,0x23,0x25,0xdc,0x15,0xe9,0xdb,0x27,0x14,0xde,0xba,0xf8,0x24,0xde,0x1e,0x63,0x8,0xba,0xd4,0xec,0x22,0x34,0xaa,0xe9,0x31,0x45,0x47,0xa9,0x10,0xce,0x23,0xaf,0xf,0x25,0xe5,0xa,0xe0,0x13,0xfe,0xf8,0x5,0xf4,0x2f,0x46,0x81,0x45,0x5,0xe7,0xd3,0x28,0xc7,0x22,0xa9,0x35,0xe0,0x3f,0xcc,0xb1,0x25,0xdb,0xdf,0xc0,0x1,0x36,0x5e,0x27,0xed,0x8,0x24,0xe8,0xd3,0xd,0x3d,0xeb,0x55,0x6,0x1f,0x0,0x39,0x9a,0x3e,0x1f,0xf5,0x3c,0x0,0x25,0x12,0x56,0x29,0x58,0xfc,0x7,0xee,0xd7,0xd7,0xd,0xfd,0x52,0x41,0x9e,0xb3,0x43,0xfc,0x4e,0xea,0x48,0x24,0x13,0xe8,0xd7,0xc3,0xac,0xdd,0x2f,0xc7,0xe1,0xee,0xf,0xee,0xf8,0xbb,0xe7,0x2,0xec,0xbb,0xbf,0x25,0x2b,0x59,0x34,0x81,0xc8,0x9a,0xc1,0x1f,0xec,0x3,0xb9,0xf7,0x1b,0xde,0xef,0x21,0xe8,0x8,0xd5,0xce,0x44,0xd8,0xa2,0x3f,0xcc,0xb2,0xf1,0xdf,0xf4,0xfb,0xfe,0x10,0x64,0x91,0xb0,0xc,0xef,0x0,0xb0,0x16,0xb3,0xf6,0x14,0xa6,0xe9,0xf3,0x83,0x2,0x35,0x4a,0xc7,0x2a,0xd8,0x3c,0xae,0x53,0xd4,0xd5,0x60,0xa3,0x1b,0x1d,0x46,0xca,0x31,0x91,0xb9,0xe,0x1e,0x44,0x2d,0xd,0xf2,0x2a,0x14,0xf6,0xcb,0xb8,0xc7,0xc6,0x47,0x81,0x20,0x5c,0x9b,0x42,0x24,0x69,0xf5,0xfd,0xcb,0xc2,0xd9,0x4e,0xd2,0x40,0x15,0xaa,0x3,0x28,0x2a,0x36,0x2,0xd5,0xd5,0xe,0xce,0xe8,0xb5,0xea,0xfd,0xd5,0x3d,0xb,0xf7,0xf6,0xd4,0x33,0xdc,0x0,0x62,0x24,0x18,0xdd,0x81,0x27,0x10,0xa9,0x5b,0xfb,0xff,0x3a,0xfd,0x1d,0xe9,0x4c,0xc1,0xa,0xd3,0xa5,0xea,0x16,0x9d,0xe7,0x37,0x17,0x36,0xe3,0xea,0x45,0xd1,0xc0,0xd0,0xca,0x1d,0xf9,0xe8,0x85,0x2d,0xf7,0xa0,0xe3,0xd2,0x9b,0xf7,0x28,0xd3,0x71,0xf4,0x36,0x27,0x72,0xe0,0xe0,0x2b,0x3d,0xf6,0x3a,0xe9,0x50,0x1d,0xd8,0xcd,0x38,0xf5,0x1d,0x27,0xc4,0xf9,0x21,0x20,0x56,0x81,0xfc,0xc8,0xe9,0x4d,0x9,0x30,0xf0,0xba,0x91,0x55,0x52,0x74,0xcc,0x55,0xc1,0xf9,0xbe,0x17,0x51,0x15,0xde,0x94,0xed,0xff,0xff,0xf,0x0,0x0,0x0,0x4d,0x4c,0x49,0x52,0x20,0x43,0x6f,0x6e,0x76,0x65,0x72,0x74,0x65,0x64,0x2e,0x0,0x1,0x0,0x0,0x0,0x14,0x0,0x0,0x0,0x0,0x0,0xe,0x0,0x18,0x0,0x14,0x0,0x10,0x0,0xc,0x0,0x8,0x0,0x4,0x0,0xe,0x0,0x0,0x0,0x14,0x0,0x0,0x0,0x1c,0x0,0x0,0x0,0x60,0x2,0x0,0x0,0x64,0x2,0x0,0x0,0x68,0x2,0x0,0x0,0x4,0x0,0x0,0x0,0x6d,0x61,0x69,0x6e,0x0,0x0,0x0,0x0,0xb,0x0,0x0,0x0,0x14,0x2,0x0,0x0,0xc0,0x1,0x0,0x0,0x88,0x1,0x0,0x0,0x54,0x1,0x0,0x0,0x2c,0x1,0x0,0x0,0xf8,0x0,0x0,0x0,0xb4,0x0,0x0,0x0,0x8c,0x0,0x0,0x0,0x64,0x0,0x0,0x0,0x3c,0x0,0x0,0x0,0x4,0x0,0x0,0x0,0x26,0xfe,0xff,0xff,0x10,0x0,0x0,0x0,0x0,0x0,0x0,0x8,0x10,0x0,0x0,0x0,0x14,0x0,0x0,0x0,0x66,0xfe,0xff,0xff,0x0,0x0,0x0,0x1,0x1,0x0,0x0,0x0,0x16,0x0,0x0,0x0,0x3,0x0,0x0,0x0,0x15,0x0,0x0,0x0,0x1,0x0,0x0,0x0,0xff,0xff,0xff,0xff,0xda,0xfe,0xff,0xff,0xc,0x0,0x0,0x0,0x10,0x0,0x0,0x0,0x1,0x0,0x0,0x0,0x1,0x0,0x0,0x0,0x15,0x0,0x0,0x0,0x2,0x0,0x0,0x0,0x14,0x0,0x0,0x0,0x5,0x0,0x0,0x0,0xfe,0xfe,0xff,0xff,0xc,0x0,0x0,0x0,0x10,0x0,0x0,0x0,0x5,0x0,0x0,0x0,0x1,0x0,0x0,0x0,0x14,0x0,0x0,0x0,0x2,0x0,0x0,0x0,0x13,0x0,0x0,0x0,0x6,0x0,0x0,0x0,0x22,0xff,0xff,0xff,0xc,0x0,0x0,0x0,0x10,0x0,0x0,0x0,0x1,0x0,0x0,0x0,0x1,0x0,0x0,0x0,0x13,0x0,0x0,0x0,0x2,0x0,0x0,0x0,0x12,0x0,0x0,0x0,0x7,0x0,0x0,0x0,0xce,0xff,0xff,0xff,0x14,0x0,0x0,0x0,0x0,0x0,0x0,0x15,0x10,0x0,0x0,0x0,0x14,0x0,0x0,0x0,0x4,0x0,0x0,0x0,0xd0,0xee,0xff,0xff,0x1,0x0,0x0,0x0,0x12,0x0,0x0,0x0,0x2,0x0,0x0,0x0,0x11,0x0,0x0,0x0,0x4,0x0,0x0,0x0,0x0,0x0,0xe,0x0,0x18,0x0,0x14,0x0,0x10,0x0,0xc,0x0,0xb,0x0,0x4,0x0,0xe,0x0,0x0,0x0,0x14,0x0,0x0,0x0,0x0,0x0,0x0,0x1b,0x10,0x0,0x0,0x0,0x14,0x0,0x0,0x0,0x3,0x0,0x0,0x0,0x10,0xef,0xff,0xff,0x1,0x0,0x0,0x0,0x11,0x0,0x0,0x0,0x2,0x0,0x0,0x0,0x10,0x0,0x0,0x0,0xb,0x0,0x0,0x0,0xb6,0xff,0xff,0xff,0xc,0x0,0x0,0x0,0x10,0x0,0x0,0x0,0x1,0x0,0x0,0x0,0x1,0x0,0x0,0x0,0x10,0x0,0x0,0x0,0x2,0x0,0x0,0x0,0xf,0x0,0x0,0x0,0x8,0x0,0x0,0x0,0xda,0xff,0xff,0xff,0xc,0x0,0x0,0x0,0x10,0x0,0x0,0x0,0x2,0x0,0x0,0x0,0x1,0x0,0x0,0x0,0xf,0x0,0x0,0x0,0x2,0x0,0x0,0x0,0xe,0x0,0x0,0x0,0x9,0x0,0x0,0x0,0x0,0x0,0xa,0x0,0x10,0x0,0xc,0x0,0x8,0x0,0x4,0x0,0xa,0x0,0x0,0x0,0xc,0x0,0x0,0x0,0x10,0x0,0x0,0x0,0x1,0x0,0x0,0x0,0x1,0x0,0x0,0x0,0xe,0x0,0x0,0x0,0x2,0x0,0x0,0x0,0xd,0x0,0x0,0x0,0xa,0x0,0x0,0x0,0x0,0x0,0xe,0x0,0x16,0x0,0x0,0x0,0x10,0x0,0xc,0x0,0xb,0x0,0x4,0x0,0xe,0x0,0x0,0x0,0x1c,0x0,0x0,0x0,0x0,0x0,0x0,0x8,0x1c,0x0,0x0,0x0,0x20,0x0,0x0,0x0,0x0,0x0,0xa,0x0,0x8,0x0,0x0,0x0,0x0,0x0,0x7,0x0,0xa,0x0,0x0,0x0,0x0,0x0,0x0,0x1,0x1,0x0,0x0,0x0,0xd,0x0,0x0,0x0,0x3,0x0,0x0,0x0,0xc,0x0,0x0,0x0,0x2,0x0,0x0,0x0,0xff,0xff,0xff,0xff,0x0,0x0,0xe,0x0,0x14,0x0,0x0,0x0,0x10,0x0,0xc,0x0,0xb,0x0,0x4,0x0,0xe,0x0,0x0,0x0,0x10,0x0,0x0,0x0,0x0,0x0,0x0,0x8,0xc,0x0,0x0,0x0,0x10,0x0,0x0,0x0,0x14,0xf0,0xff,0xff,0x1,0x0,0x0,0x0,0xc,0x0,0x0,0x0,0x3,0x0,0x0,0x0,0x0,0x0,0x0,0x0,0x3,0x0,0x0,0x0,0xff,0xff,0xff,0xff,0x1,0x0,0x0,0x0,0x16,0x0,0x0,0x0,0x1,0x0,0x0,0x0,0x0,0x0,0x0,0x0,0x17,0x0,0x0,0x0,0xa8,0xf,0x0,0x0,0xb4,0xe,0x0,0x0,0x3c,0xb,0x0,0x0,0xb0,0x7,0x0,0x0,0x3c,0x7,0x0,0x0,0xd8,0x6,0x0,0x0,0x4c,0x6,0x0,0x0,0xd0,0x5,0x0,0x0,0x54,0x5,0x0,0x0,0x8,0x5,0x0,0x0,0xc8,0x4,0x0,0x0,0x4c,0x4,0x0,0x0,0xdc,0x3,0x0,0x0,0x94,0x3,0x0,0x0,0x48,0x3,0x0,0x0,0xfc,0x2,0x0,0x0,0x7c,0x2,0x0,0x0,0x4,0x2,0x0,0x0,0x8c,0x1,0x0,0x0,0x18,0x1,0x0,0x0,0x98,0x0,0x0,0x0,0x50,0x0,0x0,0x0,0x4,0x0,0x0,0x0,0xca,0xf0,0xff,0xff,0x0,0x0,0x0,0x1,0xc,0x0,0x0,0x0,0xc,0x0,0x0,0x0,0x2c,0x0,0x0,0x0,0xb4,0xf0,0xff,0xff,0x1f,0x0,0x0,0x0,0x73,0x65,0x72,0x76,0x69,0x6e,0x67,0x5f,0x64,0x65,0x66,0x61,0x75,0x6c,0x74,0x5f,0x6f,0x75,0x74,0x70,0x75,0x74,0x5f,0x30,0x5f,0x6f,0x75,0x74,0x70,0x75,0x74,0x0,0x2,0x0,0x0,0x0,0x1,0x0,0x0,0x0,0x6,0x0,0x0,0x0,0x12,0xf1,0xff,0xff,0x0,0x0,0x0,0x1,0xc,0x0,0x0,0x0,0xc,0x0,0x0,0x0,0x28,0x0,0x0,0x0,0xfc,0xf0,0xff,0xff,0x1a,0x0,0x0,0x0,0x6d,0x6f,0x64,0x65,0x6c,0x73,0x5f,0x6c,0x69,0x6e,0x65,0x61,0x72,0x2e,0x54,0x69,0x6e,0x79,0x4c,0x69,0x6e,0x65,0x61,0x72,0x3b,0x36,0x0,0x0,0x2,0x0,0x0,0x0,0x1,0x0,0x0,0x0,0x40,0x0,0x0,0x0,0x56,0xf1,0xff,0xff,0x0,0x0,0x0,0x1,0xc,0x0,0x0,0x0,0xc,0x0,0x0,0x0,0x58,0x0,0x0,0x0,0x40,0xf1,0xff,0xff,0x4a,0x0,0x0,0x0,0x6d,0x6f,0x64,0x65,0x6c,0x73,0x5f,0x6c,0x69,0x6e,0x65,0x61,0x72,0x2e,0x54,0x69,0x6e,0x79,0x4c,0x69,0x6e,0x65,0x61,0x72,0x2f,0x74,0x6f,0x72,0x63,0x68,0x2e,0x6e,0x6e,0x2e,0x6d,0x6f,0x64,0x75,0x6c,0x65,0x73,0x2e,0x70,0x6f,0x6f,0x6c,0x69,0x6e,0x67,0x2e,0x41,0x64,0x61,0x70,0x74,0x69,0x76,0x65,0x41,0x76,0x67,0x50,0x6f,0x6f,0x6c,0x31,0x64,0x5f,0x70,0x6f,0x6f,0x6c,0x3b,0x39,0x0,0x0,0x4,0x0,0x0,0x0,0x1,0x0,0x0,0x0,0x40,0x0,0x0,0x0,0x1,0x0,0x0,0x0,0x1,0x0,0x0,0x0,0xd2,0xf1,0xff,0xff,0x0,0x0,0x0,0x1,0xc,0x0,0x0,0x0,0xc,0x0,0x0,0x0,0x58,0x0,0x0,0x0,0xbc,0xf1,0xff,0xff,0x4a,0x0,0x0,0x0,0x6d,0x6f,0x64,0x65,0x6c,0x73,0x5f,0x6c,0x69,0x6e,0x65,0x61,0x72,0x2e,0x54,0x69,0x6e,0x79,0x4c,0x69,0x6e,0x65,0x61,0x72,0x2f,0x74,0x6f,0x72,0x63,0x68,0x2e,0x6e,0x6e,0x2e,0x6d,0x6f,0x64,0x75,0x6c,0x65,0x73,0x2e,0x70,0x6f,0x6f,0x6c,0x69,0x6e,0x67,0x2e,0x41,0x64,0x61,0x70,0x74,0x69,0x76,0x65,0x41,0x76,0x67,0x50,0x6f,0x6f,0x6c,0x31,0x64,0x5f,0x70,0x6f,0x6f,0x6c,0x3b,0x38,0x0,0x0,0x1,0x0,0x0,0x0,0x40,0x0,0x0,0x0,0x42,0xf2,0xff,0xff,0x0,0x0,0x0,0x1,0xc,0x0,0x0,0x0,0xc,0x0,0x0,0x0,0x58,0x0,0x0,0x0,0x2c,0xf2,0xff,0xff,0x4a,0x0,0x0,0x0,0x6d,0x6f,0x64,0x65,0x6c,0x73,0x5f,0x6c,0x69,0x6e,0x65,0x61,0x72,0x2e,0x54,0x69,0x6e,0x79,0x4c,0x69,0x6e,0x65,0x61,0x72,0x2f,0x74,0x6f,0x72,0x63,0x68,0x2e,0x6e,0x6e,0x2e,0x6d,0x6f,0x64,0x75,0x6c,0x65,0x73,0x2e,0x70,0x6f,0x6f,0x6c,0x69,0x6e,0x67,0x2e,0x41,0x64,0x61,0x70,0x74,0x69,0x76,0x65,0x41,0x76,0x67,0x50,0x6f,0x6f,0x6c,0x31,0x64,0x5f,0x70,0x6f,0x6f,0x6c,0x3b,0x37,0x0,0x0,0x2,0x0,0x0,0x0,0x1,0x0,0x0,0x0,0x40,0x0,0x0,0x0,0xb6,0xf2,0xff,0xff,0x0,0x0,0x0,0x1,0xc,0x0,0x0,0x0,0xc,0x0,0x0,0x0,0x58,0x0,0x0,0x0,0xa0,0xf2,0xff,0xff,0x4a,0x0,0x0,0x0,0x6d,0x6f,0x64,0x65,0x6c,0x73,0x5f,0x6c,0x69,0x6e,0x65,0x61,0x72,0x2e,0x54,0x69,0x6e,0x79,0x4c,0x69,0x6e,0x65,0x61,0x72,0x2f,0x74,0x6f,0x72,0x63,0x68,0x2e,0x6e,0x6e,0x2e,0x6d,0x6f,0x64,0x75,0x6c,0x65,0x73,0x2e,0x70,0x6f,0x6f,0x6c,0x69,0x6e,0x67,0x2e,0x41,0x64,0x61,0x70,0x74,0x69,0x76,0x65,0x41,0x76,0x67,0x50,0x6f,0x6f,0x6c,0x31,0x64,0x5f,0x70,0x6f,0x6f,0x6c,0x3b,0x36,0x0,0x0,0x2,0x0,0x0,0x0,0x1,0x0,0x0,0x0,0x40,0x0,0x0,0x0,0x2a,0xf3,0xff,0xff,0x0,0x0,0x0,0x1,0xc,0x0,0x0,0x0,0xc,0x0,0x0,0x0,0x58,0x0,0x0,0x0,0x14,0xf3,0xff,0xff,0x4a,0x0,0x0,0x0,0x6d,0x6f,0x64,0x65,0x6c,0x73,0x5f,0x6c,0x69,0x6e,0x65,0x61,0x72,0x2e,0x54,0x69,0x6e,0x79,0x4c,0x69,0x6e,0x65,0x61,0x72,0x2f,0x74,0x6f,0x72,0x63,0x68,0x2e,0x6e,0x6e,0x2e,0x6d,0x6f,0x64,0x75,0x6c,0x65,0x73,0x2e,0x70,0x6f,0x6f,0x6c,0x69,0x6e,0x67,0x2e,0x41,0x64,0x61,0x70,0x74,0x69,0x76,0x65,0x41,0x76,0x67,0x50,0x6f,0x6f,0x6c,0x31,0x64,0x5f,0x70,0x6f,0x6f,0x6c,0x3b,0x35,0x0,0x0,0x4,0x0,0x0,0x0,0x1,0x0,0x0,0x0,0x40,0x0,0x0,0x0,0x1,0x0,0x0,0x0,0xa,0x0,0x0,0x0,0xa6,0xf3,0xff,0xff,0x0,0x0,0x0,0x1,0xc,0x0,0x0,0x0,0xc,0x0,0x0,0x0,0x28,0x0,0x0,0x0,0x90,0xf3,0xff,0xff,0x1a,0x0,0x0,0x0,0x6d,0x6f,0x64,0x65,0x6c,0x73,0x5f,0x6c,0x69,0x6e,0x65,0x61,0x72,0x2e,0x54,0x69,0x6e,0x79,0x4c,0x69,0x6e,0x65,0x61,0x72,0x3b,0x35,0x0,0x0,0x3,0x0,0x0,0x0,0x1,0x0,0x0,0x0,0x40,0x0,0x0,0x0,0xa,0x0,0x0,0x0,0xee,0xf3,0xff,0xff,0x0,0x0,0x0,0x1,0xc,0x0,0x0,0x0,0xc,0x0,0x0,0x0,0x28,0x0,0x0,0x0,0xd8,0xf3,0xff,0xff,0x1a,0x0,0x0,0x0,0x6d,0x6f,0x64,0x65,0x6c,0x73,0x5f,0x6c,0x69,0x6e,0x65,0x61,0x72,0x2e,0x54,0x69,0x6e,0x79,0x4c,0x69,0x6e,0x65,0x61,0x72,0x3b,0x34,0x0,0x0,0x3,0x0,0x0,0x0,0x1,0x0,0x0,0x0,0xa,0x0,0x0,0x0,0x40,0x0,0x0,0x0,0x36,0xf4,0xff,0xff,0x0,0x0,0x0,0x1,0xc,0x0,0x0,0x0,0xc,0x0,0x0,0x0,0x28,0x0,0x0,0x0,0x20,0xf4,0xff,0xff,0x1a,0x0,0x0,0x0,0x6d,0x6f,0x64,0x65,0x6c,0x73,0x5f,0x6c,0x69,0x6e,0x65,0x61,0x72,0x2e,0x54,0x69,0x6e,0x79,0x4c,0x69,0x6e,0x65,0x61,0x72,0x3b,0x33,0x0,0x0,0x2,0x0,0x0,0x0,0xa,0x0,0x0,0x0,0x40,0x0,0x0,0x0,0x7a,0xf4,0xff,0xff,0x0,0x0,0x0,0x1,0xc,0x0,0x0,0x0,0xc,0x0,0x0,0x0,0x50,0x0,0x0,0x0,0x64,0xf4,0xff,0xff,0x43,0x0,0x0,0x0,0x6d,0x6f,0x64,0x65,0x6c,0x73,0x5f,0x6c,0x69,0x6e,0x65,0x61,0x72,0x2e,0x54,0x69,0x6e,0x79,0x4c,0x69,0x6e,0x65,0x61,0x72,0x2f,0x74,0x6f,0x72,0x63,0x68,0x2e,0x6e,0x6e,0x2e,0x6d,0x6f,0x64,0x75,0x6c,0x65,0x73,0x2e,0x6c,0x69,0x6e,0x65,0x61,0x72,0x2e,0x4c,0x69,0x6e,0x65,0x61,0x72,0x5f,0x6c,0x69,0x6e,0x65,0x61,0x72,0x5f,0x69,0x6e,0x3b,0x31,0x0,0x2,0x0,0x0,0x0,0xa,0x0,0x0,0x0,0x40,0x0,0x0,0x0,0xd6,0xf5,0xff,0xff,0x0,0x0,0x0,0x1,0x14,0x0,0x0,0x0,0x14,0x0,0x0,0x0,0xb,0x0,0x0,0x0,0x0,0x0,0x0,0x2,0x58,0x0,0x0,0x0,0xd8,0xf4,0xff,0xff,0x4a,0x0,0x0,0x0,0x6d,0x6f,0x64,0x65,0x6c,0x73,0x5f,0x6c,0x69,0x6e,0x65,0x61,0x72,0x2e,0x54,0x69,0x6e,0x79,0x4c,0x69,0x6e,0x65,0x61,0x72,0x2f,0x74,0x6f,0x72,0x63,0x68,0x2e,0x6e,0x6e,0x2e,0x6d,0x6f,0x64,0x75,0x6c,0x65,0x73,0x2e,0x70,0x6f,0x6f,0x6c,0x69,0x6e,0x67,0x2e,0x41,0x64,0x61,0x70,0x74,0x69,0x76,0x65,0x41,0x76,0x67,0x50,0x6f,0x6f,0x6c,0x31,0x64,0x5f,0x70,0x6f,0x6f,0x6c,0x3b,0x34,0x0,0x0,0x1,0x0,0x0,0x0,0x2,0x0,0x0,0x0,0x4e,0xf6,0xff,0xff,0x0,0x0,0x0,0x1,0x14,0x0,0x0,0x0,0x14,0x0,0x0,0x0,0xa,0x0,0x0,0x0,0x0,0x0,0x0,0x2,0x1c,0x0,0x0,0x0,0x50,0xf5,0xff,0xff,0xe,0x0,0x0,0x0,0x61,0x72,0x69,0x74,0x68,0x2e,0x63,0x6f,0x6e,0x73,0x74,0x61,0x6e,0x74,0x0,0x0,0x1,0x0,0x0,0x0,0x3,0x0,0x0,0x0,0x8a,0xf6,0xff,0xff,0x0,0x0,0x0,0x1,0x14,0x0,0x0,0x0,0x14,0x0,0x0,0x0,0x9,0x0,0x0,0x0,0x0,0x0,0x0,0x2,0x28,0x0,0x0,0x0,0x8c,0xf5,0xff,0xff,0x1a,0x0,0x0,0x0,0x6d,0x6f,0x64,0x65,0x6c,0x73,0x5f,0x6c,0x69,0x6e,0x65,0x61,0x72,0x2e,0x54,0x69,0x6e,0x79,0x4c,0x69,0x6e,0x65,0x61,0x72,0x3b,0x32,0x0,0x0,0x1,0x0,0x0,0x0,0x3,0x0,0x0,0x0,0xd2,0xf6,0xff,0xff,0x0,0x0,0x0,0x1,0x14,0x0,0x0,0x0,0x14,0x0,0x0,0x0,0x8,0x0,0x0,0x0,0x0,0x0,0x0,0x2,0x58,0x0,0x0,0x0,0xd4,0xf5,0xff,0xff,0x4a,0x0,0x0,0x0,0x6d,0x6f,0x64,0x65,0x6c,0x73,0x5f,0x6c,0x69,0x6e,0x65,0x61,0x72,0x2e,0x54,0x69,0x6e,0x79,0x4c,0x69,0x6e,0x65,0x61,0x72,0x2f,0x74,0x6f,0x72,0x63,0x68,0x2e,0x6e,0x6e,0x2e,0x6d,0x6f,0x64,0x75,0x6c,0x65,0x73,0x2e,0x70,0x6f,0x6f,0x6c,0x69,0x6e,0x67,0x2e,0x41,0x64,0x61,0x70,0x74,0x69,0x76,0x65,0x41,0x76,0x67,0x50,0x6f,0x6f,0x6c,0x31,0x64,0x5f,0x70,0x6f,0x6f,0x6c,0x3b,0x33,0x0,0x0,0x1,0x0,0x0,0x0,0x4,0x0,0x0,0x0,0x4a,0xf7,0xff,0xff,0x0,0x0,0x0,0x1,0x14,0x0,0x0,0x0,0x14,0x0,0x0,0x0,0x7,0x0,0x0,0x0,0x0,0x0,0x0,0x2,0x58,0x0,0x0,0x0,0x4c,0xf6,0xff,0xff,0x4a,0x0,0x0,0x0,0x6d,0x6f,0x64,0x65,0x6c,0x73,0x5f,0x6c,0x69,0x6e,0x65,0x61,0x72,0x2e,0x54,0x69,0x6e,0x79,0x4c,0x69,0x6e,0x65,0x61,0x72,0x2f,0x74,0x6f,0x72,0x63,0x68,0x2e,0x6e,0x6e,0x2e,0x6d,0x6f,0x64,0x75,0x6c,0x65,0x73,0x2e,0x70,0x6f,0x6f,0x6c,0x69,0x6e,0x67,0x2e,0x41,0x64,0x61,0x70,0x74,0x69,0x76,0x65,0x41,0x76,0x67,0x50,0x6f,0x6f,0x6c,0x31,0x64,0x5f,0x70,0x6f,0x6f,0x6c,0x3b,0x32,0x0,0x0,0x1,0x0,0x0,0x0,0x1,0x0,0x0,0x0,0xc2,0xf7,0xff,0xff,0x0,0x0,0x0,0x1,0x14,0x0,0x0,0x0,0x14,0x0,0x0,0x0,0x6,0x0,0x0,0x0,0x0,0x0,0x0,0x2,0x58,0x0,0x0,0x0,0xc4,0xf6,0xff,0xff,0x4a,0x0,0x0,0x0,0x6d,0x6f,0x64,0x65,0x6c,0x73,0x5f,0x6c,0x69,0x6e,0x65,0x61,0x72,0x2e,0x54,0x69,0x6e,0x79,0x4c,0x69,0x6e,0x65,0x61,0x72,0x2f,0x74,0x6f,0x72,0x63,0x68,0x2e,0x6e,0x6e,0x2e,0x6d,0x6f,0x64,0x75,0x6c,0x65,0x73,0x2e,0x70,0x6f,0x6f,0x6c,0x69,0x6e,0x67,0x2e,0x41,0x64,0x61,0x70,0x74,0x69,0x76,0x65,0x41,0x76,0x67,0x50,0x6f,0x6f,0x6c,0x31,0x64,0x5f,0x70,0x6f,0x6f,0x6c,0x3b,0x31,0x0,0x0,0x5,0x0,0x0,0x0,0x1,0x0,0x0,0x0,0x40,0x0,0x0,0x0,0x1,0x0,0x0,0x0,0x1,0x0,0x0,0x0,0x1,0x0,0x0,0x0,0x4a,0xf8,0xff,0xff,0x0,0x0,0x0,0x1,0x14,0x0,0x0,0x0,0x14,0x0,0x0,0x0,0x5,0x0,0x0,0x0,0x0,0x0,0x0,0x2,0x28,0x0,0x0,0x0,0x4c,0xf7,0xff,0xff,0x1a,0x0,0x0,0x0,0x6d,0x6f,0x64,0x65,0x6c,0x73,0x5f,0x6c,0x69,0x6e,0x65,0x61,0x72,0x2e,0x54,0x69,0x6e,0x79,0x4c,0x69,0x6e,0x65,0x61,0x72,0x3b,0x31,0x0,0x0,0x1,0x0,0x0,0x0,0x2,0x0,0x0,0x0,0x0,0x0,0x16,0x0,0x18,0x0,0x14,0x0,0x0,0x0,0x10,0x0,0xc,0x0,0x8,0x0,0x0,0x0,0x0,0x0,0x0,0x0,0x7,0x0,0x16,0x0,0x0,0x0,0x0,0x0,0x0,0x1,0x10,0x0,0x0,0x0,0x10,0x0,0x0,0x0,0x4,0x0,0x0,0x0,0x58,0x0,0x0,0x0,0xa8,0xf7,0xff,0xff,0x49,0x0,0x0,0x0,0x6d,0x6f,0x64,0x65,0x6c,0x73,0x5f,0x6c,0x69,0x6e,0x65,0x61,0x72,0x2e,0x54,0x69,0x6e,0x79,0x4c,0x69,0x6e,0x65,0x61,0x72,0x2f,0x74,0x6f,0x72,0x63,0x68,0x2e,0x6e,0x6e,0x2e,0x6d,0x6f,0x64,0x75,0x6c,0x65,0x73,0x2e,0x70,0x6f,0x6f,0x6c,0x69,0x6e,0x67,0x2e,0x41,0x64,0x61,0x70,0x74,0x69,0x76,0x65,0x41,0x76,0x67,0x50,0x6f,0x6f,0x6c,0x31,0x64,0x5f,0x70,0x6f,0x6f,0x6c,0x3b,0x0,0x0,0x0,0x0,0x0,0x0,0x0,0x1a,0xf9,0xff,0xff,0x0,0x0,0x0,0x1,0x14,0x0,0x0,0x0,0x28,0x3,0x0,0x0,0x3,0x0,0x0,0x0,0x0,0x0,0x0,0x9,0x64,0x3,0x0,0x0,0x4,0xf9,0xff,0xff,0x8,0x0,0x0,0x0,0xc,0x2,0x0,0x0,0x40,0x0,0x0,0x0,0x0,0x0,0x0,0x0,0x0,0x0,0x0,0x0,0x0,0x0,0x0,0x0,0x0,0x0,0x0,0x0,0x0,0x0,0x0,0x0,0x0,0x0,0x0,0x0,0x0,0x0,0x0,0x0,0x0,0x0,0x0,0x0,0x0,0x0,0x0,0x0,0x0,0x0,0x0,0x0,0x0,0x0,0x0,0x0,0x0,0x0,0x0,0x0,0x0,0x0,0x0,0x0,0x0,0x0,0x0,0x0,0x0,0x0,0x0,0x0,0x0,0x0,0x0,0x0,0x0,0x0,0x0,0x0,0x0,0x0,0x0,0x0,0x0,0x0,0x0,0x0,0x0,0x0,0x0,0x0,0x0,0x0,0x0,0x0,0x0,0x0,0x0,0x0,0x0,0x0,0x0,0x0,0x0,0x0,0x0,0x0,0x0,0x0,0x0,0x0,0x0,0x0,0x0,0x0,0x0,0x0,0x0,0x0,0x0,0x0,0x0,0x0,0x0,0x0,0x0,0x0,0x0,0x0,0x0,0x0,0x0,0x0,0x0,0x0,0x0,0x0,0x0,0x0,0x0,0x0,0x0,0x0,0x0,0x0,0x0,0x0,0x0,0x0,0x0,0x0,0x0,0x0,0x0,0x0,0x0,0x0,0x0,0x0,0x0,0x0,0x0,0x0,0x0,0x0,0x0,0x0,0x0,0x0,0x0,0x0,0x0,0x0,0x0,0x0,0x0,0x0,0x0,0x0,0x0,0x0,0x0,0x0,0x0,0x0,0x0,0x0,0x0,0x0,0x0,0x0,0x0,0x0,0x0,0x0,0x0,0x0,0x0,0x0,0x0,0x0,0x0,0x0,0x0,0x0,0x0,0x0,0x0,0x0,0x0,0x0,0x0,0x0,0x0,0x0,0x0,0x0,0x0,0x0,0x0,0x0,0x0,0x0,0x0,0x0,0x0,0x0,0x0,0x0,0x0,0x0,0x0,0x0,0x0,0x0,0x0,0x0,0x0,0x0,0x0,0x0,0x0,0x0,0x0,0x0,0x0,0x0,0x0,0x0,0x0,0x0,0x0,0x0,0x0,0x0,0x0,0x0,0x0,0x0,0x0,0x0,0x0,0x0,0x0,0x0,0x0,0x0,0x0,0x0,0x0,0x0,0x0,0x0,0x0,0x0,0x0,0x0,0x0,0x0,0x0,0x0,0x0,0x0,0x0,0x0,0x0,0x0,0x0,0x0,0x0,0x0,0x0,0x0,0x0,0x0,0x0,0x0,0x0,0x0,0x0,0x0,0x0,0x0,0x0,0x0,0x0,0x0,0x0,0x0,0x0,0x0,0x0,0x0,0x0,0x0,0x0,0x0,0x0,0x0,0x0,0x0,0x0,0x0,0x0,0x0,0x0,0x0,0x0,0x0,0x0,0x0,0x0,0x0,0x0,0x0,0x0,0x0,0x0,0x0,0x0,0x0,0x0,0x0,0x0,0x0,0x0,0x0,0x0,0x0,0x0,0x0,0x0,0x0,0x0,0x0,0x0,0x0,0x0,0x0,0x0,0x0,0x0,0x0,0x0,0x0,0x0,0x0,0x0,0x0,0x0,0x0,0x0,0x0,0x0,0x0,0x0,0x0,0x0,0x0,0x0,0x0,0x0,0x0,0x0,0x0,0x0,0x0,0x0,0x0,0x0,0x0,0x0,0x0,0x0,0x0,0x0,0x0,0x0,0x0,0x0,0x0,0x0,0x0,0x0,0x0,0x0,0x0,0x0,0x0,0x0,0x0,0x0,0x0,0x0,0x0,0x0,0x0,0x0,0x0,0x0,0x0,0x0,0x0,0x0,0x0,0x0,0x0,0x0,0x0,0x0,0x0,0x0,0x0,0x0,0x0,0x0,0x0,0x0,0x0,0x0,0x0,0x0,0x0,0x0,0x0,0x0,0x0,0x0,0x0,0x0,0x0,0x0,0x0,0x0,0x0,0x0,0x0,0x0,0x0,0x0,0x0,0x0,0x0,0x0,0x0,0x0,0x0,0x0,0x0,0x0,0x0,0x0,0x0,0x0,0x0,0x0,0x0,0x0,0x0,0x0,0x0,0x0,0x0,0x0,0x0,0x0,0x0,0x0,0x0,0x0,0x0,0x0,0x0,0x0,0x0,0x0,0x0,0x0,0x0,0x0,0x0,0x0,0x0,0x0,0x0,0x0,0x0,0x0,0x0,0x0,0x0,0x0,0x0,0x0,0x0,0x0,0x0,0x0,0x0,0x0,0x0,0x0,0x0,0x0,0x0,0x0,0x0,0x40,0x0,0x0,0x0,0x7b,0x29,0x7,0x3b,0x95,0xa9,0x2,0x3b,0x49,0x54,0x1e,0x3b,0x47,0x3c,0x8,0x3b,0xd7,0x47,0x15,0x3b,0x0,0xb1,0x8,0x3b,0xa0,0x77,0x9,0x3b,0x52,0x25,0xe,0x3b,0xe9,0x9a,0xf9,0x3a,0x5a,0x4b,0x8,0x3b,0xf4,0x8c,0x15,0x3b,0x67,0x88,0x14,0x3b,0x11,0xc1,0x38,0x3b,0x4,0x42,0xb,0x3b,0x38,0xef,0x26,0x3b,0x7b,0x89,0x24,0x3b,0x14,0x48,0xfb,0x3a,0xec,0x1b,0x16,0x3b,0xb8,0xa,0x29,0x3b,0xb3,0xf,0xeb,0x3a,0xd,0xa9,0x4,0x3b,0x56,0xb,0x0,0x3b,0xf6,0x8f,0x12,0x3b,0x61,0xb6,0x1,0x3b,0x6e,0xe2,0x1d,0x3b,0xad,0x12,0x14,0x3b,0xf3,0x1,0x18,0x3b,0x89,0x4d,0xed,0x3a,0xcf,0xb9,0x3b,0x3b,0x6c,0x8e,0xf,0x3b,0x16,0x11,0xfc,0x3a,0xf8,0xaf,0x20,0x3b,0x30,0xc1,0x5,0x3b,0x63,0x15,0x2a,0x3b,0xa2,0xf5,0x19,0x3b,0x1f,0xec,0xda,0x3a,0x32,0xb,0x4,0x3b,0x1d,0x4a,0x18,0x3b,0xf0,0x22,0x10,0x3b,0x4a,0x24,0x1e,0x3b,0xf2,0x4a,0x5,0x3b,0xc4,0xe7,0x0,0x3b,0x9b,0x51,0xdc,0x3a,0x6f,0xa9,0xd9,0x3a,0xeb,0x18,0x4,0x3b,0x2b,0x61,0x26,0x3b,0x87,0x24,0x6,0x3b,0xf3,0xfa,0x7,0x3b,0x8f,0xa1,0xfb,0x3a,0x59,0x24,0xf8,0x3a,0x76,0x0,0xf2,0x3a,0x6,0x1,0xf,0x3b,0xbc,0xd8,0xdf,0x3a,0x1a,0xb4,0x7,0x3b,0xca,0xa7,0xb,0x3b,0x70,0xe0,0x0,0x3b,0x7,0x9b,0x38,0x3b,0xd1,0xe9,0xfb,0x3a,0x7,0xb3,0x1,0x3b,0x2f,0x6d,0x2c,0x3b,0xa0,0x2b,0x5,0x3b,0x72,0x62,0xfb,0x3a,0x68,0x3,0x13,0x3b,0x6e,0x8,0x34,0x3b,0x42,0x0,0x0,0x0,0x6d,0x6f,0x64,0x65,0x6c,0x73,0x5f,0x6c,0x69,0x6e,0x65,0x61,0x72,0x2e,0x54,0x69,0x6e,0x79,0x4c,0x69,0x6e,0x65,0x61,0x72,0x2f,0x74,0x6f,0x72,0x63,0x68,0x2e,0x6e,0x6e,0x2e,0x6d,0x6f,0x64,0x75,0x6c,0x65,0x73,0x2e,0x6c,0x69,0x6e,0x65,0x61,0x72,0x2e,0x4c,0x69,0x6e,0x65,0x61,0x72,0x5f,0x6c,0x69,0x6e,0x65,0x61,0x72,0x5f,0x69,0x6e,0x3b,0x0,0x0,0x2,0x0,0x0,0x0,0x40,0x0,0x0,0x0,0x39,0x0,0x0,0x0,0xa2,0xfc,0xff,0xff,0x0,0x0,0x0,0x1,0x14,0x0,0x0,0x0,0x24,0x3,0x0,0x0,0x2,0x0,0x0,0x0,0x0,0x0,0x0,0x9,0x38,0x3,0x0,0x0,0x8c,0xfc,0xff,0xff,0x8,0x0,0x0,0x0,0x8,0x2,0x0,0x0,0x40,0x0,0x0,0x0,0x0,0x0,0x0,0x0,0x0,0x0,0x0,0x0,0x0,0x0,0x0,0x0,0x0,0x0,0x0,0x0,0x0,0x0,0x0,0x0,0x0,0x0,0x0,0x0,0x0,0x0,0x0,0x0,0x0,0x0,0x0,0x0,0x0,0x0,0x0,0x0,0x0,0x0,0x0,0x0,0x0,0x0,0x0,0x0,0x0,0x0,0x0,0x0,0x0,0x0,0x0,0x0,0x0,0x0,0x0,0x0,0x0,0x0,0x0,0x0,0x0,0x0,0x0,0x0,0x0,0x0,0x0,0x0,0x0,0x0,0x0,0x0,0x0,0x0,0x0,0x0,0x0,0x0,0x0,0x0,0x0,0x0,0x0,0x0,0x0,0x0,0x0,0x0,0x0,0x0,0x0,0x0,0x0,0x0,0x0,0x0,0x0,0x0,0x0,0x0,0x0,0x0,0x0,0x0,0x0,0x0,0x0,0x0,0x0,0x0,0x0,0x0,0x0,0x0,0x0,0x0,0x0,0x0,0x0,0x0,0x0,0x0,0x0,0x0,0x0,0x0,0x0,0x0,0x0,0x0,0x0,0x0,0x0,0x0,0x0,0x0,0x0,0x0,0x0,0x0,0x0,0x0,0x0,0x0,0x0,0x0,0x0,0x0,0x0,0x0,0x0,0x0,0x0,0x0,0x0,0x0,0x0,0x0,0x0,0x0,0x0,0x0,0x0,0x0,0x0,0x0,0x0,0x0,0x0,0x0,0x0,0x0,0x0,0x0,0x0,0x0,0x0,0x0,0x0,0x0,0x0,0x0,0x0,0x0,0x0,0x0,0x0,0x0,0x0,0x0,0x0,0x0,0x0,0x0,0x0,0x0,0x0,0x0,0x0,0x0,0x0,0x0,0x0,0x0,0x0,0x0,0x0,0x0,0x0,0x0,0x0,0x0,0x0,0x0,0x0,0x0,0x0,0x0,0x0,0x0,0x0,0x0,0x0,0x0,0x0,0x0,0x0,0x0,0x0,0x0,0x0,0x0,0x0,0x0,0x0,0x0,0x0,0x0,0x0,0x0,0x0,0x0,0x0,0x0,0x0,0x0,0x0,0x0,0x0,0x0,0x0,0x0,0x0,0x0,0x0,0x0,0x0,0x0,0x0,0x0,0x0,0x0,0x0,0x0,0x0,0x0,0x0,0x0,0x0,0x0,0x0,0x0,0x0,0x0,0x0,0x0,0x0,0x0,0x0,0x0,0x0,0x0,0x0,0x0,0x0,0x0,0x0,0x0,0x0,0x0,0x0,0x0,0x0,0x0,0x0,0x0,0x0,0x0,0x0,0x0,0x0,0x0,0x0,0x0,0x0,0x0,0x0,0x0,0x0,0x0,0x0,0x0,0x0,0x0,0x0,0x0,0x0,0x0,0x0,0x0,0x0,0x0,0x0,0x0,0x0,0x0,0x0,0x0,0x0,0x0,0x0,0x0,0x0,0x0,0x0,0x0,0x0,0x0,0x0,0x0,0x0,0x0,0x0,0x0,0x0,0x0,0x0,0x0,0x0,0x0,0x0,0x0,0x0,0x0,0x0,0x0,0x0,0x0,0x0,0x0,0x0,0x0,0x0,0x0,0x0,0x0,0x0,0x0,0x0,0x0,0x0,0x0,0x0,0x0,0x0,0x0,0x0,0x0,0x0,0x0,0x0,0x0,0x0,0x0,0x0,0x0,0x0,0x0,0x0,0x0,0x0,0x0,0x0,0x0,0x0,0x0,0x0,0x0,0x0,0x0,0x0,0x0,0x0,0x0,0x0,0x0,0x0,0x0,0x0,0x0,0x0,0x0,0x0,0x0,0x0,0x0,0x0,0x0,0x0,0x0,0x0,0x0,0x0,0x0,0x0,0x0,0x0,0x0,0x0,0x0,0x0,0x0,0x0,0x0,0x0,0x0,0x0,0x0,0x0,0x0,0x0,0x0,0x0,0x0,0x0,0x0,0x0,0x0,0x0,0x0,0x0,0x0,0x0,0x0,0x0,0x0,0x0,0x0,0x0,0x0,0x0,0x0,0x0,0x0,0x0,0x0,0x0,0x0,0x0,0x0,0x0,0x0,0x0,0x0,0x0,0x0,0x0,0x0,0x0,0x0,0x0,0x0,0x0,0x0,0x0,0x0,0x0,0x0,0x0,0x0,0x0,0x0,0x0,0x0,0x0,0x0,0x0,0x0,0x0,0x0,0x0,0x0,0x0,0x0,0x0,0x0,0x0,0x0,0x0,0x0,0x0,0x0,0x40,0x0,0x0,0x0,0x6d,0x8d,0x68,0x3b,0x73,0xf6,0x68,0x3b,0xcf,0x42,0x8c,0x3b,0x2,0x1a,0x37,0x3b,0x66,0x8f,0x32,0x3b,0xdb,0x5d,0x23,0x3b,0x4b,0xa,0x94,0x3b,0xb6,0x49,0x9b,0x3b,0x3c,0xb4,0x99,0x3b,0x34,0x82,0x71,0x3b,0x73,0xc1,0x4e,0x3b,0x4d,0xe3,0x8a,0x3b,0xa8,0xa1,0xb3,0x3b,0x8b,0xc0,0x62,0x3b,0x9e,0x78,0x60,0x3b,0x9,0x60,0x27,0x3b,0x5c,0x77,0x3c,0x3b,0x10,0x5e,0x2e,0x3b,0x21,0xfd,0x22,0x3b,0x46,0xd7,0x5f,0x3b,0x74,0x7d,0x4b,0x3b,0x91,0x2a,0x4b,0x3b,0x29,0xbe,0x29,0x3b,0x3b,0x54,0xa1,0x3b,0x77,0xbd,0x13,0x3b,0x1b,0x2c,0x53,0x3b,0x4f,0x4f,0x3b,0x3b,0x38,0xc2,0x2f,0x3b,0x2,0x7e,0x4e,0x3b,0xba,0xe,0x60,0x3b,0x87,0x66,0x8b,0x3b,0x54,0xea,0x26,0x3b,0x2d,0xb4,0x41,0x3b,0x5d,0x26,0x90,0x3b,0xb2,0x92,0x8f,0x3b,0xf6,0xda,0xd,0x3b,0x94,0x7,0x83,0x3b,0xfa,0xa2,0x60,0x3b,0x12,0x5e,0xbe,0x3b,0x68,0xee,0x40,0x3b,0xc5,0xd2,0x90,0x3b,0x36,0x8b,0x64,0x3b,0x66,0x3a,0x8d,0x3b,0x26,0xa7,0x8a,0x3b,0x70,0xdb,0x38,0x3b,0x37,0x58,0x19,0x3b,0xa,0xa5,0x62,0x3b,0xd4,0xb9,0x6e,0x3b,0xbf,0x33,0x57,0x3b,0x5c,0xd1,0x4c,0x3b,0x42,0xef,0x1f,0x3b,0xb5,0x77,0x6f,0x3b,0xf,0x90,0x42,0x3b,0xf0,0x3b,0x35,0x3b,0xe8,0xe0,0x4a,0x3b,0x93,0x31,0x4b,0x3b,0xac,0xfb,0x98,0x3b,0x19,0x81,0x4d,0x3b,0x5b,0xe0,0xa4,0x3b,0xbe,0xd4,0x72,0x3b,0x2,0x4b,0x81,0x3b,0x51,0x34,0x50,0x3b,0x80,0x8f,0x6e,0x3b,0xc6,0x5b,0x63,0x3b,0x19,0x0,0x0,0x0,0x6d,0x6f,0x64,0x65,0x6c,0x73,0x5f,0x6c,0x69,0x6e,0x65,0x61,0x72,0x2e,0x54,0x69,0x6e,0x79,0x4c,0x69,0x6e,0x65,0x61,0x72,0x3b,0x0,0x0,0x0,0x2,0x0,0x0,0x0,0x40,0x0,0x0,0x0,0x40,0x0,0x0,0x0,0x0,0x0,0x16,0x0,0x1c,0x0,0x18,0x0,0x17,0x0,0x10,0x0,0xc,0x0,0x8,0x0,0x0,0x0,0x0,0x0,0x0,0x0,0x7,0x0,0x16,0x0,0x0,0x0,0x0,0x0,0x0,0x1,0x20,0x0,0x0,0x0,0x78,0x0,0x0,0x0,0x1,0x0,0x0,0x0,0x0,0x0,0x0,0x9,0xb4,0x0,0x0,0x0,0xc,0x0,0xc,0x0,0x0,0x0,0x0,0x0,0x8,0x0,0x4,0x0,0xc,0x0,0x0,0x0,0x8,0x0,0x0,0x0,0x38,0x0,0x0,0x0,0x6,0x0,0x0,0x0,0x0,0x0,0x0,0x0,0x0,0x0,0x0,0x0,0x0,0x0,0x0,0x0,0x0,0x0,0x0,0x0,0x0,0x0,0x0,0x0,0x0,0x0,0x0,0x0,0x0,0x0,0x0,0x0,0x0,0x0,0x0,0x0,0x0,0x0,0x0,0x0,0x0,0x0,0x0,0x0,0x0,0x0,0x0,0x0,0x0,0x0,0x0,0x0,0x6,0x0,0x0,0x0,0xbe,0xed,0xac,0x3b,0x26,0x46,0x8e,0x3b,0xef,0xf2,0x8c,0x3b,0x4f,0x84,0x2,0x3b,0x4a,0x9d,0x4c,0x3b,0x1,0xec,0x85,0x3b,0x43,0x0,0x0,0x0,0x6d,0x6f,0x64,0x65,0x6c,0x73,0x5f,0x6c,0x69,0x6e,0x65,0x61,0x72,0x2e,0x54,0x69,0x6e,0x79,0x4c,0x69,0x6e,0x65,0x61,0x72,0x2f,0x74,0x6f,0x72,0x63,0x68,0x2e,0x6e,0x6e,0x2e,0x6d,0x6f,0x64,0x75,0x6c,0x65,0x73,0x2e,0x6c,0x69,0x6e,0x65,0x61,0x72,0x2e,0x4c,0x69,0x6e,0x65,0x61,0x72,0x5f,0x63,0x6c,0x61,0x73,0x73,0x69,0x66,0x69,0x65,0x72,0x3b,0x0,0x2,0x0,0x0,0x0,0x6,0x0,0x0,0x0,0x40,0x0,0x0,0x0,0x0,0x0,0x16,0x0,0x14,0x0,0x10,0x0,0x0,0x0,0x0,0x0,0xc,0x0,0x8,0x0,0x0,0x0,0x0,0x0,0x0,0x0,0x7,0x0,0x16,0x0,0x0,0x0,0x0,0x0,0x0,0x1,0x10,0x0,0x0,0x0,0x10,0x0,0x0,0x0,0x28,0x0,0x0,0x0,0x4,0x0,0x4,0x0,0x4,0x0,0x0,0x0,0x16,0x0,0x0,0x0,0x73,0x65,0x72,0x76,0x69,0x6e,0x67,0x5f,0x64,0x65,0x66,0x61,0x75,0x6c,0x74,0x5f,0x61,0x72,0x67,0x73,0x5f,0x30,0x0,0x0,0x3,0x0,0x0,0x0,0x1,0x0,0x0,0x0,0xa,0x0,0x0,0x0,0x39,0x0,0x0,0x0,0x6,0x0,0x0,0x0,0x6c,0x0,0x0,0x0,0x50,0x0,0x0,0x0,0x34,0x0,0x0,0x0,0x24,0x0,0x0,0x0,0x14,0x0,0x0,0x0,0x4,0x0,0x0,0x0,0xd0,0xff,0xff,0xff,0x6b,0x0,0x0,0x0,0x0,0x0,0x0,0x6b,0xdc,0xff,0xff,0xff,0x12,0x0,0x0,0x0,0x0,0x0,0x0,0x12,0xe8,0xff,0xff,0xff,0x4a,0x0,0x0,0x0,0x0,0x0,0x0,0x4a,0xf4,0xff,0xff,0xff,0x27,0x0,0x0,0x0,0x0,0x0,0x0,0x27,0xc,0x0,0xc,0x0,0xb,0x0,0x0,0x0,0x0,0x0,0x4,0x0,0xc,0x0,0x0,0x0,0x16,0x0,0x0,0x0,0x0,0x0,0x0,0x16,0xc,0x0,0x10,0x0,0xf,0x0,0x0,0x0,0x8,0x0,0x4,0x0,0xc,0x0,0x0,0x0,0x9,0x0,0x0,0x0,0x5,0x0,0x0,0x0,0x0,0x0,0x0,0x9};
