#include <cstdint>

#include "./models/model_int8_model_data.h"

alignas(16) const unsigned char g_model_int8_model_data[] = {0x20,0x0,0x0,0x0,0x54,0x46,0x4c,0x33,0x0,0x0,0x0,0x0,0x14,0x0,0x20,0x0,0x1c,0x0,0x18,0x0,0x14,0x0,0x10,0x0,0xc,0x0,0x0,0x0,0x8,0x0,0x4,0x0,0x14,0x0,0x0,0x0,0x1c,0x0,0x0,0x0,0x90,0x0,0x0,0x0,0xec,0x0,0x0,0x0,0x48,0x1,0x0,0x0,0x58,0x1,0x0,0x0,0xa4,0x2,0x0,0x0,0x3,0x0,0x0,0x0,0x1,0x0,0x0,0x0,0x10,0x0,0x0,0x0,0x0,0x0,0xa,0x0,0x10,0x0,0xc,0x0,0x8,0x0,0x4,0x0,0xa,0x0,0x0,0x0,0xc,0x0,0x0,0x0,0x1c,0x0,0x0,0x0,0x3c,0x0,0x0,0x0,0xf,0x0,0x0,0x0,0x73,0x65,0x72,0x76,0x69,0x6e,0x67,0x5f,0x64,0x65,0x66,0x61,0x75,0x6c,0x74,0x0,0x1,0x0,0x0,0x0,0x4,0x0,0x0,0x0,0x94,0xff,0xff,0xff,0x1,0x0,0x0,0x0,0x4,0x0,0x0,0x0,0x8,0x0,0x0,0x0,0x6f,0x75,0x74,0x70,0x75,0x74,0x5f,0x30,0x0,0x0,0x0,0x0,0x1,0x0,0x0,0x0,0x4,0x0,0x0,0x0,0x4a,0xff,0xff,0xff,0x4,0x0,0x0,0x0,0x6,0x0,0x0,0x0,0x61,0x72,0x67,0x73,0x5f,0x30,0x0,0x0,0x2,0x0,0x0,0x0,0x38,0x0,0x0,0x0,0x4,0x0,0x0,0x0,0xd8,0xff,0xff,0xff,0x3,0x0,0x0,0x0,0x4,0x0,0x0,0x0,0x17,0x0,0x0,0x0,0x6b,0x65,0x65,0x70,0x5f,0x73,0x74,0x61,0x62,0x6c,0x65,0x68,0x6c,0x6f,0x5f,0x63,0x6f,0x6e,0x73,0x74,0x61,0x6e,0x74,0x0,0x8,0x0,0xc,0x0,0x8,0x0,0x4,0x0,0x8,0x0,0x0,0x0,0x2,0x0,0x0,0x0,0x4,0x0,0x0,0x0,0x13,0x0,0x0,0x0,0x6d,0x69,0x6e,0x5f,0x72,0x75,0x6e,0x74,0x69,0x6d,0x65,0x5f,0x76,0x65,0x72,0x73,0x69,0x6f,0x6e,0x0,0x4,0x0,0x0,0x0,0x58,0x0,0x0,0x0,0x40,0x0,0x0,0x0,0x18,0x0,0x0,0x0,0x4,0x0,0x0,0x0,0xd2,0xff,0xff,0xff,0x4,0x0,0x0,0x0,0x4,0x0,0x0,0x0,0x74,0x72,0x75,0x65,0xe2,0xff,0xff,0xff,0x4,0x0,0x0,0x0,0x10,0x0,0x0,0x0,0x0,0x0,0x0,0x0,0x0,0x0,0x0,0x0,0x0,0x0,0x0,0x0,0x0,0x0,0x0,0x0,0x0,0x0,0x6,0x0,0x8,0x0,0x4,0x0,0x6,0x0,0x0,0x0,0x4,0x0,0x0,0x0,0x6,0x0,0x0,0x0,0x0,0x0,0x0,0x0,0x0,0x0,0x0,0x0,0xcc,0xfe,0xff,0xff,0xf,0x0,0x0,0x0,0x4d,0x4c,0x49,0x52,0x20,0x43,0x6f,0x6e,0x76,0x65,0x72,0x74,0x65,0x64,0x2e,0x0,0x1,0x0,0x0,0x0,0x14,0x0,0x0,0x0,0x0,0x0,0xe,0x0,0x18,0x0,0x14,0x0,0x10,0x0,0xc,0x0,0x8,0x0,0x4,0x0,0xe,0x0,0x0,0x0,0x14,0x0,0x0,0x0,0x1c,0x0,0x0,0x0,0x1c,0x0,0x0,0x0,0x20,0x0,0x0,0x0,0x24,0x0,0x0,0x0,0x4,0x0,0x0,0x0,0x6d,0x61,0x69,0x6e,0x0,0x0,0x0,0x0,0x0,0x0,0x0,0x0,0x1,0x0,0x0,0x0,0x1,0x0,0x0,0x0,0x1,0x0,0x0,0x0,0x0,0x0,0x0,0x0,0x2,0x0,0x0,0x0,0xb4,0x0,0x0,0x0,0x1c,0x0,0x0,0x0,0x0,0x0,0x16,0x0,0x1c,0x0,0x18,0x0,0x17,0x0,0x10,0x0,0xc,0x0,0x8,0x0,0x0,0x0,0x0,0x0,0x0,0x0,0x7,0x0,0x16,0x0,0x0,0x0,0x0,0x0,0x0,0x1,0x20,0x0,0x0,0x0,0x40,0x0,0x0,0x0,0x1,0x0,0x0,0x0,0x0,0x0,0x0,0x9,0x58,0x0,0x0,0x0,0xc,0x0,0xc,0x0,0x0,0x0,0x0,0x0,0x8,0x0,0x4,0x0,0xc,0x0,0x0,0x0,0x8,0x0,0x0,0x0,0x14,0x0,0x0,0x0,0x1,0x0,0x0,0x0,0x0,0x0,0x0,0x0,0x0,0x0,0x0,0x0,0x0,0x0,0x0,0x0,0x1,0x0,0x0,0x0,0x0,0x0,0xc0,0x7f,0x1f,0x0,0x0,0x0,0x73,0x65,0x72,0x76,0x69,0x6e,0x67,0x5f,0x64,0x65,0x66,0x61,0x75,0x6c,0x74,0x5f,0x6f,0x75,0x74,0x70,0x75,0x74,0x5f,0x30,0x5f,0x6f,0x75,0x74,0x70,0x75,0x74,0x0,0x2,0x0,0x0,0x0,0x1,0x0,0x0,0x0,0x6,0x0,0x0,0x0,0x0,0x0,0x16,0x0,0x14,0x0,0x10,0x0,0x0,0x0,0x0,0x0,0xc,0x0,0x8,0x0,0x0,0x0,0x0,0x0,0x0,0x0,0x7,0x0,0x16,0x0,0x0,0x0,0x0,0x0,0x0,0x1,0x10,0x0,0x0,0x0,0x10,0x0,0x0,0x0,0x28,0x0,0x0,0x0,0x4,0x0,0x4,0x0,0x4,0x0,0x0,0x0,0x16,0x0,0x0,0x0,0x73,0x65,0x72,0x76,0x69,0x6e,0x67,0x5f,0x64,0x65,0x66,0x61,0x75,0x6c,0x74,0x5f,0x61,0x72,0x67,0x73,0x5f,0x30,0x0,0x0,0x3,0x0,0x0,0x0,0x1,0x0,0x0,0x0,0xa,0x0,0x0,0x0,0x39,0x0,0x0,0x0,0x0,0x0,0x0,0x0};
