#include <cstdint>

#include "model_post_ssm_int8_kws_model_data.h"

alignas(16) const unsigned char g_model_post_ssm_int8_kws_model_data[] = {0x28,0x0,0x0,0x0,0x54,0x46,0x4c,0x33,0x0,0x0,0x0,0x0,0x0,0x0,0x0,0x0,0x0,0x0,0x0,0x0,0x0,0x0,0x12,0x0,0x18,0x0,0x4,0x0,0x8,0x0,0xc,0x0,0x0,0x0,0x10,0x0,0x0,0x0,0x14,0x0,0x12,0x0,0x0,0x0,0x3,0x0,0x0,0x0,0x10,0x35,0x0,0x0,0x78,0x2b,0x0,0x0,0x68,0x0,0x0,0x0,0x4,0x0,0x0,0x0,0x2,0x0,0x0,0x0,0x38,0x0,0x0,0x0,0x4,0x0,0x0,0x0,0xd8,0xff,0xff,0xff,0x8,0x0,0x0,0x0,0xb,0x0,0x0,0x0,0x17,0x0,0x0,0x0,0x6b,0x65,0x65,0x70,0x5f,0x73,0x74,0x61,0x62,0x6c,0x65,0x68,0x6c,0x6f,0x5f,0x63,0x6f,0x6e,0x73,0x74,0x61,0x6e,0x74,0x0,0x8,0x0,0xc,0x0,0x4,0x0,0x8,0x0,0x8,0x0,0x0,0x0,0x8,0x0,0x0,0x0,0xa,0x0,0x0,0x0,0x13,0x0,0x0,0x0,0x6d,0x69,0x6e,0x5f,0x72,0x75,0x6e,0x74,0x69,0x6d,0x65,0x5f,0x76,0x65,0x72,0x73,0x69,0x6f,0x6e,0x0,0xc,0x0,0x0,0x0,0x4,0x2b,0x0,0x0,0x2c,0x22,0x0,0x0,0x8,0x2,0x0,0x0,0xf4,0x1,0x0,0x0,0xd0,0x1,0x0,0x0,0xbc,0x0,0x0,0x0,0xa8,0x0,0x0,0x0,0x84,0x0,0x0,0x0,0x60,0x0,0x0,0x0,0x3c,0x0,0x0,0x0,0x18,0x0,0x0,0x0,0x4,0x0,0x0,0x0,0x6,0xde,0xff,0xff,0x4,0x0,0x0,0x0,0x4,0x0,0x0,0x0,0x74,0x72,0x75,0x65,0x16,0xde,0xff,0xff,0x4,0x0,0x0,0x0,0x10,0x0,0x0,0x0,0x32,0x2e,0x30,0x2e,0x30,0x0,0x0,0x0,0x0,0x0,0x0,0x0,0x0,0x0,0x0,0x0,0x0,0x0,0x0,0x0,0x36,0xde,0xff,0xff,0x4,0x0,0x0,0x0,0x8,0x0,0x0,0x0,0x3,0x0,0x0,0x0,0x2,0x0,0x0,0x0,0x0,0x0,0x0,0x0,0x0,0x0,0x0,0x0,0x0,0x0,0x0,0x0,0x56,0xde,0xff,0xff,0x4,0x0,0x0,0x0,0xc,0x0,0x0,0x0,0x0,0x0,0x0,0x0,0x2,0x0,0x0,0x0,0x1,0x0,0x0,0x0,0x0,0x0,0x0,0x0,0x0,0x0,0x0,0x0,0x76,0xde,0xff,0xff,0x4,0x0,0x0,0x0,0x10,0x0,0x0,0x0,0x1,0x0,0x0,0x0,0x40,0x0,0x0,0x0,0x1,0x0,0x0,0x0,0x33,0x0,0x0,0x0,0x0,0x0,0x0,0x0,0x96,0xde,0xff,0xff,0x4,0x0,0x0,0x0,0x4,0x0,0x0,0x0,0x40,0x0,0x0,0x0,0xa6,0xde,0xff,0xff,0x4,0x0,0x0,0x0,0x0,0x1,0x0,0x0,0x0,0x0,0x0,0x0,0x1,0x0,0x0,0x0,0x2,0x0,0x0,0x0,0x3,0x0,0x0,0x0,0x4,0x0,0x0,0x0,0x5,0x0,0x0,0x0,0x6,0x0,0x0,0x0,0x7,0x0,0x0,0x0,0x8,0x0,0x0,0x0,0x9,0x0,0x0,0x0,0xa,0x0,0x0,0x0,0xb,0x0,0x0,0x0,0xc,0x0,0x0,0x0,0xd,0x0,0x0,0x0,0xe,0x0,0x0,0x0,0xf,0x0,0x0,0x0,0x10,0x0,0x0,0x0,0x11,0x0,0x0,0x0,0x12,0x0,0x0,0x0,0x13,0x0,0x0,0x0,0x14,0x0,0x0,0x0,0x15,0x0,0x0,0x0,0x16,0x0,0x0,0x0,0x17,0x0,0x0,0x0,0x18,0x0,0x0,0x0,0x19,0x0,0x0,0x0,0x1a,0x0,0x0,0x0,0x1b,0x0,0x0,0x0,0x1c,0x0,0x0,0x0,0x1d,0x0,0x0,0x0,0x1e,0x0,0x0,0x0,0x1f,0x0,0x0,0x0,0x20,0x0,0x0,0x0,0x21,0x0,0x0,0x0,0x22,0x0,0x0,0x0,0x23,0x0,0x0,0x0,0x24,0x0,0x0,0x0,0x25,0x0,0x0,0x0,0x26,0x0,0x0,0x0,0x27,0x0,0x0,0x0,0x28,0x0,0x0,0x0,0x29,0x0,0x0,0x0,0x2a,0x0,0x0,0x0,0x2b,0x0,0x0,0x0,0x2c,0x0,0x0,0x0,0x2d,0x0,0x0,0x0,0x2e,0x0,0x0,0x0,0x2f,0x0,0x0,0x0,0x30,0x0,0x0,0x0,0x31,0x0,0x0,0x0,0x32,0x0,0x0,0x0,0x33,0x0,0x0,0x0,0x34,0x0,0x0,0x0,0x35,0x0,0x0,0x0,0x36,0x0,0x0,0x0,0x37,0x0,0x0,0x0,0x38,0x0,0x0,0x0,0x39,0x0,0x0,0x0,0x3a,0x0,0x0,0x0,0x3b,0x0,0x0,0x0,0x3c,0x0,0x0,0x0,0x3d,0x0,0x0,0x0,0x3e,0x0,0x0,0x0,0x3f,0x0,0x0,0x0,0x0,0x0,0x0,0x0,0xb6,0xdf,0xff,0xff,0x4,0x0,0x0,0x0,0x8,0x0,0x0,0x0,0x1,0x0,0x0,0x0,0x40,0x0,0x0,0x0,0x0,0x0,0x0,0x0,0x0,0x0,0x0,0x0,0x0,0x0,0x0,0x0,0xd6,0xdf,0xff,0xff,0x4,0x0,0x0,0x0,0x1,0x0,0x0,0x0,0x7f,0x0,0x0,0x0,0xe6,0xdf,0xff,0xff,0x4,0x0,0x0,0x0,0x0,0x20,0x0,0x0,0xe6,0x29,0x11,0xf0,0xef,0xda,0x9,0xfb,0x6,0x52,0xc9,0x2f,0xad,0x1,0xc,0xd,0xfa,0xf6,0xd2,0xd7,0xa7,0xc9,0xe5,0x34,0xca,0x81,0xe,0xd7,0xf7,0x6,0x27,0xe9,0xe1,0x2f,0x4,0x1a,0xfd,0x37,0xf6,0xf5,0xca,0xfc,0x9e,0x2d,0xb,0x23,0x35,0xe6,0xe0,0xf7,0x7,0x74,0x21,0xbc,0xf3,0xe2,0x16,0x21,0x20,0xed,0x22,0x22,0xec,0xfc,0xe6,0x12,0xc7,0x2,0x1,0xde,0x0,0xc,0xad,0xa,0x5,0x75,0xcb,0xef,0x3f,0xf7,0xf8,0x56,0x26,0xfe,0x0,0xe9,0xff,0xe8,0xe3,0xf4,0xe6,0xdc,0xd,0x56,0xd2,0xef,0xeb,0x13,0x1b,0xce,0xf1,0xd9,0xe2,0xdc,0xef,0xe6,0xb,0xce,0xd8,0xea,0xcd,0x7,0xfc,0xf2,0x47,0xb4,0xea,0xc,0xe8,0xe4,0x2,0x1a,0x11,0xfc,0xc,0xef,0xbe,0x5c,0xfc,0xc5,0x27,0xc3,0xb5,0xfe,0xf8,0x10,0xda,0x1c,0x51,0x33,0x81,0xdc,0x2,0x2,0x25,0xd5,0xed,0x8,0xf7,0xd3,0xcf,0x2b,0x6f,0xf4,0x24,0xf9,0xe4,0x9,0x58,0x2c,0xc,0x2,0xe9,0x11,0x25,0x1c,0x13,0xef,0xe7,0x18,0xf0,0xec,0x6,0xd4,0x31,0x6,0x35,0x12,0x17,0x26,0xfe,0xf9,0xf0,0xd7,0xf0,0xe3,0x22,0x7,0xeb,0xf8,0xf4,0xeb,0xf1,0xee,0xef,0xe0,0xd,0x27,0xf1,0xe9,0xdf,0x12,0x4,0xeb,0xf9,0x1b,0x1e,0x17,0x11,0xd1,0xd3,0xb4,0xf3,0x2a,0x35,0xf5,0xfe,0xdc,0x2c,0x4a,0xfc,0xb5,0xa,0x34,0xf8,0x7,0xf1,0x1,0xf0,0x4,0xfe,0xf3,0x16,0xf5,0xec,0xd0,0x19,0xb,0xda,0xea,0xfe,0xf7,0xe5,0x34,0xe5,0xc2,0xde,0xfa,0x22,0x13,0x18,0x52,0xf5,0xd1,0xe0,0x10,0x1c,0x23,0x7,0x15,0xfc,0xb9,0x7,0xde,0x93,0xd2,0x22,0x1,0xe1,0xf8,0x7,0x2f,0xd2,0x1c,0xf3,0xfe,0xc8,0x1c,0xe4,0xf2,0xf6,0xe2,0xda,0x4b,0x7,0xbf,0x65,0xf4,0xf8,0x2d,0x1b,0x13,0x33,0x1f,0xf3,0xf3,0xa3,0x2e,0xe,0x18,0xe8,0x1a,0xff,0x23,0x2f,0xf3,0x17,0xfc,0x50,0x34,0x12,0xec,0xa4,0x2,0xfa,0xe0,0x9c,0xe3,0x15,0xeb,0xf9,0x4e,0x38,0x3b,0x3a,0x2d,0xf9,0xf8,0xc8,0x9,0xe5,0xfa,0xde,0x10,0xff,0xe9,0x53,0x4c,0x3f,0xe2,0xb6,0xe1,0xe5,0xd9,0xf3,0x23,0xed,0x48,0x1b,0xfb,0x16,0xe6,0xef,0xcc,0xf1,0x13,0xdf,0x20,0x5,0x12,0x16,0x2,0xed,0xf5,0x24,0xb,0xfa,0xa7,0xf5,0xf5,0x7f,0x9b,0x48,0x20,0x3f,0x27,0x3b,0xce,0x32,0xee,0xd0,0xf2,0xe3,0xc8,0x8,0x16,0x40,0x2e,0xb,0x32,0xc4,0xd7,0xf8,0xda,0xa,0xc7,0xa8,0x21,0xd3,0xe6,0xb5,0xfe,0x28,0x17,0x8,0x1a,0xf5,0xf2,0xfd,0xd3,0x2,0xe9,0xe,0xb3,0x22,0xf0,0xd2,0x27,0x8,0xf8,0x2a,0x7,0x15,0x18,0x63,0x5f,0xc4,0xc4,0xd8,0xf3,0xdc,0x6,0x10,0x11,0x19,0x1b,0x1d,0xf5,0xe2,0xe7,0xfd,0x1d,0xfc,0xca,0xe0,0x27,0xe0,0xf8,0xf,0xd8,0xc4,0xfd,0x7,0x43,0xe,0x18,0x37,0x39,0x16,0x28,0xcd,0x84,0x33,0x27,0x3,0xd0,0x23,0x5,0x7f,0xa,0x24,0xfa,0x5b,0xd6,0xc7,0xe6,0xd5,0x1a,0x17,0xb8,0xf8,0x9,0xf2,0x21,0x40,0x9f,0xa0,0x0,0x3c,0x2,0x63,0xd3,0xd0,0xd6,0xb,0xd1,0x6c,0x3,0xcf,0x16,0x34,0xff,0x18,0x29,0xa,0x34,0x1b,0x3b,0xe0,0xda,0x8c,0x39,0xbc,0xae,0x9f,0xf8,0xc0,0xc1,0x19,0xde,0xcf,0x1b,0xdf,0x1,0xb,0xe6,0xdb,0x26,0x26,0xbf,0x19,0xd5,0x81,0xf,0xa2,0xd1,0xda,0xc9,0x95,0xdf,0xf9,0x3b,0xf4,0x21,0x58,0xee,0x3e,0xeb,0xf7,0xee,0xe3,0x18,0xaa,0x2f,0x96,0x2,0x35,0x1f,0x1f,0xf7,0xf5,0xf7,0xe0,0x59,0xeb,0x1b,0xcd,0xd5,0x73,0x56,0x46,0xfa,0xf,0xf7,0xf8,0xc,0xf5,0x41,0xa0,0xf4,0xb5,0xdc,0x1f,0x16,0x2b,0xcf,0xed,0x28,0xfe,0x2c,0xf5,0xdf,0xef,0xd0,0x2c,0x33,0xe0,0xee,0xf5,0x3e,0xa5,0x1f,0x25,0x4,0x13,0x53,0xb8,0x7,0x18,0x4d,0xf6,0xe7,0x1,0x22,0x26,0xfe,0xd2,0xcd,0x55,0xf4,0x4,0x2,0x4c,0x8,0x7,0x1b,0x48,0x20,0x64,0x29,0x2e,0xc4,0x5c,0x4f,0x1c,0x1a,0xfa,0xd2,0x2d,0xd9,0x3a,0xf9,0xc8,0x56,0xcf,0x3,0x37,0x1,0x69,0xe1,0x1a,0x5,0x54,0xf9,0x1a,0xb,0xf0,0xfd,0xf6,0x20,0x3d,0x19,0xfc,0x2,0xe,0x70,0x68,0x27,0xa2,0xf0,0xd5,0x25,0x0,0xfe,0xff,0xfb,0xb,0xd3,0xe1,0x11,0xeb,0x2,0x2a,0xf0,0xfc,0x12,0xe1,0xea,0x4,0x40,0x4,0xed,0x34,0x89,0x0,0x1d,0xea,0x10,0x1,0x11,0x9,0x0,0x19,0xf3,0xf1,0xee,0xff,0xf1,0x26,0x18,0x3,0xf,0x2c,0x15,0x76,0x9,0xf8,0xe,0xa,0x17,0xf9,0xc3,0xd0,0x18,0x29,0xfb,0xf0,0x1d,0xe6,0xb5,0x21,0xfc,0x5,0xda,0x7,0x25,0xf1,0xb3,0xdb,0xa2,0x57,0xf5,0x62,0x3f,0xdf,0x1a,0xaa,0x1d,0xfa,0xe1,0x1c,0x4,0x2,0xf4,0x81,0x11,0xea,0x1d,0x1,0x2e,0xf2,0x27,0xed,0x1a,0x12,0x21,0x3,0x3d,0x24,0xde,0x18,0xfa,0xb0,0xdb,0x2a,0xbe,0x28,0xef,0x8e,0xe0,0x2c,0x14,0x27,0x2,0xfd,0xe0,0x22,0x26,0xdd,0xad,0xf4,0x1f,0x1,0x3e,0xec,0x3,0x2f,0x2b,0x17,0x1e,0x14,0xdf,0x1f,0x3,0x60,0xc,0x15,0x9,0x0,0x8c,0x1c,0xee,0x8,0x23,0xd1,0xdc,0x1c,0x17,0xad,0xec,0x2f,0xef,0x13,0x23,0xd7,0x5,0xe8,0x7f,0xfd,0xb1,0xbb,0xeb,0xde,0xc7,0x10,0x8,0x4,0x2d,0xe7,0xe6,0x4,0xe6,0xe4,0x12,0x3,0xeb,0x38,0x1c,0xdd,0xfb,0x8,0xdf,0x15,0xeb,0xd7,0x19,0xa8,0x16,0x3a,0x7,0x1a,0xe2,0xfc,0xad,0xdd,0x43,0x3d,0xe7,0x8a,0xe1,0x13,0x39,0x42,0xef,0x4e,0x39,0xdb,0x25,0x10,0x2f,0xca,0x4,0x9d,0xee,0x5b,0x46,0xd1,0xc3,0xdf,0xfc,0xfb,0xa4,0xfe,0xdc,0x97,0x1a,0x13,0xc2,0xb0,0x8,0x45,0x28,0x2a,0xdd,0x40,0xb9,0x26,0xc7,0x11,0xfb,0x12,0x1f,0x5,0xe4,0x23,0x0,0xc9,0xf6,0xf7,0xdf,0xf7,0x2a,0xe3,0xec,0xe9,0xaf,0x16,0x18,0x5,0x33,0x17,0x4,0x5,0xd0,0xc,0xfb,0x54,0x11,0xf7,0x5,0xd9,0x4,0xbe,0x21,0x19,0xfe,0xfd,0xda,0x1c,0x52,0x1c,0xd,0xe6,0xf1,0xef,0x81,0xed,0x37,0xe7,0xb,0x9,0xd7,0xf8,0x1c,0xe,0xd4,0xeb,0x6,0xf1,0x4a,0xfe,0x1a,0x5e,0xf3,0xec,0xf1,0xfb,0x4f,0x14,0x36,0x27,0x44,0xc1,0xe7,0xe7,0x1a,0xee,0xfa,0xe2,0xe8,0xf0,0x37,0xb6,0xa8,0xd4,0x15,0x28,0xed,0xdc,0xf7,0x1c,0xf1,0xe3,0xd3,0xe7,0xfa,0xea,0xec,0x0,0xf,0x7,0xa8,0xf5,0xf,0x42,0xb,0x2f,0xe9,0xb,0xfa,0x12,0x61,0xcf,0xdc,0xe,0xf1,0xbb,0xae,0xd2,0xfd,0xc,0x18,0x7,0x3d,0xf,0xc7,0xd8,0xe2,0xdd,0x19,0xc4,0xed,0x0,0xff,0xd9,0x20,0xbb,0xcb,0x28,0xd8,0xf,0x28,0x5,0x2d,0xf,0x27,0xf3,0xff,0xed,0x10,0x9,0xe8,0x3e,0xf0,0x1c,0xf0,0x29,0x33,0xb,0x1b,0xeb,0xd5,0xb,0x32,0x19,0xe5,0x16,0x21,0xd,0xe0,0xe7,0x14,0x26,0x26,0x29,0xc,0x3b,0xee,0xf,0xd2,0x15,0xe3,0xfb,0xfe,0xe8,0x0,0xfe,0xeb,0x9,0x6a,0xd8,0xa4,0xfe,0xe0,0x7,0x8,0xee,0xfe,0x21,0xe0,0xbb,0x18,0xdf,0xe8,0xcc,0xf5,0xf9,0x2c,0xb0,0x39,0x3e,0xda,0xf5,0xa7,0xe3,0x5,0xe,0x14,0xe7,0xf8,0xa4,0x9f,0x36,0xec,0xdc,0x30,0x14,0x2a,0xf5,0xed,0xc1,0x81,0x13,0x2,0xf2,0xf9,0xe6,0x7e,0xa,0xd,0x87,0x2c,0x13,0xb,0x1,0x18,0x63,0x38,0xbc,0x1b,0xb2,0xce,0x7f,0xb8,0xc7,0x5,0xfd,0xff,0xd8,0xec,0x6,0xf0,0x3b,0xd,0x1c,0x31,0x2,0x2f,0xe0,0x60,0x28,0x47,0xe2,0x36,0xe3,0xe3,0x37,0x4,0xf2,0xb4,0x16,0xda,0xa5,0xdb,0xc8,0xba,0x12,0xc,0xef,0x35,0x4,0x14,0xf5,0xeb,0xdd,0x6f,0xfa,0xd4,0xff,0xaf,0x32,0xd5,0xd0,0x1,0x3a,0x22,0x7,0x2e,0xe7,0xd2,0x71,0xab,0xeb,0xe,0xb0,0xf7,0xec,0xac,0xe0,0x21,0xf4,0x9,0xfb,0xe4,0xe6,0x6,0x29,0x15,0xc7,0x20,0xff,0x20,0xfc,0x59,0xfa,0x25,0x8,0x39,0x9d,0x44,0xf7,0x46,0x4,0x2,0x4b,0xde,0xd8,0xfe,0xdf,0xd8,0x11,0xbe,0xc5,0x21,0x13,0xd9,0x6f,0x48,0x53,0x2b,0xe6,0x19,0x11,0xf7,0x8,0x93,0x5,0xe0,0x27,0xef,0x10,0x40,0xf2,0xf3,0x5,0x35,0xc4,0xe,0x10,0xfe,0x7f,0x2,0x83,0xf0,0x2c,0x7,0x5,0x39,0x5,0xeb,0x77,0xe9,0x6,0x6,0x3a,0xf,0x1a,0x49,0x21,0xe7,0xfd,0xed,0xb2,0x1,0xff,0x2,0xf8,0x24,0x17,0xfd,0xf4,0xe3,0xe6,0xf5,0xef,0x21,0x1c,0x6,0x19,0xf3,0xfb,0xca,0xfb,0xcd,0xfa,0xee,0xb9,0xcf,0x6,0xe7,0x33,0x5,0xf1,0xe4,0x1,0xc,0xf5,0xda,0x5,0x28,0x7,0xf0,0xee,0x7,0x38,0xc6,0xc1,0xf9,0x4,0xf7,0x1c,0x20,0xdc,0xee,0x20,0x34,0xf7,0xed,0x2b,0xb8,0xec,0x30,0x7,0xc6,0xa,0x18,0xf9,0xdb,0xd2,0xc2,0x5c,0x19,0xf,0xe8,0x14,0xa,0xd8,0xc8,0xfb,0xc8,0xa8,0x22,0x2,0xf0,0xf2,0x25,0xf1,0xeb,0xf3,0x29,0xfd,0x6,0xfe,0x2e,0xf5,0x1b,0xe8,0x43,0xfb,0x13,0xf6,0x5d,0x0,0xee,0xf2,0xf7,0x2,0x2d,0x32,0x3,0x5c,0xf5,0x7,0xfd,0xce,0x3c,0xfc,0xf3,0xfe,0xe2,0xf3,0x4d,0x11,0x49,0x2f,0xb1,0x35,0xfc,0x0,0xd6,0x32,0x1d,0x13,0xdd,0x1c,0x30,0xd2,0xfa,0xe1,0x1b,0x7f,0xfe,0xd1,0x1b,0xb7,0xa,0x7,0xe,0x1,0x1,0x1,0xef,0x8,0xb,0x2b,0x19,0x4f,0x18,0xf8,0x3c,0xd2,0xea,0xa2,0x1e,0x3,0xcb,0x2,0xf8,0xef,0x24,0x15,0xe5,0xe,0x15,0x16,0xec,0x52,0x46,0xcb,0xfb,0xa,0x1b,0x13,0x1b,0x23,0xf1,0xb,0xfc,0xe7,0xe2,0xee,0xf,0x2c,0x8e,0xc9,0x26,0xdf,0xea,0x25,0xf2,0x37,0xea,0x38,0xe9,0x9,0xc9,0xc8,0xf2,0xd8,0x93,0x24,0xe8,0xfd,0xe7,0xfc,0xb,0xba,0xbb,0xb2,0xf2,0x82,0xe4,0x8,0x7,0x5,0x56,0x18,0x9a,0xeb,0xd2,0xef,0x1f,0x5,0xe5,0xe,0x11,0x0,0x10,0xf7,0xb4,0x8,0x0,0x6a,0xa,0xe9,0x10,0x12,0x68,0x4d,0xfc,0xd4,0x52,0x26,0x3e,0x3,0xf,0xfa,0x2a,0xfd,0x3,0xd8,0x24,0xf2,0x5b,0xc,0xf9,0x7f,0xd6,0x19,0xee,0xe,0xed,0x2e,0x41,0xfd,0xf,0xe6,0xee,0xd4,0x1,0xf9,0xe4,0x2b,0xef,0xef,0xfd,0x61,0xe4,0x3e,0x1b,0x9,0xd8,0xc0,0x36,0x43,0xbd,0x2b,0x9,0xfb,0xe3,0xc,0x9d,0x8,0x2f,0xd5,0x39,0x12,0x8,0xf8,0x21,0x49,0x2,0x88,0x2,0x29,0xf,0xe8,0xd7,0x1e,0xdc,0x6,0x35,0x37,0xd9,0x19,0xe5,0xc,0x3a,0x20,0xfa,0x11,0xfb,0xda,0x10,0x2,0xe0,0xfb,0xce,0xeb,0xd3,0x98,0xee,0xe1,0xf1,0x6,0x1,0x3a,0xca,0x27,0xf9,0xa,0xbf,0x14,0x2,0xe,0x9b,0x2c,0xfc,0xc5,0xa3,0x4f,0x35,0x32,0xe,0xa6,0x27,0x1f,0x59,0x34,0xfb,0xce,0xe6,0xe2,0xf2,0xb8,0x18,0xf,0x2a,0xc6,0x99,0xef,0xe5,0xc7,0xd1,0x3b,0x40,0x0,0x2,0xa9,0x0,0x14,0xb2,0x57,0xf4,0xc1,0x43,0xef,0x1b,0x1c,0x11,0x23,0xe5,0x8,0x11,0x13,0x49,0xc,0x91,0xf9,0x1f,0x11,0xa4,0xfb,0xc,0xdb,0xc,0xe3,0xd2,0xdb,0x3f,0x3f,0xc0,0xd,0x6,0xe8,0xb,0x3c,0x49,0xf0,0x4f,0x35,0x81,0x79,0xe3,0xb,0x5,0x1a,0x2c,0xd,0xd,0x3c,0xea,0x7,0x4a,0xf2,0x21,0xad,0x7c,0xf,0x69,0xea,0xc,0xa,0xdd,0xaa,0xea,0xd8,0x1e,0xca,0xd4,0x1d,0x1,0x60,0x61,0xd5,0x62,0x7,0x35,0xe6,0xff,0xeb,0xc,0xb,0x4f,0x3d,0xa,0x4a,0xdd,0x11,0xe1,0xdc,0xc5,0xe8,0x1f,0xdb,0x57,0xc,0x27,0xe6,0xa9,0xd3,0xe9,0xb3,0x4d,0xd7,0xde,0xec,0xe6,0x3,0x3b,0x9d,0x29,0x8,0xf,0x3b,0x5d,0xd6,0xf5,0xeb,0x8,0x1b,0xdb,0xca,0x81,0x31,0x4,0x11,0xd3,0x5,0x2e,0xa3,0xb5,0xe,0x2c,0x26,0xe8,0xf4,0x3,0x1,0x13,0x10,0xf5,0x21,0xfb,0x2e,0xbe,0x16,0xfa,0xc6,0x0,0xe3,0x0,0x17,0x4e,0x13,0xb6,0xfc,0x13,0x5,0xb9,0xb,0x13,0xee,0x19,0x8f,0xcf,0xd4,0xd,0x19,0x57,0xe6,0x22,0xe2,0x4d,0x19,0xd7,0xe0,0xfc,0xa,0xf2,0x18,0x5,0xf8,0xb3,0xf5,0xfc,0x15,0xd9,0x4,0x3,0x1a,0x34,0x1e,0xed,0x1c,0x1e,0x2d,0x1a,0xb9,0xdc,0x2b,0xf7,0xf8,0xf5,0xf2,0xee,0xb,0x15,0xdb,0x0,0x15,0xec,0x8a,0xf2,0x1,0x44,0x0,0x6e,0xc8,0x15,0xf2,0xef,0x10,0xdf,0xe9,0x9,0x25,0x32,0x29,0x9,0xe3,0xa1,0x23,0x81,0xe5,0x26,0x1b,0x0,0xa,0x28,0xcf,0xd2,0x1d,0xf1,0x3f,0xe1,0xe8,0x20,0x39,0xcc,0x23,0xdd,0x2c,0xc,0xb7,0xa,0xfc,0x15,0xeb,0x9,0x9,0x1,0xfd,0x6,0xea,0x9,0xe4,0xef,0x1e,0x16,0x10,0x2,0x12,0xc3,0xfa,0xf8,0x4e,0xeb,0xb,0xf6,0x18,0xfa,0xa3,0x15,0xe5,0xeb,0x8,0x21,0xf6,0x33,0x1b,0xe3,0x9,0xfb,0xf8,0x3a,0x32,0xd1,0xf5,0xd9,0x21,0x8,0xec,0x14,0xd5,0xe8,0x3d,0x5,0x22,0xe2,0xff,0x20,0x1,0xf5,0x7,0xf4,0xe1,0xea,0xcc,0xdd,0xe6,0x15,0x50,0x31,0x15,0xd9,0xcf,0x18,0xb4,0x2a,0xe7,0x1b,0x1d,0xe,0xc7,0xdf,0xfa,0x33,0xfd,0x3,0xec,0xe7,0xda,0xd,0xec,0xf4,0xd7,0xe,0xfb,0xf0,0xba,0xe8,0xcd,0xd,0x1a,0x39,0x21,0x4,0x12,0xdd,0xfa,0x96,0xd9,0x45,0x57,0xec,0xf5,0x2e,0xe3,0x28,0xe9,0x81,0x1b,0x19,0xb3,0x1c,0x16,0xe2,0xfe,0xf1,0x79,0x35,0xe5,0x22,0x1e,0xd8,0x11,0xe,0xdd,0xc,0x7,0x1b,0xe3,0xff,0xa4,0xef,0x23,0xd8,0x0,0xf2,0x61,0x18,0xf5,0xea,0x54,0x62,0xfc,0xcf,0x29,0xe5,0xed,0x2c,0x13,0x8,0xf4,0x20,0xaf,0x2b,0x13,0x15,0x1c,0xd3,0x3,0x1e,0x20,0xe2,0x13,0x99,0x5,0xa,0xfc,0xe,0xcf,0xd5,0xd8,0x35,0xe2,0xe6,0xce,0xe3,0x18,0xff,0xd2,0x11,0x27,0xf8,0xe9,0x19,0xe4,0x2c,0xdf,0x44,0xf4,0xe3,0xb,0x41,0x0,0xc,0x3b,0xc5,0xf1,0x29,0x16,0xc3,0x18,0xa,0x2f,0x20,0xff,0x19,0x41,0xf0,0xde,0x19,0xff,0xd2,0xde,0x1c,0xfc,0x25,0x7,0xa,0xf3,0x34,0xc7,0x1d,0xcb,0x12,0x6,0x16,0xd6,0xed,0xf2,0x24,0xa,0xef,0x17,0x20,0x31,0xff,0x2,0xbc,0x7,0xfc,0xee,0x1a,0xd,0xff,0x11,0x18,0x81,0xfa,0x0,0xb,0x14,0xf,0xdf,0x13,0x4e,0x68,0x38,0x4,0x29,0x16,0xf2,0x12,0x3,0xe4,0xd5,0xf4,0xf5,0x3,0x18,0xc7,0x20,0xf,0xfb,0x5,0xd9,0xe9,0xff,0x17,0x18,0x2,0x5a,0xda,0xf9,0xf4,0xf6,0x81,0xf9,0xdb,0xeb,0x9,0xfb,0xfe,0xf4,0x32,0xde,0xba,0x2e,0xf0,0xc6,0x13,0x2,0x3,0xec,0xc3,0xe1,0x5,0xff,0xef,0xef,0x74,0x8,0xf4,0x6,0xf6,0x2,0xde,0xc9,0xeb,0x3e,0xd5,0x49,0x15,0xcb,0x18,0xef,0x2a,0x2c,0xfb,0xbf,0xef,0xce,0x6,0x4b,0xd3,0x27,0xec,0xe7,0xdc,0xf8,0xf7,0x17,0x13,0xb,0xf5,0xf5,0x7,0x17,0x2,0x6,0xe2,0xdd,0x35,0xc9,0x2f,0x26,0x25,0x3b,0x11,0xf5,0xee,0x2,0xed,0xe5,0xc5,0x36,0xe2,0x33,0xf3,0xd,0xda,0xb,0xf0,0xf,0x11,0xe6,0xb,0x5,0x8,0xe4,0xfd,0x4,0x3a,0xd0,0xf3,0xd,0x15,0x31,0xf2,0x4,0xd5,0xfe,0x3,0x2c,0xf0,0xf4,0xb,0xc,0x40,0x21,0x0,0xd3,0x4,0xa3,0xc,0x8,0xd0,0x2,0x11,0x9a,0x0,0xf6,0xfe,0x7f,0x2f,0x17,0x9,0xe8,0xe1,0xe8,0x3,0x9,0x52,0x24,0x9,0xc1,0x1a,0x0,0xee,0xe2,0x25,0x9,0x3a,0xfb,0xd7,0x20,0x2,0xe7,0xf0,0xf0,0x15,0xa2,0x1f,0xd0,0x2,0x10,0x39,0x12,0x35,0xc5,0x4,0xe3,0xed,0xfb,0x5,0x15,0xf6,0xc,0x1,0xed,0x7,0x1e,0xfd,0x2c,0xfa,0xe2,0x2e,0xee,0xc3,0x28,0x1b,0xfe,0x6b,0xc5,0xb9,0x17,0xe0,0xf6,0xd5,0xc5,0x3e,0x53,0xff,0xc,0x12,0xc0,0x5b,0x14,0xe1,0x15,0x29,0xef,0xf6,0x1e,0xd8,0x12,0x29,0x71,0xfd,0x15,0x3a,0xed,0xef,0xbc,0xe2,0xe6,0x69,0xec,0xa4,0x27,0x21,0x29,0xeb,0xe,0x11,0x4,0x19,0x29,0x30,0xf6,0x24,0x9,0xfe,0x21,0xf,0xed,0xdb,0x3,0xc,0x9e,0xf4,0xfb,0xbf,0xef,0xd0,0x57,0xb2,0x3e,0x1e,0xef,0xf3,0x4d,0x40,0x0,0x0,0x2e,0xa0,0xe3,0xe9,0x3f,0x50,0x19,0x54,0xf6,0xa4,0x10,0xa,0x6a,0x2b,0xf0,0xfc,0x12,0xc7,0x51,0x93,0xea,0xaf,0xd7,0x9f,0xaf,0x1b,0x20,0x11,0x24,0xef,0xb4,0x32,0xf,0x6,0xd8,0xe0,0xb,0x4,0xfd,0x22,0x16,0x1d,0x28,0x14,0xee,0x81,0xcb,0xf3,0xcc,0xe5,0xfe,0xeb,0xb,0x11,0x95,0xd,0xb3,0xe7,0xe3,0xd5,0xf,0x38,0x1f,0x1f,0x22,0x1f,0xe,0x2a,0x3e,0x27,0x7,0xea,0xf6,0xed,0xe1,0xb5,0xfa,0xe1,0x37,0x22,0xde,0xf1,0xbc,0x21,0xd9,0xfd,0xd3,0x2,0x10,0xdc,0x52,0x3d,0x3,0xe3,0xd8,0x17,0x10,0x2f,0xd1,0x15,0x7,0x17,0x24,0x12,0x20,0xe8,0xfa,0xf2,0xd3,0xfa,0x32,0xd,0x13,0x1,0x6a,0x23,0x15,0xf0,0xfd,0x8,0xc5,0x1c,0xf0,0x1d,0xa,0x3d,0xfb,0x39,0x31,0x14,0x4,0x20,0xea,0x40,0xd6,0x4,0x1,0x8,0xaf,0x15,0xdb,0xfa,0x1,0x2,0xf3,0xfc,0xe4,0x2d,0xf3,0xda,0xea,0xc8,0xd3,0xc,0xf5,0x15,0x6,0x2c,0x1e,0x3,0x17,0xf,0xd3,0x7f,0x3,0x11,0xe0,0xf9,0xd,0x12,0x6,0xfb,0x6,0xa3,0x10,0x9b,0x6,0x73,0xfe,0xf6,0xf9,0x1a,0xf5,0x1,0x2d,0x1f,0x1c,0x3,0x25,0xac,0xc0,0x34,0x46,0x8,0xe,0xfa,0x24,0x16,0x11,0xe9,0xa,0xd5,0x27,0x3a,0xc2,0xfb,0xef,0xf7,0xba,0xcd,0xdc,0xce,0xc5,0xa,0xf4,0x7,0xc5,0xf1,0xe6,0x7,0x4,0x1,0xe1,0xb,0xf5,0x2,0x37,0x1f,0x0,0xf1,0xf7,0x28,0xd5,0xe5,0x17,0x19,0xf,0xce,0x9c,0x81,0xf9,0xf4,0x1f,0x11,0xb7,0x3d,0xf4,0x31,0xf3,0xdb,0x28,0xef,0x4,0x2b,0xe0,0xba,0x35,0x1d,0xf0,0xf6,0xd,0x26,0x14,0x28,0xd,0xea,0x1a,0xe6,0x42,0x33,0x17,0xdc,0xe,0xe3,0x2,0x49,0x21,0x2c,0x26,0xdc,0x33,0xcb,0x3,0xe8,0xa,0xf5,0x27,0xa,0xeb,0xe,0xe,0x1a,0xd9,0xc,0xd4,0xe6,0x12,0x40,0xf,0x14,0xe7,0xf2,0x41,0x9,0x15,0xa,0x21,0x39,0x25,0xb0,0x27,0xad,0xf3,0xf0,0x3f,0xf3,0xff,0xc8,0x34,0xd6,0xc6,0x92,0x62,0x1b,0x2,0xbb,0xe8,0x3a,0xd,0xfb,0x47,0x1a,0x2a,0x4b,0x8,0xc8,0x3c,0xdc,0x11,0x1a,0x14,0xdb,0xd9,0x11,0xf,0x2c,0xf7,0xfe,0x6d,0x2,0xaf,0xda,0x1,0x32,0xc,0xfa,0xe5,0xb,0x9,0xcc,0xfc,0xad,0x13,0xf0,0xf8,0xf7,0xa9,0x34,0xf4,0x2a,0xc4,0xd5,0xff,0x2a,0x11,0xc5,0xad,0xea,0xf9,0xe6,0x1a,0x2b,0x29,0xc2,0x3f,0xe3,0xea,0xfa,0xa7,0x1c,0x35,0x40,0xf8,0x2c,0xe2,0xf5,0x2b,0xf,0xe,0x3b,0x25,0xc5,0x30,0xc,0x65,0xcc,0x3e,0xf4,0xaa,0x1f,0x3,0xf5,0x58,0xad,0xae,0xd3,0x81,0xb3,0xe0,0x6,0xfd,0x18,0xd5,0xcf,0x3d,0x1a,0xdd,0x2,0xfd,0xdc,0x4e,0x3c,0xc,0x5e,0x9b,0x57,0xf7,0xe3,0x26,0xc7,0xc1,0xcb,0xdf,0x4f,0xe9,0xd,0x35,0xce,0x17,0x2a,0x7,0xdf,0x5,0xb4,0xee,0xfa,0x81,0x2e,0x61,0x8,0xf9,0x1f,0x41,0xfa,0xa1,0xf4,0x20,0x31,0x56,0xf7,0xf3,0xd6,0xf6,0xec,0x32,0x53,0xee,0xee,0x42,0x16,0x3f,0xdb,0xec,0xf,0x21,0x25,0x1,0xac,0xe5,0xb,0xcd,0x22,0x44,0xd3,0x2,0x11,0x18,0xb8,0x9,0xc,0x10,0x2b,0x19,0x3,0x3d,0xf9,0xf6,0xf4,0xf1,0xf1,0x15,0x8b,0xad,0x1,0xfa,0x4f,0xc2,0xcd,0xe9,0xb6,0xa,0x2d,0x16,0x3b,0xda,0x4b,0xf,0x15,0xcf,0x4e,0x13,0xe,0x7f,0x38,0xff,0x3a,0xf0,0xee,0x25,0xf9,0xe9,0xd7,0x56,0xfd,0x17,0x11,0xdf,0xcc,0xf1,0x14,0xc7,0xc4,0x9,0x12,0xe4,0xd,0x58,0xf3,0xfb,0xfd,0x17,0xe9,0xbb,0xe9,0xf6,0x3,0x34,0xb8,0xa,0x45,0xfd,0x30,0xe0,0xa,0xb7,0x2d,0x4,0xd4,0xc5,0xe6,0xd3,0xf6,0xe7,0x33,0xf3,0xf2,0x67,0x8,0x15,0xe3,0x19,0x13,0xf,0xf5,0x2c,0xcc,0x1d,0xa,0xec,0x15,0xff,0xec,0x25,0x9,0xf4,0xcf,0x22,0xdf,0xfb,0x0,0xed,0xf4,0xe3,0x13,0x19,0xd2,0xbe,0xba,0x1f,0x21,0x39,0xcc,0x37,0x33,0xd0,0xf9,0xe7,0x3f,0xe0,0x4,0x37,0x34,0x2f,0x1f,0xe3,0xe9,0xb7,0xd7,0xd2,0xb,0xfe,0xec,0x1a,0x12,0x0,0xe0,0x81,0xf8,0x1d,0x1,0xd6,0xf9,0x1d,0xeb,0xea,0x31,0x3,0xf9,0x1d,0x24,0x57,0x57,0x16,0xee,0xed,0x12,0x16,0xe8,0xd1,0xd7,0x1b,0xdf,0xdf,0xd,0xc8,0x49,0x12,0xfc,0xe2,0xd8,0xf0,0x7,0x9a,0x1c,0xaf,0xdc,0x1c,0xf,0xfd,0xb5,0x8,0x3,0xdb,0xdd,0x4a,0xf0,0x1c,0xee,0x18,0xc3,0xd4,0xf,0xe1,0x37,0x3b,0xb4,0xe3,0xd0,0x48,0xba,0xda,0x30,0xc,0xdb,0x4,0x26,0xe3,0xf8,0xca,0xfd,0x10,0x7,0x10,0xe5,0xea,0xfc,0x8,0xdd,0xba,0x1b,0xf7,0x0,0x17,0xbf,0xfd,0xce,0xf2,0xda,0xc7,0xe7,0xe3,0xe9,0x32,0x69,0xed,0xf4,0x18,0x7,0x1a,0x26,0xcd,0x2e,0x2,0x22,0x7a,0x59,0xda,0xc,0xf2,0x20,0xcc,0x6,0x6,0xfe,0x95,0xf1,0xbc,0x16,0x2c,0xe3,0xf5,0x1c,0xd9,0x98,0xf8,0xe5,0xcc,0xac,0x57,0x2f,0x29,0x25,0x27,0xe2,0x21,0xe1,0x28,0xb0,0x51,0xa,0x77,0x2c,0xd6,0xe8,0x8,0xf8,0x3e,0x14,0xe,0x7f,0xa1,0x1b,0xd4,0xfc,0x2f,0x4,0xb6,0x63,0x49,0xfa,0x9,0xff,0xb8,0xf4,0xd7,0xd0,0xfd,0xa7,0x42,0xd8,0x3f,0xf9,0x13,0xf1,0x81,0xe6,0x15,0x3c,0x1,0x1b,0xf7,0xc6,0x7e,0x7,0xe3,0xe,0xc0,0x6,0x33,0xce,0xee,0xa,0x17,0xe6,0x2,0x2,0x5,0xe6,0xf8,0xea,0x3d,0x5c,0xf,0x5,0xc6,0xa,0xef,0x26,0xf9,0x1a,0x21,0xc,0x3d,0xed,0x56,0xb,0xf8,0xfe,0x2f,0x3f,0xa0,0xda,0x3,0xd,0xce,0x28,0x15,0x38,0x2,0xf2,0xf2,0xbc,0xe7,0x39,0x21,0xa6,0xd,0xd6,0x11,0x22,0xf4,0xf5,0x17,0x24,0xf8,0xec,0xcc,0x0,0x1d,0x1f,0x21,0xe1,0x20,0x4f,0x25,0xdb,0x38,0x17,0x3,0x18,0x41,0xed,0x10,0xb,0x37,0xce,0x2e,0xe0,0x9e,0xad,0x24,0xe1,0x2d,0x9,0x1,0xe7,0xa,0xf4,0xfd,0x0,0x2e,0xd3,0xe6,0x1b,0xb4,0xf0,0xff,0x13,0x17,0x18,0xfa,0x36,0x1e,0x68,0xfe,0x5,0xd7,0x1b,0x1,0x1,0xdc,0x4,0x16,0x2f,0xf3,0xd2,0xbf,0xd3,0x5d,0x20,0x68,0xed,0xf6,0x1b,0x1a,0x5b,0x1f,0xee,0x28,0xf0,0x93,0xa8,0x4c,0xf5,0xd9,0xf6,0x51,0x3,0xe6,0xe6,0xd,0xfa,0xf9,0xed,0x9,0xf8,0xfd,0x10,0x4,0x2d,0x99,0xc8,0xa,0xeb,0xf5,0x16,0x15,0xf2,0x10,0x9,0xf4,0x2c,0x11,0x26,0x21,0x0,0x66,0xd3,0xa7,0x35,0xd0,0x2f,0x2,0x49,0x2c,0xc4,0xa8,0x23,0x3,0xef,0x5b,0x16,0xff,0xf1,0x40,0xe1,0xeb,0xdb,0x9,0xff,0xfb,0x12,0xd7,0xfe,0xa,0x27,0x33,0xf0,0x23,0xfb,0x18,0x91,0x24,0xf7,0xf9,0x31,0xe8,0xe6,0xd1,0x32,0x6,0xf6,0x1c,0x26,0x1d,0xfc,0xfe,0xd,0x4,0x2d,0x35,0x15,0x54,0x60,0x37,0xea,0xf2,0xda,0xf9,0xa9,0xe3,0x7,0xfd,0x13,0x7f,0xa5,0x2d,0xc0,0x10,0xe9,0xdf,0xf6,0xb,0x16,0x1b,0xfc,0x17,0xcb,0x3f,0xe2,0xed,0x2b,0xd7,0xf5,0xec,0x38,0xfc,0x36,0x2f,0x14,0xc2,0x68,0x18,0x19,0xe2,0x10,0x3c,0x10,0x2e,0xf9,0x13,0xd,0xb,0x16,0xea,0xf3,0xca,0xeb,0x50,0xe4,0x2,0xd7,0xf2,0x21,0xed,0x2a,0x8,0xb9,0xff,0x1c,0x9,0x16,0x9,0xfc,0xfc,0x9,0x5,0xd8,0x1f,0x14,0xf8,0x18,0x34,0x44,0x7f,0xee,0xf7,0xfe,0xd5,0xe2,0x10,0xff,0x5,0x25,0xfc,0x36,0x6,0xec,0xf0,0x1e,0x18,0x16,0xcf,0xe5,0xa7,0xed,0xfd,0xf6,0xfd,0x28,0x10,0xf5,0x23,0xda,0xef,0xea,0x11,0x18,0x29,0x5,0xef,0x13,0xe7,0x17,0x16,0x7,0xe,0xdf,0xd,0xf4,0xe9,0xdb,0x7,0x26,0xfe,0x7,0xf5,0xc3,0xfb,0xd1,0x2,0xc4,0x26,0xce,0x2b,0xe0,0x21,0x74,0x11,0xec,0x17,0x2b,0x33,0x2a,0x29,0x3b,0xe9,0x15,0x3,0x45,0x2f,0xd2,0x99,0xf2,0x9a,0x26,0xc,0xe,0xb4,0xd6,0x26,0xa3,0x9a,0xec,0xe9,0xc9,0x22,0x1c,0xf7,0xa,0xf,0xa9,0xd,0xf9,0x18,0x41,0xe6,0xf5,0xeb,0x14,0xd7,0xb9,0xf8,0x32,0x10,0x25,0xed,0xde,0xef,0xd6,0x65,0x27,0xf1,0xea,0xf6,0x28,0x40,0x8,0xfe,0xef,0xef,0x1,0xd,0xa9,0x6,0x6,0xdb,0x34,0xed,0x52,0xe,0xfb,0x2f,0x1a,0xf0,0xf2,0xc,0x5a,0xe9,0xc5,0xdf,0x10,0xc5,0x24,0xf4,0x42,0xf0,0x48,0xa1,0x23,0x81,0xf7,0xf7,0x4f,0xac,0xf7,0x41,0xed,0xf1,0x13,0x8c,0x43,0x11,0x1a,0x52,0xb4,0xf1,0xc,0xe2,0xea,0x15,0x3c,0x7,0x3,0x5f,0xf6,0xfa,0xa8,0xf3,0x19,0xfd,0x0,0xe1,0x5,0x0,0x95,0xfc,0xde,0x14,0x17,0xfb,0xd2,0xf2,0xe6,0x26,0xe0,0x22,0xec,0xfd,0xc9,0xdd,0x1a,0xe1,0x3b,0x2a,0xfc,0xef,0x24,0xe5,0x13,0x2,0xf5,0xea,0x13,0x3d,0x6,0xfd,0x21,0xc9,0x6,0xf4,0xef,0x13,0xed,0x19,0x12,0x2f,0xf9,0x4,0x1a,0xf4,0x19,0x3d,0x13,0xfb,0xc,0x12,0xec,0x22,0xc1,0xdf,0xc9,0x28,0x0,0x49,0xeb,0xc,0x24,0x25,0xd3,0xea,0x11,0xf,0xe,0x21,0xa,0x17,0xeb,0x4f,0xfc,0xe7,0xb,0xd2,0x16,0x12,0xd7,0xfb,0xa,0x22,0x14,0xe0,0x18,0xed,0xdb,0xec,0x5,0x7,0x49,0x7f,0xc1,0x71,0xf2,0x1e,0x3,0xf0,0xff,0xcc,0x7,0xb7,0x11,0x3f,0x3,0xd8,0xca,0x14,0x10,0x13,0xfe,0xfc,0xc6,0x14,0x17,0xb0,0xea,0x9,0x2e,0xfb,0xd2,0x9,0xb7,0xd7,0xc9,0x51,0x1a,0xd,0x6,0xe4,0x44,0x16,0x37,0x1b,0xf3,0x85,0xde,0x27,0xde,0xff,0xe2,0xd8,0x1c,0x2f,0x9,0xed,0x63,0xee,0x42,0xa,0xe7,0x51,0x2f,0xc5,0x17,0x28,0x39,0xd,0x13,0x1d,0x10,0xfd,0x90,0x4,0xba,0x1,0xe6,0xe4,0xa,0xfe,0xe6,0xff,0x29,0xd6,0x45,0xc,0xe3,0x0,0xb7,0x2b,0xae,0x4,0x1e,0x41,0x1e,0x1e,0xbc,0x8,0xd3,0x81,0xb2,0xfa,0xb9,0xd,0x0,0xf6,0xe7,0xa,0x65,0x7,0xe,0x25,0x6,0xca,0xf3,0x4,0x13,0x36,0x38,0x1c,0x2b,0xd8,0x3,0x1d,0x4,0xe1,0x62,0xe4,0xe,0x8b,0xd7,0x5e,0x44,0xf0,0x18,0x20,0xf8,0x4,0xf3,0x94,0x11,0x11,0xe8,0xdd,0xa9,0xde,0xd3,0xf9,0x31,0xe0,0x8,0xf1,0xd5,0x99,0x59,0xe6,0xa9,0xf5,0xc3,0xb2,0x33,0xd3,0xfa,0xc,0xd,0xe2,0x32,0x14,0x34,0x41,0xec,0xef,0xc2,0x7b,0xd1,0xfe,0xd,0x4,0x8,0x21,0x16,0xec,0xf6,0x61,0xa,0xf1,0x2e,0x1b,0xa2,0xd7,0x1,0x36,0xe,0x16,0x6,0xe2,0xf5,0x1a,0xf9,0xc9,0x21,0x2b,0xe9,0x57,0xbe,0xc6,0xec,0xfa,0x29,0xfa,0x3a,0xf6,0x9c,0x15,0x36,0x6,0x12,0x28,0xe8,0x11,0xd7,0xee,0xcf,0xb2,0xfa,0x6,0xd7,0xd9,0x62,0x65,0xfa,0x24,0xe9,0x6,0xc,0xff,0x1b,0x27,0x4f,0xfc,0xd,0xf3,0x1b,0x1,0x5f,0xf9,0xf4,0x21,0x1,0xe6,0xf8,0x1,0xe4,0xf4,0xef,0xea,0xf3,0xd9,0xe5,0xfe,0x65,0x4e,0xc3,0x4f,0x13,0xc,0xd8,0xe1,0x32,0xd8,0x3c,0x37,0x9d,0xf4,0x14,0x6,0x81,0xee,0x44,0x1,0xba,0xb1,0xbe,0xa8,0x30,0x25,0x1f,0xe2,0x3b,0xe4,0x22,0x2,0xe1,0xcf,0xf3,0xf3,0x12,0xe5,0x23,0xdd,0xe4,0x8,0xe7,0xda,0xdd,0xc,0xd0,0xfb,0xff,0xfb,0x3a,0x1d,0x19,0x89,0x3,0xc7,0xcb,0xf1,0xf5,0xd,0xe3,0x3c,0x2,0xe6,0x1a,0xf3,0xfc,0xd7,0xfb,0xe,0x24,0x18,0x1,0x45,0xf9,0xc1,0xe5,0xfc,0x7,0x11,0xe6,0xb,0x27,0xfd,0x9,0x1e,0x1b,0xf3,0xfa,0x4c,0x26,0x13,0xc,0x29,0x11,0x0,0xed,0x2d,0xe5,0xdb,0x1a,0xb0,0xa7,0xfc,0x14,0xca,0xe3,0xda,0x35,0xef,0xfa,0x30,0xcb,0x35,0xfa,0x1e,0x32,0xe3,0xa,0xe4,0x81,0xd1,0x64,0xd9,0xa4,0x32,0x55,0x46,0xf5,0x33,0xb2,0x9,0x7,0xd6,0xf5,0xf,0xb,0x56,0xfc,0x2,0xe4,0x18,0x24,0x17,0xfc,0xf1,0x1,0x35,0xef,0x4,0x24,0x1d,0x1,0xf3,0x1f,0x8c,0xfb,0xfc,0xe2,0xcf,0xfb,0x14,0x3e,0xd,0xe2,0xa1,0x1,0xc,0xf4,0x6,0xf7,0xb7,0xf,0x2,0x1d,0x10,0x12,0xea,0xd,0xe4,0xf9,0xf9,0xbf,0x1,0x6,0x2,0xb9,0xea,0xe2,0x8,0xfe,0xe,0x2,0xd,0x3,0xa,0xa,0x24,0x2a,0x0,0xfd,0xd6,0x4,0x15,0xee,0x16,0xdd,0xb9,0xd4,0xb,0xfb,0x2,0xea,0xfa,0x27,0x57,0xc,0x9,0xda,0xbe,0x16,0x21,0xdb,0xe9,0x51,0x27,0x12,0xa,0xf8,0xbf,0xdb,0xb6,0xf7,0xfc,0x61,0xed,0x4,0x3f,0x17,0x17,0x2c,0xe7,0x31,0xee,0xf9,0xcd,0xda,0x10,0xd7,0xf,0xd8,0xff,0x2a,0xda,0xf3,0xb5,0x3,0x17,0x18,0x51,0x11,0xe5,0xfd,0x1f,0xde,0x20,0xb,0x7f,0x6,0xf5,0xe9,0x22,0xe8,0xf0,0xcd,0x35,0xe9,0xeb,0x25,0x7,0x44,0xec,0x1b,0xf5,0xd7,0xcb,0xd8,0x28,0x2c,0xb6,0x2a,0x16,0x39,0x81,0xed,0xbd,0xc,0xea,0x11,0xc0,0x12,0x82,0xd8,0xdb,0xcf,0xe5,0x32,0x20,0x23,0xef,0xa1,0x14,0x36,0x48,0xf8,0xbf,0xf3,0x66,0x0,0x16,0xff,0xd2,0x1f,0x12,0xf2,0xf0,0x8,0xf8,0x3b,0x10,0x7,0x1f,0xe1,0x3b,0x1a,0xc4,0x25,0x5,0xa7,0xcb,0x8,0x5d,0xc5,0x3e,0xe6,0x1d,0xbd,0xe9,0x14,0x20,0x4,0xba,0xd4,0x29,0xdc,0x15,0xe8,0x15,0x5,0xb2,0x1e,0xdf,0x4a,0x1,0x3,0x19,0x19,0x13,0x1c,0x2b,0xf7,0x22,0x5,0xf7,0xf9,0x23,0x17,0x31,0x55,0x56,0x3b,0xe5,0x27,0xe9,0xb5,0x1f,0x33,0x3c,0xa,0xe2,0xe,0x36,0xd0,0xea,0x7,0x2d,0xea,0xd1,0xdd,0x17,0xf2,0x30,0x1,0xeb,0x3b,0xc2,0x78,0x48,0x69,0xd2,0x98,0xa6,0xb1,0x1c,0xfc,0xa,0xf,0x2,0x2d,0xe,0x20,0x10,0xc2,0xc3,0xfc,0xea,0xe,0xe2,0xe5,0xfc,0x19,0xe7,0xb,0xe1,0x9,0xfa,0x32,0x19,0xba,0x17,0x1,0xe9,0x19,0x23,0x19,0xf9,0x1f,0x11,0x23,0xff,0xcd,0xdd,0xe1,0x26,0xa,0xf2,0xc5,0xf,0xf0,0x24,0x4,0x17,0x30,0x19,0xfb,0xe4,0x10,0x5,0x4e,0x21,0xb1,0x1e,0xd0,0xc5,0x12,0xf0,0xe3,0x2,0xc2,0xd,0x24,0x4d,0x0,0xe9,0xf5,0x1d,0x38,0xf0,0x18,0x13,0xf9,0xf9,0x8,0x9,0xf1,0xd2,0xfd,0x2f,0xc5,0xf5,0x27,0x2e,0x8,0x11,0x1b,0x6,0xb1,0xd0,0x7f,0xd8,0x10,0x1e,0x3,0x1,0xf6,0x25,0xf9,0xd2,0x1f,0xc5,0xfd,0x26,0x1c,0x9,0x17,0xa,0x11,0xc8,0x15,0xf8,0xdb,0xee,0xc,0x7,0xcc,0x0,0x39,0xf6,0xc3,0xe3,0xfd,0xe5,0xc5,0xeb,0x25,0xda,0xe,0x16,0xfd,0x17,0xab,0xdf,0xe9,0xe1,0xab,0x16,0xe1,0x24,0xc8,0xf7,0x2a,0x21,0x1b,0xd5,0x25,0x21,0x61,0xf7,0x4e,0xe5,0xf4,0xd7,0x29,0x52,0xfa,0xd,0x5,0x11,0xe6,0xa1,0xfd,0xde,0xfa,0xc3,0xd7,0x11,0x1b,0xd8,0x1c,0x18,0xf9,0x17,0x29,0x37,0xb7,0xb,0x35,0x1f,0xcf,0x36,0x3,0x33,0x30,0xd,0xd8,0xfa,0x1f,0xde,0xdc,0xd3,0x32,0xf8,0x5,0x34,0x2f,0x3f,0x1a,0x7f,0x16,0xf6,0xff,0xa1,0xee,0x2,0xc0,0x3,0x13,0x11,0x25,0xd2,0xd2,0xfd,0xd8,0xfc,0xf2,0x13,0x73,0xeb,0xd4,0x13,0xf6,0x25,0x2e,0x0,0xfe,0xbd,0x28,0xe3,0x11,0xed,0x8,0xd3,0x3f,0x5,0x1d,0xe3,0x34,0x1f,0xed,0xef,0x36,0xce,0x57,0x12,0x4,0xfc,0x38,0xfe,0xe4,0xf1,0xd1,0x1f,0x2,0x41,0xf2,0x1b,0xed,0x1,0xec,0xf6,0xe1,0xc4,0x16,0x11,0xdc,0xe6,0xc7,0x29,0x17,0xf5,0xe3,0x7f,0xf0,0x50,0xe7,0x9,0xf0,0xdb,0xe8,0x9,0xfa,0xf7,0xfe,0xc5,0xbe,0xfb,0xe6,0x1d,0x3,0x22,0x16,0xe3,0xdc,0xf4,0xec,0xf9,0x2f,0x8,0xfb,0xfd,0x4,0xf0,0x11,0x6,0xea,0xe3,0xcc,0xde,0xfe,0xd6,0x7,0xe8,0xd6,0x15,0xda,0x24,0xd4,0xdf,0xc,0x13,0x7,0x17,0x14,0xfd,0xbc,0x1c,0xe2,0xde,0xc1,0xde,0x17,0xd6,0x9,0xb3,0xa,0x23,0xd9,0x4b,0x3e,0x2,0x3a,0xd0,0xf0,0x9,0xb,0xfd,0xf8,0xf4,0x7f,0xc4,0xf8,0xe2,0x15,0x2c,0xef,0xfd,0xed,0xfb,0xff,0xdf,0xeb,0xce,0x9,0x15,0xf6,0xef,0x28,0x2a,0xdb,0x1b,0xd3,0xf2,0x2f,0x2b,0x52,0xc,0x49,0x1c,0x81,0xee,0x22,0x37,0xb,0xe5,0xd7,0x8,0xee,0x20,0x25,0xc4,0xe7,0xca,0xe8,0x31,0xf3,0xee,0x27,0x4e,0x48,0xb9,0x14,0x3a,0x32,0xca,0x26,0x21,0x2e,0xbe,0xf6,0x3d,0x1,0x14,0xe4,0xe8,0x5,0xfc,0xf1,0x57,0x3,0xb,0xfc,0xf7,0xdb,0xc7,0xfe,0x2a,0xf4,0xf4,0x36,0xdf,0x45,0xf9,0xb,0x1f,0xf,0x0,0xe7,0x2f,0x1d,0x2c,0x13,0xfa,0xe8,0xd0,0xa2,0xf8,0x3,0x6,0x4,0x26,0xd9,0xe9,0x3,0x48,0x8,0xe3,0xfa,0xe4,0x9e,0xed,0xcd,0x3d,0xe9,0x5,0xa,0x10,0xf,0x24,0xbb,0xff,0xc3,0xb,0x1c,0xfe,0x21,0xf5,0x29,0x26,0xa,0xf1,0x18,0x18,0x1f,0x2,0x2,0x28,0xdf,0x2c,0xe3,0x10,0xe8,0x93,0x59,0xfa,0xbd,0x13,0xf4,0x39,0x28,0xf9,0x8,0x12,0x94,0x1d,0xbb,0xb,0xf7,0xc,0x95,0xe0,0xcf,0xf8,0x39,0xf,0x9,0xf1,0xc4,0xab,0xe9,0x24,0xd0,0x42,0xb9,0x12,0x18,0xc8,0xff,0x11,0xfa,0x10,0xff,0xfb,0x1a,0xa0,0xf0,0x40,0x6,0x10,0xf8,0xd9,0xee,0x9,0xd4,0x1b,0x32,0xd2,0xfd,0xe,0xe9,0x10,0x5,0xdf,0x1e,0x22,0xfd,0x24,0xf7,0xe,0x7f,0xfc,0xdf,0x3,0xc9,0xdc,0xe2,0xff,0xc,0x19,0xf6,0x0,0xf4,0xf8,0x4f,0xf1,0x17,0xf5,0x1,0xcb,0x21,0xf6,0xd1,0xa,0xe4,0xe8,0xf0,0xcc,0xe,0xe8,0xef,0xcf,0xa,0x17,0x4,0x8,0x30,0xfa,0x3e,0xe7,0xfe,0xbd,0x1e,0x53,0x1e,0x13,0x62,0x18,0xf5,0xf1,0x2,0xa,0xe5,0x36,0xf7,0x35,0x16,0x9f,0xf3,0x8,0x19,0x6,0xc4,0x2e,0xdf,0xe,0x4,0x3c,0xb3,0xe9,0xe0,0x9,0xf9,0xee,0xb,0xf1,0x43,0x13,0x31,0xf,0x0,0xd6,0xe2,0xcd,0x26,0xc0,0xa,0xc8,0xe7,0xd3,0xf1,0xea,0x24,0xfc,0xf9,0x1b,0xe9,0xdd,0xfc,0x69,0xa8,0xea,0xed,0x1e,0xed,0x58,0xd8,0xe3,0xf8,0xeb,0x0,0xf9,0x27,0xe,0xe6,0xd8,0xed,0x12,0x13,0xb9,0xf9,0xef,0x1f,0x37,0xc4,0x12,0x10,0x11,0xe9,0x23,0x6,0xf3,0x34,0xc,0x2f,0xb3,0xf3,0xce,0x5,0xc,0xe0,0xfd,0x5e,0x10,0x2f,0xed,0xea,0xdb,0xef,0xf7,0x15,0xff,0xf5,0x10,0xdd,0x2d,0xf2,0xcd,0xad,0x7,0xec,0x27,0xee,0x36,0x9,0x7,0xc5,0xf3,0xdc,0x2c,0x81,0xe6,0xe,0xf7,0xd,0x14,0xff,0xda,0x22,0x41,0x27,0x40,0x16,0xf1,0x5,0xe3,0xe8,0xb,0xf9,0xe3,0xf3,0xee,0x1d,0xfa,0x24,0xc7,0xdb,0xf9,0xcd,0xe4,0xe4,0x1d,0x1b,0xfd,0xb0,0xf4,0x3d,0x4b,0x99,0x69,0x8,0xa0,0xfb,0x1d,0xbc,0xe8,0x24,0xdd,0xf0,0x8f,0xf0,0xf4,0xe0,0xf8,0xb,0x5,0x3,0xd4,0x32,0xcb,0x1c,0xcf,0x0,0x1e,0x4c,0xd9,0xa,0x3b,0xe4,0xfb,0x21,0xe4,0x5,0x6,0xfe,0xe0,0x37,0xfd,0x16,0x52,0xf1,0xef,0xfa,0x8,0x3c,0xef,0xa,0x3,0xf7,0xc1,0xd5,0x8d,0x23,0xf1,0xf7,0x40,0xfd,0xf8,0x44,0xe,0x25,0x2d,0xdc,0x9,0xc,0xcd,0xcb,0x2a,0xdf,0xfa,0xba,0xab,0xfa,0x0,0xd1,0x44,0xd7,0x34,0xc5,0xe,0xc1,0xfa,0x1b,0x1,0xf8,0x22,0x39,0x23,0xdb,0xdd,0x81,0x55,0xe3,0x15,0xf3,0xc,0xdc,0x1c,0x9,0xc0,0x4,0xcf,0xfc,0x3,0xbf,0xfd,0x4,0x29,0xe6,0x1f,0x29,0xf,0x28,0x29,0x6b,0x35,0x16,0xf7,0xea,0xe5,0xe,0xfd,0x7f,0xf9,0xfe,0x11,0x3a,0xdc,0xc0,0xee,0xdf,0x42,0x18,0xb7,0x31,0xf5,0xe,0xc8,0x2a,0xed,0xd8,0x24,0x4d,0xd,0xcc,0xb,0xba,0x39,0x51,0x9,0x2a,0xc4,0xdf,0x8b,0x13,0x6,0xd4,0x1a,0xf3,0x5,0x2e,0xcf,0x1a,0xbd,0x6,0x1a,0x9,0x23,0x14,0xfd,0x6d,0x6d,0x28,0x27,0x2d,0xd3,0xd8,0xaa,0x13,0xf6,0xc9,0xe3,0x2e,0x6e,0x1,0xe2,0x6c,0xd8,0xad,0x11,0xfd,0x25,0x21,0x3f,0x6,0x2c,0x4c,0x9b,0x35,0x24,0x12,0x18,0x2,0xfd,0x27,0x4c,0xcf,0xa6,0xa,0x4f,0xe4,0xbc,0x43,0x2a,0xdd,0x0,0xfe,0x5f,0x18,0xcd,0xd0,0x5f,0xbf,0xf0,0xd8,0xc,0x69,0x7,0xe1,0x1d,0xef,0xf0,0xee,0x24,0xe0,0x1d,0x2a,0x2e,0xfa,0xdd,0xf6,0xf,0xa5,0x1a,0x3d,0xa,0xb1,0xc,0x43,0xed,0x15,0xe,0xa7,0x2a,0x21,0x20,0x30,0xd0,0xec,0x6,0xe8,0xdd,0xf6,0xa,0xe3,0xe8,0xe2,0x8,0xf,0xdb,0xf8,0x55,0xd7,0x2e,0xfe,0x1f,0x1d,0x24,0xe5,0xe7,0xcf,0x1,0xeb,0x7,0xf7,0x1,0x17,0x28,0x28,0x20,0xc7,0x13,0x8,0xf9,0xe2,0x15,0xf5,0xd9,0x13,0x4,0x81,0xd0,0xea,0xc,0xec,0xf1,0xd9,0x17,0xa,0xef,0xd7,0xc7,0x16,0xf8,0x37,0x15,0x24,0xb,0x19,0x8,0xf3,0xd5,0xc9,0xe6,0xe3,0xb9,0x11,0xf0,0xfc,0xd5,0xce,0xca,0xdd,0x5,0x4,0xdc,0xdf,0x17,0xd9,0x23,0x55,0x16,0xb4,0xf4,0x4c,0x74,0x1a,0x24,0x1a,0xdd,0x12,0xfb,0xc4,0xd7,0x15,0x16,0xa0,0xee,0xf4,0xdb,0x7,0x4,0xf9,0x10,0xd4,0xa,0xef,0xba,0xf6,0xe9,0xe7,0x13,0x3b,0x16,0xca,0xc1,0x29,0xf3,0xde,0x9,0x4,0x2f,0x1f,0xa,0x1d,0xeb,0xdf,0x42,0x2,0x49,0x10,0x10,0xfe,0xe7,0xc9,0x1,0x14,0x26,0x1d,0xf,0x15,0xc,0x39,0x1e,0xd2,0x1a,0x6,0xe7,0xe8,0x30,0x2,0x2c,0xfe,0x2d,0xde,0xf1,0x8,0x27,0x6,0x7c,0xf7,0xee,0xd7,0xac,0x31,0x8,0xfb,0xd5,0xe5,0xff,0xf7,0x23,0x1c,0xb9,0x14,0x10,0xb4,0xc7,0xd5,0x2f,0x51,0x10,0xf8,0x5b,0xaf,0xef,0xa,0xcf,0xf6,0xe6,0x30,0xca,0x16,0x5f,0x60,0xe8,0xb,0xeb,0x4,0xec,0x4,0xd2,0x1c,0xea,0xd8,0xe4,0xee,0x3,0xf3,0xf,0xd0,0x34,0x2c,0xdb,0x5,0xd7,0x44,0xbf,0x2,0xd6,0x14,0x29,0xea,0x2f,0xf8,0xb,0xfd,0x52,0xdf,0xbc,0x1,0xdc,0xcf,0x0,0xe0,0xfa,0xc1,0xc6,0xe3,0xfe,0x7,0x29,0x7f,0x1,0xc1,0x11,0xe7,0x5,0xdf,0x4d,0xac,0xf9,0x10,0xde,0x38,0x5f,0xdc,0xf7,0xfb,0xf5,0xf3,0xed,0x1b,0xfd,0xcf,0x21,0xdd,0xba,0xd3,0xf8,0xd2,0xdc,0xe5,0xfd,0x26,0x4b,0xec,0xd9,0x11,0xf8,0xe2,0x9e,0x3e,0x4e,0xe4,0xf4,0xa,0xf,0x1f,0xfa,0xa,0xe8,0xd7,0xf5,0x12,0x20,0xf2,0xe9,0x6b,0xb,0xe7,0xbb,0xf8,0xd0,0x3,0xee,0x23,0x6f,0x28,0x15,0xdd,0x40,0x7,0x3,0x21,0xe9,0x28,0xa4,0xf5,0xdd,0x12,0xeb,0x81,0xea,0xec,0x1,0xf6,0x9,0xef,0xf3,0xfe,0x1a,0xd6,0x7,0x21,0xfb,0xff,0xea,0xa,0x1b,0xa0,0x1b,0xd5,0x11,0xd0,0xed,0xfc,0x4,0x0,0x25,0x1f,0xce,0xe7,0xf4,0xcc,0xce,0xfa,0x1a,0x35,0x4,0x2e,0xe0,0xd3,0x39,0xee,0x30,0xd7,0xe4,0xea,0xed,0xe9,0xf2,0x8,0xd,0xa4,0xf2,0xe0,0xe1,0xc,0x9,0xc,0xe,0xf9,0x0,0xe2,0x2c,0x1f,0xfb,0x18,0xb6,0x15,0x15,0xfe,0xa4,0xe,0xbc,0xd1,0x4c,0x25,0x34,0x11,0xf5,0x36,0x2d,0xd,0x45,0xfb,0x5b,0xea,0x2,0xef,0x1e,0x41,0xfe,0xed,0xd2,0xa,0xf7,0xe7,0x44,0x6,0x7,0xf3,0xe4,0xc8,0xcd,0x4,0xd9,0x2f,0x6a,0x2e,0x3d,0x1d,0xdf,0xd7,0xc5,0x2,0xff,0xce,0x22,0x23,0xf2,0xf6,0x1a,0xb,0x7f,0x5,0xff,0xee,0xb,0xfe,0x1,0xdd,0xf0,0xd0,0x13,0xe9,0xd,0x7,0xdd,0x4,0xc6,0xeb,0xec,0x31,0x1a,0x14,0x8,0x58,0xe2,0xa,0xc3,0x2,0xd9,0x13,0xfe,0xf0,0xc2,0x20,0x31,0xec,0xa7,0xf8,0x2f,0x11,0x19,0xef,0x8,0x20,0xc,0xf9,0xc9,0xf4,0x12,0x19,0xc8,0x5b,0x24,0xc7,0x1c,0xd4,0xff,0x14,0xf8,0xf,0x0,0xe5,0xdd,0xf0,0xfd,0x14,0x13,0x2f,0x3,0xc1,0xa,0xef,0x37,0x21,0x1,0xdf,0x6,0xf8,0xdf,0xfc,0xf,0x28,0xf7,0x30,0x12,0x6,0xfa,0xf5,0xf,0xdc,0xf8,0x6,0x2,0x1a,0xdc,0x13,0xc,0x15,0xc1,0x7,0xfd,0x1,0xe9,0xc,0xe,0xed,0x5,0x47,0xea,0xec,0xf9,0xe,0x38,0x16,0x17,0xec,0x10,0x25,0x10,0xc,0x4,0xc,0xee,0xc9,0xa3,0xe2,0xfc,0x16,0x31,0xf0,0x21,0xfb,0x17,0x24,0xa,0xff,0xbb,0x28,0x59,0xd0,0xe2,0xb,0xb,0xfc,0xc6,0xd8,0xf3,0xf7,0xfa,0xd2,0xf5,0x27,0xef,0x10,0xee,0xf7,0x15,0x35,0x4,0xf5,0xf,0x33,0xf,0x41,0xb7,0xdb,0xd7,0xfd,0xfe,0xee,0xd,0x7f,0xed,0xb,0xfa,0xfd,0x8,0xf9,0xf9,0xe4,0x11,0xe5,0x23,0xf6,0xcc,0xf1,0x13,0xf2,0x91,0x1,0xe9,0x0,0xf1,0xf4,0x81,0x25,0x16,0xf7,0x10,0xed,0xd8,0x52,0x13,0x45,0x40,0x5,0x2b,0x29,0x23,0xd9,0x2a,0x6,0x7c,0x15,0xdb,0xf7,0xe,0x11,0xe4,0xf7,0xf,0x5c,0xd7,0xe5,0x2f,0xf7,0x48,0xf2,0x4,0x17,0x45,0x1c,0xf8,0x4,0x1,0xe1,0xe,0xc6,0x2,0x10,0xd0,0xe0,0x33,0x2f,0x18,0xdc,0xb0,0xce,0xa,0xea,0x3,0xd8,0xd,0x18,0xfb,0xf9,0x47,0xe6,0x2,0x9,0xf,0x32,0xd9,0x4,0x12,0x49,0xe9,0x15,0xfa,0x2e,0x8,0xfb,0x8,0xee,0x9,0xc0,0x3,0xfa,0x58,0xcc,0xfd,0x15,0xe6,0xd4,0x22,0x4,0xe1,0xf7,0xdf,0xe3,0x2,0xf5,0x16,0x11,0x10,0x53,0xf9,0xd,0xe,0x4f,0xda,0x2,0xeb,0xe4,0xc6,0xea,0xd,0x2a,0xf3,0x2d,0xf1,0xd9,0xfe,0x17,0xfa,0x32,0x3,0x8,0xcd,0xe6,0x55,0x0,0x13,0x2f,0x1e,0x28,0xe8,0x18,0x11,0x13,0xd8,0xf,0x7a,0x6,0xf,0xfc,0xf,0xf,0x12,0xd1,0x1,0x31,0xf3,0x2c,0xd3,0xf2,0xfc,0x35,0xfe,0xd2,0x17,0xe2,0xe6,0xe,0xe3,0xe2,0xd3,0x4,0x1c,0x22,0xf5,0x1,0x3,0xfe,0xce,0xf0,0xfd,0x1,0xdc,0x59,0xc3,0xfa,0xc5,0x15,0x19,0x3f,0xed,0xc,0x33,0xe8,0x2c,0xef,0xfc,0x0,0x1c,0xd3,0x49,0xcd,0xe8,0x12,0x20,0xf9,0x2b,0xd5,0xc8,0x51,0x3e,0xfc,0xf5,0xf5,0xe,0x1,0x28,0xd0,0xde,0xf8,0x25,0xfc,0x2b,0x1a,0x15,0xeb,0x18,0xdc,0xa8,0xee,0x1a,0x1,0xfd,0x2f,0x32,0x4,0xa,0xeb,0x32,0xe4,0xe3,0x1b,0xce,0x60,0xfc,0x16,0xfa,0xe9,0x2e,0xb5,0x8,0xa4,0x7f,0xde,0x0,0x14,0xe6,0xb1,0x2f,0x12,0x4f,0xe2,0xd3,0xfe,0xda,0xf2,0x26,0xfb,0xe4,0x2c,0x5,0xc9,0xd9,0xf3,0xe3,0xf6,0x2d,0xb5,0xf6,0xf9,0xf2,0xc9,0xd2,0xe,0xfb,0xeb,0xdc,0xba,0x11,0xf2,0xfa,0xea,0x14,0xfc,0x9,0xd8,0x3,0xed,0x5,0x25,0x28,0xc6,0xdb,0xf2,0xb,0xd3,0xee,0xe,0x18,0xe2,0xe9,0x2f,0xd9,0x3f,0xe4,0x7,0x19,0x19,0x9,0xb,0x17,0x34,0xef,0xec,0xfc,0x0,0x9f,0xd6,0xe4,0xfc,0xb7,0xe9,0xe9,0xee,0x13,0xf9,0xef,0x6f,0xd1,0xf4,0xcc,0xf1,0x18,0x10,0xef,0x1f,0x1b,0xbd,0xd1,0x5,0x7f,0xea,0x2,0xc,0xd7,0x7,0x34,0xea,0xc6,0xd8,0xa3,0xed,0xb,0xdd,0x10,0xf1,0xf9,0x7,0x21,0xef,0xe3,0xdd,0x14,0xd,0xec,0x1,0x1e,0x68,0x1d,0x27,0x4e,0x63,0x3,0x33,0x33,0x6,0xc5,0xf6,0xee,0x19,0xe,0x2a,0x5a,0x21,0xc3,0x14,0xfb,0xe6,0x8,0x1b,0xd6,0x2,0xd,0x31,0x1c,0x2b,0xe0,0x3a,0x36,0xf6,0xe2,0xe6,0xd3,0x1,0xe4,0xfc,0x22,0x1a,0x17,0x32,0xdc,0xe,0x2b,0xd,0x1f,0x8,0xfd,0xe3,0x4c,0xdd,0xe4,0x7,0x10,0xe1,0x18,0x81,0xde,0xfb,0xba,0xa,0xb4,0xf0,0x55,0xe3,0x35,0xf9,0xff,0x12,0xb,0x3,0xfb,0xef,0x15,0xeb,0xfd,0xde,0x30,0xc5,0x97,0x48,0xea,0x56,0x25,0xe1,0x39,0xb1,0xf,0x2,0x22,0xd6,0xd0,0xb7,0xd2,0xe3,0x25,0xee,0x11,0x41,0x36,0xdf,0x2c,0xdb,0x60,0xd0,0xd,0xda,0x8,0xea,0xe9,0xf7,0x17,0xfa,0x2e,0xef,0xf2,0xec,0xd9,0xc5,0xc6,0xee,0xd1,0xee,0xef,0x24,0x21,0x9,0x7,0x24,0xe4,0x9,0xc,0xeb,0x0,0x2b,0xdd,0xbc,0xec,0x26,0x20,0x37,0x3f,0xf5,0x7,0xc9,0xd,0x23,0xb3,0xfa,0xe2,0xfe,0xfe,0xe3,0xea,0xe4,0xb,0xf7,0x13,0x12,0x5,0x20,0x16,0x29,0x22,0x21,0xd4,0xf,0xfc,0xf3,0x7,0xec,0xcf,0xf5,0x5,0x15,0x28,0x8,0xc7,0x2b,0xfd,0x41,0x2,0x7,0x2a,0xfa,0xef,0xf,0xf7,0x49,0x16,0xeb,0xe8,0x11,0x7f,0x20,0x16,0xb1,0x11,0x92,0xcf,0xe7,0x8,0xee,0xf9,0x7,0x22,0x59,0x1a,0x49,0xfe,0xf2,0x21,0x26,0xf1,0xe6,0xea,0xe2,0xe4,0xf8,0xba,0x7,0x11,0x1f,0xfe,0x7d,0x10,0xb,0xff,0xe6,0xef,0x18,0xdb,0x13,0x16,0x10,0x13,0xe3,0xe0,0x32,0x2,0x16,0xf2,0x2e,0xe4,0x17,0xef,0xa,0xf3,0x48,0xf9,0xe2,0xb,0xdf,0x1f,0xd5,0x9,0x53,0x10,0xe7,0xd8,0xba,0x41,0x4e,0x2a,0xf8,0xee,0xf2,0xb2,0x1e,0x20,0x8,0xd,0x2d,0xf2,0xf8,0xbe,0x16,0x4,0x1b,0xc,0x1e,0x28,0x2f,0xac,0xf3,0x4,0xfe,0x37,0xc9,0xc8,0xe9,0xd8,0xf8,0xde,0xcd,0x31,0xf6,0x2f,0xf5,0x3f,0x29,0xfd,0x4,0xca,0xf7,0xdf,0xcc,0xe4,0x25,0x7,0x2a,0xf2,0xd8,0xf,0xcd,0xeb,0x99,0x42,0x3a,0x7,0x13,0xf5,0xe2,0xe2,0x3b,0xd1,0xf8,0x1d,0xe5,0xfc,0x31,0xcc,0xfb,0xdd,0x20,0xf2,0xf7,0x1a,0x7f,0xd2,0x6,0x13,0x1c,0x2a,0x62,0x9,0xf2,0xd3,0x7,0xd4,0xde,0xdf,0x45,0x10,0xe1,0xb1,0xfb,0x3f,0x12,0x5,0xf6,0x48,0xd4,0x18,0x13,0x2,0xd4,0x11,0x14,0xfc,0x4d,0x35,0x0,0x3a,0x10,0x19,0x7,0xfe,0xb2,0x13,0xf5,0xdf,0xa9,0xf4,0xa,0xc7,0xe6,0x2c,0xe4,0xbc,0x4b,0xe5,0x10,0xfa,0xa9,0x39,0xce,0x87,0x4d,0x1a,0xe5,0xf5,0x1c,0xf1,0x35,0xee,0xe7,0x9f,0x6,0xa7,0x2e,0xdf,0xfc,0xf6,0xbe,0xf2,0xcc,0x48,0xfe,0x44,0xe,0x2b,0x27,0xe,0xf9,0xa0,0xf0,0x17,0x58,0xda,0xb,0x31,0x9,0x20,0xf8,0xe,0xf9,0x3,0xe,0x16,0xae,0xc,0x3d,0x17,0x4d,0xf8,0x6,0xed,0x24,0xbb,0x81,0xf5,0xed,0x1c,0xea,0xfd,0x27,0xf6,0x6,0x2e,0x1,0x39,0x24,0xf0,0xd,0x7,0x2,0x1a,0x10,0x22,0xb1,0x34,0xd1,0xf8,0xfa,0xdd,0xe4,0xea,0x99,0xed,0x5,0xfb,0xb,0x7,0x1e,0xc1,0x89,0x17,0xd8,0x0,0x22,0xcf,0x0,0xff,0xd3,0xf5,0xff,0x2f,0x31,0x2,0x4e,0xed,0x18,0xe5,0x3b,0x1d,0xf7,0x2b,0xe,0x36,0x64,0x19,0x48,0xa4,0x16,0xfe,0xc,0xdf,0xe9,0xfe,0x17,0x15,0x0,0xa6,0xb6,0x36,0x14,0x3,0x0,0xea,0x13,0xa,0xf2,0xdd,0xff,0x98,0xe,0xd7,0x1e,0x1d,0xf8,0x19,0x30,0x2b,0xc6,0xdc,0x3,0x36,0xf9,0x2a,0x35,0xed,0xda,0x24,0xfb,0x2,0xa,0x1,0x17,0xf8,0x8,0xc9,0x19,0x3f,0xc,0xea,0x1e,0x16,0xed,0x1a,0x17,0x1c,0xc6,0x31,0x88,0xdd,0xf0,0xf8,0x1c,0xe0,0x6,0x17,0xe9,0x16,0xe,0xe8,0xea,0x16,0x4c,0xb5,0x22,0x3e,0x2c,0xfe,0x20,0xfb,0x34,0x13,0xee,0x5,0xf3,0xf7,0x1a,0xe,0x4,0x6,0x12,0xc,0xb2,0xff,0x7f,0xa,0xdf,0xc,0xe6,0xcf,0xf8,0xf,0x1e,0xfd,0x5,0x6,0xdc,0x1a,0x7,0x12,0xd6,0xf2,0xe5,0xc8,0xb7,0x24,0xc1,0x2,0x14,0xb0,0xd6,0x1d,0x33,0x10,0xdb,0xb4,0xcf,0xf4,0x6b,0x39,0x23,0x46,0x14,0x93,0xf0,0x42,0x1c,0x22,0x24,0x5,0x32,0x2a,0x8,0x7f,0xe2,0x3,0xe8,0x3a,0xe7,0x0,0xf7,0x2b,0x39,0x43,0xcd,0xde,0xc1,0xc2,0xc4,0xc9,0x6,0xe0,0xf6,0xfe,0xc0,0xa,0x13,0x3d,0x16,0x18,0x1,0xe5,0xde,0xe7,0xb0,0xea,0xc4,0xf5,0xf4,0x1b,0x9e,0x4,0x1,0xe8,0x3a,0xc,0x7,0x3a,0x13,0xe3,0x14,0x11,0xe4,0xf,0xed,0xb6,0xf6,0x1,0xe9,0xea,0x17,0xf1,0xdd,0xfa,0xef,0xe8,0x19,0xcf,0xbb,0xf2,0x6,0xc2,0x7,0x4a,0xd4,0xda,0xe3,0xb,0xdb,0xf0,0xb6,0xf2,0xff,0xc4,0xda,0xfb,0x62,0x11,0xea,0xe7,0xe1,0x23,0xd,0xeb,0x43,0x10,0x28,0x13,0xff,0xfa,0xfe,0xb9,0xf6,0xbf,0xcb,0xff,0xc,0xee,0x6,0x9e,0xc3,0x1a,0x78,0x20,0xf9,0xe1,0x1f,0xef,0x26,0x8,0xc9,0xfb,0xea,0xcf,0x11,0x36,0x27,0x7,0xfb,0x8,0xf5,0x1b,0x1c,0xf1,0xd2,0x9b,0x2e,0xe,0xf,0xfb,0x4f,0xec,0x0,0xd0,0xf4,0xf7,0xfa,0x29,0xe3,0x17,0x2,0x7,0xe2,0xbf,0x2d,0xe0,0x11,0xe7,0xf7,0xfb,0xf4,0xef,0x2a,0x5,0xdc,0x8,0x25,0xc9,0xf0,0xf7,0xe1,0x20,0x27,0x21,0x5,0x25,0x4,0xdb,0xe8,0x2,0x3d,0x0,0xe2,0xe7,0xe1,0xff,0x5,0xf9,0x0,0x29,0x81,0xfa,0xe,0xed,0x10,0xc6,0xe3,0x45,0x12,0xdd,0x0,0xb,0xe0,0xb,0xe0,0xf2,0xdc,0xf6,0xe7,0xfc,0x14,0x20,0xf4,0xe3,0x2e,0x45,0x26,0x12,0xee,0xd3,0xdb,0xf5,0xba,0xd6,0xd2,0xc,0xcc,0xfe,0xee,0x31,0xef,0xb,0xf8,0x3,0x6,0xde,0xe8,0xfe,0xff,0x15,0x32,0x4b,0x4b,0x22,0x9,0xcf,0xec,0xc4,0xb0,0xe,0xd2,0xda,0xc7,0x38,0x7,0x2e,0xeb,0x1f,0x15,0x37,0x2e,0xfd,0x2,0xaa,0xf5,0x8,0x6,0xf7,0xf6,0x2,0x3e,0x13,0xb7,0x14,0xef,0xf9,0xf4,0x4,0x7,0xdd,0x7,0xeb,0x7,0xec,0x2c,0xc4,0x13,0x27,0x8,0x37,0xe4,0xf8,0x18,0xfd,0xfc,0x8,0x34,0xe4,0x17,0xd,0xdc,0x1e,0xb7,0xea,0xe4,0xb7,0x5,0xdc,0x3b,0x3a,0x37,0x9,0x11,0xe7,0xf5,0xde,0x20,0xff,0xaf,0xec,0xc,0xd4,0x41,0xe,0x4f,0x18,0x8,0xca,0x1d,0xea,0x9,0xc3,0xe3,0xeb,0x5c,0x16,0xe1,0x16,0x1c,0xf2,0xc3,0xd4,0xa8,0x0,0xf0,0x7f,0xed,0xf1,0xf,0xdb,0xe8,0xe9,0xe7,0xce,0x68,0x25,0x7,0x40,0xd3,0x22,0x42,0x4,0xf2,0x7b,0xd2,0xff,0xc2,0xfa,0xee,0xf5,0xb5,0x1f,0x8,0xea,0xc8,0x9,0x38,0xf0,0xd7,0x19,0xbf,0x27,0xe0,0x32,0xde,0x2a,0xf,0xa,0x22,0x36,0xf,0x45,0xc4,0xee,0x29,0x17,0x16,0x15,0x2e,0xe,0xe1,0x35,0x28,0xbe,0xff,0x11,0x17,0xf8,0x1e,0xe3,0x0,0xcb,0xd1,0x20,0x1,0x0,0x8,0x1d,0x1f,0x15,0xd4,0xdc,0x5,0x6,0xe6,0x19,0xe8,0xd7,0x7,0x24,0x1,0xf0,0xe1,0xa4,0x12,0xda,0xfb,0xf2,0x3a,0x30,0x2d,0xf2,0xea,0xe3,0x22,0xe0,0x3,0x25,0xb,0xa,0x19,0x42,0x2e,0xd6,0xf,0x3a,0x51,0xf1,0x5,0x9,0xc7,0xe,0x11,0xf8,0xcb,0x37,0xf8,0x26,0xc3,0xb8,0x81,0x34,0x4,0x1,0xef,0xef,0x3,0x23,0xc4,0xb8,0xc7,0xdb,0xd,0x12,0xe5,0xd4,0xcd,0xf6,0xeb,0xf5,0x1f,0xd8,0x1b,0xe2,0x40,0x10,0xd0,0xd7,0xa,0xfa,0x26,0x1b,0xb2,0xf2,0x27,0xf0,0xc9,0x2,0xb,0xf2,0x2,0x2,0x2a,0xd3,0xd4,0xe6,0xec,0xf3,0xfc,0xa9,0xe,0x2c,0x2,0xc2,0x1e,0x18,0xee,0xbd,0xe2,0x48,0xfd,0x9,0xde,0xb,0xef,0x19,0xfa,0xec,0x32,0x1c,0x21,0xb,0xa1,0x21,0xe7,0x7,0xf,0xf4,0xbc,0xf5,0xa8,0x12,0xff,0xfe,0xc,0xd9,0x57,0xd5,0x35,0xf7,0xef,0xa,0xd3,0x10,0xd4,0x41,0xb,0xf3,0x19,0xed,0x6,0xc4,0xf8,0xe2,0xa6,0xc5,0x13,0xfc,0x10,0xe9,0xee,0x28,0xea,0xd1,0xe5,0xff,0x7,0xfc,0x6,0xf2,0xd4,0x4,0x2c,0x3,0x13,0x48,0x54,0xef,0x57,0x23,0xd6,0xe9,0xd5,0xf6,0xf0,0x39,0xe4,0xf0,0xed,0x44,0xf5,0xfe,0x1f,0x37,0xf9,0x0,0xd8,0x17,0xc3,0xf3,0xfa,0xe7,0x50,0x18,0x7f,0xa,0x4c,0xe9,0x6,0xe1,0x4,0x13,0x4c,0xf8,0xef,0x24,0xcc,0xd2,0x29,0x3,0xb6,0x26,0x5,0xe5,0xf3,0xf2,0xf9,0x27,0xf9,0xbf,0xd0,0x4e,0x2b,0x13,0xb1,0xc7,0x50,0x16,0xeb,0x2e,0xe2,0x2d,0xf7,0xea,0x2e,0xa1,0x6,0xdf,0xf,0xc5,0xd0,0x37,0xf9,0x2a,0x30,0xf0,0xe4,0x44,0x7,0xeb,0xf8,0xc,0x5,0x47,0x37,0x2e,0xf,0xf5,0x2f,0xed,0xd0,0x14,0xd5,0xca,0xc,0x9a,0xe9,0xf9,0x14,0x4e,0x20,0x7f,0x1f,0x17,0x34,0xd2,0xff,0xe3,0xef,0xaa,0x19,0x34,0x36,0xd8,0x1e,0xfb,0xce,0xfc,0xe7,0x1b,0xe7,0x29,0xd1,0x45,0x15,0xcb,0xd7,0x30,0x8,0xcb,0xae,0xc2,0x2c,0xf4,0xf8,0xaa,0xa0,0x2,0x4,0xc,0x10,0x1a,0x7c,0xe9,0x17,0xb9,0x34,0xb6,0x8,0x1e,0x6e,0x1b,0x27,0x41,0x48,0x11,0xbf,0xcc,0x32,0xac,0xe4,0x8,0xd5,0x9f,0x7c,0xe4,0x4e,0x68,0x26,0xd1,0xfb,0x15,0x66,0xfb,0x0,0x4,0x25,0xf8,0xff,0xe8,0xee,0x2,0x13,0x16,0x23,0xf,0x33,0xf1,0x6,0x92,0xef,0x1d,0x61,0x15,0x2,0x4e,0xf6,0x63,0x25,0xe7,0xfe,0x7,0x9,0xee,0xd0,0xed,0x27,0xeb,0x24,0x3c,0xfe,0xd5,0x2,0x16,0x3d,0xd2,0xf7,0x1e,0x34,0xd2,0x2c,0x2a,0xe0,0x49,0xd2,0xf3,0xea,0x13,0xce,0xd3,0x18,0x51,0xee,0x1b,0xc9,0x14,0xf8,0x20,0x32,0x10,0xb3,0xc0,0xc6,0x17,0xf6,0xc6,0x87,0x5,0xa8,0x2e,0x1c,0x3,0xd,0x24,0xd3,0xe5,0x18,0xd5,0x18,0xf6,0xfb,0x30,0xf9,0x2b,0x41,0x8,0xea,0xfc,0xf7,0xd3,0x6,0xbf,0x81,0x6,0xce,0xeb,0xa7,0xe2,0xcb,0xff,0x29,0x38,0xc4,0x0,0x0,0x0,0x0,0x0,0x0,0x0,0x0,0x0,0x0,0x0,0x0,0x0,0x0,0x6,0x0,0x8,0x0,0x4,0x0,0x6,0x0,0x0,0x0,0x4,0x0,0x0,0x0,0xc0,0x8,0x0,0x0,0x12,0xee,0x4c,0x13,0x5d,0xe3,0x35,0xd3,0xc2,0xfb,0xc8,0x2d,0xb4,0x26,0xb4,0x40,0xf5,0xb5,0x8,0x3c,0xcd,0x4f,0x10,0x13,0xf5,0x45,0x1e,0x3b,0x24,0xfe,0x2,0xb5,0x32,0xb9,0xc6,0x0,0xe1,0xc3,0xf5,0xd1,0xe,0xb4,0x41,0x5b,0x1d,0xd2,0xfd,0x43,0xf8,0xf8,0x4,0xa,0xd8,0xe0,0x1e,0xc2,0x1b,0xc7,0xfb,0x7f,0x20,0xe5,0xde,0xef,0xd0,0xf9,0xf0,0xde,0xf1,0x15,0x7,0x19,0x12,0xde,0xfa,0xc0,0x7f,0x8,0xfb,0x29,0x14,0x69,0xfa,0x2a,0xd3,0x5a,0x29,0xd,0xf6,0xdc,0x1e,0xeb,0x1f,0xbf,0x5a,0xe7,0x2f,0xf2,0xe8,0xf2,0x28,0x2c,0x4a,0x20,0x11,0xc4,0x26,0xee,0x1b,0xcf,0xc4,0x4,0xf7,0x24,0x4,0xf,0xdf,0xe7,0xaa,0x1a,0x1a,0xe1,0xfe,0x7,0x1b,0xf4,0x16,0x23,0xef,0xd8,0xdc,0x45,0xdc,0x8,0xf8,0xeb,0xca,0xfb,0xf3,0xca,0x1c,0x51,0xf7,0x62,0x1,0xf9,0x10,0x1f,0xcd,0x7f,0x48,0x26,0x4b,0x1f,0x71,0xeb,0xa,0x31,0x28,0xea,0x4c,0x18,0xee,0x41,0x49,0xf3,0x53,0xc2,0x5,0xd3,0xe8,0xfe,0x26,0xe4,0xc0,0xce,0xf8,0xa,0xa,0x13,0xf3,0xe,0xa,0xec,0x2a,0xfa,0xeb,0xc,0xf6,0x31,0xe2,0xc5,0xd6,0xd0,0xb9,0x2c,0x2b,0xd7,0x5,0xee,0xc6,0x31,0xe7,0xe3,0xfa,0xf1,0x1,0xe8,0x22,0x52,0x13,0xe5,0xca,0x36,0xe9,0x8,0x0,0x2c,0xba,0x3c,0xcd,0xfa,0xf3,0xe4,0xd2,0x2c,0xca,0x5,0x35,0x15,0xed,0x7f,0x5,0x0,0xf2,0xfc,0x9,0xeb,0x1,0x1e,0x3,0xfc,0x31,0xc6,0xdf,0xc5,0xda,0x11,0x4,0x2,0xf2,0xf7,0xcd,0xeb,0x17,0xf3,0x38,0x0,0x87,0xa3,0x41,0x9,0x13,0xcf,0x24,0xaf,0xca,0xf8,0x14,0x36,0xb4,0x13,0x32,0xee,0x8,0xd3,0x27,0x1c,0xff,0x13,0xf6,0x28,0x34,0xcc,0xeb,0x5d,0xde,0x16,0x4,0xd8,0xbc,0x2,0xdb,0xdc,0x2,0x10,0xef,0xf5,0xeb,0xe3,0xf4,0xdb,0x3b,0x2b,0x0,0xe2,0x2a,0x29,0xda,0x40,0x81,0xee,0xdb,0xd,0xf6,0xbb,0xe1,0xd8,0x33,0x28,0xf2,0xfa,0xd2,0x9e,0x6e,0xee,0x3f,0x83,0xe2,0xd9,0xb6,0xf6,0x2f,0xa4,0xea,0xea,0x3e,0x13,0xfb,0xb8,0x3,0xdd,0xfe,0x13,0x0,0xd,0x1a,0x2a,0x2,0xf2,0xaf,0xda,0x24,0xdc,0x56,0xb,0xbf,0xe3,0x23,0xd,0xd8,0x33,0xed,0xd5,0xd,0x5,0xb5,0x7f,0x5,0x1e,0x30,0x25,0xfb,0x2e,0xb0,0x15,0xb4,0xf5,0x19,0xb0,0xc2,0x6d,0x4d,0x3a,0x13,0xf2,0xd9,0xf4,0x2,0xd0,0xbb,0xf8,0x45,0xcc,0xe,0xe0,0x6c,0xbf,0x2b,0xd6,0xe4,0x2a,0xd,0x3,0xb4,0x10,0x38,0xf4,0xee,0x4,0x27,0xff,0xe9,0xc4,0x6c,0xc,0xf4,0x55,0x4e,0x58,0x10,0xf0,0xb2,0x1d,0xd7,0xaf,0x29,0xeb,0x2a,0xd4,0x2f,0x2,0xfb,0x3d,0x81,0x2f,0x4d,0xa6,0x36,0xb,0x4b,0xf7,0xfb,0x3d,0x0,0x2a,0xa,0x2c,0xd8,0xd2,0x2e,0x37,0x8,0xe9,0xa1,0x7d,0x20,0x4e,0xc,0x96,0x23,0xea,0xf4,0xc6,0x27,0x81,0xef,0xca,0x4b,0x2c,0xec,0xbb,0xc7,0x22,0xb1,0x26,0xfe,0x22,0x43,0x15,0x26,0xa,0x3f,0xd2,0x1a,0xe3,0x4a,0x27,0x2a,0xd3,0xf9,0x30,0xe,0x20,0x62,0x98,0xf7,0xc2,0x37,0x2a,0xab,0x5,0x37,0x8f,0x5e,0xfc,0xee,0xf4,0xe9,0xde,0xb0,0xee,0xd9,0xdb,0xe6,0x8b,0xbe,0x27,0x1c,0xa,0x1a,0x23,0x38,0x24,0xf9,0xea,0x13,0xf1,0x5,0xeb,0xec,0xe2,0x3,0xbb,0x1a,0xf5,0xfe,0xdc,0x8a,0xe4,0x24,0x3c,0xda,0x54,0x10,0xab,0xed,0xc7,0xb7,0x8,0x5e,0xfd,0x5,0xa1,0x11,0x0,0x17,0x25,0x20,0xe8,0xfd,0xf8,0xe3,0x43,0xf9,0xee,0x64,0x81,0xd1,0x3e,0x0,0xdf,0xe6,0xd0,0xf0,0xf9,0xec,0xd8,0xca,0xb7,0xeb,0x26,0xf5,0x38,0xbb,0x5a,0x45,0x72,0x8e,0xf5,0x2a,0xf,0xb7,0x95,0xf0,0xbb,0xb7,0x28,0xf1,0xe9,0xe0,0xf8,0xa6,0xdb,0x1b,0x2e,0xdd,0x5d,0x3a,0xb8,0xf8,0xcb,0xaa,0x1d,0x6b,0xe9,0xed,0xb1,0xf,0xbf,0x0,0xd,0x1b,0x37,0xfd,0xd5,0x4,0xe2,0xe7,0xd,0x6f,0xcd,0xf2,0x43,0x14,0x27,0x25,0x1,0xe4,0x81,0xed,0xf4,0xe7,0x6e,0xdf,0xe,0xfd,0x37,0xc8,0x33,0x14,0x34,0xb9,0xee,0xfd,0xb2,0xd2,0x8c,0xa,0xc2,0xce,0xc3,0xf,0xf0,0xe2,0xef,0xbd,0xda,0x2b,0xe,0x7,0x4e,0x1d,0xf1,0xcd,0xde,0xd3,0x2a,0xb,0xf8,0xf0,0xeb,0x12,0xf1,0x0,0x15,0xec,0x21,0xff,0xfe,0x40,0xd0,0xf8,0xf3,0x50,0xe3,0xd7,0x18,0x3,0xc8,0x29,0xf5,0x4b,0x81,0x29,0x16,0xfd,0x13,0x34,0xe1,0xde,0xbf,0x2c,0xf0,0x5,0xd3,0x7,0x27,0xc6,0xfa,0x1b,0x7f,0xb,0xc8,0xf7,0xb2,0xed,0x2d,0xf3,0xb8,0x8,0xed,0x3,0xe,0xe2,0x11,0x5,0x11,0xfe,0x5,0xd0,0xb9,0x3b,0xea,0xfa,0x3,0x24,0x30,0x15,0xaf,0x27,0x49,0xf8,0x5,0x29,0x3,0x28,0x3c,0x4,0xfc,0x99,0xea,0xf0,0xe0,0xbb,0x15,0x1,0xfd,0x31,0x23,0x28,0xc,0xfe,0xd4,0x22,0xeb,0xee,0xe7,0xf8,0x9,0x2d,0x36,0xfc,0xc0,0xf7,0x7f,0xea,0x9d,0xd1,0x59,0x9,0x1,0x10,0x22,0xa1,0xf4,0xd1,0xef,0x19,0x3,0xc0,0x13,0x0,0xe1,0x11,0x10,0xc2,0x1f,0x1e,0xf4,0x2c,0xfa,0x15,0xf2,0xe0,0xc0,0x1,0xbc,0xce,0xee,0x2c,0xb4,0x39,0x17,0x66,0x8,0xe,0xf3,0x18,0x18,0xc3,0x57,0x18,0xaa,0xdd,0xbb,0xf3,0xc8,0x1b,0xa7,0x8,0x1b,0xeb,0xd9,0xc4,0xaf,0x14,0xc9,0xef,0x7f,0x2,0xb2,0x5c,0xf1,0xe2,0x20,0x1d,0x51,0xac,0xd7,0xa9,0xe4,0x22,0xe0,0xb1,0x53,0xbf,0xf5,0xbe,0xdb,0xf5,0xe5,0x8,0x2d,0x1f,0x26,0x39,0xca,0x31,0x82,0xfd,0xe4,0xdd,0x20,0x11,0x1b,0x24,0xc1,0xf8,0x2f,0xf9,0x4,0xc8,0xea,0xe1,0xdc,0xdd,0x7f,0xe7,0xf1,0xc4,0xd5,0x35,0xea,0xfb,0x9,0xa,0x6,0xb0,0xe6,0xc7,0x32,0xf2,0x1,0x29,0xd3,0xd7,0x9b,0x4,0x4a,0x2c,0xd1,0x6b,0x17,0x13,0xec,0xd4,0x12,0x54,0xf1,0xe,0xf8,0x58,0xf8,0x27,0xe9,0x41,0x2e,0x96,0xbd,0x1e,0x67,0xf2,0x21,0xf6,0x1d,0xce,0xcd,0xd,0x1f,0xc6,0xc0,0x46,0x20,0xe2,0x18,0x19,0x1a,0xfd,0xd1,0xe2,0x34,0x1c,0x20,0xe2,0x3,0xdd,0x5,0x3a,0x23,0x37,0x1d,0xe,0xc,0xec,0x2f,0xb,0xd,0x14,0x3b,0x20,0xe9,0x3a,0x2e,0x3b,0xd,0xf3,0x49,0x15,0xda,0x3d,0xb5,0xd3,0xde,0xc3,0xe9,0x3e,0x27,0xf9,0x13,0x2d,0x24,0xbf,0x2b,0x1a,0xf5,0x29,0x3f,0x5,0xf8,0xfb,0xee,0xd1,0x11,0xd7,0xe,0x7f,0xe1,0x19,0x55,0x1f,0xf7,0x43,0xea,0xe0,0x3b,0x7f,0x9a,0xd4,0x1e,0x37,0xe8,0xe1,0xda,0xa9,0x19,0xa1,0x5b,0x4c,0xdd,0xcf,0x9c,0x10,0x5e,0xb7,0x49,0x14,0x1a,0x16,0x4b,0xf8,0xeb,0x54,0x48,0x5c,0xd0,0x28,0x3,0x90,0xab,0x66,0xed,0x34,0xc5,0x1e,0xc7,0x35,0xfe,0x1c,0x50,0x1e,0xb7,0xf4,0x1,0x53,0x34,0x4f,0xa,0xe0,0x31,0x64,0xef,0xe4,0x57,0xe1,0x46,0xae,0xfa,0xd3,0xe7,0x4c,0xfe,0xf1,0xf5,0x7,0x44,0x0,0xdc,0xd7,0xf4,0xea,0x24,0x5,0xe4,0x33,0xf3,0x2c,0x36,0x1a,0xd8,0xe3,0x33,0xf4,0xe9,0x74,0x11,0x39,0xe,0xcf,0x8e,0x9,0x49,0x46,0xc1,0xe6,0xd1,0x2a,0xef,0x1a,0x1d,0xab,0xca,0xfa,0x5b,0x20,0xe5,0x0,0xec,0x2d,0x6,0xbb,0x1e,0xcc,0x35,0x2f,0x2e,0x4,0x3f,0x21,0x7f,0xbb,0x30,0xf2,0xdf,0xf9,0xd9,0xec,0xe5,0x22,0xe0,0x3e,0xd6,0xc1,0x26,0xac,0x23,0xdf,0xf1,0xf,0x7f,0xdd,0xf,0xa,0xbc,0xf1,0x2c,0x17,0xf7,0x29,0xa,0x51,0xd8,0x9,0xc6,0x3a,0x6b,0xcd,0xb3,0xe5,0xd0,0x2,0xc5,0xb,0x37,0x1a,0xb7,0xf3,0x15,0x77,0x17,0xfe,0xe,0x21,0xfd,0xdf,0x38,0xfa,0x25,0xa8,0xd8,0x6,0xcd,0xe3,0x5b,0x1a,0x42,0xef,0xdc,0xb4,0xdb,0x0,0x57,0xce,0xc7,0xc,0x2c,0x30,0xd0,0x56,0xd7,0x2,0x17,0xd,0xba,0xe6,0x9b,0x73,0x8,0xfa,0x1a,0x14,0x65,0xc2,0xf5,0x4a,0xd,0x46,0xe0,0xd0,0x24,0x9e,0xb9,0xe2,0x60,0x9b,0x2a,0x19,0x81,0x16,0x69,0x11,0xb5,0x7,0xc7,0x0,0xd4,0x40,0x5,0x77,0x35,0x1e,0xaf,0xdd,0x1e,0x9,0x46,0x0,0xed,0x19,0xcf,0xcd,0xca,0xed,0xc6,0x10,0x1d,0x41,0x7,0xe5,0x2d,0x2c,0xcf,0x70,0xb7,0xfb,0x9a,0x9,0xa3,0xe7,0xd1,0x42,0x29,0xef,0x32,0xb1,0xe7,0xf6,0xc3,0x25,0xff,0x22,0x35,0x18,0x2,0xee,0xf1,0xd8,0x5,0xfb,0x10,0x21,0x81,0xd0,0x1a,0x8,0x19,0xd4,0xca,0xf3,0xf3,0x2,0xd3,0x51,0x11,0x0,0xc0,0x29,0xd,0xfe,0x8,0xfc,0x12,0xb2,0xb8,0xcd,0xfe,0x56,0xd5,0xe9,0x34,0x43,0x3e,0x17,0x2e,0x27,0xc9,0xda,0xbd,0xe0,0xc7,0x16,0xb6,0x3,0xe1,0xdc,0x14,0x18,0xfb,0xf5,0xbc,0x39,0xdd,0x36,0x8,0xc5,0xce,0xfe,0xc9,0x7,0xfd,0x1b,0xfe,0x5,0xfa,0xfd,0xca,0x3a,0x1e,0x21,0x67,0xa,0x3c,0xf7,0xbf,0xde,0x10,0xe,0x50,0x81,0x2a,0x51,0xde,0xf1,0x19,0x29,0x2d,0x4,0x9b,0xc5,0x5,0x5e,0xf7,0xeb,0xe8,0xa6,0x15,0x22,0xeb,0x25,0x81,0x98,0x44,0x6,0x35,0x4e,0xc5,0x2c,0x45,0xfd,0xf9,0xdf,0xf6,0xd3,0xe,0x2d,0x28,0xd2,0xa2,0x71,0xb8,0xaa,0x6,0x3a,0x44,0x3,0x44,0x39,0x1c,0x27,0x20,0xfe,0xcb,0x4,0xd,0x44,0xec,0x7,0xf,0xa7,0xd3,0xc8,0xf7,0xac,0xf1,0x7e,0x14,0xfe,0x2c,0x11,0xfc,0xbf,0xea,0x1d,0xfa,0x28,0xbb,0xde,0xe8,0x11,0xfe,0xab,0x4e,0x47,0x4c,0xb,0xe7,0x4c,0xd3,0xc2,0x77,0xf8,0x3b,0xef,0x69,0xff,0xb7,0x21,0xdb,0xd9,0xef,0x6,0xc3,0x98,0x23,0x14,0x81,0x1a,0x5b,0xf5,0xe4,0x29,0xf,0xb4,0x43,0x18,0x4f,0x29,0x5f,0xcb,0xc4,0xfa,0x55,0x49,0xd2,0xf0,0x18,0x3d,0xb8,0x69,0xba,0xed,0xf9,0x32,0xb5,0x2,0x6d,0xf7,0xfa,0xb3,0x7f,0xa8,0x3a,0x29,0x10,0x6d,0xc7,0x20,0x34,0x86,0x33,0x12,0xbb,0xb3,0xf3,0x22,0x57,0x79,0xe0,0xf9,0xa1,0xdb,0xc7,0x8,0x44,0x85,0x0,0x9a,0xdc,0xec,0xa1,0xec,0xb1,0x58,0x15,0xff,0x22,0xc1,0x7,0xe8,0x4e,0xf3,0x36,0xe7,0x15,0xf0,0x2a,0x1b,0xd6,0x7,0xfd,0x40,0x34,0x2a,0x56,0xe5,0xc6,0x2,0x15,0xfa,0x72,0xfb,0xf1,0x1f,0x38,0xd4,0x9,0xb3,0xf0,0xfc,0x28,0x5b,0xf5,0x11,0xcf,0x23,0xe5,0xcb,0x49,0xfc,0x7f,0xd4,0x12,0x15,0xb2,0xc6,0xef,0x9,0x1d,0xc2,0xf0,0xf4,0xfe,0xcb,0x5,0x21,0x24,0x28,0xee,0xca,0x1e,0xa7,0x3e,0x56,0xd,0xf7,0x94,0x4c,0xa3,0xf0,0x18,0x1c,0xfe,0xf,0xbb,0x1a,0x29,0x16,0x11,0x8,0x3f,0x15,0xa5,0x16,0xfa,0xa,0xc7,0xce,0xb,0x8,0x3,0x13,0xdf,0x3b,0xee,0xe,0x10,0x3,0xd8,0xd6,0x35,0x4c,0xf6,0x1,0xf3,0xff,0xd5,0x1,0xb1,0x23,0x19,0xd8,0x1c,0xf8,0xf4,0xde,0x8,0xee,0xe6,0x3,0xf8,0xe7,0xe3,0x81,0x28,0xbd,0x1f,0xdf,0x1a,0x17,0xd5,0xfe,0x1e,0xfe,0xe,0x68,0x1c,0xff,0xfe,0xec,0xe8,0xff,0x1a,0xe2,0xe2,0x8,0xb3,0x1,0x22,0x14,0xe5,0x57,0x6e,0x0,0x20,0xb9,0x4a,0xe5,0xb6,0xf7,0x4d,0xe0,0xf5,0x58,0x3f,0x62,0xf2,0x17,0x7,0xee,0x21,0x11,0xe1,0xa2,0xc5,0x18,0xe5,0xce,0x5e,0xe0,0x20,0x5e,0x3a,0x56,0x3c,0xe6,0x46,0xe8,0xa,0xe1,0x3,0x3a,0xd2,0xe8,0xff,0xb0,0xa4,0xfc,0xfb,0x81,0xc3,0x41,0xd4,0x59,0x41,0x71,0x2f,0x24,0x2b,0xe6,0xe9,0xc5,0x1,0x12,0x0,0x7,0x52,0x6,0x1b,0x23,0x44,0x8,0xd2,0x13,0xe,0xc0,0x39,0x37,0x6,0x23,0x41,0x20,0xce,0x4a,0x20,0x37,0xf6,0xc8,0xab,0x2e,0xf1,0xa9,0x22,0xbe,0x10,0xde,0x69,0x42,0x1f,0xe1,0x36,0xd4,0xe,0xe7,0xd0,0x1c,0xce,0xf5,0x8,0xc7,0x81,0xff,0xd,0xad,0xe2,0x21,0xd3,0x6d,0x5e,0x52,0x19,0x1,0x4a,0x10,0xe1,0xdd,0xd1,0x43,0xf9,0xdd,0xfc,0x54,0x17,0x17,0xcc,0x52,0x18,0xd7,0x48,0xe9,0x8,0x46,0xe4,0xea,0x7f,0xeb,0x11,0xfa,0xb2,0xba,0xd3,0xe5,0xc9,0xf2,0xeb,0xfe,0x50,0xcb,0x70,0xf,0x6e,0x14,0x34,0x40,0x26,0x86,0x30,0xc7,0xdd,0xee,0x25,0xdd,0xbf,0xd3,0xeb,0xff,0x2b,0xcd,0xd1,0xec,0x2c,0x71,0x5e,0xf7,0xc0,0xf5,0xe2,0xd1,0xdc,0x24,0x23,0xc8,0xe4,0xba,0x8,0xff,0x43,0x13,0xba,0x2b,0x3b,0x11,0xf7,0x7f,0xc,0xb0,0xf1,0xed,0x24,0xd8,0xc0,0x31,0xf6,0xd2,0x61,0x35,0x54,0x23,0xb5,0x57,0x3,0x11,0xf2,0xcb,0xf,0xde,0x19,0xf1,0x4,0x94,0x52,0x19,0xd1,0x67,0x31,0x20,0xb4,0x24,0x16,0xfd,0xc0,0x3b,0x10,0x2a,0xd9,0x45,0x85,0x1b,0x6,0x0,0x10,0x20,0xb4,0xba,0x2b,0x3e,0x2f,0x24,0x2d,0xbb,0x2f,0x12,0x25,0x30,0x81,0x26,0xe6,0xe2,0x5c,0xa,0x5c,0xdb,0xe0,0x25,0xd4,0x53,0xff,0xfa,0xce,0x25,0xd2,0xb4,0xa7,0xb,0x49,0x85,0xd2,0x47,0xb2,0x50,0xc5,0x52,0xb,0xd7,0x99,0xd,0x6c,0xd0,0xee,0x5,0x89,0xe4,0x1e,0xe8,0x24,0xad,0xfb,0x5,0xcb,0x58,0x67,0xc9,0x12,0xbb,0x32,0x50,0x12,0x1e,0xf2,0x2,0x6,0x3f,0xd4,0xb,0xe1,0x76,0xf1,0x62,0x66,0xc,0xb9,0xe6,0x11,0xbf,0xa9,0x3c,0xa5,0x28,0xf3,0x39,0x81,0x2f,0xee,0x1d,0xe9,0xe1,0xf1,0x27,0xf6,0xd1,0x17,0xb4,0x1,0xab,0xae,0x8,0x26,0xe0,0xc6,0x44,0xe0,0x38,0xe0,0x17,0xeb,0x15,0x2a,0xf5,0xd4,0xe,0x41,0xb0,0x14,0xb8,0xcb,0xe9,0xd4,0xd,0x3,0xfb,0x66,0x3,0xfb,0x14,0x2f,0xea,0x46,0xdc,0xa,0xd9,0xd1,0x37,0x6,0x63,0x30,0xa5,0xdd,0x21,0xef,0xeb,0x46,0xb,0xe7,0xd2,0x33,0xf3,0x1e,0x27,0x1,0xee,0xf,0xcd,0xaa,0xfd,0xaf,0xdb,0x26,0xc5,0xbe,0x3b,0xee,0xeb,0xf8,0x39,0x42,0xda,0x4b,0x1e,0xab,0x28,0xe8,0xfa,0xfc,0xf,0x39,0xb,0x86,0x81,0x27,0x23,0xfe,0x23,0x1,0x33,0x55,0x62,0xc2,0x20,0x3d,0xe6,0x7c,0xdb,0x11,0x7e,0xca,0x45,0xb5,0x2d,0x68,0xc6,0xe2,0x47,0x49,0xdd,0x1a,0xe2,0x41,0xcf,0xb4,0x14,0xca,0xf4,0x2b,0xe,0xf9,0xbc,0xcd,0x8e,0x33,0x1b,0x24,0xe9,0xb2,0xf5,0x2,0x3b,0x52,0xe8,0x7f,0xf,0x14,0x7,0xc3,0x2d,0xb4,0x3,0x37,0xe4,0xcd,0x7,0xf,0x3f,0x55,0xbb,0x4,0xea,0x9c,0xfc,0x35,0xea,0x50,0x0,0x0,0x0,0x0,0x0,0x0,0x0,0x0,0x90,0xf9,0xff,0xff,0x1,0x0,0x0,0x0,0x10,0x0,0x0,0x0,0xc,0x0,0x14,0x0,0x4,0x0,0x8,0x0,0xc,0x0,0x10,0x0,0xc,0x0,0x0,0x0,0x68,0x2,0x0,0x0,0x58,0x2,0x0,0x0,0x4c,0x2,0x0,0x0,0x4,0x0,0x0,0x0,0xb,0x0,0x0,0x0,0x24,0x2,0x0,0x0,0xe4,0x1,0x0,0x0,0x8c,0x1,0x0,0x0,0x54,0x1,0x0,0x0,0x20,0x1,0x0,0x0,0xec,0x0,0x0,0x0,0xb8,0x0,0x0,0x0,0x90,0x0,0x0,0x0,0x68,0x0,0x0,0x0,0x40,0x0,0x0,0x0,0x4,0x0,0x0,0x0,0x52,0xfe,0xff,0xff,0x0,0x0,0x0,0x8,0x2,0x0,0x0,0x0,0x1c,0x0,0x0,0x0,0x10,0x0,0x0,0x0,0x4,0x0,0x0,0x0,0x96,0xfe,0xff,0xff,0x0,0x0,0x0,0x1,0x1,0x0,0x0,0x0,0x15,0x0,0x0,0x0,0x3,0x0,0x0,0x0,0x14,0x0,0x0,0x0,0x2,0x0,0x0,0x0,0xff,0xff,0xff,0xff,0xe,0xff,0xff,0xff,0x4,0x0,0x0,0x0,0x10,0x0,0x0,0x0,0x4,0x0,0x0,0x0,0x1,0x0,0x0,0x0,0x14,0x0,0x0,0x0,0x2,0x0,0x0,0x0,0x13,0x0,0x0,0x0,0x5,0x0,0x0,0x0,0x32,0xff,0xff,0xff,0x6,0x0,0x0,0x0,0x10,0x0,0x0,0x0,0x4,0x0,0x0,0x0,0x1,0x0,0x0,0x0,0x13,0x0,0x0,0x0,0x2,0x0,0x0,0x0,0x12,0x0,0x0,0x0,0x6,0x0,0x0,0x0,0x56,0xff,0xff,0xff,0x4,0x0,0x0,0x0,0x10,0x0,0x0,0x0,0x4,0x0,0x0,0x0,0x1,0x0,0x0,0x0,0x12,0x0,0x0,0x0,0x2,0x0,0x0,0x0,0x11,0x0,0x0,0x0,0x7,0x0,0x0,0x0,0xf6,0xfe,0xff,0xff,0x0,0x0,0x0,0x15,0x1,0x0,0x0,0x0,0x18,0x0,0x0,0x0,0xc,0x0,0x0,0x0,0x4,0x0,0x0,0x0,0xa8,0xfa,0xff,0xff,0x1,0x0,0x0,0x0,0x11,0x0,0x0,0x0,0x2,0x0,0x0,0x0,0x10,0x0,0x0,0x0,0x4,0x0,0x0,0x0,0x26,0xff,0xff,0xff,0x0,0x0,0x0,0x1b,0x5,0x0,0x0,0x0,0x18,0x0,0x0,0x0,0xc,0x0,0x0,0x0,0x4,0x0,0x0,0x0,0xd8,0xfa,0xff,0xff,0x1,0x0,0x0,0x0,0x10,0x0,0x0,0x0,0x2,0x0,0x0,0x0,0xf,0x0,0x0,0x0,0xa,0x0,0x0,0x0,0xda,0xff,0xff,0xff,0x4,0x0,0x0,0x0,0x10,0x0,0x0,0x0,0x4,0x0,0x0,0x0,0x1,0x0,0x0,0x0,0xf,0x0,0x0,0x0,0x2,0x0,0x0,0x0,0xe,0x0,0x0,0x0,0x8,0x0,0x0,0x0,0x0,0x0,0xa,0x0,0x10,0x0,0x4,0x0,0x8,0x0,0xc,0x0,0xa,0x0,0x0,0x0,0x3,0x0,0x0,0x0,0x10,0x0,0x0,0x0,0x4,0x0,0x0,0x0,0x1,0x0,0x0,0x0,0xe,0x0,0x0,0x0,0x2,0x0,0x0,0x0,0xd,0x0,0x0,0x0,0x9,0x0,0x0,0x0,0x0,0x0,0xe,0x0,0x1a,0x0,0x8,0x0,0xc,0x0,0x10,0x0,0x7,0x0,0x14,0x0,0xe,0x0,0x0,0x0,0x0,0x0,0x0,0x8,0x2,0x0,0x0,0x0,0x28,0x0,0x0,0x0,0x1c,0x0,0x0,0x0,0x10,0x0,0x0,0x0,0x0,0x0,0xa,0x0,0x8,0x0,0x0,0x0,0x0,0x0,0x7,0x0,0xa,0x0,0x0,0x0,0x0,0x0,0x0,0x1,0x1,0x0,0x0,0x0,0xd,0x0,0x0,0x0,0x3,0x0,0x0,0x0,0xc,0x0,0x0,0x0,0x3,0x0,0x0,0x0,0xff,0xff,0xff,0xff,0x0,0x0,0xe,0x0,0x18,0x0,0x8,0x0,0xc,0x0,0x10,0x0,0x7,0x0,0x14,0x0,0xe,0x0,0x0,0x0,0x0,0x0,0x0,0x15,0x1,0x0,0x0,0x0,0x18,0x0,0x0,0x0,0xc,0x0,0x0,0x0,0x4,0x0,0x0,0x0,0xc0,0xfb,0xff,0xff,0x1,0x0,0x0,0x0,0xc,0x0,0x0,0x0,0x2,0x0,0x0,0x0,0x0,0x0,0x0,0x0,0xb,0x0,0x0,0x0,0x0,0x0,0xa,0x0,0xc,0x0,0x0,0x0,0x4,0x0,0x8,0x0,0xa,0x0,0x0,0x0,0x10,0x0,0x0,0x0,0x4,0x0,0x0,0x0,0x1,0x0,0x0,0x0,0xb,0x0,0x0,0x0,0x1,0x0,0x0,0x0,0x1,0x0,0x0,0x0,0x1,0x0,0x0,0x0,0x15,0x0,0x0,0x0,0x2,0x0,0x0,0x0,0x0,0x0,0x0,0x0,0x1,0x0,0x0,0x0,0x16,0x0,0x0,0x0,0xc4,0x6,0x0,0x0,0x64,0x6,0x0,0x0,0x94,0x5,0x0,0x0,0x38,0x4,0x0,0x0,0x0,0x4,0x0,0x0,0xc0,0x3,0x0,0x0,0x8c,0x3,0x0,0x0,0x68,0x3,0x0,0x0,0x44,0x3,0x0,0x0,0x20,0x3,0x0,0x0,0xfc,0x2,0x0,0x0,0xb4,0x2,0x0,0x0,0x70,0x2,0x0,0x0,0x2c,0x2,0x0,0x0,0xe8,0x1,0x0,0x0,0x9c,0x1,0x0,0x0,0x58,0x1,0x0,0x0,0x14,0x1,0x0,0x0,0xd8,0x0,0x0,0x0,0x8c,0x0,0x0,0x0,0x48,0x0,0x0,0x0,0x4,0x0,0x0,0x0,0xaa,0xf9,0xff,0xff,0x0,0x0,0x9,0x1,0x2c,0x0,0x0,0x0,0x4,0x0,0x0,0x0,0x94,0xf9,0xff,0xff,0x18,0x0,0x0,0x0,0x4,0x0,0x0,0x0,0x1,0x0,0x0,0x0,0xe4,0xff,0xff,0xff,0xff,0xff,0xff,0xff,0x0,0x0,0x0,0x0,0x1,0x0,0x0,0x0,0xc5,0xda,0xf8,0x3d,0x2,0x0,0x0,0x0,0x1,0x0,0x0,0x0,0x23,0x0,0x0,0x0,0xea,0xf9,0xff,0xff,0x0,0x0,0x9,0x1,0x2c,0x0,0x0,0x0,0x4,0x0,0x0,0x0,0xd4,0xf9,0xff,0xff,0x18,0x0,0x0,0x0,0x4,0x0,0x0,0x0,0x1,0x0,0x0,0x0,0x1,0x0,0x0,0x0,0x0,0x0,0x0,0x0,0x0,0x0,0x0,0x0,0x1,0x0,0x0,0x0,0xa7,0xb8,0x81,0x3d,0x2,0x0,0x0,0x0,0x1,0x0,0x0,0x0,0x40,0x0,0x0,0x0,0x2a,0xfa,0xff,0xff,0x0,0x0,0x9,0x1,0x2c,0x0,0x0,0x0,0x4,0x0,0x0,0x0,0x14,0xfa,0xff,0xff,0x18,0x0,0x0,0x0,0x4,0x0,0x0,0x0,0x1,0x0,0x0,0x0,0x1,0x0,0x0,0x0,0x0,0x0,0x0,0x0,0x0,0x0,0x0,0x0,0x1,0x0,0x0,0x0,0xa7,0xb8,0x81,0x3d,0x4,0x0,0x0,0x0,0x1,0x0,0x0,0x0,0x40,0x0,0x0,0x0,0x1,0x0,0x0,0x0,0x1,0x0,0x0,0x0,0x72,0xfa,0xff,0xff,0x0,0x0,0x9,0x1,0x28,0x0,0x0,0x0,0x4,0x0,0x0,0x0,0x5c,0xfa,0xff,0xff,0x14,0x0,0x0,0x0,0x4,0x0,0x0,0x0,0x1,0x0,0x0,0x0,0x1,0x0,0x0,0x0,0x0,0x0,0x0,0x0,0x1,0x0,0x0,0x0,0xa7,0xb8,0x81,0x3d,0x1,0x0,0x0,0x0,0x40,0x0,0x0,0x0,0xaa,0xfa,0xff,0xff,0x0,0x0,0x9,0x1,0x2c,0x0,0x0,0x0,0x4,0x0,0x0,0x0,0x94,0xfa,0xff,0xff,0x18,0x0,0x0,0x0,0x4,0x0,0x0,0x0,0x1,0x0,0x0,0x0,0x1,0x0,0x0,0x0,0x0,0x0,0x0,0x0,0x0,0x0,0x0,0x0,0x1,0x0,0x0,0x0,0xa7,0xb8,0x81,0x3d,0x2,0x0,0x0,0x0,0x1,0x0,0x0,0x0,0x40,0x0,0x0,0x0,0xea,0xfa,0xff,0xff,0x0,0x0,0x9,0x1,0x2c,0x0,0x0,0x0,0x4,0x0,0x0,0x0,0xd4,0xfa,0xff,0xff,0x18,0x0,0x0,0x0,0x4,0x0,0x0,0x0,0x1,0x0,0x0,0x0,0x1,0x0,0x0,0x0,0x0,0x0,0x0,0x0,0x0,0x0,0x0,0x0,0x1,0x0,0x0,0x0,0x4a,0xbe,0x4e,0x40,0x2,0x0,0x0,0x0,0x1,0x0,0x0,0x0,0x40,0x0,0x0,0x0,0x2a,0xfb,0xff,0xff,0x0,0x0,0x9,0x1,0x2c,0x0,0x0,0x0,0x4,0x0,0x0,0x0,0x14,0xfb,0xff,0xff,0x18,0x0,0x0,0x0,0x4,0x0,0x0,0x0,0x1,0x0,0x0,0x0,0x0,0x0,0x0,0x0,0x0,0x0,0x0,0x0,0x0,0x0,0x0,0x0,0x1,0x0,0x0,0x0,0xfd,0x78,0x72,0x3f,0x4,0x0,0x0,0x0,0x1,0x0,0x0,0x0,0x40,0x0,0x0,0x0,0x1,0x0,0x0,0x0,0x33,0x0,0x0,0x0,0x72,0xfb,0xff,0xff,0x0,0x0,0x9,0x1,0x28,0x0,0x0,0x0,0x4,0x0,0x0,0x0,0x5c,0xfb,0xff,0xff,0x14,0x0,0x0,0x0,0x4,0x0,0x0,0x0,0x1,0x0,0x0,0x0,0x0,0x0,0x0,0x0,0x0,0x0,0x0,0x0,0x1,0x0,0x0,0x0,0xfd,0x78,0x72,0x3f,0x3,0x0,0x0,0x0,0x1,0x0,0x0,0x0,0x40,0x0,0x0,0x0,0x33,0x0,0x0,0x0,0xb2,0xfb,0xff,0xff,0x0,0x0,0x9,0x1,0x28,0x0,0x0,0x0,0x4,0x0,0x0,0x0,0x9c,0xfb,0xff,0xff,0x14,0x0,0x0,0x0,0x4,0x0,0x0,0x0,0x1,0x0,0x0,0x0,0x0,0x0,0x0,0x0,0x0,0x0,0x0,0x0,0x1,0x0,0x0,0x0,0xfd,0x78,0x72,0x3f,0x3,0x0,0x0,0x0,0x1,0x0,0x0,0x0,0x33,0x0,0x0,0x0,0x40,0x0,0x0,0x0,0xf2,0xfb,0xff,0xff,0x0,0x0,0x9,0x1,0x28,0x0,0x0,0x0,0x4,0x0,0x0,0x0,0xdc,0xfb,0xff,0xff,0x14,0x0,0x0,0x0,0x4,0x0,0x0,0x0,0x1,0x0,0x0,0x0,0xff,0xff,0xff,0xff,0xff,0xff,0xff,0xff,0x1,0x0,0x0,0x0,0xe0,0xaf,0x9c,0x3f,0x3,0x0,0x0,0x0,0x1,0x0,0x0,0x0,0x33,0x0,0x0,0x0,0x80,0x0,0x0,0x0,0x32,0xfc,0xff,0xff,0x0,0x0,0x9,0x1,0x2c,0x0,0x0,0x0,0x4,0x0,0x0,0x0,0x1c,0xfc,0xff,0xff,0x18,0x0,0x0,0x0,0x4,0x0,0x0,0x0,0x1,0x0,0x0,0x0,0x80,0xff,0xff,0xff,0xff,0xff,0xff,0xff,0x0,0x0,0x0,0x0,0x1,0x0,0x0,0x0,0xe9,0xc5,0x7d,0x3e,0x3,0x0,0x0,0x0,0x1,0x0,0x0,0x0,0x33,0x0,0x0,0x0,0x80,0x0,0x0,0x0,0x9e,0xfd,0xff,0xff,0x0,0x0,0x2,0x1,0x10,0x0,0x0,0x0,0x9,0x0,0x0,0x0,0x4,0x0,0x0,0x0,0x50,0xff,0xff,0xff,0x1,0x0,0x0,0x0,0x2,0x0,0x0,0x0,0xbe,0xfd,0xff,0xff,0x0,0x0,0x2,0x1,0x10,0x0,0x0,0x0,0x8,0x0,0x0,0x0,0x4,0x0,0x0,0x0,0x70,0xff,0xff,0xff,0x1,0x0,0x0,0x0,0x3,0x0,0x0,0x0,0xde,0xfd,0xff,0xff,0x0,0x0,0x2,0x1,0x10,0x0,0x0,0x0,0x7,0x0,0x0,0x0,0x4,0x0,0x0,0x0,0x90,0xff,0xff,0xff,0x1,0x0,0x0,0x0,0x4,0x0,0x0,0x0,0xfe,0xfd,0xff,0xff,0x0,0x0,0x2,0x1,0x10,0x0,0x0,0x0,0x6,0x0,0x0,0x0,0x4,0x0,0x0,0x0,0xb0,0xff,0xff,0xff,0x1,0x0,0x0,0x0,0x1,0x0,0x0,0x0,0x1e,0xfe,0xff,0xff,0x0,0x0,0x2,0x1,0x10,0x0,0x0,0x0,0x5,0x0,0x0,0x0,0x4,0x0,0x0,0x0,0xd0,0xff,0xff,0xff,0x5,0x0,0x0,0x0,0x1,0x0,0x0,0x0,0x40,0x0,0x0,0x0,0x1,0x0,0x0,0x0,0x1,0x0,0x0,0x0,0x1,0x0,0x0,0x0,0x4e,0xfe,0xff,0xff,0x0,0x0,0x2,0x1,0x14,0x0,0x0,0x0,0x4,0x0,0x0,0x0,0x8,0x0,0x0,0x0,0x4,0x0,0x4,0x0,0x4,0x0,0x0,0x0,0x1,0x0,0x0,0x0,0x2,0x0,0x0,0x0,0x0,0x0,0x16,0x0,0x10,0x0,0x0,0x0,0x6,0x0,0x8,0x0,0x0,0x0,0xc,0x0,0x0,0x0,0x0,0x0,0x0,0x0,0x7,0x0,0x16,0x0,0x0,0x0,0x0,0x0,0x9,0x1,0x3,0x0,0x0,0x0,0x4,0x0,0x0,0x0,0x4c,0xfd,0xff,0xff,0x18,0x0,0x0,0x0,0x4,0x0,0x0,0x0,0x1,0x0,0x0,0x0,0x80,0xff,0xff,0xff,0xff,0xff,0xff,0xff,0x0,0x0,0x0,0x0,0x1,0x0,0x0,0x0,0xe3,0x41,0xa1,0x38,0xbe,0xfe,0xff,0xff,0x0,0x0,0x9,0x1,0x2c,0x1,0x0,0x0,0x2,0x0,0x0,0x0,0x4,0x0,0x0,0x0,0x84,0xfd,0xff,0xff,0x18,0x0,0x0,0x0,0x4,0x0,0x0,0x0,0x1,0x0,0x0,0x0,0x0,0x0,0x0,0x0,0x0,0x0,0x0,0x0,0x0,0x0,0x0,0x0,0x40,0x0,0x0,0x0,0xd,0x23,0x8f,0x3b,0xe9,0x2c,0x95,0x3b,0x0,0x20,0x94,0x3b,0x6,0xcf,0x9e,0x3b,0x11,0xc3,0x7b,0x3b,0xc4,0xac,0x8c,0x3b,0xd0,0xe5,0x7f,0x3b,0x74,0x94,0x95,0x3b,0xd2,0x82,0x8e,0x3b,0xea,0xf1,0x84,0x3b,0xbf,0x43,0xb5,0x3b,0x30,0x3f,0x8a,0x3b,0x25,0x90,0xa6,0x3b,0xdc,0xdf,0x80,0x3b,0xf2,0xce,0x87,0x3b,0xda,0xbf,0xc1,0x3b,0xf3,0xea,0x8e,0x3b,0xf5,0xc9,0xbf,0x3b,0x57,0x8e,0x9c,0x3b,0x56,0xac,0x8c,0x3b,0x11,0x3,0xb3,0x3b,0xca,0xec,0xa4,0x3b,0x6c,0xe0,0x80,0x3b,0x4c,0xc8,0x8c,0x3b,0x2c,0xa5,0x80,0x3b,0x9d,0x2d,0x86,0x3b,0x92,0xb7,0x9e,0x3b,0x9d,0xec,0x8e,0x3b,0xe7,0xd6,0xbc,0x3b,0xce,0x15,0x8b,0x3b,0xeb,0x7,0xaf,0x3b,0x7d,0x7c,0x8b,0x3b,0x24,0x83,0x87,0x3b,0xbd,0xdd,0x99,0x3b,0x82,0x26,0xb4,0x3b,0xb3,0x5a,0x7d,0x3b,0x62,0x16,0xba,0x3b,0x82,0x16,0x99,0x3b,0x41,0xc8,0xb7,0x3b,0xf6,0x35,0x96,0x3b,0xff,0xad,0x9d,0x3b,0xa0,0xb4,0xb7,0x3b,0x1a,0xd3,0x99,0x3b,0x14,0x40,0x67,0x3b,0x4,0xbd,0x74,0x3b,0x5d,0x58,0x94,0x3b,0xf8,0x91,0x9c,0x3b,0x25,0x55,0xac,0x3b,0x11,0xf9,0x68,0x3b,0x3c,0x3b,0x92,0x3b,0x5a,0xbd,0xab,0x3b,0x9a,0x55,0x9e,0x3b,0xa1,0x69,0xaf,0x3b,0xe,0x21,0xa6,0x3b,0xe3,0xf6,0xa0,0x3b,0xf1,0x48,0x89,0x3b,0x68,0x5e,0xb4,0x3b,0x31,0x29,0x84,0x3b,0xe2,0xf2,0x8c,0x3b,0x7c,0x80,0x97,0x3b,0x47,0x5f,0x98,0x3b,0xd5,0x48,0xa5,0x3b,0xf3,0x1,0x8a,0x3b,0xa0,0x79,0x87,0x3b,0x2,0x0,0x0,0x0,0x40,0x0,0x0,0x0,0x80,0x0,0x0,0x0,0x0,0x0,0x16,0x0,0x14,0x0,0x8,0x0,0x6,0x0,0xc,0x0,0x0,0x0,0x10,0x0,0x0,0x0,0x0,0x0,0x0,0x0,0x7,0x0,0x16,0x0,0x0,0x0,0x0,0x0,0x9,0x1,0xb8,0x0,0x0,0x0,0x1,0x0,0x0,0x0,0x4,0x0,0x0,0x0,0xdc,0xfe,0xff,0xff,0x18,0x0,0x0,0x0,0x4,0x0,0x0,0x0,0x1,0x0,0x0,0x0,0x0,0x0,0x0,0x0,0x0,0x0,0x0,0x0,0x0,0x0,0x0,0x0,0x23,0x0,0x0,0x0,0x84,0x1f,0x24,0x3b,0xb6,0x82,0x56,0x3b,0xe1,0xc8,0x38,0x3b,0x2e,0xc2,0x88,0x3b,0xdc,0xb1,0x35,0x3b,0xcd,0xd0,0x11,0x3b,0x4,0xe3,0x2d,0x3b,0x15,0xb,0x18,0x3b,0x76,0xdf,0x26,0x3b,0x95,0xc9,0x13,0x3b,0x93,0x38,0x35,0x3b,0x67,0xcf,0x41,0x3b,0x5f,0x46,0x64,0x3b,0x82,0xda,0x57,0x3b,0xfc,0x69,0x26,0x3b,0xd5,0xcc,0x5a,0x3b,0x96,0x98,0xc,0x3b,0xd3,0x56,0x2f,0x3b,0xc9,0xd6,0x35,0x3b,0x25,0x6e,0x13,0x3b,0xc,0x36,0x37,0x3b,0x27,0xa8,0x38,0x3b,0x25,0x9f,0x2a,0x3b,0xc3,0x1,0xd,0x3b,0xa6,0x3e,0x2d,0x3b,0xd9,0xa2,0x3f,0x3b,0x91,0x35,0x6e,0x3b,0x0,0x9a,0x21,0x3b,0xb0,0xb5,0x4c,0x3b,0x78,0xd5,0x3e,0x3b,0xd7,0xbe,0x2c,0x3b,0xc9,0x45,0x1d,0x3b,0x10,0xca,0x2b,0x3b,0xba,0x48,0x43,0x3b,0xa8,0x2d,0x28,0x3b,0x2,0x0,0x0,0x0,0x23,0x0,0x0,0x0,0x40,0x0,0x0,0x0,0xba,0xff,0xff,0xff,0x0,0x0,0x9,0x1,0x2c,0x0,0x0,0x0,0x4,0x0,0x0,0x0,0xa4,0xff,0xff,0xff,0x18,0x0,0x0,0x0,0x4,0x0,0x0,0x0,0x1,0x0,0x0,0x0,0x10,0x0,0x0,0x0,0x0,0x0,0x0,0x0,0x0,0x0,0x0,0x0,0x1,0x0,0x0,0x0,0xe6,0x51,0x11,0x3f,0x3,0x0,0x0,0x0,0x1,0x0,0x0,0x0,0x33,0x0,0x0,0x0,0x80,0x0,0x0,0x0,0x0,0x0,0x16,0x0,0x10,0x0,0x8,0x0,0x6,0x0,0x0,0x0,0x0,0x0,0xc,0x0,0x0,0x0,0x0,0x0,0x0,0x0,0x7,0x0,0x16,0x0,0x0,0x0,0x0,0x0,0x9,0x1,0x34,0x0,0x0,0x0,0x10,0x0,0x0,0x0,0xc,0x0,0xc,0x0,0x0,0x0,0x0,0x0,0x4,0x0,0x8,0x0,0xc,0x0,0x0,0x0,0x14,0x0,0x0,0x0,0x4,0x0,0x0,0x0,0x1,0x0,0x0,0x0,0xf3,0xff,0xff,0xff,0xff,0xff,0xff,0xff,0x1,0x0,0x0,0x0,0x48,0x38,0xa8,0x3e,0x3,0x0,0x0,0x0,0x1,0x0,0x0,0x0,0x33,0x0,0x0,0x0,0x80,0x0,0x0,0x0,0x7,0x0,0x0,0x0,0x80,0x0,0x0,0x0,0x64,0x0,0x0,0x0,0x50,0x0,0x0,0x0,0x34,0x0,0x0,0x0,0x24,0x0,0x0,0x0,0x14,0x0,0x0,0x0,0x4,0x0,0x0,0x0,0xa8,0xff,0xff,0xff,0x0,0x0,0x0,0x6b,0x6b,0x0,0x0,0x0,0xb4,0xff,0xff,0xff,0x0,0x0,0x0,0x4a,0x4a,0x0,0x0,0x0,0xc0,0xff,0xff,0xff,0x0,0x0,0x0,0x16,0x16,0x0,0x0,0x0,0xcc,0xff,0xff,0xff,0x0,0x0,0x0,0x27,0x27,0x0,0x0,0x0,0xc,0x0,0x10,0x0,0x7,0x0,0x0,0x0,0x8,0x0,0xc,0x0,0xc,0x0,0x0,0x0,0x0,0x0,0x0,0x9,0x5,0x0,0x0,0x0,0x9,0x0,0x0,0x0,0xf4,0xff,0xff,0xff,0x0,0x0,0x0,0x12,0x12,0x0,0x0,0x0,0xc,0x0,0xc,0x0,0x7,0x0,0x0,0x0,0x0,0x0,0x8,0x0,0xc,0x0,0x0,0x0,0x0,0x0,0x0,0x13,0x13,0x0,0x0,0x0};
