#include <cstdint>

#include "model_step_ssm_int8_kws_model_data.h"

alignas(16) const unsigned char g_model_step_ssm_int8_kws_model_data[] = {0x1c,0x0,0x0,0x0,0x54,0x46,0x4c,0x33,0x0,0x0,0x12,0x0,0x18,0x0,0x4,0x0,0x8,0x0,0xc,0x0,0x0,0x0,0x10,0x0,0x0,0x0,0x14,0x0,0x12,0x0,0x0,0x0,0x3,0x0,0x0,0x0,0xfc,0x2f,0x0,0x0,0xe0,0x21,0x0,0x0,0x68,0x0,0x0,0x0,0x4,0x0,0x0,0x0,0x2,0x0,0x0,0x0,0x38,0x0,0x0,0x0,0x4,0x0,0x0,0x0,0xd8,0xff,0xff,0xff,0x8,0x0,0x0,0x0,0xa,0x0,0x0,0x0,0x17,0x0,0x0,0x0,0x6b,0x65,0x65,0x70,0x5f,0x73,0x74,0x61,0x62,0x6c,0x65,0x68,0x6c,0x6f,0x5f,0x63,0x6f,0x6e,0x73,0x74,0x61,0x6e,0x74,0x0,0x8,0x0,0xc,0x0,0x4,0x0,0x8,0x0,0x8,0x0,0x0,0x0,0x8,0x0,0x0,0x0,0x9,0x0,0x0,0x0,0x13,0x0,0x0,0x0,0x6d,0x69,0x6e,0x5f,0x72,0x75,0x6e,0x74,0x69,0x6d,0x65,0x5f,0x76,0x65,0x72,0x73,0x69,0x6f,0x6e,0x0,0xb,0x0,0x0,0x0,0x6c,0x21,0x0,0x0,0x58,0x1d,0x0,0x0,0x44,0x19,0x0,0x0,0x30,0x11,0x0,0x0,0xc,0x11,0x0,0x0,0xf8,0x10,0x0,0x0,0xe4,0x8,0x0,0x0,0x50,0x8,0x0,0x0,0x3c,0x0,0x0,0x0,0x18,0x0,0x0,0x0,0x4,0x0,0x0,0x0,0xe2,0xd9,0xff,0xff,0x4,0x0,0x0,0x0,0x4,0x0,0x0,0x0,0x74,0x72,0x75,0x65,0xf2,0xd9,0xff,0xff,0x4,0x0,0x0,0x0,0x10,0x0,0x0,0x0,0x32,0x2e,0x30,0x2e,0x30,0x0,0x0,0x0,0x0,0x0,0x0,0x0,0x0,0x0,0x0,0x0,0x0,0x0,0x0,0x0,0x12,0xda,0xff,0xff,0x4,0x0,0x0,0x0,0x0,0x8,0x0,0x0,0x26,0xef,0xcc,0xc5,0xfa,0x7,0xfc,0x81,0x2e,0xe1,0xa6,0xaa,0xe,0xfe,0xbf,0xda,0xe4,0xd6,0xd8,0x9,0xf4,0xe5,0x43,0xda,0x6,0x16,0xfa,0xc1,0xe0,0xe9,0xf2,0xc0,0x3,0xcf,0xfe,0xeb,0x1d,0xf2,0xc,0x38,0x3b,0x1,0xf,0xb7,0xfe,0xe4,0x2,0xeb,0xea,0xed,0xd6,0xf8,0x12,0xe3,0xd6,0x3a,0xf4,0xd,0x2e,0x11,0x0,0x6,0xac,0x1e,0xd7,0xd,0xdb,0x4,0x57,0xd3,0xe6,0xe7,0xf8,0xc8,0xe5,0x23,0xfb,0x1b,0xd7,0xa1,0x30,0x2f,0x5,0x56,0x57,0xc3,0x3a,0x1e,0x2c,0xe9,0xd8,0x9,0x2e,0x21,0xe4,0x19,0xc2,0x18,0x46,0x2d,0x5a,0x11,0x19,0x1d,0x32,0xf2,0x31,0xcc,0x21,0xfa,0xe8,0x26,0x1a,0x15,0x48,0xe9,0xf5,0xf6,0xd9,0x9e,0x16,0x28,0x1f,0xc,0x3,0xd9,0x5,0x19,0xde,0xf2,0xcd,0xf1,0xcb,0xc,0xe2,0xd8,0xee,0xb,0xe8,0x15,0xe7,0xe3,0x26,0x12,0xb8,0x15,0x15,0x2e,0xe5,0xdb,0x2d,0xf3,0xee,0xfd,0xe7,0xe6,0xe1,0xc1,0x55,0xe2,0x5e,0xe9,0xd6,0x9,0xef,0xd,0x7,0xc7,0xf4,0xe9,0xe2,0x33,0xfc,0x8,0x4,0x1b,0xe6,0xb,0xbf,0xf3,0x1c,0xec,0x1b,0x1d,0x1a,0xde,0x28,0xe0,0xa,0xf8,0xe4,0xa,0xee,0xe6,0x2,0xfa,0x1,0xe3,0xe4,0x4,0x39,0xe4,0xd4,0x1b,0x7f,0x8,0x2b,0xa4,0x3f,0x20,0xf7,0x19,0x47,0xef,0x47,0x36,0xbe,0x23,0xec,0xe2,0x8,0x2c,0xf5,0x2,0xf,0xc4,0x23,0xfa,0x1f,0xa,0x9,0x0,0x2d,0xfe,0x1a,0xfd,0x12,0xf0,0x19,0x1a,0x32,0xf,0x2,0xe1,0x29,0x8,0xfa,0x3a,0x2,0x14,0xf0,0xf3,0xe4,0xec,0xe5,0xf,0x7,0x3,0x7f,0x1e,0x4d,0x22,0xd7,0x6,0x49,0xf3,0x5,0x28,0x2d,0x0,0xd7,0xfc,0x29,0x3b,0x10,0xd8,0xd3,0xe9,0x25,0x16,0xdf,0x2d,0xfd,0x7,0xb9,0x25,0xf3,0xc6,0xfb,0x14,0x2a,0xc3,0x1a,0xe,0xcf,0x9,0x4,0x23,0xe2,0x22,0xb4,0x10,0xd6,0x50,0xa,0xe2,0xa5,0x1b,0xca,0xcb,0xb,0x12,0x22,0x7,0xa,0x27,0x8,0xe5,0x3,0xf1,0xf9,0xf4,0xf5,0x2c,0x12,0xec,0x51,0x33,0xca,0x3c,0xf1,0x6,0x54,0x34,0xc1,0x4e,0x9c,0xf8,0xef,0xfd,0x38,0x22,0xc4,0xcd,0x6,0xfd,0x2d,0xe2,0xd,0x28,0xf9,0xe9,0xe1,0xdf,0xfa,0xc,0xeb,0x1,0xe4,0x4,0xda,0xd6,0x6,0x1b,0x20,0x6,0x2f,0xa,0xf6,0xf4,0x1c,0xd4,0x9,0xd1,0xed,0xf6,0xe1,0xbe,0x11,0xed,0xff,0xc0,0xf0,0xf0,0xf5,0xfa,0x2c,0xf,0xa,0x20,0x17,0x31,0x15,0x15,0xe6,0xf9,0xea,0x19,0x5,0xde,0x2b,0xc,0xdf,0x21,0xe3,0x1b,0x25,0xd,0x3e,0x10,0xfa,0xff,0xe5,0xed,0xb3,0x9d,0x1a,0xd4,0xfa,0xfd,0x19,0xe,0xe4,0xf6,0x10,0xff,0x21,0xcf,0xe1,0x21,0xfd,0xdc,0xda,0xfd,0xfc,0x6,0xd5,0x8,0xcc,0x41,0xfe,0x24,0xe7,0x4,0xfc,0xf8,0xdb,0xcb,0xea,0x10,0xfa,0xfe,0xdc,0xa,0xe3,0x8,0xc4,0x3b,0xe8,0x3f,0xaf,0xf5,0x11,0x99,0x8,0xf7,0x24,0x16,0xd6,0x34,0x20,0xf0,0x8,0x3d,0xfa,0xf9,0xcc,0xb,0xe7,0x22,0xeb,0x54,0xd3,0xec,0xd4,0x47,0xfa,0xe3,0xf1,0x1f,0x3a,0x17,0xe2,0xf0,0x12,0x8,0x6,0xfb,0x1d,0xc0,0xe,0xaf,0x9,0xe7,0x28,0x81,0x14,0xd,0xd2,0x19,0x12,0xea,0x28,0x22,0x21,0xd5,0xf8,0xe1,0x38,0xf,0xf8,0x16,0xdf,0xf7,0x6,0xf9,0xf1,0xc6,0x9,0x16,0x2,0x3,0x7f,0x9,0x29,0xea,0xef,0x0,0x19,0xbe,0xf6,0x1e,0xef,0xe3,0xf7,0xf8,0xe,0x0,0x22,0x11,0xf3,0x2e,0xf,0xfd,0x27,0xc2,0xfa,0xe,0xe1,0x9,0x1c,0xf5,0x31,0xee,0x35,0xdf,0x29,0x3,0xde,0xf4,0xee,0x3,0xf0,0x10,0xe4,0x4,0xb4,0xe,0xfa,0xd3,0xe7,0x48,0xff,0xff,0xec,0xf6,0xf,0xe,0x6,0xea,0x2f,0xdd,0x43,0xdd,0x1b,0x1a,0xee,0xf5,0x14,0x21,0x12,0xe2,0x7,0x3,0x43,0x14,0x38,0x0,0x11,0x5,0xfc,0xd9,0xe4,0x3,0x24,0x27,0xf,0xf6,0xa,0xf2,0x29,0x8,0x17,0xe5,0xc6,0xdf,0x12,0xd,0xe,0x1b,0x7,0x7d,0xfa,0x9,0x27,0xb8,0x8,0xf5,0x1f,0xe1,0x5,0xfd,0x4a,0x2f,0xf6,0x2e,0xe2,0x9b,0x2c,0x17,0xaa,0xc,0xf5,0x3,0xe4,0x33,0x14,0xc9,0xe1,0xea,0xe2,0xc,0xfb,0xf3,0xd5,0x8,0x33,0xfa,0xf7,0xd8,0xe2,0x2d,0xe5,0xd,0x2,0xe,0xe4,0x25,0xe2,0xa,0x12,0xe5,0x47,0x37,0xd4,0x47,0xe4,0x4d,0x10,0x11,0x1e,0x8,0xcd,0x37,0x6,0x3,0xcb,0xfe,0xe6,0x22,0x19,0xd2,0xe3,0xd2,0x2f,0xfd,0x26,0xd0,0x55,0x5c,0xeb,0x25,0x81,0x19,0x8,0x25,0xad,0xd9,0x24,0x63,0x3,0xf3,0x2b,0xee,0xf5,0xdc,0x7,0xf9,0xe,0xdd,0xe0,0xe6,0xfa,0x2a,0xcc,0xd7,0xae,0x12,0x6,0x14,0xf,0x46,0xeb,0xde,0x13,0x70,0x26,0xf3,0xda,0x4,0x33,0xc3,0xc9,0xfc,0x2c,0x2,0xec,0x45,0x2f,0xe5,0xeb,0xd2,0xc8,0xeb,0x15,0xbc,0xca,0x2a,0x35,0xa,0x3b,0xf,0x1b,0xff,0x34,0x5,0xe9,0x23,0x22,0xd8,0xef,0xfd,0x3b,0xdd,0xea,0xd3,0xf2,0xde,0xae,0x21,0xce,0xcf,0x53,0xf0,0x47,0x1b,0x39,0xf6,0x97,0x24,0xbd,0x4,0x36,0xa,0x1,0x3,0xa7,0xac,0xab,0x23,0x12,0x7f,0x68,0x2f,0x17,0xe1,0xf0,0xee,0x3,0xda,0xf1,0xc8,0x4,0xf1,0x6,0xc7,0xe4,0xc4,0xf6,0x7,0x2a,0xf3,0x2c,0x3f,0x2b,0x1,0x40,0xd8,0xc3,0xe5,0xdb,0xd,0x11,0x30,0xa8,0xed,0x4a,0x54,0xf0,0xac,0xa,0xc5,0xf2,0x32,0xe9,0xee,0x4,0xd7,0x4,0xf4,0x0,0x6,0x2a,0xfd,0xb8,0x1b,0xb0,0xb1,0xf4,0xf8,0x2a,0xa9,0x2e,0xe3,0xff,0xf7,0xfd,0xea,0xdd,0x20,0x9,0x16,0x76,0xe1,0xe,0x7e,0x5,0x29,0x4,0xfb,0xef,0x28,0xe5,0x1a,0xf3,0x6,0xf8,0xf9,0x10,0xf5,0x1d,0xde,0xe9,0x3,0x3b,0xf6,0xdd,0xf6,0x18,0xd1,0xe3,0xf8,0xf2,0x53,0x2,0x12,0xe1,0x5,0x7f,0xe8,0xda,0xe8,0x6,0xb,0x17,0x9,0x2,0xe4,0xdb,0xe0,0xf9,0x2c,0x25,0x12,0x33,0xdf,0x35,0xb4,0xfc,0xb9,0xe,0x15,0x21,0x29,0xe3,0xf5,0x37,0xcf,0xf8,0x7,0x15,0xc7,0x26,0x13,0x5,0x3,0xf7,0xdc,0xcc,0x2f,0x13,0xe1,0xf0,0x24,0xe2,0x27,0xe1,0x2,0x43,0x5,0xe3,0xf5,0xc4,0x1b,0x9,0x93,0xe,0xed,0x16,0xe7,0xfb,0x0,0xea,0xaf,0x17,0x26,0xed,0xed,0xf0,0x24,0xf,0xf3,0xc8,0x11,0xfc,0x6,0x8,0xf3,0xda,0x1c,0x30,0xed,0xf9,0x48,0x16,0xf4,0x31,0xc,0x3c,0xe6,0xf4,0xd6,0xf7,0x4,0xfe,0x94,0x2f,0xcd,0xdc,0x2a,0xb7,0x1a,0x3,0xdd,0x18,0x37,0x17,0xde,0xee,0x5f,0x4,0xff,0x10,0xf0,0x15,0xe7,0x1,0x24,0xea,0x33,0xe1,0x33,0xf8,0xd,0xdb,0x17,0x41,0x29,0xfd,0x24,0xd8,0x1b,0x9,0x7,0xe0,0xf9,0xc3,0xc1,0x2,0xf1,0xc5,0xbe,0x16,0x38,0x21,0xeb,0xa,0x81,0xf4,0xc,0x3d,0xfb,0x2d,0x20,0xe4,0x37,0xf8,0xe4,0xea,0x52,0xb1,0xf0,0x8,0xf7,0x27,0xd6,0xf,0x30,0xa,0x5,0x1f,0xe2,0x33,0x32,0xe7,0xe6,0x61,0xd0,0x7,0xc6,0x2,0x10,0xc9,0xad,0xe,0x2c,0x11,0x1,0x1e,0xd1,0x5,0x18,0x15,0x1c,0x11,0x22,0x88,0xe1,0xe9,0x17,0x28,0xaa,0xb,0xdf,0x37,0xf2,0x15,0x3c,0x16,0x4a,0xec,0x28,0x1f,0x25,0xa,0x34,0x18,0xf,0x11,0x22,0x14,0xd,0xe2,0x87,0xad,0xfb,0x40,0xe2,0x34,0x9d,0x1a,0x0,0x5,0xe1,0xf2,0x3c,0x13,0xf6,0xff,0x20,0x3,0x11,0xd8,0xd4,0xed,0xfd,0x12,0x28,0x3d,0xc7,0x36,0xdb,0x97,0x5,0xc6,0x1c,0x26,0x33,0xa,0x15,0xd,0xe4,0xe3,0x30,0xfe,0x51,0xe,0x35,0xa,0x18,0x94,0x3b,0x32,0x10,0x25,0x7f,0x1e,0xa,0x12,0xa5,0xd5,0xf5,0xe4,0xc2,0xf3,0xfa,0x0,0x44,0x6,0x1,0xd,0x8,0xde,0x16,0x9,0x1a,0x59,0x32,0x13,0x47,0x5,0x13,0x28,0x2c,0xd8,0x1,0xb5,0x22,0xdd,0xf3,0xb,0xb1,0x13,0x2b,0xe9,0xc4,0xe6,0x7,0x10,0xfb,0xef,0xa5,0xeb,0xe6,0xd5,0xb9,0xbb,0xe,0xb8,0x50,0xb8,0x66,0xf6,0xf5,0xff,0xe,0x45,0x21,0x1a,0x9e,0xd2,0x0,0x31,0x27,0x5,0x14,0x17,0x12,0xf,0x14,0xf9,0x69,0x32,0xe1,0xd5,0xef,0xfc,0x2e,0xf4,0x0,0x7,0xfa,0x13,0x2a,0xf5,0xf2,0x12,0xf,0xb,0xd,0xfa,0x7,0xee,0x20,0xf0,0xe7,0x10,0xc,0xea,0x19,0xfe,0xf1,0x17,0xe7,0xf,0xf,0x2,0xd9,0x3,0x7,0xfb,0x2,0xfa,0xe5,0xf0,0xf0,0xfd,0xf,0x6,0xd,0xdf,0xf5,0xef,0x81,0x20,0xe8,0x15,0x17,0xf7,0xf,0x28,0xde,0x19,0xf6,0x25,0x19,0xc,0x12,0x17,0x9,0x2,0xc,0xed,0x21,0xe7,0xd,0xdc,0xf1,0xe2,0x2f,0xd1,0xe2,0x42,0x10,0xb,0xeb,0xd1,0x17,0x0,0xec,0xf1,0xeb,0xf,0xf9,0xf4,0xe0,0xf1,0x2,0x1,0xf3,0xed,0x2,0x21,0x9,0x2e,0x12,0xc,0x6,0xfb,0xeb,0x13,0xe4,0xf8,0xea,0xf1,0x1f,0xeb,0x4,0x1f,0x12,0x1e,0xe0,0xf8,0x16,0x0,0x2e,0x11,0xed,0xe2,0xc8,0x3,0x3b,0xf2,0xca,0x17,0x10,0x2d,0x18,0xe5,0x14,0xff,0xb2,0xb,0xf8,0xd7,0x81,0xe3,0xe4,0xda,0x4e,0x14,0xe9,0x29,0x30,0xba,0xb2,0x47,0xd8,0xf3,0xe3,0xfb,0x4f,0x57,0xba,0xe6,0x36,0xd9,0xe6,0x6,0x23,0xe1,0x12,0xfd,0x3c,0xd8,0xd4,0xe9,0x8,0x4c,0x97,0xe2,0xc8,0x30,0x5,0xa,0x1a,0x28,0xbd,0xa6,0xed,0xb7,0xf2,0x0,0x4d,0xfc,0xec,0x31,0xdc,0xee,0xef,0xdf,0x25,0x70,0xb7,0xf8,0x40,0x1d,0xd2,0xfd,0xeb,0xc5,0xb6,0x10,0x1,0xfb,0x10,0xee,0x71,0xd0,0x19,0xff,0xe8,0x33,0x6d,0x7,0x9,0x1,0xf4,0xf7,0x1a,0x1,0xe7,0xfe,0xe2,0xe0,0xf4,0xeb,0x1c,0xc3,0x0,0xd5,0x68,0xcc,0xca,0xe3,0xcf,0xd8,0xfe,0x10,0xdf,0x75,0xf,0x10,0x25,0xf4,0x37,0xed,0x2b,0xd,0xc,0xfa,0x20,0xb2,0x1e,0xaf,0xcd,0x10,0x27,0x2b,0x43,0x1f,0x24,0x6,0xa6,0x1,0xfe,0xf8,0x32,0xa,0x4,0xfd,0x9,0xf,0xf9,0xfd,0xf8,0x38,0xf2,0xdf,0x28,0x46,0x1d,0x1b,0x2e,0xd7,0xe,0xd0,0xe3,0x3e,0x27,0x10,0xe0,0xce,0x13,0x2,0x1d,0x22,0xf5,0xa4,0x19,0xdb,0xe,0xc5,0x0,0xef,0xfe,0xe4,0x34,0x21,0xe6,0x25,0xe5,0x19,0x11,0xc,0x3,0xec,0xef,0x11,0xd2,0x15,0xff,0x6,0x4f,0xfa,0x10,0xd8,0x12,0xc8,0xeb,0xe1,0x13,0xc0,0x1a,0x22,0xd1,0xe6,0x28,0xe6,0x1,0x1d,0xed,0xec,0xe9,0x31,0xde,0xc9,0x29,0x6,0x13,0x22,0xfa,0x81,0xf5,0xb,0x15,0xe8,0xfb,0xcd,0xe2,0x42,0xff,0xea,0x10,0x9,0x17,0xfe,0x1,0x47,0xe,0xff,0x14,0x7,0xd4,0xc8,0xf4,0x33,0xdc,0x28,0x7,0x18,0x13,0xda,0x29,0xb1,0x2f,0xf5,0x4e,0xef,0x53,0x1c,0x69,0xe5,0xf2,0xf5,0x1a,0x33,0x22,0xa8,0x2d,0x9,0xf1,0xfb,0xd6,0x89,0x22,0xec,0xe4,0xd3,0x3b,0xe6,0x3,0xe6,0x37,0xe,0x2d,0x17,0xe0,0xd2,0x1a,0xe2,0x8c,0x4b,0x25,0xc7,0xd8,0x21,0x8,0xd4,0x1b,0xfd,0xf7,0x39,0xf3,0x32,0x4f,0xdf,0xc5,0x27,0xb,0x1a,0x10,0xc,0x39,0xf1,0xeb,0x1f,0x2b,0x46,0x1f,0x49,0xad,0x4,0xf4,0x2a,0xd9,0xca,0xb0,0xdb,0x16,0x4,0xb1,0xd4,0xda,0xde,0x13,0xe,0xeb,0x4,0x9,0x81,0x11,0x1b,0x0,0x59,0xef,0xc2,0xe1,0xc,0xb2,0x1b,0xbd,0xfa,0x9e,0xe5,0xf9,0xd2,0xb9,0x9d,0x35,0x21,0xd8,0x19,0xaa,0xf1,0xf5,0x2d,0xfa,0x7,0xe6,0xbf,0x26,0x4c,0xf0,0xda,0x59,0xcb,0xb7,0x5e,0xf6,0xcc,0x44,0x8,0xfa,0x2c,0xb,0x18,0xfd,0xfe,0x9,0x22,0x4,0xe5,0x1a,0x2,0xde,0x2b,0xea,0x1e,0x3a,0xe8,0xf0,0x2b,0xb,0x5,0x20,0x21,0x11,0xf9,0xf4,0xe,0x8,0xdb,0xf6,0xe4,0x7,0xf7,0x25,0x81,0xec,0xe4,0xde,0x1f,0x36,0xb,0xb6,0xdf,0xda,0xe7,0x33,0xf5,0x2,0xf4,0x0,0xeb,0x1c,0x15,0xf7,0xe9,0x2b,0xe,0xf1,0xb,0xfe,0x21,0x13,0x18,0xf1,0xdd,0x1c,0x9,0x24,0xf6,0x15,0xed,0xfb,0x4,0xe8,0xf8,0x19,0x10,0xa3,0x1b,0x20,0xf6,0x1c,0x25,0xfb,0xf4,0x9,0xed,0xe8,0xe8,0x14,0x18,0xf8,0x8,0x4,0xde,0x1e,0xe5,0x16,0xef,0x12,0x35,0xe2,0x17,0x21,0x13,0xd4,0xe9,0xe,0x19,0xe2,0x11,0x15,0x15,0xc1,0x9,0xd,0x9,0xde,0x28,0xd7,0xe,0xff,0xf9,0x1f,0xec,0xf3,0x29,0xeb,0xe4,0x15,0xef,0xd4,0xed,0xd5,0xb3,0xf9,0x2c,0x0,0x14,0xff,0x9,0xe,0xe8,0xe7,0x13,0xef,0xe,0x10,0xa8,0xa,0x8,0xfd,0xee,0x18,0xd7,0x24,0xde,0x15,0xe7,0xee,0xf0,0x29,0xc6,0xff,0xcf,0xef,0x9c,0x1e,0xfb,0x1,0xf3,0x12,0xf6,0xbc,0xed,0xba,0x7f,0xf2,0xf5,0xbd,0xfb,0xe7,0xf8,0x27,0xea,0x20,0xe5,0xcf,0xfa,0xd3,0xf,0x31,0xdc,0xf6,0xbf,0xeb,0x16,0xf1,0xd1,0xeb,0x31,0xa,0x21,0xef,0xf3,0xf2,0xbc,0x27,0x13,0x1b,0x10,0x7,0xa,0x0,0x3,0x14,0xd8,0x2b,0xd1,0xfe,0xe9,0xc9,0xcf,0xf2,0x18,0xf8,0xfc,0x40,0x6,0xf9,0xe7,0xfd,0xe,0xd,0xa,0xd8,0xf0,0xfe,0x35,0xcf,0xfa,0xe1,0xd5,0xe7,0x2b,0x2b,0x39,0x10,0x6,0xbd,0xea,0x16,0xd0,0xed,0x0,0x0,0x0,0x0,0x22,0xe2,0xff,0xff,0x4,0x0,0x0,0x0,0x80,0x0,0x0,0x0,0xf3,0xf6,0xf2,0xe4,0x0,0xd3,0x6,0xea,0xd6,0xf9,0xd0,0xe1,0xfc,0xf5,0xfd,0xfa,0xdd,0xf4,0x1,0xf7,0xe8,0xcd,0xd2,0x5,0xef,0xef,0x6,0xf2,0xfb,0x83,0xdb,0xf1,0xed,0xea,0xe3,0xd3,0x7,0xfa,0xfd,0x7f,0xe0,0x4,0xde,0xd7,0x46,0xfe,0x6,0x0,0xed,0xe3,0x80,0xdb,0xea,0xe5,0xb7,0x6,0xeb,0xe3,0x5,0x5,0xfd,0xe9,0xe3,0x1d,0x2f,0xec,0xef,0xe,0xdd,0xdc,0x15,0xbb,0xf2,0xe3,0xd9,0xe2,0xdf,0xe9,0xfd,0xc3,0xf9,0xdb,0xde,0xc,0xde,0xf0,0x3,0x0,0xd2,0xec,0x8,0xee,0xe7,0xd1,0xf8,0x94,0xea,0xeb,0xf3,0xe4,0xee,0xe5,0xf3,0xf6,0x18,0xeb,0x5,0xe9,0xda,0xe0,0xde,0xe2,0xc1,0x7,0xe2,0xfd,0x10,0x8c,0x32,0xe0,0xe7,0xfc,0xfd,0xea,0xf9,0xda,0xea,0xec,0x0,0x0,0x0,0x0,0xb2,0xe2,0xff,0xff,0x4,0x0,0x0,0x0,0x0,0x8,0x0,0x0,0x7c,0x68,0x70,0x71,0x5d,0x71,0x6b,0x77,0x7c,0x7b,0x7d,0x75,0x7d,0x7e,0x7a,0x6d,0x6d,0x73,0x78,0x7b,0x7b,0x7c,0x76,0x77,0x7b,0x7b,0x79,0x74,0x7a,0x79,0x72,0x7b,0x7a,0x77,0x72,0x6f,0x7b,0x5e,0x73,0x7c,0x7a,0x74,0x71,0x6c,0x7d,0x77,0x7e,0x7a,0x7e,0x73,0x73,0x7d,0x7a,0x7a,0x44,0x7a,0x79,0x59,0x6a,0x7d,0x7d,0x7e,0x6f,0x7e,0x76,0x76,0x7d,0x59,0x75,0x7b,0x39,0x79,0x61,0x6b,0x19,0x7a,0x7e,0x7d,0x7d,0x7c,0x75,0x77,0x76,0x76,0x78,0x7a,0x7d,0x7d,0x7a,0x36,0x7b,0x68,0x7c,0x7a,0x72,0x59,0x7c,0x7c,0x58,0x7a,0x7c,0x7b,0x7e,0x7e,0x7c,0x7b,0x7e,0x77,0x7e,0x7a,0x77,0xbf,0x79,0x7b,0x73,0x7a,0x7c,0x77,0x7d,0x7b,0x73,0x7a,0x55,0x72,0x75,0x78,0x70,0x7c,0x7b,0x7b,0x75,0x7a,0x7d,0x76,0x68,0x74,0x6b,0x7a,0x76,0x6e,0x79,0x76,0x6d,0x50,0x6f,0x48,0x73,0x52,0x73,0x5f,0x7b,0x60,0x73,0x79,0x7b,0x7d,0x72,0x7a,0x7d,0x79,0x7d,0x7e,0x78,0x79,0x7c,0x7a,0x7d,0x76,0x6e,0x6a,0x7c,0x75,0x7d,0x7d,0x75,0x7d,0x79,0x6b,0x77,0x57,0x77,0x7c,0x6c,0x7b,0x4f,0x68,0x7e,0x73,0x75,0x5d,0x7d,0x79,0x79,0x7b,0x7e,0x77,0x76,0x79,0x7d,0x78,0x6b,0x7c,0x6c,0x75,0x7b,0x77,0x77,0x75,0x7c,0x7b,0x69,0x73,0x7a,0x75,0x72,0x79,0x7a,0x63,0x75,0x7b,0x79,0x77,0x7e,0x4c,0x7e,0x7d,0x7b,0x75,0x78,0x6c,0x46,0x7c,0x74,0x45,0x76,0x76,0x7e,0x64,0x77,0x72,0x72,0x4e,0x7a,0x7d,0x73,0x7d,0x77,0x7d,0x79,0x7d,0x7b,0x7a,0x78,0x7c,0x7a,0x79,0x74,0x7a,0x67,0x78,0x7c,0x57,0x74,0x4f,0x7b,0x77,0x75,0x7e,0x5a,0x75,0x70,0x7e,0x6f,0x6d,0x68,0x7b,0x59,0xfd,0x7b,0x76,0x77,0x7d,0x7b,0x6f,0x71,0x7c,0x76,0x7b,0x7a,0x72,0x6a,0x79,0x6c,0x74,0x74,0x7b,0x7c,0x7a,0x79,0x7c,0x67,0x6f,0x77,0x6b,0x5f,0x52,0x7c,0x6f,0x77,0x20,0x78,0x7b,0x78,0x54,0x73,0x70,0x79,0x41,0x73,0x61,0x79,0x7a,0x72,0x7d,0x7b,0x6f,0x54,0x37,0x7a,0x6b,0x7f,0x7b,0x78,0x7a,0x7c,0x78,0x7d,0x74,0x7a,0x7e,0x7d,0x7e,0x79,0x7b,0x7c,0x75,0x74,0x7e,0x78,0x78,0x7b,0x7e,0x7b,0x78,0x7d,0x78,0x77,0x71,0x67,0x70,0x72,0x7d,0x6d,0x7b,0x79,0x78,0x7d,0x77,0x7c,0x77,0x60,0x7a,0x66,0x76,0x6c,0x76,0x71,0x7a,0x7c,0x6e,0x67,0x6b,0x7b,0x67,0x7c,0x79,0x7b,0x7b,0x70,0x79,0x7c,0x7c,0x58,0x77,0x70,0x7b,0x76,0x7a,0x2b,0x7c,0x33,0x7c,0x7c,0x79,0x77,0x7b,0x79,0x79,0x77,0x70,0x75,0x7b,0x73,0x7a,0x76,0x5c,0x79,0x7a,0x77,0x74,0x7c,0x75,0x79,0x67,0x79,0x7d,0x74,0x7d,0x7d,0x76,0x74,0x66,0x5e,0x79,0x78,0x7b,0x77,0x5b,0x7c,0x7c,0x7b,0x7c,0x1,0x7e,0x73,0x75,0x6b,0x7e,0x78,0x7e,0x79,0x64,0x7c,0x7c,0x7e,0x75,0x7a,0x76,0x6a,0x70,0x71,0x6e,0x76,0x74,0x67,0x7a,0x57,0x72,0x75,0x3d,0x75,0x75,0x78,0x6c,0x7d,0x6b,0x72,0x7b,0x66,0x6f,0x46,0x2e,0x7c,0x7d,0x7b,0x76,0x6e,0x7e,0x7c,0x6e,0x7c,0x77,0x7c,0x75,0x77,0x7e,0x7a,0x7b,0x75,0x71,0x73,0x7c,0x7a,0x7b,0x6f,0x78,0x7c,0x77,0x7e,0x7c,0x77,0x7e,0x72,0x72,0x77,0x56,0x70,0x72,0x79,0x7e,0x7c,0x6b,0x79,0x7b,0x7b,0x7c,0x6c,0x7a,0x7b,0x77,0x7b,0x72,0x78,0x79,0x73,0x7a,0x71,0x6b,0x77,0x61,0x75,0x75,0x73,0x6f,0x74,0x72,0x7f,0x71,0x79,0x75,0x5f,0x7c,0x7e,0x70,0x79,0x7b,0x7a,0x6c,0x7c,0x7d,0x34,0x6c,0x71,0x75,0x7c,0x7c,0x6c,0x7c,0x75,0x45,0x4c,0x6f,0x7d,0x6e,0x5a,0x75,0x6c,0x66,0x13,0x77,0x6b,0x74,0x72,0x7b,0x7b,0x54,0x78,0x64,0x7a,0x7b,0x7d,0x59,0x7b,0x72,0x6f,0x72,0x7b,0x66,0x6e,0x77,0x7a,0x7a,0x79,0x7b,0x78,0x78,0x7a,0x7c,0x7a,0x6f,0x75,0x6e,0x77,0x76,0x77,0x7a,0x7a,0x7d,0x5f,0x7a,0x79,0x76,0x69,0x78,0x53,0x6a,0x6e,0x7b,0x7b,0x37,0x72,0x79,0x7d,0x79,0x77,0x71,0x65,0x7a,0x77,0x5e,0x79,0x56,0x7a,0x73,0x66,0x66,0x75,0x7a,0x71,0x78,0x78,0x70,0x7a,0x7a,0x79,0x79,0x76,0x7c,0x7d,0x79,0x7d,0x69,0x7b,0x6b,0x79,0x7e,0x69,0x7b,0x5b,0x7b,0x75,0x6e,0x7c,0x77,0x74,0x7d,0x68,0x74,0x78,0x7c,0x7d,0x71,0x7d,0x7b,0x6d,0x76,0x65,0x34,0x79,0x7d,0x78,0x77,0x74,0x7d,0x60,0x79,0x7a,0x7a,0x78,0x7c,0x66,0x43,0x63,0x75,0x63,0x7c,0x71,0x7c,0x58,0x74,0x75,0x70,0x7e,0x7c,0x58,0x30,0x5e,0x75,0x75,0x7b,0x79,0x5e,0x1e,0x7c,0x7d,0x76,0x78,0x69,0x6b,0x7c,0x68,0x7e,0x79,0x7a,0x6b,0x61,0x79,0x7d,0x7e,0x68,0x7d,0x7d,0x6e,0x72,0x7c,0x78,0x71,0x7d,0x7f,0x6d,0x7d,0x7d,0x78,0x69,0x5d,0x77,0x79,0x78,0x7a,0x69,0x72,0x75,0x7e,0x61,0x77,0x67,0x78,0x74,0x76,0x5d,0x7c,0x7c,0x7b,0x7b,0x7a,0x6e,0x7b,0x70,0x74,0x79,0x7b,0x79,0x7b,0x6e,0x72,0x6e,0x7a,0x7d,0x7c,0x76,0x7a,0x7a,0x78,0x7a,0x6d,0x79,0x7a,0x7e,0x7c,0x66,0x72,0x76,0x79,0x6f,0x26,0x6d,0x4f,0x6e,0x76,0x75,0x75,0x5f,0x5d,0x70,0x54,0x7d,0x7c,0x79,0x6e,0x6b,0x75,0x7b,0x7d,0x78,0x7e,0x73,0x7a,0x7b,0x74,0x71,0x7e,0x76,0x78,0x7e,0x7b,0x7c,0x73,0x75,0x79,0x7a,0x71,0x7e,0x7b,0x7e,0x78,0x75,0x6b,0x7e,0x7b,0x7d,0x73,0x7c,0x7f,0x75,0x7e,0x7b,0x79,0x7d,0x79,0x72,0x7a,0x70,0x7d,0x7b,0x76,0x3e,0x78,0x7c,0x7c,0x4d,0x5f,0x6a,0x7c,0x76,0x5d,0x77,0x7c,0x32,0x6c,0x62,0x73,0x6b,0x1f,0x6d,0x7b,0x6e,0x7d,0x76,0x7b,0x7d,0x7d,0x79,0x72,0x70,0x6f,0x6f,0x7b,0x73,0x7d,0x6f,0x75,0x78,0x74,0x32,0x79,0x7a,0xc,0x7d,0x7a,0x79,0x7a,0x79,0x6d,0x79,0x76,0x7a,0x6a,0x7c,0x7c,0x78,0x6d,0x78,0x74,0x73,0x73,0x7c,0x7d,0x7d,0x7d,0x79,0x7c,0x75,0x62,0x6f,0x7c,0x7a,0x76,0x7c,0x6a,0x75,0x70,0x7a,0x78,0x77,0x7b,0x77,0x7f,0x78,0x78,0x66,0x7b,0x79,0x7d,0x7b,0x7d,0x65,0x64,0x68,0x7a,0x7c,0x72,0x78,0x7d,0x63,0x78,0x76,0x79,0x79,0x6e,0x75,0x7e,0x77,0x77,0x7e,0x65,0x7f,0x7d,0x76,0x7d,0x60,0x72,0x79,0x70,0x78,0x7f,0x72,0x62,0x64,0x7e,0x78,0x7b,0x7a,0x72,0x6f,0x75,0x67,0x79,0x74,0x6b,0x77,0x58,0x7a,0x7c,0x7e,0x7a,0x73,0x77,0x6d,0x1f,0x71,0x74,0x77,0x76,0x7b,0x78,0x7d,0x78,0x76,0x17,0x7c,0x7a,0x77,0x6e,0x7b,0x6e,0x64,0x60,0x5e,0x7c,0x26,0x71,0x7d,0x7d,0x7c,0x7a,0x7c,0x7d,0x77,0x75,0x59,0x78,0x75,0x79,0x7c,0x7a,0x7a,0x75,0x7c,0x7b,0x78,0x60,0x7b,0x62,0x7c,0x72,0x72,0x6d,0x7b,0x7b,0x7d,0x77,0x7d,0x6e,0x75,0x7e,0x7a,0x7e,0x7e,0x78,0x7d,0x73,0x78,0x7b,0x78,0x76,0x7b,0x7d,0x79,0x7c,0x7b,0x7c,0x79,0x7a,0x7a,0x54,0x7d,0x60,0x7a,0x5c,0x75,0x7b,0x77,0x6b,0x70,0x7b,0x73,0x7c,0x6f,0x7c,0x73,0x7b,0x70,0x77,0x7b,0x7d,0x79,0x7d,0x77,0x7c,0x74,0x5f,0x77,0x72,0x7a,0x77,0x7d,0x73,0x7b,0x43,0x7e,0x7b,0x7d,0x7c,0x41,0x7d,0x7d,0x7d,0x7b,0x7c,0x7c,0x76,0x41,0x78,0x7b,0x7c,0x66,0x7d,0x7c,0x7c,0x64,0x79,0x7a,0x78,0x7e,0x73,0x78,0x75,0x7d,0x79,0x63,0x7a,0x74,0x6c,0x4c,0x7a,0x79,0x7c,0x74,0x7b,0x7c,0x78,0x7b,0x7a,0x79,0x77,0x7c,0x7b,0x7a,0x6a,0x74,0x79,0x7d,0x77,0x64,0x6a,0x7a,0x68,0x7d,0x60,0x79,0x76,0x7e,0x72,0x69,0x7e,0x7e,0x4d,0x7b,0x7d,0x7d,0x7e,0x79,0x5b,0x67,0x7c,0x6a,0x7a,0x77,0x77,0x7c,0x76,0x7a,0x72,0x7d,0x78,0x79,0x7d,0x7b,0x7d,0x77,0x7c,0x78,0x73,0x78,0x7d,0x7a,0x7d,0x7c,0x7a,0x7b,0x79,0x75,0x7c,0x72,0x7c,0x7c,0x67,0x75,0x6c,0x7d,0x7e,0x77,0x7d,0x7d,0x7d,0x70,0x7d,0x7c,0x71,0x67,0x7a,0x77,0x78,0x7d,0x79,0x71,0x76,0x76,0x59,0x77,0x71,0x77,0x7e,0x68,0x7d,0x7e,0x7d,0x7b,0x66,0x72,0x76,0x73,0x7b,0x79,0x6a,0x5d,0x6f,0x6e,0x61,0x7b,0x42,0x77,0x7a,0x7d,0x7c,0x74,0x78,0x79,0x72,0x78,0x78,0x6e,0x74,0x65,0x7c,0x49,0x79,0x77,0x6d,0x76,0x77,0x76,0x7a,0x7d,0x6b,0x77,0x6c,0x77,0x5f,0x5d,0x64,0x7b,0x7c,0x7a,0x73,0x7d,0x7d,0x57,0x7d,0x76,0x72,0x6c,0x71,0x7a,0x7b,0x6d,0x78,0x56,0x7b,0x76,0x7c,0x7d,0x7a,0x7b,0x7a,0x7a,0x6e,0x64,0x77,0x7e,0x70,0x6e,0x7b,0x74,0x77,0x7a,0x72,0x7c,0x6f,0x79,0x79,0x7a,0x6d,0x79,0x78,0x78,0x7e,0x71,0x61,0x49,0x7a,0x7b,0x7c,0x7e,0x7c,0x7c,0x76,0x69,0x7d,0x79,0x7a,0x79,0x73,0x64,0x76,0x6f,0x7a,0x6b,0x58,0x6f,0x74,0x7e,0x77,0x70,0x77,0x7e,0x6e,0x7d,0x72,0x7d,0x6c,0x7e,0x7c,0x68,0x3c,0x7a,0x7b,0x80,0x78,0x78,0x7c,0x3b,0x76,0x76,0x75,0x74,0x78,0x59,0x68,0x7d,0x7d,0x77,0x67,0x77,0x5c,0x75,0x7a,0x7a,0x79,0x7a,0x7b,0x72,0x71,0x7b,0x7a,0x60,0x74,0x7b,0x77,0x72,0x53,0x78,0x69,0x75,0x7d,0x8,0x3f,0x7c,0x6d,0x78,0x28,0x76,0x7a,0x78,0x5b,0x65,0x71,0x7c,0x74,0x7c,0x7d,0x74,0x76,0x74,0x7c,0x7a,0x73,0x75,0x79,0x7b,0x76,0x72,0x7d,0x7c,0x6a,0x7c,0x7a,0x68,0x7c,0x7a,0x7d,0x77,0x7d,0x7d,0x7a,0x72,0x5d,0x74,0x76,0x7b,0x6c,0x63,0x7d,0x7e,0x76,0x75,0x7d,0x7d,0x74,0x79,0x75,0x7d,0x7b,0x6f,0x7b,0x70,0x78,0x4a,0x7d,0x6f,0x7d,0x7d,0x7c,0x76,0x73,0x7d,0x6e,0x54,0x65,0x7c,0x7c,0x7c,0x79,0x73,0x64,0x7b,0x7d,0x7d,0x6c,0x7a,0x76,0x77,0x7b,0x7c,0x77,0x77,0x7c,0x69,0x47,0x71,0x79,0x78,0x62,0x6f,0x78,0x78,0x75,0x72,0x79,0x77,0x70,0x7d,0x78,0x7b,0x7e,0x77,0x75,0x7d,0x5c,0x71,0x72,0x78,0x7a,0x78,0x7b,0x73,0x3a,0x6f,0x51,0x7b,0x70,0x73,0x7a,0x7a,0x73,0x7d,0x77,0x6d,0x79,0x75,0x6f,0x74,0x5f,0x7d,0x78,0x7a,0x77,0x6e,0x75,0x69,0x7d,0x7b,0x5c,0x3f,0x79,0x60,0x7f,0x7a,0x7e,0x7c,0x79,0x62,0x7a,0x7b,0x7b,0x78,0x7b,0x7b,0x7b,0x7a,0x7c,0x75,0x72,0x7a,0x7d,0x7a,0x7d,0x7b,0x78,0x6a,0x6d,0x7d,0x7b,0x73,0x7c,0x3c,0x75,0x72,0x77,0x7e,0x7d,0x7b,0x76,0x6c,0x6d,0x26,0x36,0x6b,0x7d,0x7d,0x64,0x7b,0x75,0x75,0x79,0x6f,0x7d,0x79,0x74,0x60,0x76,0x74,0x7d,0x6d,0x79,0x77,0x7c,0x6c,0x77,0x76,0x7a,0x78,0x7e,0x73,0x6a,0x7b,0x67,0x78,0x78,0x7c,0x61,0x7d,0x73,0x77,0x7c,0x74,0x79,0x77,0x75,0x64,0x7d,0x5e,0x7e,0x70,0x7a,0x74,0x7b,0x79,0x73,0x7b,0x7d,0x7c,0x79,0x7e,0x10,0x75,0x7a,0x7e,0x64,0x79,0x77,0x78,0x7a,0x7e,0x7c,0x7a,0x5c,0x77,0x76,0x77,0x7b,0x79,0x71,0x7b,0x70,0xe,0x73,0x47,0x7a,0x6e,0x60,0x78,0x2,0x79,0x6f,0x74,0x79,0x62,0x76,0x1e,0x7c,0x76,0x7c,0x7f,0x50,0x76,0x72,0x71,0x7b,0x6f,0x7c,0x7e,0x79,0x7d,0x77,0x65,0x7b,0x76,0x7a,0x78,0x76,0x6e,0x6e,0x73,0x76,0x65,0x79,0x75,0x5e,0x75,0x6e,0x7c,0x62,0x71,0x7d,0x7e,0x6a,0x67,0x7e,0x32,0x44,0x69,0x7d,0x7c,0x7e,0x78,0x79,0x78,0x78,0x79,0x74,0x7c,0x7d,0x6c,0x7b,0x7c,0x79,0x73,0x79,0x77,0x79,0x5e,0x7b,0x7b,0x6e,0x69,0x7c,0x7e,0x77,0x7b,0x69,0x6c,0x7e,0x58,0x73,0x71,0x7d,0x7b,0x7d,0x6d,0x77,0x6f,0xc,0x61,0x2c,0xf4,0x20,0x7b,0x77,0x79,0x76,0x61,0x5f,0xf7,0x7c,0x7a,0xe7,0x63,0x7c,0x7e,0x6f,0x63,0x6c,0x7c,0x6d,0x74,0x72,0x7b,0x76,0x7d,0x7c,0x7a,0x75,0x7c,0x63,0x7d,0x79,0x70,0x77,0x6f,0x5e,0x70,0x67,0x77,0x79,0x7e,0x7c,0x76,0x6f,0x71,0x73,0x4b,0x74,0x73,0x70,0x7e,0x70,0x7e,0x7e,0x7c,0x74,0x73,0x70,0x73,0x7a,0x7b,0x7e,0x7a,0x51,0x76,0x64,0x78,0x4e,0x7a,0x7a,0x7b,0x7b,0x7d,0x6f,0x56,0x5c,0x7d,0x76,0x69,0x57,0x73,0x7d,0x71,0x46,0x76,0x7b,0x6c,0x7c,0x6c,0x69,0x7c,0x73,0x7a,0x7d,0x7a,0x76,0x7b,0x7a,0x7d,0x73,0x7e,0x7a,0x76,0x7d,0x78,0x7c,0x7a,0x79,0x7c,0x71,0x7c,0x76,0x71,0x7d,0x7d,0x4d,0x79,0x7a,0x77,0x7b,0x75,0x77,0x4e,0x71,0x71,0x7e,0x67,0x7e,0x6d,0x75,0x63,0x7b,0x7c,0x7b,0x7e,0x7c,0x67,0x6a,0x7c,0x7a,0x7a,0x69,0x7d,0x74,0x7b,0x73,0x2b,0x7b,0x74,0x59,0x79,0x7c,0x7e,0x74,0x7a,0x7a,0x6d,0x6d,0x7b,0x71,0x70,0x79,0x7b,0x73,0x7a,0x67,0x67,0x63,0x61,0x64,0x47,0x73,0x75,0x75,0x6a,0x75,0x75,0x72,0x70,0x7d,0x79,0x72,0x71,0x6c,0x7d,0x7c,0x7e,0x7d,0x59,0x6c,0x6c,0x76,0x5a,0x74,0x7b,0x78,0x73,0x7b,0x79,0x7c,0x7b,0x77,0x79,0x7d,0x7a,0x7d,0x76,0x77,0x77,0x58,0x7d,0x74,0x7d,0x76,0x55,0x7e,0x55,0x7d,0x6c,0x76,0x77,0x7e,0x7d,0x7a,0x71,0x76,0x7d,0x7a,0x7d,0x5e,0x7b,0x77,0x76,0x76,0x7c,0x7b,0x75,0x7e,0x6b,0x7e,0x73,0x79,0x6a,0x76,0x75,0x7b,0x75,0x46,0x76,0x79,0x78,0x7c,0x75,0x0,0x0,0x0,0x0,0xc2,0xea,0xff,0xff,0x4,0x0,0x0,0x0,0x4,0x0,0x0,0x0,0x2,0x0,0x0,0x0,0xd2,0xea,0xff,0xff,0x4,0x0,0x0,0x0,0xc,0x0,0x0,0x0,0x1,0x0,0x0,0x0,0x80,0x0,0x0,0x0,0x1,0x0,0x0,0x0,0x0,0x0,0x0,0x0,0x0,0x0,0x0,0x0,0xf2,0xea,0xff,0xff,0x4,0x0,0x0,0x0,0x0,0x8,0x0,0x0,0xa,0xec,0x13,0xbd,0xa,0xf3,0xf0,0xfb,0x2d,0x1f,0xeb,0xda,0x10,0xeb,0xb,0xff,0x49,0x24,0x3,0xdc,0x18,0x4,0xf6,0x5,0xc4,0x14,0xeb,0xc7,0xeb,0xad,0xff,0xc,0x1b,0x17,0xe0,0xd9,0x4b,0x5,0x1b,0x21,0xfa,0xd,0x17,0xe6,0xde,0x18,0x0,0xfd,0xf3,0x28,0x8,0xf6,0x35,0xec,0xe1,0xdf,0xdf,0xf7,0xe5,0xef,0x29,0xf9,0xd0,0x0,0xe4,0x42,0xf1,0x4f,0xec,0x0,0x26,0xc,0x20,0x3,0x21,0x25,0xf6,0x5,0x1c,0xe9,0xc9,0xc,0xec,0xba,0xd9,0x7,0x7f,0x2,0xc,0x8,0xef,0x30,0xd9,0xf7,0xa,0x1e,0x10,0x32,0x39,0x36,0xcd,0xe9,0x22,0x29,0x3e,0xfa,0xca,0x5,0xe1,0x30,0xc2,0x14,0xd1,0x7,0x8,0x1c,0xd6,0xec,0xc6,0x9e,0x34,0xe2,0x31,0xc0,0xe7,0x60,0xe4,0x17,0xe2,0x4c,0x17,0xe5,0xf0,0xfa,0x2c,0x47,0x32,0xde,0x5,0xff,0xda,0x2f,0xde,0x7,0x23,0xfc,0x6,0x1f,0x29,0xe,0x11,0xc,0x16,0x4f,0xd6,0xe,0x6,0x1b,0xe1,0xd9,0xa,0x2c,0x25,0xb3,0x29,0xd4,0xe9,0xf2,0x2c,0x14,0xd4,0xe,0xdb,0xd,0xf5,0x2f,0xea,0x15,0xfb,0x59,0x2c,0x10,0xdd,0xa8,0x13,0x14,0xce,0xf8,0xf8,0xd,0x31,0xff,0x9f,0xe8,0xd2,0x1c,0xed,0x5,0x8f,0xaa,0xf2,0x18,0xe2,0x27,0xb3,0x0,0xda,0x22,0x23,0x5,0x2,0x15,0xe9,0xc9,0xe5,0xe8,0x63,0x10,0xdf,0xfb,0xeb,0x13,0xb,0x30,0xcf,0x1e,0x3,0xb,0x20,0x2b,0x15,0xf1,0xe,0xd,0x11,0x13,0x31,0x2c,0x1e,0xcf,0x81,0x7,0xf2,0xcc,0xd0,0xbe,0xdc,0x27,0xfa,0x5,0xf4,0x30,0xf6,0x16,0x3a,0xf3,0x21,0xf4,0xac,0x15,0x3,0xec,0x1e,0xfe,0xd,0x1a,0x44,0xfa,0x6,0xa8,0xee,0xd2,0x21,0x5a,0xca,0xda,0xb6,0x53,0xd1,0x1c,0xf,0x3b,0x17,0xf3,0xf2,0x63,0x33,0xfd,0x3b,0x7e,0x21,0xe1,0x1d,0xde,0xd9,0xd5,0x35,0x1,0x3,0x43,0x15,0xe,0xd3,0xda,0xf,0xed,0xae,0x21,0xf1,0x17,0x25,0xcf,0xdf,0xfd,0xe4,0x3d,0xf3,0x81,0xe2,0x9f,0xf5,0xe4,0x30,0x3e,0xe5,0x42,0x13,0xfe,0xdc,0x2e,0xfb,0xba,0x18,0x3e,0xdc,0x1c,0xd9,0x28,0x2b,0xe8,0xeb,0xfa,0x4d,0xed,0xde,0xf0,0xdb,0x76,0xf3,0x13,0x2,0xee,0x70,0xb0,0x43,0xe9,0xec,0x3,0x24,0xd7,0xd4,0x15,0xdc,0xf6,0x33,0x34,0x30,0x26,0x14,0xe8,0x21,0xf9,0x3,0xdc,0x26,0x59,0xe,0x20,0xed,0x28,0x13,0x1e,0xdf,0x3b,0x1a,0x24,0xcd,0xba,0xd1,0xea,0x13,0x11,0x22,0xf2,0x1,0xeb,0xc,0xed,0x2a,0x2,0xf5,0x61,0x21,0xfc,0x9,0x5a,0x1e,0x2d,0x8,0x9,0xf2,0xd5,0xf1,0xf3,0x20,0xf0,0xfe,0x1a,0xed,0xe0,0x6f,0xed,0xf8,0x52,0xf7,0xf1,0xd9,0x1a,0xd,0xd7,0x1e,0x6,0xe0,0x16,0x5f,0x8,0x48,0xf2,0xff,0xfa,0x15,0xcf,0x16,0xd5,0xde,0x29,0x18,0x2,0xcc,0xad,0xdc,0x26,0xfb,0x7f,0x97,0xe2,0x90,0x67,0xee,0x6,0xe1,0xe4,0xe4,0x10,0x29,0xf2,0xb6,0xb9,0xe8,0xc2,0x10,0x6,0xe5,0xf1,0xee,0x1e,0x19,0x11,0x5d,0xea,0x27,0xf1,0x7,0x7,0x49,0xed,0x2d,0xde,0x30,0x2b,0x27,0x6,0x42,0x1,0x6b,0xb2,0xc3,0x19,0x25,0xdb,0x1b,0xe5,0xd9,0x38,0xdf,0x1b,0xcb,0x21,0x1,0xe3,0xf2,0x22,0xd8,0x15,0x17,0x87,0xf3,0xd,0xe,0xb0,0x3a,0x6,0xf1,0xc7,0x4,0x10,0x6,0x7,0x29,0x2b,0xea,0xc,0x3e,0xe0,0xd2,0x27,0xa9,0xf7,0xda,0xb,0xd3,0x10,0x9b,0xb9,0x56,0x2b,0xdb,0x3e,0xe9,0x33,0xed,0xbe,0x1a,0xb5,0x9,0xf5,0xcf,0xb,0xaa,0x3d,0x20,0xf9,0xdd,0xe9,0xfb,0x14,0xfe,0x28,0x6,0x3b,0xb,0x56,0xf8,0x1c,0xc6,0xae,0x1b,0xfd,0x0,0x35,0x33,0xf0,0xeb,0xdd,0x81,0x42,0xc3,0x51,0xef,0xe3,0x46,0x31,0x2,0x36,0x2f,0x5,0x2e,0x28,0x1c,0xbc,0xcc,0xea,0x18,0x1,0x15,0xe5,0xf8,0xb,0xf9,0xd,0xf0,0xfb,0xe0,0xbe,0x10,0xd,0x5b,0x14,0x1a,0x6,0x3e,0x14,0x50,0xe4,0x16,0x1e,0x37,0x1d,0xfd,0x3f,0xfb,0x30,0x65,0xd4,0x49,0xad,0x1f,0x29,0xd4,0xa7,0x13,0xde,0xec,0xf,0x20,0x1,0xf8,0x16,0xb6,0xe4,0x25,0x25,0xee,0xc,0x17,0x49,0xe2,0xda,0x18,0xe4,0xe9,0xed,0xcd,0x29,0x10,0x7,0xf5,0x31,0xb,0xd4,0x7f,0x75,0xfd,0xc,0x7,0xec,0xae,0xe2,0xe8,0xbd,0xe5,0x2e,0xdd,0xe8,0x2b,0xe5,0x9,0xfa,0x0,0xe5,0x10,0x1b,0x21,0xda,0x1,0xb7,0xce,0xfe,0xcb,0xe0,0x1d,0xa,0xe7,0xf3,0xeb,0xee,0x2,0xc9,0xef,0xed,0x5a,0x2,0x14,0xf4,0x28,0x24,0x47,0xfa,0xb7,0x3f,0xf3,0x2a,0xf6,0x9f,0xda,0x27,0x7,0xdc,0xf5,0xd8,0x11,0xb,0x14,0xff,0x6,0x2,0x52,0x23,0x5c,0x1a,0x6,0xb,0x1a,0x8,0xea,0xf2,0xed,0xdd,0xf4,0xe2,0xed,0x47,0x2f,0xd5,0xcd,0xf1,0xf0,0x18,0xf7,0x47,0xac,0x11,0x24,0xdc,0xe2,0xcf,0xe3,0x29,0x21,0xf1,0xb4,0x19,0x32,0xab,0x2a,0x15,0x16,0x13,0xd9,0xcb,0x12,0xfc,0x0,0xd,0xea,0xb3,0xf0,0xcc,0x25,0xb2,0x17,0xe7,0xf8,0x9,0x15,0x42,0x34,0x6,0xf6,0x17,0x39,0x2b,0xf,0xef,0xea,0x18,0x8,0xda,0x3d,0x16,0x27,0xf1,0x24,0xce,0x1a,0xd8,0x8,0x81,0xf2,0x5e,0xf9,0xe0,0x1b,0xd5,0x44,0x8,0x19,0xa,0xf9,0xf,0xf0,0x31,0x2,0x2d,0xeb,0x28,0x34,0x93,0x63,0x20,0x5,0xbf,0x3,0x1e,0x2f,0x4,0xfb,0xdc,0x11,0xb7,0xfa,0x20,0x4,0x30,0xf3,0xd,0xe5,0x38,0xf6,0xce,0x25,0xdc,0xe4,0xc7,0x36,0xef,0xe1,0x2c,0x4,0xba,0xea,0xec,0xed,0xba,0x17,0x7,0xbe,0xe4,0xeb,0x2,0x47,0x1d,0xfc,0x3,0xe7,0xd,0x8,0x1c,0x15,0xec,0x1,0xbf,0xfa,0x35,0xc,0xdd,0xcf,0xef,0x17,0xe6,0x4,0xf7,0xf8,0xbf,0x1,0xca,0xfb,0x20,0x1a,0x13,0x25,0xea,0xd6,0xdb,0x31,0xa,0xea,0xe4,0x18,0x1d,0xee,0xef,0x19,0xf8,0xa5,0xca,0x8b,0x60,0x39,0x1d,0xe2,0x48,0xe5,0xcd,0xa,0xf,0xc,0xd3,0xf7,0xca,0xfa,0x4b,0xb7,0x2c,0xe9,0xe5,0xd4,0x72,0xf2,0x23,0xc8,0xe9,0x65,0xb,0xf6,0xb,0x0,0x22,0x5,0xe,0x79,0xe8,0xf1,0x6,0x11,0xd7,0xfd,0xfe,0x1d,0xcd,0xdc,0x11,0xee,0x1b,0xed,0x47,0xdd,0x19,0xd7,0x39,0xf1,0x28,0xac,0xe5,0x17,0xfa,0xff,0xa1,0xa0,0xdb,0xe8,0xf6,0xae,0x18,0x4,0x2c,0x10,0x2e,0xd2,0xdf,0xf0,0x81,0x10,0xd7,0xea,0xa6,0xfa,0xdb,0x6c,0x2e,0xd9,0x44,0xe6,0xd7,0xf8,0x3d,0x60,0xf5,0x1d,0x17,0xc,0xb0,0x19,0xf0,0xf7,0xf0,0xd9,0x18,0xea,0xe5,0xec,0xea,0x19,0xbd,0x31,0xf7,0x4,0xbd,0xf8,0xba,0xc1,0xbc,0x3e,0xf0,0xe4,0xd1,0x46,0xdf,0xf0,0xdb,0x16,0x2,0xe8,0xe5,0xc7,0x8,0xd3,0xf0,0xc,0xf8,0xfd,0x17,0xd2,0xc6,0xe0,0xfa,0xd2,0xa1,0xe1,0x34,0xaf,0xc,0xee,0xa9,0xf1,0x3,0x2,0xf9,0x1,0xce,0x45,0xe6,0xe2,0xeb,0x18,0x4,0x2b,0x1f,0x65,0xe5,0x32,0x12,0xdd,0x10,0xce,0x0,0xf1,0xf3,0xe,0xc8,0xe9,0x4c,0xf1,0x2b,0x20,0xcf,0x19,0x41,0xca,0xd,0xfd,0xc,0x28,0xee,0x15,0xec,0xec,0xe7,0xb7,0xd9,0xb9,0xcd,0xfc,0x15,0xf9,0x30,0xcd,0x17,0xf2,0x3,0xe9,0xff,0xe1,0xb,0xfd,0xee,0x68,0xe,0x17,0x16,0xd6,0xf9,0xdf,0xf9,0x4e,0x31,0xcf,0xac,0x7f,0xca,0xe1,0x11,0xec,0xe7,0x7,0xb0,0xce,0x4,0xf,0x94,0xe3,0xd3,0xf7,0x1d,0x3c,0xcf,0x5,0xdb,0x3,0xdc,0xff,0x38,0xdf,0xfe,0xca,0x3,0x4,0xf9,0xf8,0x35,0xf8,0x91,0x6f,0x28,0x18,0xeb,0x94,0x57,0xe7,0x12,0xf8,0x36,0x19,0x11,0x1d,0xdd,0x4a,0xfd,0xd6,0xd,0xfb,0x8,0xea,0x10,0x24,0x3d,0x58,0xe8,0xc0,0x10,0xc9,0xec,0x10,0xf1,0xdc,0xee,0x7f,0xc2,0x49,0xfd,0xce,0xe1,0x4,0xf3,0x18,0xe1,0x29,0x11,0xec,0xf4,0x3,0x2e,0xfe,0xf6,0xf8,0xff,0x1,0xed,0x10,0x1b,0xbd,0x8,0x6,0xf4,0x1,0x8,0xe4,0x16,0xa,0xf3,0x17,0xf8,0xf4,0x12,0xf7,0xf1,0xd,0xc6,0xf4,0xef,0x46,0x18,0xb,0xea,0x5b,0x10,0x46,0xf3,0xdf,0x38,0x5,0xe5,0xfa,0x23,0xe9,0x11,0x2e,0xe6,0xf2,0xdd,0x4,0xf0,0x64,0xe0,0x2,0xea,0xdb,0x21,0x1b,0x30,0xfd,0xff,0xfb,0x1b,0x69,0x1b,0xec,0x21,0xee,0x32,0x23,0xe2,0xb,0xfb,0x4,0x27,0x11,0xd8,0x34,0x12,0x81,0xbc,0xe,0x6,0x38,0xdf,0x32,0xf7,0xfd,0x20,0x1e,0x21,0x32,0xe6,0xc5,0x26,0x28,0xdd,0x9,0xf3,0x0,0x25,0xd2,0xe4,0x2,0x32,0x14,0x2,0x18,0x38,0x30,0x14,0x17,0x1f,0xc3,0x2d,0xc7,0x10,0x20,0x6,0xa,0x28,0x1,0x32,0xfb,0x2c,0xb8,0xe2,0x20,0x13,0x32,0xbb,0xf9,0x35,0x6,0x1a,0xd9,0x1b,0x28,0xe,0xff,0xe5,0xfd,0x5,0x16,0x24,0xdc,0xfe,0xac,0x19,0xb6,0xed,0xd6,0x9,0x4,0x13,0xb,0xfe,0xc4,0xf0,0xf9,0xf5,0xac,0xdf,0xfc,0xca,0x2c,0xc8,0xdf,0x1,0x1,0xf0,0x1b,0x15,0xcc,0xf7,0x27,0xc1,0x11,0xfe,0x12,0x1c,0xf,0xfd,0xb3,0xfe,0xf1,0xd6,0xf2,0x2,0xda,0x1e,0x53,0x24,0xec,0xe0,0x46,0x55,0xee,0x1e,0xbc,0x2a,0x9,0xf9,0xe4,0x50,0x33,0x25,0x3c,0xe8,0x17,0xc8,0xfe,0xbb,0xb7,0x30,0xff,0x23,0xee,0x37,0x18,0xcb,0x1c,0x30,0x1,0xf7,0xe4,0xe0,0xfd,0x29,0xe4,0x27,0xe1,0xfe,0x2b,0x1,0x20,0xf1,0xf2,0xe9,0x14,0xb3,0x5,0x5b,0x9,0x6,0x30,0xc4,0x2e,0xf4,0xd3,0x1a,0xf7,0xf5,0x2d,0xe9,0xef,0xa9,0xef,0xc,0xf7,0xef,0xf9,0x0,0xfd,0xec,0xee,0xf2,0xff,0x7f,0xfd,0xd8,0xdb,0xe3,0x2e,0xe9,0x25,0xf5,0xef,0xf5,0xec,0x24,0x28,0x10,0x24,0x3,0x2b,0xda,0xdd,0x5,0xfa,0x3,0xcd,0xff,0xf4,0xdb,0xd2,0xc4,0xf0,0xd,0x16,0x21,0x7,0xfd,0x16,0xe6,0xde,0x26,0xe8,0x1b,0xf9,0xc7,0x2b,0x14,0xd6,0xb,0xc5,0x11,0x38,0x1f,0xef,0x25,0xa,0xac,0xef,0x8,0xe2,0x39,0xfc,0x54,0x20,0xfb,0xec,0xa,0xe7,0x43,0xe1,0x9,0x9,0xca,0x24,0xed,0xdd,0xd6,0xc2,0xff,0xcb,0x86,0x12,0xf7,0xf0,0x1f,0xf8,0x2b,0xfc,0xf9,0x43,0x72,0xff,0xb2,0x95,0x38,0x68,0x1,0xe0,0x1a,0xe8,0x18,0xe8,0x27,0x6,0x28,0xb5,0x8,0x24,0xeb,0x1,0xba,0xed,0x2b,0xfb,0x2c,0xd3,0x18,0x4,0xf6,0xdb,0xed,0xea,0xf0,0x15,0xd7,0xb4,0x98,0xf5,0x11,0xef,0x22,0xf,0xa,0x11,0xb,0x8,0x1b,0x41,0xf9,0xe2,0xe5,0xcf,0x6,0xdd,0xd7,0x22,0xd7,0xe6,0x12,0xce,0xeb,0x1e,0xf1,0x81,0x3e,0x46,0x97,0xfb,0xef,0x48,0xb4,0xf,0xfc,0x1a,0xc,0x1,0xf4,0x23,0xb,0x35,0xf7,0xef,0xcf,0x10,0x5,0xeb,0x8,0xef,0x14,0xc,0x21,0xa,0x26,0xfe,0x1f,0xed,0x27,0x21,0x26,0xd2,0x33,0xe4,0xc,0xe7,0xe0,0xf4,0xf2,0x25,0xda,0xe8,0xd8,0xd8,0x2c,0x1b,0x21,0xb0,0x3d,0xec,0xd6,0xd1,0x6d,0x17,0xdc,0x5e,0xfe,0xfb,0xdf,0x24,0x81,0xe8,0xff,0x25,0x34,0x1c,0xd5,0x1b,0x16,0x1e,0x15,0xfe,0xda,0x35,0xf0,0x2d,0xc9,0xfd,0xe0,0x5,0xf8,0xa,0xfd,0x2d,0xba,0x18,0xfa,0x0,0xc0,0x41,0xfd,0x15,0x14,0xf7,0xdf,0xb2,0x2d,0x9,0x1d,0xf0,0xcb,0xf8,0x2f,0x1a,0xf,0x8,0xde,0x11,0x15,0xf8,0x14,0x2f,0xc4,0xf4,0x32,0x2,0x36,0x25,0xc6,0x1e,0xf1,0xfe,0xf9,0x25,0x1,0x31,0x1a,0x2d,0x0,0xf0,0xf,0x8,0x1a,0xf0,0xf,0x38,0x15,0xb0,0x1f,0x26,0x8,0xb8,0xf6,0x1e,0x27,0x2a,0x2a,0xbb,0xdf,0xbc,0xfd,0xff,0x81,0xdf,0x12,0xd,0xf0,0x10,0x26,0xe4,0xa3,0xbe,0x0,0xee,0xc0,0xb6,0xe9,0x8,0xde,0xe2,0xf5,0x5,0xfe,0x5a,0xfe,0x44,0xb4,0xef,0xf5,0x12,0xfb,0xba,0xec,0xdc,0xf8,0x21,0x2b,0x4e,0xac,0xb2,0xed,0xd,0x86,0x4,0x28,0xf4,0xc1,0xcd,0xeb,0xbe,0xd6,0xdc,0x28,0xf7,0x4,0xe8,0xd7,0xcf,0xbf,0x2a,0xb,0xe3,0xf9,0xd6,0xcc,0x3f,0x44,0x14,0xc4,0x17,0xbe,0xfd,0xdb,0xf9,0x0,0x15,0xb,0xe8,0x19,0xb9,0xc3,0xe5,0xec,0x44,0xd9,0x12,0xfb,0x42,0x11,0xf,0xec,0x20,0xf1,0xf8,0xfe,0xfa,0xb6,0xb1,0xa6,0xb3,0x11,0x1f,0x2d,0x15,0x33,0xed,0x2c,0xb5,0xd6,0xee,0x4f,0x9,0xdd,0xf9,0xfc,0x81,0xd0,0xea,0xd0,0xc7,0xaa,0xed,0xf6,0xf4,0x2b,0xe8,0xc,0x48,0xf2,0xba,0xc0,0xae,0xfc,0x13,0xef,0xbf,0x4f,0xe1,0xbb,0x15,0xe2,0xc0,0xf0,0xdd,0xdd,0x29,0x1f,0x21,0xbb,0xf4,0x18,0x68,0xdb,0xfe,0xc3,0x99,0xdd,0xf4,0xd5,0x85,0x26,0x1f,0xd3,0xf6,0xe9,0x36,0x9,0xca,0xfb,0xf5,0xbd,0x3b,0xe,0xed,0x3e,0x12,0x19,0xff,0x46,0x1e,0xe4,0xf2,0x17,0xb2,0xd7,0xbc,0x13,0x2d,0x6,0xcd,0x29,0xdf,0x2,0x46,0xc,0x1f,0xcf,0xf,0xdb,0xe2,0x8,0x6,0xcd,0x4d,0xa,0x28,0xe9,0xca,0xf0,0xc8,0x4,0x3c,0x1d,0xe3,0x45,0xe,0xe,0xfa,0xdc,0xf5,0xa1,0x43,0xbe,0xe7,0xc3,0x9a,0xc3,0x23,0xe5,0x22,0xee,0x13,0x13,0x7,0xfe,0x7a,0xdd,0xdd,0xec,0x1b,0x16,0x15,0x33,0x0,0x0,0x0,0x0,0x2,0xf3,0xff,0xff,0x4,0x0,0x0,0x0,0x0,0x4,0x0,0x0,0x15,0xf9,0xa0,0x1,0x0,0xd4,0xea,0x4,0x0,0x9,0xed,0x2c,0x1a,0x37,0x6,0x7,0x22,0xe6,0xcd,0x28,0x5,0xf7,0xa2,0xde,0x1d,0xed,0xf1,0xfc,0x2a,0x2c,0xb,0x7f,0x32,0x4d,0xfc,0xb,0xc1,0xf7,0xd5,0x2a,0xc0,0x4f,0x19,0x9,0x58,0xfd,0x8,0xed,0x7,0xea,0x51,0xe8,0x28,0xdf,0xd,0xe7,0x0,0x4b,0xb,0x29,0xf,0x3e,0x4b,0xf2,0x54,0x1e,0xf9,0x9,0xf5,0x18,0x1b,0x7,0x40,0x14,0x3d,0xef,0xd6,0xe4,0x10,0x1f,0x40,0x8,0x12,0xc2,0x1d,0x9,0x2,0x17,0x32,0x27,0xf1,0xdc,0x67,0xf6,0xf8,0x3,0x64,0xed,0x24,0x52,0xf5,0xb,0x46,0x9,0xfd,0x41,0xcc,0xa2,0xf4,0xfb,0xf2,0x0,0x17,0xf8,0xed,0x3a,0xf5,0x24,0x3c,0x6e,0xd,0x72,0x25,0xa2,0x3d,0x32,0xc,0xed,0xfe,0xea,0xd5,0x2,0xa,0xf9,0xd,0x7,0xed,0xee,0x7,0xf3,0xe4,0x7,0xeb,0x1,0x16,0x5,0xfb,0x1,0x6,0x0,0xdd,0xf0,0xe3,0x9,0xfe,0xa,0xfd,0x3,0x24,0x24,0xfa,0xf8,0xb,0xc3,0xfc,0xf5,0xdf,0xfa,0xca,0xfd,0x4,0x22,0xe7,0xfb,0xbf,0xd0,0xfb,0xb4,0xea,0xf6,0xd4,0xe0,0x24,0x1b,0x1b,0x5,0xc8,0xfc,0xe1,0x12,0xef,0xcd,0x8,0xff,0x6,0xf5,0xda,0xc6,0xf5,0xdf,0x24,0x8,0x1b,0xf3,0xb,0xef,0xe5,0x7f,0xd1,0xe2,0xe5,0xa5,0x5,0xdb,0xf1,0x1c,0xd6,0x18,0xfa,0xf3,0x22,0xe2,0xf2,0xdf,0x20,0xee,0x8,0x6,0xda,0xc,0x13,0xe,0xdb,0xf7,0xec,0xde,0xd7,0xf5,0xbf,0x1b,0x12,0xf6,0x3,0xe8,0xda,0xd5,0x9,0x76,0x4,0xe5,0xff,0xf3,0xdc,0xd,0xea,0xf2,0x1c,0x16,0xec,0xf,0xec,0xe0,0xf1,0x1f,0xd5,0xff,0x18,0xdb,0xdd,0x0,0x10,0xec,0xa,0xfd,0xfd,0x22,0xeb,0x14,0xe7,0x12,0x16,0xe0,0x5,0xd8,0xf7,0xc,0xfe,0x1c,0x10,0x7,0x12,0xc,0x81,0x2,0xe6,0x47,0x0,0xf3,0xf1,0xb4,0xda,0xe7,0xfe,0xe2,0xfb,0xe6,0xc2,0xd5,0xdf,0xdd,0x17,0xd1,0xdb,0xda,0xfe,0xf8,0xd7,0x2,0xf8,0xdb,0x43,0x14,0xe2,0x9,0x1c,0xfd,0x1d,0xf6,0x9,0xf2,0xf4,0x10,0x5,0xfb,0xf7,0x4a,0xfb,0xcc,0x1c,0xe,0x1e,0x1a,0xfe,0x4,0xff,0xc,0xf1,0xe1,0xb9,0xeb,0xed,0xe5,0xd,0xf1,0x3,0xe4,0xf1,0xd4,0xef,0xca,0xe,0xe7,0xf,0xee,0xee,0xda,0xe7,0xdc,0xfc,0x16,0x8,0xe4,0xf4,0x7,0xe9,0x9f,0xfa,0x15,0x5,0xf9,0x39,0xe4,0x9,0xe3,0xd4,0x7,0xcd,0x15,0xe4,0xdb,0xe4,0xf6,0x32,0xf2,0xf5,0xf4,0xf7,0xb,0xff,0xea,0xfe,0xf1,0xc3,0xc3,0xcc,0xeb,0xfd,0xfa,0xd5,0xff,0xce,0x9e,0xbe,0xe1,0xec,0x0,0xe7,0xfb,0xb,0xe5,0xf1,0xbc,0xc0,0xe7,0xe2,0x1c,0xd0,0x43,0xc4,0xe9,0xbe,0x15,0xb,0xfa,0x54,0xd3,0xdf,0x9,0x3,0xf5,0xb6,0xc4,0xfb,0xd4,0xd3,0xcb,0xe5,0x94,0xf7,0xcb,0xff,0xf4,0x10,0xd7,0x97,0xeb,0x4,0x16,0x9,0xa,0x8,0xf0,0x2,0x89,0x18,0xed,0xe3,0xc2,0xef,0x22,0xf6,0xd3,0xf3,0xaa,0xea,0x17,0xb8,0x22,0xe2,0xcd,0xea,0xe6,0x2b,0xf5,0x12,0xa5,0x27,0x0,0x8,0xe5,0xca,0xcd,0x21,0xf7,0x16,0xb3,0xde,0x21,0x0,0x7,0xea,0x6,0xf1,0xe6,0x9d,0x10,0xdd,0x81,0x1b,0xb9,0xfb,0xfb,0xed,0xf5,0xe1,0xe5,0xb,0xf,0xe,0xca,0xe9,0x6,0xd7,0x45,0xe6,0x2a,0xf4,0xe0,0x9,0xa,0xb9,0x1,0x8,0xa,0xf8,0x2d,0x1d,0x27,0xbf,0xe6,0xf8,0xe0,0xe8,0x8,0x25,0xdf,0x20,0x13,0xe8,0xdc,0x9f,0xea,0xdc,0xf9,0x31,0x7,0xf4,0xee,0x6,0xf5,0xf6,0xf1,0xf2,0xc,0x11,0xbf,0x7f,0xec,0xf8,0x35,0x1e,0x0,0x1a,0xfb,0x5,0xf8,0x38,0xf7,0x26,0xd3,0xc7,0x1a,0xc,0x28,0xf0,0x2,0x14,0x29,0x1a,0xe8,0x9,0xf0,0xf6,0x17,0xdd,0x7,0x1,0xda,0xea,0xcf,0xf0,0x2e,0x9,0x0,0xc1,0xf5,0xf3,0x48,0xa,0x5,0x10,0x35,0xcd,0xf5,0x6,0xf1,0xc6,0xba,0x26,0xd1,0xe9,0xee,0xc,0xe2,0xd2,0xb9,0x1e,0xcc,0x5,0x49,0x22,0xb8,0x17,0xff,0xfa,0x35,0xb5,0xe9,0xfd,0xed,0x11,0x56,0x25,0xe9,0xe2,0xeb,0xea,0xf0,0x20,0xf5,0x1d,0x5e,0x2b,0xea,0xc8,0x3,0xf2,0x58,0x45,0x4,0x2,0xef,0xbb,0x26,0x16,0x1c,0x4,0x8,0xde,0x16,0x3b,0xa7,0x81,0xc1,0x10,0xe1,0xb,0xf7,0x12,0x1f,0xde,0x3a,0xd,0x16,0xc7,0xdf,0xe7,0xde,0x19,0x72,0x1,0x4c,0x16,0x23,0x0,0xf3,0xdd,0xfa,0x38,0x13,0x1c,0xd2,0x55,0x6f,0xe3,0xf1,0x33,0xfb,0x23,0xf0,0x91,0xd2,0xe7,0x13,0xae,0xf2,0xff,0xe,0x16,0x79,0x5f,0xfa,0x2d,0x5b,0xe3,0xa,0x2e,0x26,0x44,0x3,0x1b,0xf1,0xb,0xf9,0x43,0x25,0x8b,0xe2,0xfb,0xf2,0x48,0x54,0x43,0xe0,0x2e,0x1c,0x3b,0x22,0xfe,0x12,0x2b,0xfe,0x92,0xf2,0x2d,0x73,0x21,0x1b,0x16,0x7a,0xbb,0x2f,0x25,0x52,0x51,0xe3,0x3,0x3,0x31,0xa,0x30,0xdf,0xf1,0xed,0xed,0xdf,0xcc,0xf0,0xf3,0x1c,0xf1,0xe8,0x6,0xf7,0xf4,0xb,0xc6,0x2,0x18,0x9,0x1f,0xfd,0xd7,0xf8,0xe6,0xd7,0xe8,0x6,0xd1,0xad,0xdd,0xf9,0x7,0xd8,0xe2,0x1,0xe2,0xcb,0xe8,0xd4,0x23,0xfa,0xfc,0xe6,0xcf,0x1e,0xdd,0xda,0xcd,0xf4,0x21,0xec,0xcc,0xf5,0xe2,0xd2,0xfa,0xf8,0xf1,0xfe,0x6,0x26,0xeb,0xfa,0xf,0xe3,0x1b,0xf6,0x7f,0x10,0xfa,0xde,0x3f,0x2d,0xe4,0xf5,0xb,0x50,0xff,0x1d,0xf9,0x10,0xef,0xf2,0x2a,0xf4,0xee,0x29,0xe9,0xfd,0x3f,0x8,0x16,0xf1,0xc8,0xfa,0xdd,0xe5,0x3a,0x3a,0xdd,0x17,0xd7,0xe,0x8,0xdc,0xfa,0x14,0xd6,0xfe,0xb2,0xcf,0xc,0x17,0x7,0x27,0xf3,0x34,0xf2,0x3f,0xa,0x5a,0xfc,0x0,0x3,0xf8,0x17,0x1,0x2a,0x1a,0xfe,0x2,0xfc,0x2d,0x9,0xcb,0x19,0xcd,0xd7,0xb,0x28,0xf6,0x36,0xf8,0x10,0x6c,0x2f,0xce,0xed,0x1c,0xe9,0xe6,0xe3,0x29,0x1a,0x6,0x1,0xe9,0xe5,0x42,0x21,0xc5,0x81,0x14,0xe7,0x20,0xf3,0xf9,0x23,0x13,0xed,0x7,0xc6,0x12,0xd3,0xf6,0x1f,0x27,0xfd,0xfa,0x20,0xf4,0xf5,0xc8,0x14,0xeb,0x38,0xd3,0xff,0xe8,0x18,0x21,0x27,0xf5,0xd,0x43,0xb6,0x0,0xea,0x1d,0x15,0x27,0x21,0xea,0x1e,0xc,0x2d,0x1a,0xe1,0x5a,0x26,0x6,0xf9,0xdb,0xe4,0xf,0x12,0xf2,0x76,0x11,0xf9,0xf5,0xdd,0xee,0xde,0xca,0x32,0xd9,0xe8,0xe0,0xff,0xf9,0x10,0x11,0x1f,0x1b,0xd6,0x4,0xe2,0x4e,0x27,0x33,0xf7,0x3a,0x17,0x4a,0xfb,0xea,0xf,0x12,0xe,0xea,0x1,0xde,0x0,0x0,0x0,0x0,0x12,0xf7,0xff,0xff,0x4,0x0,0x0,0x0,0x0,0x4,0x0,0x0,0xae,0x7f,0x71,0xed,0xef,0xfd,0x16,0xf9,0xb8,0x7f,0x2e,0x28,0x21,0xde,0x54,0xe0,0xef,0x7f,0xe6,0x7a,0xd1,0xc3,0x57,0xc6,0xcb,0x7f,0x3f,0x45,0xbb,0x3a,0x3a,0x8,0x92,0x6e,0x6b,0x31,0x1c,0x1a,0x7f,0x17,0xeb,0xc,0x5b,0x7f,0xf1,0xe2,0x74,0xd7,0x3c,0xed,0xfd,0x7f,0xf6,0xc2,0x7a,0xaa,0x9d,0x7f,0x47,0x31,0xce,0xc3,0xd5,0x27,0xa9,0x6c,0x47,0x11,0xf2,0xc9,0x7f,0xfd,0xb,0x5f,0x16,0x36,0x2b,0x8a,0x7f,0x49,0x91,0x7f,0x52,0x3c,0x15,0x4d,0x6a,0xc1,0xc8,0x7e,0xfe,0x7f,0xb0,0x95,0x2b,0x51,0xc2,0x2f,0x64,0x7f,0xaa,0x9e,0x6b,0x12,0x9f,0xf4,0x7f,0x22,0xf8,0xd9,0x7e,0xbf,0xc1,0x2a,0x4,0x36,0x2c,0x39,0xcc,0x81,0xd7,0x73,0x7f,0x4d,0xf1,0x1c,0x30,0xf3,0xdc,0x24,0x7f,0x7d,0xa9,0x15,0x31,0xa4,0xe3,0x63,0x55,0x7f,0xd6,0x3a,0xdc,0xf4,0x8,0x81,0xde,0x60,0x3d,0xba,0x68,0xc6,0xe0,0xf3,0xf2,0x44,0x1b,0x38,0x25,0x81,0x81,0x38,0x63,0x31,0xb0,0x12,0x23,0x9e,0xbc,0x6d,0x34,0x7f,0xa1,0xfc,0x61,0xc6,0xc2,0x7f,0x45,0x3d,0xf9,0x36,0x55,0xbc,0xa,0x1,0x2,0x7f,0xdb,0xd4,0x27,0xf3,0x81,0x70,0x77,0x0,0xf3,0xc3,0x4e,0xd3,0xd0,0x7f,0x13,0x75,0xf1,0xd5,0x45,0x1a,0xdc,0x76,0x7f,0x11,0xfc,0x3b,0x4a,0xb3,0xc7,0x7f,0xe9,0x6c,0x2c,0xd1,0x66,0xbf,0xf5,0x7f,0xa,0x5d,0xd5,0xfe,0x1d,0xf7,0x81,0x11,0x3d,0x69,0xf,0xeb,0x29,0xd0,0xd6,0x7f,0x13,0x62,0xf7,0xf2,0x24,0xd7,0xd6,0x4b,0x40,0x7f,0xe7,0x18,0x5d,0x4c,0xa6,0x7f,0x61,0x4b,0xa6,0xf,0x52,0xd1,0xe9,0x16,0x81,0x4f,0xdc,0x17,0xd9,0xa4,0xda,0x7f,0x38,0x21,0xbe,0xe7,0x51,0x3b,0xc9,0xa4,0xe5,0xe3,0x13,0x55,0xcf,0x7f,0x15,0x81,0x44,0x79,0xfa,0x1b,0xe7,0x1c,0xba,0x52,0x45,0x64,0xec,0xb,0x39,0x81,0xfb,0x2e,0x1d,0x22,0x21,0xc1,0x7f,0xdb,0x97,0x81,0xb4,0xf5,0xbf,0x46,0xf4,0x6,0xc0,0x6c,0x3c,0x37,0xfb,0x35,0x7f,0xe1,0xfe,0x55,0x15,0x7f,0xe,0x30,0x14,0xa2,0xb3,0x7f,0x46,0x37,0x1a,0xb8,0x69,0x53,0x1b,0x2,0x52,0xa,0xf6,0x81,0xe2,0xfd,0xcb,0xc8,0xa,0x1f,0x0,0x7f,0xfe,0xff,0xc1,0x27,0xbe,0x6f,0x81,0x28,0xcf,0xc7,0xda,0x7d,0x19,0x66,0x13,0xeb,0x7f,0xed,0xa3,0x7f,0x34,0xe,0x49,0x1,0x4a,0xf7,0x91,0x22,0x7f,0xdc,0x33,0xde,0x75,0x8c,0xa7,0x72,0xec,0x7f,0x15,0x47,0x7d,0xba,0x42,0xa9,0x23,0xe0,0x1d,0xdf,0x81,0xa8,0x81,0x7d,0x28,0x6b,0xce,0xd8,0xf5,0xff,0xbd,0x2d,0x7f,0x12,0xfd,0xe0,0xe8,0xe9,0xa1,0x25,0x44,0x7f,0x26,0x10,0x2f,0xc7,0x72,0x9b,0x81,0x40,0x98,0x64,0x1b,0xb1,0xee,0xde,0xdc,0x7f,0x7f,0xf1,0xcf,0x47,0xc5,0x7f,0x10,0x2e,0xd3,0xb5,0xfd,0xdf,0xfe,0x7f,0x33,0x53,0xcb,0xe1,0x3d,0x2c,0xa9,0x1b,0x3f,0x67,0x81,0xf0,0x20,0x10,0xc5,0x7f,0x2,0x0,0xef,0x3,0x2b,0x4,0xed,0x53,0x9,0x4f,0xfa,0xf7,0x7f,0xfd,0xbe,0x10,0x7a,0x5a,0x7f,0xb6,0x74,0xe3,0xc9,0x56,0x7f,0xfc,0xee,0xde,0x45,0xf0,0xb2,0x2,0xf5,0x48,0xf1,0x81,0x71,0xdc,0x93,0x87,0x81,0xe3,0xc8,0xb,0xec,0xde,0x5,0x10,0x7a,0x56,0xab,0x3d,0x7f,0xb5,0xed,0x7f,0x71,0x30,0xa9,0x26,0x7f,0xb8,0x9b,0x7f,0x25,0x26,0xa2,0xb3,0x59,0xd0,0xcb,0x25,0x3e,0x7f,0xdb,0x98,0x69,0x50,0xa3,0x46,0x7f,0xdd,0xff,0x3,0x64,0xbd,0x34,0x1c,0x81,0x39,0x33,0x6b,0xaa,0x5,0x47,0x5e,0x72,0x7f,0x45,0xe6,0x51,0x57,0xc8,0x31,0xf8,0x7f,0xfa,0xc2,0x58,0x10,0xfa,0x7f,0x28,0x58,0xfa,0xdb,0x75,0xee,0x81,0x4f,0xfb,0x2f,0xc3,0x28,0x1e,0xcb,0xd7,0x45,0x35,0x27,0xee,0xc6,0x7f,0xb2,0xff,0x40,0xf,0x7f,0xaf,0xc8,0x71,0xe9,0xcc,0x57,0x2e,0x46,0xf5,0xc8,0x7f,0xf5,0x81,0x27,0xf,0x38,0xd1,0x27,0x17,0x17,0x1e,0xdd,0xd2,0x56,0xd4,0x81,0xbf,0x19,0x8a,0x7f,0x57,0xd,0x2c,0xe3,0xec,0xcf,0xed,0x16,0x7f,0x1a,0x6,0x19,0x2d,0x99,0x99,0x10,0x7f,0x44,0x8b,0xbd,0x45,0xf8,0xf5,0x12,0x18,0x7f,0xd7,0xe3,0x6b,0xe4,0xca,0x7d,0x7f,0xf3,0xcc,0x27,0x3d,0xaa,0xdf,0x7f,0x25,0x45,0xf5,0xfd,0x55,0x15,0xc6,0x7f,0x70,0x67,0xd7,0xf6,0x1e,0xd9,0x36,0xfe,0x44,0x43,0x7f,0x11,0xe2,0x34,0xcf,0xf5,0x46,0x5f,0x1f,0x81,0x7c,0x21,0xf8,0x9,0x17,0x7f,0xec,0xb1,0xf8,0xee,0x81,0x14,0x12,0x6,0xbb,0x0,0x14,0xbf,0xb3,0x7f,0x53,0x68,0x91,0xf0,0x64,0x31,0x6,0xe4,0x19,0x33,0x10,0x81,0xc7,0xc5,0xe4,0x4a,0x54,0x3d,0xac,0xc8,0x7f,0xdd,0x81,0x8,0x59,0x6f,0x45,0xda,0x52,0x9f,0x93,0x45,0x28,0x7e,0xe2,0x81,0x6b,0xe,0x13,0x49,0x1b,0x7f,0xc0,0xf4,0x60,0xf7,0xf2,0x7f,0x1d,0x43,0x16,0xe,0x3f,0xde,0x8a,0x53,0x40,0x27,0xb6,0xad,0x7f,0x90,0xdc,0x73,0x7f,0x48,0x3b,0x14,0x4f,0xd4,0xa5,0x7e,0x1,0x1d,0x3c,0xa3,0x7f,0x23,0xbc,0xe3,0x5d,0xc,0x2e,0x81,0xe1,0x4c,0xf1,0x58,0x45,0x4b,0x21,0xf2,0x7f,0x3,0x81,0x82,0x1,0x1d,0x2b,0xee,0x19,0x91,0xb3,0x16,0xcd,0x7f,0x2,0xc,0x39,0x1d,0xd1,0xbf,0x1c,0x7f,0x38,0x9d,0xc3,0x54,0xea,0x7f,0x36,0x2f,0xe8,0x3b,0x1f,0xd2,0x8,0xbf,0x21,0x4c,0x7f,0xe5,0x5b,0xc8,0xab,0x69,0x30,0x2b,0x24,0x2f,0xf8,0x81,0x81,0x18,0x48,0xe8,0xcf,0xc4,0x17,0x8f,0x4,0x7f,0x5,0x41,0xc1,0xfc,0x18,0xfc,0xbf,0x3b,0xf2,0x5e,0x18,0xe3,0x7f,0xfd,0xdc,0x81,0xd8,0xe8,0x42,0x1d,0x41,0x12,0x40,0x44,0xbb,0xf5,0x30,0x47,0x7f,0xa3,0xcf,0x42,0x39,0x7f,0xed,0xdc,0x64,0x18,0xb0,0x7f,0x68,0x35,0x9f,0xeb,0xd8,0xe6,0xb7,0x7f,0x66,0xb,0xdd,0x11,0xeb,0xaa,0x5,0x4c,0x3b,0x2f,0xd0,0xd3,0x7f,0xd3,0xc1,0x30,0x32,0x25,0xe6,0xc5,0x7f,0xef,0xf6,0xe5,0x53,0x2,0x2f,0x81,0xca,0xf3,0x3a,0x1e,0x49,0x7f,0xc7,0xef,0x7a,0xea,0xce,0x21,0x68,0x1f,0x2c,0xcf,0x7f,0xee,0x3,0x3e,0xd,0x7f,0x25,0xb3,0x78,0xd3,0x81,0x49,0x32,0x53,0xf6,0xf9,0x3b,0xf1,0x84,0x7f,0xa6,0x16,0x41,0x31,0x36,0xeb,0xd1,0x24,0x11,0x1f,0xd6,0xcb,0x7f,0x1,0x81,0x3c,0x39,0x8,0xd8,0x4,0x2e,0xdf,0xa9,0x7f,0x4e,0x5,0xe,0x2a,0x25,0xbc,0x0,0x0,0x0,0x0,0x98,0xf1,0xff,0xff,0x1,0x0,0x0,0x0,0x10,0x0,0x0,0x0,0xc,0x0,0x14,0x0,0x4,0x0,0x8,0x0,0xc,0x0,0x10,0x0,0xc,0x0,0x0,0x0,0xfc,0x3,0x0,0x0,0xec,0x3,0x0,0x0,0xdc,0x3,0x0,0x0,0x4,0x0,0x0,0x0,0x12,0x0,0x0,0x0,0x90,0x3,0x0,0x0,0x48,0x3,0x0,0x0,0x0,0x3,0x0,0x0,0xbc,0x2,0x0,0x0,0x94,0x2,0x0,0x0,0x60,0x2,0x0,0x0,0x2c,0x2,0x0,0x0,0xf8,0x1,0x0,0x0,0xc8,0x1,0x0,0x0,0x94,0x1,0x0,0x0,0x70,0x1,0x0,0x0,0x3c,0x1,0x0,0x0,0x8,0x1,0x0,0x0,0xd4,0x0,0x0,0x0,0xa0,0x0,0x0,0x0,0x6c,0x0,0x0,0x0,0x38,0x0,0x0,0x0,0x4,0x0,0x0,0x0,0x12,0xfe,0xff,0xff,0x0,0x0,0x0,0xb,0x4,0x0,0x0,0x0,0x18,0x0,0x0,0x0,0xc,0x0,0x0,0x0,0x4,0x0,0x0,0x0,0x28,0xf2,0xff,0xff,0x1,0x0,0x0,0x0,0x19,0x0,0x0,0x0,0x2,0x0,0x0,0x0,0x17,0x0,0x0,0x0,0x18,0x0,0x0,0x0,0x42,0xfe,0xff,0xff,0x0,0x0,0x0,0x15,0x2,0x0,0x0,0x0,0x18,0x0,0x0,0x0,0xc,0x0,0x0,0x0,0x4,0x0,0x0,0x0,0x58,0xf2,0xff,0xff,0x1,0x0,0x0,0x0,0x18,0x0,0x0,0x0,0x2,0x0,0x0,0x0,0x0,0x0,0x0,0x0,0x8,0x0,0x0,0x0,0x72,0xfe,0xff,0xff,0x0,0x0,0x0,0x1b,0x5,0x0,0x0,0x0,0x18,0x0,0x0,0x0,0xc,0x0,0x0,0x0,0x4,0x0,0x0,0x0,0x88,0xf2,0xff,0xff,0x1,0x0,0x0,0x0,0x17,0x0,0x0,0x0,0x2,0x0,0x0,0x0,0x16,0x0,0x0,0x0,0x6,0x0,0x0,0x0,0xa2,0xfe,0xff,0xff,0x0,0x0,0x0,0x15,0x2,0x0,0x0,0x0,0x18,0x0,0x0,0x0,0xc,0x0,0x0,0x0,0x4,0x0,0x0,0x0,0xb8,0xf2,0xff,0xff,0x1,0x0,0x0,0x0,0x16,0x0,0x0,0x0,0x2,0x0,0x0,0x0,0x15,0x0,0x0,0x0,0xb,0x0,0x0,0x0,0xd2,0xfe,0xff,0xff,0x0,0x0,0x0,0xb,0x4,0x0,0x0,0x0,0x18,0x0,0x0,0x0,0xc,0x0,0x0,0x0,0x4,0x0,0x0,0x0,0xe8,0xf2,0xff,0xff,0x1,0x0,0x0,0x0,0x15,0x0,0x0,0x0,0x2,0x0,0x0,0x0,0x13,0x0,0x0,0x0,0x14,0x0,0x0,0x0,0x2,0xff,0xff,0xff,0x0,0x0,0x0,0x15,0x2,0x0,0x0,0x0,0x18,0x0,0x0,0x0,0xc,0x0,0x0,0x0,0x4,0x0,0x0,0x0,0x18,0xf3,0xff,0xff,0x1,0x0,0x0,0x0,0x14,0x0,0x0,0x0,0x2,0x0,0x0,0x0,0x12,0x0,0x0,0x0,0xe,0x0,0x0,0x0,0x32,0xff,0xff,0xff,0x0,0x0,0x0,0x15,0x2,0x0,0x0,0x0,0x18,0x0,0x0,0x0,0xc,0x0,0x0,0x0,0x4,0x0,0x0,0x0,0x48,0xf3,0xff,0xff,0x1,0x0,0x0,0x0,0x13,0x0,0x0,0x0,0x2,0x0,0x0,0x0,0x1b,0x0,0x0,0x0,0x1,0x0,0x0,0x0,0xfe,0xfe,0xff,0xff,0x7,0x0,0x0,0x0,0x10,0x0,0x0,0x0,0x4,0x0,0x0,0x0,0x1,0x0,0x0,0x0,0x1b,0x0,0x0,0x0,0x1,0x0,0x0,0x0,0x11,0x0,0x0,0x0,0x82,0xff,0xff,0xff,0x0,0x0,0x0,0x15,0x2,0x0,0x0,0x0,0x18,0x0,0x0,0x0,0xc,0x0,0x0,0x0,0x4,0x0,0x0,0x0,0x98,0xf3,0xff,0xff,0x1,0x0,0x0,0x0,0x12,0x0,0x0,0x0,0x2,0x0,0x0,0x0,0xf,0x0,0x0,0x0,0xa,0x0,0x0,0x0,0xb2,0xff,0xff,0xff,0x0,0x0,0x0,0x21,0x3,0x0,0x0,0x0,0x18,0x0,0x0,0x0,0xc,0x0,0x0,0x0,0x4,0x0,0x0,0x0,0xc8,0xf3,0xff,0xff,0x1,0x0,0x0,0x0,0x11,0x0,0x0,0x0,0x1,0x0,0x0,0x0,0x1a,0x0,0x0,0x0,0x7a,0xff,0xff,0xff,0x6,0x0,0x0,0x0,0x10,0x0,0x0,0x0,0x4,0x0,0x0,0x0,0x1,0x0,0x0,0x0,0x1a,0x0,0x0,0x0,0x1,0x0,0x0,0x0,0x10,0x0,0x0,0x0,0x0,0x0,0xe,0x0,0x18,0x0,0x8,0x0,0xc,0x0,0x10,0x0,0x7,0x0,0x14,0x0,0xe,0x0,0x0,0x0,0x0,0x0,0x0,0x15,0x2,0x0,0x0,0x0,0x18,0x0,0x0,0x0,0xc,0x0,0x0,0x0,0x4,0x0,0x0,0x0,0x24,0xf4,0xff,0xff,0x1,0x0,0x0,0x0,0x10,0x0,0x0,0x0,0x2,0x0,0x0,0x0,0xf,0x0,0x0,0x0,0x7,0x0,0x0,0x0,0xda,0xff,0xff,0xff,0x1,0x0,0x0,0x0,0x10,0x0,0x0,0x0,0x4,0x0,0x0,0x0,0x1,0x0,0x0,0x0,0xf,0x0,0x0,0x0,0x2,0x0,0x0,0x0,0xd,0x0,0x0,0x0,0x5,0x0,0x0,0x0,0x0,0x0,0xa,0x0,0x10,0x0,0x4,0x0,0x8,0x0,0xc,0x0,0xa,0x0,0x0,0x0,0x1,0x0,0x0,0x0,0x10,0x0,0x0,0x0,0x4,0x0,0x0,0x0,0x1,0x0,0x0,0x0,0xe,0x0,0x0,0x0,0x2,0x0,0x0,0x0,0x0,0x0,0x0,0x0,0x5,0x0,0x0,0x0,0x46,0xff,0xff,0xff,0x0,0x0,0x0,0x8,0x28,0x0,0x0,0x0,0x1c,0x0,0x0,0x0,0x10,0x0,0x0,0x0,0x0,0x0,0xa,0x0,0x8,0x0,0x6,0x0,0x0,0x0,0x7,0x0,0xa,0x0,0x0,0x0,0x0,0x0,0x1,0x1,0x1,0x0,0x0,0x0,0xd,0x0,0x0,0x0,0x3,0x0,0x0,0x0,0xc,0x0,0x0,0x0,0x2,0x0,0x0,0x0,0xff,0xff,0xff,0xff,0xca,0xff,0xff,0xff,0x0,0x0,0x0,0x8,0x1c,0x0,0x0,0x0,0x10,0x0,0x0,0x0,0x4,0x0,0x0,0x0,0x76,0xff,0xff,0xff,0x0,0x0,0x0,0x1,0x1,0x0,0x0,0x0,0xc,0x0,0x0,0x0,0x3,0x0,0x0,0x0,0x0,0x0,0x0,0x0,0x3,0x0,0x0,0x0,0xff,0xff,0xff,0xff,0x0,0x0,0xe,0x0,0x14,0x0,0x0,0x0,0x8,0x0,0xc,0x0,0x7,0x0,0x10,0x0,0xe,0x0,0x0,0x0,0x0,0x0,0x0,0x8,0x1c,0x0,0x0,0x0,0x10,0x0,0x0,0x0,0x4,0x0,0x0,0x0,0xba,0xff,0xff,0xff,0x0,0x0,0x0,0x1,0x1,0x0,0x0,0x0,0xb,0x0,0x0,0x0,0x3,0x0,0x0,0x0,0x0,0x0,0x0,0x0,0x4,0x0,0x0,0x0,0xff,0xff,0xff,0xff,0x0,0x0,0xe,0x0,0x16,0x0,0x0,0x0,0x8,0x0,0xc,0x0,0x7,0x0,0x10,0x0,0xe,0x0,0x0,0x0,0x0,0x0,0x0,0x8,0x28,0x0,0x0,0x0,0x1c,0x0,0x0,0x0,0x10,0x0,0x0,0x0,0x0,0x0,0xa,0x0,0x8,0x0,0x0,0x0,0x0,0x0,0x7,0x0,0xa,0x0,0x0,0x0,0x0,0x0,0x0,0x1,0x1,0x0,0x0,0x0,0xa,0x0,0x0,0x0,0x3,0x0,0x0,0x0,0x0,0x0,0x0,0x0,0x9,0x0,0x0,0x0,0xff,0xff,0xff,0xff,0x2,0x0,0x0,0x0,0x19,0x0,0x0,0x0,0x15,0x0,0x0,0x0,0x2,0x0,0x0,0x0,0x0,0x0,0x0,0x0,0x1,0x0,0x0,0x0,0x1c,0x0,0x0,0x0,0xb4,0x9,0x0,0x0,0x54,0x9,0x0,0x0,0x14,0x7,0x0,0x0,0x98,0x6,0x0,0x0,0x14,0x6,0x0,0x0,0xf0,0x5,0x0,0x0,0xcc,0x5,0x0,0x0,0x80,0x5,0x0,0x0,0x3c,0x5,0x0,0x0,0xb8,0x4,0x0,0x0,0x78,0x4,0x0,0x0,0x34,0x4,0x0,0x0,0xf0,0x3,0x0,0x0,0xac,0x3,0x0,0x0,0x68,0x3,0x0,0x0,0x24,0x3,0x0,0x0,0xe0,0x2,0x0,0x0,0xb8,0x2,0x0,0x0,0x58,0x2,0x0,0x0,0x14,0x2,0x0,0x0,0xd0,0x1,0x0,0x0,0x8c,0x1,0x0,0x0,0x48,0x1,0x0,0x0,0x4,0x1,0x0,0x0,0xc0,0x0,0x0,0x0,0x7c,0x0,0x0,0x0,0x60,0x0,0x0,0x0,0x14,0x0,0x0,0x0,0x0,0x0,0xe,0x0,0x10,0x0,0x8,0x0,0x7,0x0,0x0,0x0,0x0,0x0,0xc,0x0,0xe,0x0,0x0,0x0,0x0,0x0,0x0,0x9,0x28,0x0,0x0,0x0,0x4,0x0,0x0,0x0,0xcc,0xf6,0xff,0xff,0x14,0x0,0x0,0x0,0x4,0x0,0x0,0x0,0x1,0x0,0x0,0x0,0x80,0xff,0xff,0xff,0xff,0xff,0xff,0xff,0x1,0x0,0x0,0x0,0x81,0x80,0x80,0x3b,0x3,0x0,0x0,0x0,0x1,0x0,0x0,0x0,0x80,0x0,0x0,0x0,0x10,0x0,0x0,0x0,0x0,0x0,0x6,0x0,0x8,0x0,0x4,0x0,0x6,0x0,0x0,0x0,0x4,0x0,0x0,0x0,0x3,0x0,0x0,0x0,0x1,0x0,0x0,0x0,0x80,0x0,0x0,0x0,0x10,0x0,0x0,0x0,0x42,0xf7,0xff,0xff,0x0,0x0,0x9,0x1,0x2c,0x0,0x0,0x0,0x4,0x0,0x0,0x0,0x2c,0xf7,0xff,0xff,0x18,0x0,0x0,0x0,0x4,0x0,0x0,0x0,0x1,0x0,0x0,0x0,0x4,0x0,0x0,0x0,0x0,0x0,0x0,0x0,0x0,0x0,0x0,0x0,0x1,0x0,0x0,0x0,0xda,0xe4,0xef,0x3c,0x2,0x0,0x0,0x0,0x1,0x0,0x0,0x0,0x80,0x0,0x0,0x0,0x82,0xf7,0xff,0xff,0x0,0x0,0x9,0x1,0x2c,0x0,0x0,0x0,0x4,0x0,0x0,0x0,0x6c,0xf7,0xff,0xff,0x18,0x0,0x0,0x0,0x4,0x0,0x0,0x0,0x1,0x0,0x0,0x0,0xc3,0xff,0xff,0xff,0xff,0xff,0xff,0xff,0x0,0x0,0x0,0x0,0x1,0x0,0x0,0x0,0x47,0xca,0x6a,0x3c,0x2,0x0,0x0,0x0,0x1,0x0,0x0,0x0,0x80,0x0,0x0,0x0,0xc2,0xf7,0xff,0xff,0x0,0x0,0x9,0x1,0x2c,0x0,0x0,0x0,0x4,0x0,0x0,0x0,0xac,0xf7,0xff,0xff,0x18,0x0,0x0,0x0,0x4,0x0,0x0,0x0,0x1,0x0,0x0,0x0,0x24,0x0,0x0,0x0,0x0,0x0,0x0,0x0,0x0,0x0,0x0,0x0,0x1,0x0,0x0,0x0,0xf,0xa5,0xba,0x3c,0x2,0x0,0x0,0x0,0x1,0x0,0x0,0x0,0x80,0x0,0x0,0x0,0x2,0xf8,0xff,0xff,0x0,0x0,0x9,0x1,0x28,0x0,0x0,0x0,0x4,0x0,0x0,0x0,0xec,0xf7,0xff,0xff,0x14,0x0,0x0,0x0,0x4,0x0,0x0,0x0,0x1,0x0,0x0,0x0,0x5,0x0,0x0,0x0,0x0,0x0,0x0,0x0,0x1,0x0,0x0,0x0,0x6d,0xb2,0xd2,0x3c,0x3,0x0,0x0,0x0,0x1,0x0,0x0,0x0,0x80,0x0,0x0,0x0,0x10,0x0,0x0,0x0,0x42,0xf8,0xff,0xff,0x0,0x0,0x9,0x1,0x28,0x0,0x0,0x0,0x4,0x0,0x0,0x0,0x2c,0xf8,0xff,0xff,0x14,0x0,0x0,0x0,0x4,0x0,0x0,0x0,0x1,0x0,0x0,0x0,0xfc,0xff,0xff,0xff,0xff,0xff,0xff,0xff,0x1,0x0,0x0,0x0,0x67,0x35,0xa3,0x3c,0x3,0x0,0x0,0x0,0x1,0x0,0x0,0x0,0x80,0x0,0x0,0x0,0x10,0x0,0x0,0x0,0x82,0xf8,0xff,0xff,0x0,0x0,0x9,0x1,0x28,0x0,0x0,0x0,0x4,0x0,0x0,0x0,0x6c,0xf8,0xff,0xff,0x14,0x0,0x0,0x0,0x4,0x0,0x0,0x0,0x1,0x0,0x0,0x0,0xf2,0xff,0xff,0xff,0xff,0xff,0xff,0xff,0x1,0x0,0x0,0x0,0x74,0xf2,0x12,0x3c,0x3,0x0,0x0,0x0,0x1,0x0,0x0,0x0,0x80,0x0,0x0,0x0,0x10,0x0,0x0,0x0,0xc2,0xf8,0xff,0xff,0x0,0x0,0x9,0x1,0x28,0x0,0x0,0x0,0x4,0x0,0x0,0x0,0xac,0xf8,0xff,0xff,0x14,0x0,0x0,0x0,0x4,0x0,0x0,0x0,0x1,0x0,0x0,0x0,0xff,0xff,0xff,0xff,0xff,0xff,0xff,0xff,0x1,0x0,0x0,0x0,0x93,0x36,0x75,0x3c,0x3,0x0,0x0,0x0,0x1,0x0,0x0,0x0,0x80,0x0,0x0,0x0,0x10,0x0,0x0,0x0,0x2,0xf9,0xff,0xff,0x0,0x0,0x9,0x1,0x2c,0x0,0x0,0x0,0x4,0x0,0x0,0x0,0xec,0xf8,0xff,0xff,0x18,0x0,0x0,0x0,0x4,0x0,0x0,0x0,0x1,0x0,0x0,0x0,0xf6,0xff,0xff,0xff,0xff,0xff,0xff,0xff,0x0,0x0,0x0,0x0,0x1,0x0,0x0,0x0,0x3d,0x3a,0xb3,0x3c,0x3,0x0,0x0,0x0,0x1,0x0,0x0,0x0,0x80,0x0,0x0,0x0,0x10,0x0,0x0,0x0,0x0,0x0,0x16,0x0,0x10,0x0,0x8,0x0,0x0,0x0,0x0,0x0,0x0,0x0,0xc,0x0,0x0,0x0,0x0,0x0,0x0,0x0,0x7,0x0,0x16,0x0,0x0,0x0,0x0,0x0,0x0,0x1,0xc,0x0,0x0,0x0,0x4,0x0,0x0,0x0,0xc0,0xf8,0xff,0xff,0x3,0x0,0x0,0x0,0x1,0x0,0x0,0x0,0x80,0x0,0x0,0x0,0x10,0x0,0x0,0x0,0x82,0xf9,0xff,0xff,0x0,0x0,0x9,0x1,0x28,0x0,0x0,0x0,0x4,0x0,0x0,0x0,0x6c,0xf9,0xff,0xff,0x14,0x0,0x0,0x0,0x4,0x0,0x0,0x0,0x1,0x0,0x0,0x0,0x7f,0x0,0x0,0x0,0x0,0x0,0x0,0x0,0x1,0x0,0x0,0x0,0xf2,0xab,0x8d,0x3d,0x3,0x0,0x0,0x0,0x1,0x0,0x0,0x0,0x80,0x0,0x0,0x0,0x10,0x0,0x0,0x0,0xc2,0xf9,0xff,0xff,0x0,0x0,0x9,0x1,0x28,0x0,0x0,0x0,0x4,0x0,0x0,0x0,0xac,0xf9,0xff,0xff,0x14,0x0,0x0,0x0,0x4,0x0,0x0,0x0,0x1,0x0,0x0,0x0,0x80,0xff,0xff,0xff,0xff,0xff,0xff,0xff,0x1,0x0,0x0,0x0,0x11,0xcf,0xac,0x3b,0x3,0x0,0x0,0x0,0x1,0x0,0x0,0x0,0x80,0x0,0x0,0x0,0x1,0x0,0x0,0x0,0x2,0xfa,0xff,0xff,0x0,0x0,0x9,0x1,0x28,0x0,0x0,0x0,0x4,0x0,0x0,0x0,0xec,0xf9,0xff,0xff,0x14,0x0,0x0,0x0,0x4,0x0,0x0,0x0,0x1,0x0,0x0,0x0,0x80,0xff,0xff,0xff,0xff,0xff,0xff,0xff,0x1,0x0,0x0,0x0,0x36,0x69,0x67,0x3c,0x3,0x0,0x0,0x0,0x1,0x0,0x0,0x0,0x80,0x0,0x0,0x0,0x1,0x0,0x0,0x0,0x42,0xfa,0xff,0xff,0x0,0x0,0x9,0x1,0x2c,0x0,0x0,0x0,0x4,0x0,0x0,0x0,0x2c,0xfa,0xff,0xff,0x18,0x0,0x0,0x0,0x4,0x0,0x0,0x0,0x1,0x0,0x0,0x0,0x80,0xff,0xff,0xff,0xff,0xff,0xff,0xff,0x0,0x0,0x0,0x0,0x1,0x0,0x0,0x0,0x11,0xcf,0xac,0x3b,0x2,0x0,0x0,0x0,0x1,0x0,0x0,0x0,0x80,0x0,0x0,0x0,0x82,0xfa,0xff,0xff,0x0,0x0,0x9,0x1,0x2c,0x0,0x0,0x0,0x4,0x0,0x0,0x0,0x6c,0xfa,0xff,0xff,0x18,0x0,0x0,0x0,0x4,0x0,0x0,0x0,0x1,0x0,0x0,0x0,0x19,0x0,0x0,0x0,0x0,0x0,0x0,0x0,0x0,0x0,0x0,0x0,0x1,0x0,0x0,0x0,0x4b,0x71,0xad,0x3c,0x2,0x0,0x0,0x0,0x1,0x0,0x0,0x0,0x8,0x0,0x0,0x0,0xc2,0xfa,0xff,0xff,0x0,0x0,0x9,0x1,0x2c,0x0,0x0,0x0,0x4,0x0,0x0,0x0,0xac,0xfa,0xff,0xff,0x18,0x0,0x0,0x0,0x4,0x0,0x0,0x0,0x1,0x0,0x0,0x0,0x14,0x0,0x0,0x0,0x0,0x0,0x0,0x0,0x0,0x0,0x0,0x0,0x1,0x0,0x0,0x0,0x1c,0xc4,0x75,0x3c,0x2,0x0,0x0,0x0,0x1,0x0,0x0,0x0,0x10,0x0,0x0,0x0,0x2,0xfb,0xff,0xff,0x0,0x0,0x9,0x1,0x28,0x0,0x0,0x0,0x4,0x0,0x0,0x0,0xec,0xfa,0xff,0xff,0x14,0x0,0x0,0x0,0x4,0x0,0x0,0x0,0x1,0x0,0x0,0x0,0xf4,0xff,0xff,0xff,0xff,0xff,0xff,0xff,0x1,0x0,0x0,0x0,0x45,0xe,0x3b,0x3c,0x2,0x0,0x0,0x0,0x1,0x0,0x0,0x0,0x10,0x0,0x0,0x0,0xd6,0xfd,0xff,0xff,0x0,0x0,0x9,0x1,0x6c,0x0,0x0,0x0,0x8,0x0,0x0,0x0,0x4,0x0,0x0,0x0,0x2c,0xfb,0xff,0xff,0x18,0x0,0x0,0x0,0x4,0x0,0x0,0x0,0x1,0x0,0x0,0x0,0x0,0x0,0x0,0x0,0x0,0x0,0x0,0x0,0x0,0x0,0x0,0x0,0x10,0x0,0x0,0x0,0xe8,0x1e,0x43,0x3b,0x9c,0x4e,0x4c,0x3b,0x64,0x98,0x5b,0x3b,0x41,0x6a,0x72,0x3b,0x6,0xb8,0x8f,0x3b,0x59,0xfc,0x4a,0x3b,0x7b,0x22,0x52,0x3b,0xc1,0xbd,0x71,0x3b,0xa4,0xed,0x4e,0x3b,0x91,0x84,0x32,0x3b,0x37,0x6e,0xc0,0x3b,0x6a,0xf7,0x38,0x3b,0xa,0x70,0x5e,0x3b,0x6f,0x6c,0x24,0x3b,0xe0,0x64,0x94,0x3b,0x8b,0x7c,0x61,0x3b,0x2,0x0,0x0,0x0,0x10,0x0,0x0,0x0,0x80,0x0,0x0,0x0,0x56,0xfe,0xff,0xff,0x0,0x0,0x9,0x1,0x2c,0x0,0x0,0x0,0x7,0x0,0x0,0x0,0x4,0x0,0x0,0x0,0xac,0xfb,0xff,0xff,0x14,0x0,0x0,0x0,0x4,0x0,0x0,0x0,0x1,0x0,0x0,0x0,0xbf,0xff,0xff,0xff,0xff,0xff,0xff,0xff,0x1,0x0,0x0,0x0,0x51,0x52,0x6a,0x3c,0x2,0x0,0x0,0x0,0x1,0x0,0x0,0x0,0x80,0x0,0x0,0x0,0x96,0xfe,0xff,0xff,0x0,0x0,0x9,0x1,0x30,0x0,0x0,0x0,0x6,0x0,0x0,0x0,0x4,0x0,0x0,0x0,0xec,0xfb,0xff,0xff,0x18,0x0,0x0,0x0,0x4,0x0,0x0,0x0,0x1,0x0,0x0,0x0,0x7f,0x0,0x0,0x0,0x0,0x0,0x0,0x0,0x0,0x0,0x0,0x0,0x1,0x0,0x0,0x0,0xfc,0xd,0x18,0x3e,0x3,0x0,0x0,0x0,0x1,0x0,0x0,0x0,0x80,0x0,0x0,0x0,0x10,0x0,0x0,0x0,0xde,0xfe,0xff,0xff,0x0,0x0,0x2,0x1,0x10,0x0,0x0,0x0,0x5,0x0,0x0,0x0,0x4,0x0,0x0,0x0,0xac,0xfb,0xff,0xff,0x1,0x0,0x0,0x0,0x1,0x0,0x0,0x0,0xfe,0xfe,0xff,0xff,0x0,0x0,0x2,0x1,0x10,0x0,0x0,0x0,0x4,0x0,0x0,0x0,0x4,0x0,0x0,0x0,0xcc,0xfb,0xff,0xff,0x1,0x0,0x0,0x0,0x3,0x0,0x0,0x0,0x1e,0xff,0xff,0xff,0x0,0x0,0x9,0x1,0x6c,0x0,0x0,0x0,0x3,0x0,0x0,0x0,0x4,0x0,0x0,0x0,0x74,0xfc,0xff,0xff,0x18,0x0,0x0,0x0,0x4,0x0,0x0,0x0,0x1,0x0,0x0,0x0,0x0,0x0,0x0,0x0,0x0,0x0,0x0,0x0,0x0,0x0,0x0,0x0,0x10,0x0,0x0,0x0,0xe2,0x1,0x58,0x3b,0xf7,0x4,0x42,0x3b,0xd0,0x52,0x3d,0x3b,0x4a,0xd7,0x46,0x3b,0x62,0x2e,0x38,0x3b,0x28,0x7a,0x64,0x3b,0x49,0xce,0x5e,0x3b,0xd0,0x45,0x4c,0x3b,0xc7,0x55,0x29,0x3b,0xbf,0x65,0x83,0x3b,0x23,0xbc,0x83,0x3b,0x6d,0x2b,0x5f,0x3b,0x67,0xe,0x35,0x3b,0x31,0xbc,0x80,0x3b,0xc,0x10,0x48,0x3b,0x57,0x39,0x7c,0x3b,0x2,0x0,0x0,0x0,0x10,0x0,0x0,0x0,0x80,0x0,0x0,0x0,0x9e,0xff,0xff,0xff,0x0,0x0,0x9,0x1,0x4c,0x0,0x0,0x0,0x2,0x0,0x0,0x0,0x4,0x0,0x0,0x0,0xf4,0xfc,0xff,0xff,0x18,0x0,0x0,0x0,0x4,0x0,0x0,0x0,0x1,0x0,0x0,0x0,0x0,0x0,0x0,0x0,0x0,0x0,0x0,0x0,0x0,0x0,0x0,0x0,0x8,0x0,0x0,0x0,0x77,0x8b,0x67,0x3b,0x91,0x73,0x99,0x3b,0x68,0x4d,0x8f,0x3b,0x6b,0xe1,0x6f,0x3b,0x81,0x5b,0x85,0x3b,0x8,0x9a,0x35,0x3b,0x83,0x3,0x91,0x3b,0x5b,0x4d,0x6c,0x3b,0x2,0x0,0x0,0x0,0x8,0x0,0x0,0x0,0x80,0x0,0x0,0x0,0x0,0x0,0x16,0x0,0x14,0x0,0x8,0x0,0x6,0x0,0xc,0x0,0x0,0x0,0x10,0x0,0x0,0x0,0x0,0x0,0x0,0x0,0x7,0x0,0x16,0x0,0x0,0x0,0x0,0x0,0x9,0x1,0x28,0x2,0x0,0x0,0x1,0x0,0x0,0x0,0x4,0x0,0x0,0x0,0x6c,0xfd,0xff,0xff,0x14,0x0,0x0,0x0,0x4,0x0,0x0,0x0,0x1,0x0,0x0,0x0,0x0,0x0,0x0,0x0,0x0,0x0,0x0,0x0,0x80,0x0,0x0,0x0,0x1f,0xf4,0x61,0x3b,0xae,0xb4,0x7a,0x3b,0xca,0x96,0x33,0x3b,0x9,0x54,0xa,0x3b,0x96,0xe3,0x31,0x3b,0x38,0xb8,0x1a,0x3b,0x7f,0x4,0x60,0x3b,0xff,0xcb,0xc,0x3b,0x83,0x96,0x25,0x3b,0x4d,0xeb,0x3c,0x3b,0x57,0xed,0x1f,0x3b,0x6,0x9b,0x26,0x3b,0xcb,0x47,0x28,0x3b,0x58,0x86,0x42,0x3b,0x9d,0xda,0x2a,0x3b,0x2e,0x9,0xb8,0x3a,0x14,0xa2,0x2c,0x3b,0xda,0xc4,0x5c,0x3b,0x45,0x98,0x9,0x3b,0x3b,0xe7,0x28,0x3b,0x4e,0x21,0x31,0x3b,0x28,0x41,0x1c,0x3b,0x36,0x44,0x28,0x3b,0x32,0x8c,0xa1,0x3b,0xde,0x7a,0x12,0x3b,0x79,0x35,0x36,0x3b,0x82,0x3e,0xfe,0x3a,0x42,0x21,0x89,0x3b,0x1,0xbc,0x9f,0x3b,0xb,0x96,0x8,0x3b,0x2c,0xc6,0x20,0x3b,0xcf,0x54,0x54,0x3b,0xd8,0x40,0xa2,0x3a,0x44,0xf1,0x3d,0x3b,0x5f,0x9a,0x51,0x3b,0xb7,0x59,0xa1,0x3a,0x5c,0xa0,0x9c,0x3a,0x52,0xf,0xc2,0x3a,0xaf,0x2e,0x61,0x3b,0x63,0xa8,0xda,0x3a,0x30,0x42,0x10,0x3b,0xa9,0x25,0x38,0x3b,0xb5,0x8a,0x10,0x3b,0xc5,0x57,0x4,0x3b,0xd4,0x4f,0xfe,0x3a,0xe4,0xa6,0x13,0x3b,0x32,0x5d,0x6,0x3b,0x25,0xc2,0x20,0x3b,0x17,0x1b,0xc0,0x3a,0x4e,0x3a,0x49,0x3b,0xe4,0xbf,0x1e,0x3b,0x8,0xca,0x32,0x3b,0x86,0x88,0xa1,0x3b,0xbf,0xb5,0x5e,0x3b,0x75,0xee,0x5c,0x3a,0xa2,0x5b,0x1d,0x3b,0x67,0xd7,0x6d,0x3b,0x91,0x66,0x6b,0x3b,0x53,0xed,0x40,0x3b,0xa0,0x48,0x99,0x3b,0x24,0xb9,0x88,0x3b,0xed,0x52,0x12,0x3b,0x4e,0x93,0x8e,0x3b,0x32,0xd3,0x42,0x3b,0xf3,0xaa,0x99,0x3a,0xc1,0xc1,0x2c,0x3b,0x78,0x80,0x3e,0x3b,0xf8,0x86,0x67,0x3b,0x2,0xc1,0x49,0x3b,0xe2,0xdf,0x58,0x3b,0x3f,0x97,0x93,0x3a,0x2c,0x87,0x59,0x3b,0x59,0xbd,0x82,0x3b,0x7d,0xae,0x39,0x3b,0x14,0x47,0x6a,0x3b,0x64,0x17,0x68,0x3b,0x6,0xc0,0x59,0x3b,0xa9,0x31,0xbb,0x3a,0x54,0xe6,0x80,0x3b,0xf0,0xdd,0x3d,0x3b,0xb2,0x1d,0x28,0x3b,0xbd,0x60,0x7a,0x3b,0x81,0xe9,0x44,0x3b,0x44,0x2a,0x8c,0x3b,0x9f,0xaf,0x47,0x3b,0x29,0x54,0x87,0x3b,0x51,0x58,0x52,0x3b,0xde,0xab,0x24,0x3b,0xf2,0x4a,0x34,0x3b,0x3,0xb5,0x82,0x3b,0x66,0xe6,0x91,0x3b,0x6e,0x9d,0xca,0x3a,0xdf,0x31,0x9,0x3b,0x21,0x5b,0x37,0x3b,0x81,0x8,0xfb,0x3a,0x33,0x46,0xe6,0x3a,0xf8,0xf4,0x3a,0x3b,0x33,0x24,0x64,0x3b,0xfd,0x1f,0x17,0x3b,0xb5,0x60,0x54,0x3b,0x15,0x38,0x62,0x3b,0x50,0x27,0x61,0x3b,0x4b,0x35,0x33,0x3b,0x1a,0xd5,0x29,0x3b,0x20,0x54,0xa3,0x3b,0xdf,0x6c,0x3b,0x3b,0x54,0xee,0x5e,0x3b,0xae,0xcd,0x2a,0x3b,0x7,0x9,0x1e,0x3b,0x79,0x4c,0x65,0x3b,0x99,0xff,0x69,0x3b,0xc8,0x68,0x51,0x3b,0x4f,0xfc,0xa4,0x3a,0x58,0x54,0xf6,0x3a,0x77,0x8c,0x14,0x3b,0x35,0xfc,0x34,0x3b,0x67,0xfc,0x4a,0x3b,0xe0,0x2b,0x46,0x3b,0x96,0x50,0x76,0x3b,0x4d,0xfc,0x1e,0x3b,0xed,0xa5,0xb,0x3b,0x2f,0xa1,0x26,0x3b,0xfe,0x38,0x4f,0x3b,0x2a,0xb,0x4c,0x3b,0x99,0xcf,0x3c,0x3b,0xf7,0x9b,0x7a,0x3b,0x5d,0xe7,0x27,0x3b,0xfb,0xd5,0x83,0x3b,0x2,0x0,0x0,0x0,0x80,0x0,0x0,0x0,0x8,0x0,0x0,0x0,0xba,0xff,0xff,0xff,0x0,0x0,0x9,0x1,0x2c,0x0,0x0,0x0,0x4,0x0,0x0,0x0,0xa4,0xff,0xff,0xff,0x18,0x0,0x0,0x0,0x4,0x0,0x0,0x0,0x1,0x0,0x0,0x0,0xfd,0xff,0xff,0xff,0xff,0xff,0xff,0xff,0x0,0x0,0x0,0x0,0x1,0x0,0x0,0x0,0x53,0xb5,0xc6,0x3c,0x3,0x0,0x0,0x0,0x1,0x0,0x0,0x0,0x80,0x0,0x0,0x0,0x10,0x0,0x0,0x0,0x0,0x0,0x16,0x0,0x10,0x0,0x8,0x0,0x6,0x0,0x0,0x0,0x0,0x0,0xc,0x0,0x0,0x0,0x0,0x0,0x0,0x0,0x7,0x0,0x16,0x0,0x0,0x0,0x0,0x0,0x9,0x1,0x38,0x0,0x0,0x0,0x10,0x0,0x0,0x0,0xc,0x0,0xc,0x0,0x0,0x0,0x0,0x0,0x4,0x0,0x8,0x0,0xc,0x0,0x0,0x0,0x18,0x0,0x0,0x0,0x4,0x0,0x0,0x0,0x1,0x0,0x0,0x0,0x80,0xff,0xff,0xff,0xff,0xff,0xff,0xff,0x0,0x0,0x0,0x0,0x1,0x0,0x0,0x0,0x36,0x69,0x67,0x3c,0x2,0x0,0x0,0x0,0x1,0x0,0x0,0x0,0x80,0x0,0x0,0x0,0x8,0x0,0x0,0x0,0x8c,0x0,0x0,0x0,0x70,0x0,0x0,0x0,0x54,0x0,0x0,0x0,0x44,0x0,0x0,0x0,0x3c,0x0,0x0,0x0,0x28,0x0,0x0,0x0,0x1c,0x0,0x0,0x0,0x4,0x0,0x0,0x0,0xf8,0xff,0xff,0xff,0x72,0x0,0x0,0x0,0xc,0x0,0x8,0x0,0x0,0x0,0x0,0x0,0x0,0x0,0x4,0x0,0xc,0x0,0x0,0x0,0x6,0x0,0x0,0x0,0xd4,0xff,0xff,0xff,0x0,0x0,0x0,0x4a,0x4a,0x0,0x0,0x0,0x4,0x0,0x4,0x0,0x4,0x0,0x0,0x0,0xe8,0xff,0xff,0xff,0x0,0x0,0x0,0x2f,0x2f,0x0,0x0,0x0,0xf4,0xff,0xff,0xff,0x0,0x0,0x0,0x12,0x12,0x0,0x0,0x0,0xc,0x0,0xc,0x0,0x7,0x0,0x0,0x0,0x0,0x0,0x8,0x0,0xc,0x0,0x0,0x0,0x0,0x0,0x0,0x16,0x16,0x0,0x0,0x0,0xc,0x0,0x10,0x0,0x7,0x0,0x0,0x0,0x8,0x0,0xc,0x0,0xc,0x0,0x0,0x0,0x0,0x0,0x0,0x9,0x5,0x0,0x0,0x0,0x9,0x0,0x0,0x0};
