#include <cstdint>

#include "model_step_ssm_int8_model_data.h"

alignas(16) const unsigned char g_model_step_ssm_int8_tflm_optimized_model_data[] = {0x1c,0x0,0x0,0x0,0x54,0x46,0x4c,0x33,0x0,0x0,0x12,0x0,0x18,0x0,0x4,0x0,0x8,0x0,0xc,0x0,0x0,0x0,0x10,0x0,0x0,0x0,0x14,0x0,0x12,0x0,0x0,0x0,0x3,0x0,0x0,0x0,0xfc,0x2f,0x0,0x0,0xe0,0x21,0x0,0x0,0x68,0x0,0x0,0x0,0x4,0x0,0x0,0x0,0x2,0x0,0x0,0x0,0x38,0x0,0x0,0x0,0x4,0x0,0x0,0x0,0xd8,0xff,0xff,0xff,0x8,0x0,0x0,0x0,0xa,0x0,0x0,0x0,0x17,0x0,0x0,0x0,0x6b,0x65,0x65,0x70,0x5f,0x73,0x74,0x61,0x62,0x6c,0x65,0x68,0x6c,0x6f,0x5f,0x63,0x6f,0x6e,0x73,0x74,0x61,0x6e,0x74,0x0,0x8,0x0,0xc,0x0,0x4,0x0,0x8,0x0,0x8,0x0,0x0,0x0,0x8,0x0,0x0,0x0,0x9,0x0,0x0,0x0,0x13,0x0,0x0,0x0,0x6d,0x69,0x6e,0x5f,0x72,0x75,0x6e,0x74,0x69,0x6d,0x65,0x5f,0x76,0x65,0x72,0x73,0x69,0x6f,0x6e,0x0,0xb,0x0,0x0,0x0,0x6c,0x21,0x0,0x0,0x58,0x1d,0x0,0x0,0x44,0x19,0x0,0x0,0x30,0x11,0x0,0x0,0xc,0x11,0x0,0x0,0xf8,0x10,0x0,0x0,0xe4,0x8,0x0,0x0,0x50,0x8,0x0,0x0,0x3c,0x0,0x0,0x0,0x18,0x0,0x0,0x0,0x4,0x0,0x0,0x0,0xe2,0xd9,0xff,0xff,0x4,0x0,0x0,0x0,0x4,0x0,0x0,0x0,0x74,0x72,0x75,0x65,0xf2,0xd9,0xff,0xff,0x4,0x0,0x0,0x0,0x10,0x0,0x0,0x0,0x32,0x2e,0x30,0x2e,0x30,0x0,0x0,0x0,0x0,0x0,0x0,0x0,0x0,0x0,0x0,0x0,0x0,0x0,0x0,0x0,0x12,0xda,0xff,0xff,0x4,0x0,0x0,0x0,0x0,0x8,0x0,0x0,0x7,0xca,0xef,0x2e,0xb3,0x6,0x18,0xe1,0x35,0x42,0x2f,0x56,0x1c,0x2c,0x20,0x67,0x37,0x44,0x2a,0xff,0x29,0x15,0x2e,0xb7,0x2a,0x64,0x5a,0x4,0xdd,0xb,0x1a,0xe,0xb,0xf5,0x63,0x2e,0x48,0x45,0xe9,0x14,0x7,0x1f,0xf1,0x2a,0xeb,0x3c,0x72,0x13,0x4b,0x4,0x4f,0x25,0x4,0xcb,0x48,0x34,0xf3,0xdd,0x13,0x44,0xf7,0xef,0x48,0x14,0x35,0x4,0x41,0x45,0x3f,0x6f,0xcc,0x33,0xcb,0x5c,0xe,0x25,0xf8,0x70,0x53,0x58,0x2,0x54,0x44,0x30,0x2a,0x3d,0x7,0xf,0xf,0xd6,0xb,0x4d,0xe2,0xea,0x4a,0x38,0x1d,0x39,0x4,0xea,0xd5,0x7d,0xdb,0x77,0xf1,0x29,0x17,0x3a,0xf0,0x37,0xd5,0x4,0x3,0x9,0xfb,0x39,0x1a,0x2c,0x24,0x12,0x44,0xed,0x7f,0x46,0xd4,0xe0,0x2c,0x9,0xde,0x4a,0x3,0xf5,0x7f,0xc1,0x1d,0xf2,0xda,0xc3,0xb8,0xca,0xd2,0xcd,0x2,0xde,0x3,0xe0,0x12,0xc,0x2b,0xd5,0xe4,0x25,0xcd,0xef,0xc8,0x9,0x28,0xe8,0x21,0x1a,0x13,0xc2,0xdf,0xe0,0xa0,0xd7,0xad,0xc5,0xca,0x16,0x5f,0x1,0x23,0x38,0xad,0xb5,0xd0,0xce,0xbe,0xba,0xdd,0x3e,0xfb,0xf1,0x1d,0x56,0xc3,0x1e,0x1c,0xd3,0xe9,0xbb,0xd6,0xe8,0xd5,0xf2,0x5,0x97,0x1d,0xda,0x1c,0xc9,0x28,0xe,0x14,0xde,0xc7,0xb4,0xcb,0xe6,0xcc,0xa0,0xfd,0xc0,0x6,0xc3,0xcf,0xd,0xdd,0xcc,0x20,0xcb,0xf9,0xc8,0xf1,0xe5,0xae,0x1d,0xce,0xe9,0x29,0xbd,0xb4,0x21,0xe6,0x97,0x14,0xf2,0xeb,0xf7,0x29,0x9,0x1c,0x27,0xd6,0xc4,0xd0,0xd2,0xa6,0xf1,0xd2,0x1f,0x36,0x17,0xb0,0xdd,0xb7,0x14,0xd5,0xcf,0x7f,0xe7,0xc9,0xfe,0xd3,0xa9,0xc1,0xce,0xc2,0xd3,0xf4,0xad,0xf6,0xde,0xf4,0xd6,0x9,0x6,0xbc,0x4e,0xdb,0xc7,0xe0,0x8,0xbc,0xe8,0xbe,0xe2,0xc1,0xbb,0xd,0xfa,0xec,0xe,0xe4,0xbd,0x8,0x10,0x38,0xaf,0xf2,0x16,0xc6,0xb8,0xeb,0xe,0x2,0xe5,0xad,0x26,0xc4,0x2,0x16,0xfa,0xe8,0xed,0xe6,0xed,0xbd,0x1f,0xf4,0xf1,0xa2,0xe8,0xd0,0xd0,0xf2,0xc7,0x2f,0xc5,0xd2,0xf8,0xbc,0xce,0xd8,0xa7,0x16,0xb8,0xe9,0xb6,0xc7,0xfb,0xf5,0x34,0xca,0x1a,0xd5,0xde,0xf7,0x13,0xa3,0xcf,0xa3,0xd2,0xd4,0xee,0x17,0x8c,0xdb,0xe7,0x0,0xe1,0x2,0x9b,0xe7,0xba,0xe6,0xe4,0xd8,0xbe,0xf9,0x2,0x1e,0xb2,0xaf,0xd1,0xc3,0xc9,0xc5,0xeb,0xdf,0x7,0xa9,0xf3,0x38,0xea,0x13,0x30,0x92,0x13,0x1,0x24,0x17,0x53,0xfe,0x55,0x17,0xf,0x51,0x21,0x20,0xc,0x2,0xd8,0x1,0xd3,0x11,0xb8,0xd4,0x28,0x3c,0xee,0x10,0x20,0x32,0xe3,0x51,0x47,0xf9,0x3e,0x45,0x54,0x49,0x25,0xf1,0xfa,0xed,0x7,0xff,0xba,0x1f,0x4f,0x60,0xf1,0xfe,0x13,0x5,0x81,0x62,0xa,0x6,0xf6,0x31,0x6,0xe7,0x1,0x23,0x39,0xee,0x9,0x12,0x3a,0x1c,0x58,0xfa,0x42,0xbe,0x10,0x1e,0x13,0xe,0x7e,0x59,0x2e,0xe8,0x22,0x29,0x2c,0x24,0x66,0x0,0xcf,0xed,0x1e,0x39,0x3c,0x15,0x5,0x71,0x22,0x1a,0xe0,0x12,0xf5,0x1d,0x37,0x25,0x42,0x8,0x3b,0x10,0x63,0x7,0x33,0xeb,0xc,0x44,0x20,0xde,0x42,0x2e,0x5,0x35,0x36,0x46,0x12,0x76,0xef,0xf1,0x24,0x14,0xa,0x37,0xd5,0xfa,0x3a,0xa0,0xf5,0x0,0xea,0x2c,0x40,0xf7,0x68,0x52,0xd7,0xe,0x38,0x26,0x42,0xdf,0x4,0x28,0x1b,0xfb,0xa5,0x28,0x6a,0xff,0xee,0xde,0x2a,0x40,0x28,0xdb,0x26,0x38,0xf,0x7f,0x0,0x30,0x36,0xf8,0xfc,0xe6,0x3b,0xfb,0x1b,0x2d,0x2c,0x36,0x23,0x30,0x21,0xee,0xb7,0xff,0xea,0xfc,0x41,0x56,0x12,0x3b,0x13,0x20,0xf8,0x21,0x2c,0x7d,0x1c,0x3d,0x60,0xe6,0x50,0xe8,0xee,0x8,0xff,0x40,0x8,0x2e,0x3d,0x7,0x60,0x3a,0x41,0x42,0x22,0x42,0x45,0xf0,0xec,0x34,0x5,0xc3,0xe9,0x61,0xf4,0x41,0x22,0x13,0x27,0xf8,0x4d,0x26,0x38,0x1f,0x48,0x34,0x1b,0x32,0xfd,0x2,0xfb,0x15,0x3c,0x7,0x18,0xec,0x1b,0x14,0xe,0x35,0x2e,0x2e,0x42,0x35,0x31,0xa,0x42,0x24,0x4,0x2e,0x77,0x89,0xd,0x14,0xe5,0x32,0x7,0x1e,0x75,0x0,0x3,0x26,0x51,0xf9,0x28,0x4f,0xfa,0x24,0x5,0xdd,0xd8,0xf2,0x5a,0x55,0xee,0x23,0x15,0x9,0xfb,0x6,0x2f,0x10,0x36,0x26,0x1e,0xf2,0x5c,0x9,0x1f,0x2f,0x2c,0x22,0xe,0x46,0x54,0x59,0x21,0x4d,0x49,0x3,0xb5,0x5,0x2d,0xe9,0xfc,0xb,0x7,0x18,0xff,0x1b,0x13,0x2,0xe5,0x45,0xff,0x31,0x48,0x2a,0x21,0xd8,0x4e,0x21,0x28,0xf4,0x19,0x3d,0x56,0x37,0x3c,0x24,0x6,0x54,0xe,0x1a,0xe2,0xe0,0x21,0x23,0x14,0x5,0xf9,0x1f,0x2f,0x16,0xd5,0x1f,0xba,0x4,0x7f,0x16,0x25,0x3b,0x1d,0x41,0x5b,0x36,0x22,0x1c,0x16,0x0,0x5,0x24,0x4a,0xfd,0x37,0x16,0x2c,0x40,0x13,0x47,0x1a,0xe2,0xdd,0x33,0x1f,0x2a,0x1,0x44,0x4c,0x95,0x30,0x20,0x9,0x42,0x29,0xf3,0x75,0x42,0x1d,0xf,0x47,0x39,0x75,0x1a,0xe5,0x0,0xf,0xa,0xca,0xdb,0x21,0x29,0xf4,0x4a,0x1e,0x15,0x19,0x13,0x0,0xc,0xf4,0xf1,0x0,0x17,0x4b,0xfc,0x17,0x17,0x2c,0x16,0x22,0x3e,0x44,0x6,0x18,0x40,0x1d,0x4c,0xd7,0x31,0x6,0x1e,0xcf,0x3a,0x3a,0xf5,0xe8,0x4e,0x1a,0x11,0xf0,0x1d,0xfe,0x3b,0x43,0x15,0xe,0xcf,0x3c,0x12,0x41,0xfc,0x67,0x1a,0x52,0x28,0x36,0x23,0x7,0x24,0xb,0xf2,0xbe,0x25,0xec,0x2e,0x3e,0xf1,0xed,0x51,0x4,0x26,0xd,0x1c,0xd6,0x29,0x60,0x11,0x20,0xf1,0x45,0xf6,0x40,0x23,0x60,0x22,0x24,0x44,0xe,0x27,0x2c,0x26,0x34,0x2e,0x3e,0x7f,0xec,0x6c,0x20,0xeb,0x1d,0x5f,0xfa,0x15,0xa9,0xeb,0xde,0x55,0xe3,0x20,0x1e,0xf8,0x23,0x47,0xce,0x3a,0xe,0x16,0xcb,0xbb,0x3c,0xd9,0xeb,0x1d,0x18,0xcf,0xe6,0xb,0xc5,0xd6,0x34,0xf2,0xeb,0x26,0xfc,0x2,0xd3,0xfd,0xce,0xa0,0xe7,0xc,0xce,0x2,0x60,0xef,0x34,0x7f,0xb9,0x43,0x1d,0x4c,0xf5,0x47,0xfa,0x2b,0xf9,0xf8,0x69,0x0,0x46,0xd4,0x2,0x18,0xd1,0xdf,0x2,0xd,0x8,0xdb,0xd0,0x9,0xdb,0x1e,0xda,0x4a,0xb4,0xd0,0x42,0x25,0x4b,0x51,0xdb,0x1d,0xbc,0xc4,0xd6,0xcf,0x41,0xc1,0xea,0x1d,0x12,0xe3,0xa,0x30,0xb,0x70,0xd6,0x1b,0x1f,0xf5,0x6,0xe1,0x73,0xd2,0xfd,0xb7,0xd6,0xe9,0x1,0x3,0x0,0x5f,0xf2,0xb,0xef,0x26,0xee,0x2,0x29,0xf5,0x1a,0xe5,0xf4,0x9,0xf6,0xdd,0x24,0xe7,0xfb,0xbc,0x2,0xf6,0xc7,0x5c,0xed,0x9,0xe5,0xc5,0xa2,0x10,0xb0,0xb3,0x22,0xfd,0xc3,0xd3,0xc0,0xee,0x21,0xd1,0xe7,0xe9,0x18,0xe8,0xd6,0xd0,0xb,0xc4,0xcb,0xf1,0xde,0xaa,0xb7,0xff,0xd3,0xef,0xfa,0xc4,0xcf,0xd1,0xfd,0xec,0xf3,0xf2,0x48,0xce,0xb0,0xf2,0x3,0xc1,0xdc,0xb6,0x74,0x3,0xce,0xd5,0x21,0x7,0xda,0xfc,0xdc,0xcc,0xfd,0xc3,0xe9,0xcf,0xd1,0xd7,0xaf,0xda,0xcc,0x63,0xfe,0xe3,0xe4,0xf3,0xcb,0x98,0xc4,0xef,0xb6,0xca,0xd6,0xb8,0xe9,0xf0,0xc,0x4,0xfc,0xc6,0xaf,0xd6,0xe9,0xde,0xf4,0xe9,0x3,0xe2,0x1f,0xe4,0xe2,0xc3,0xc5,0xb8,0xfd,0xd2,0xc8,0xf3,0xf6,0xd,0x24,0xc2,0x9,0xf8,0xf8,0xeb,0xa2,0xb1,0xff,0xa9,0x17,0x81,0x4,0xfa,0x1b,0xb3,0xf5,0xf0,0xb,0xd1,0xd2,0x7d,0xc5,0x13,0x17,0xe3,0xb4,0x4,0xa5,0xaa,0xc,0x0,0xb5,0xf3,0xf4,0xec,0x9,0x0,0x3,0xd5,0x4a,0x4,0xef,0xd,0x2,0xdc,0xbc,0xbd,0x2,0xc9,0x11,0x3,0xc6,0x8,0xdb,0xcf,0xcf,0xfc,0x1b,0x2a,0xe8,0xc2,0x3,0xec,0xca,0xbe,0x10,0xc7,0xfe,0xf8,0x2d,0xc2,0xc7,0x21,0x34,0xf5,0xb,0x19,0x2c,0xc7,0xf4,0xc,0xf3,0x98,0xf6,0xfc,0xa2,0xe6,0xcf,0xf,0xc6,0xc1,0xe6,0xe0,0x96,0xcb,0xfd,0xd6,0xaf,0xeb,0xe4,0xc7,0xc1,0x26,0x35,0x12,0x2,0xe9,0xa0,0xc,0xe1,0x81,0xc6,0xb1,0xde,0xd6,0x1,0xc9,0xb3,0xc2,0xb8,0xd0,0xcd,0xfa,0xbd,0xdf,0xea,0xf8,0x26,0xf5,0xbe,0xb,0xc7,0xde,0xcb,0xfb,0xf2,0xa3,0xfe,0xcc,0xcd,0xf0,0xef,0xdd,0xe9,0xd3,0x5,0xa8,0xad,0x7f,0x1b,0xb6,0xcd,0xee,0x9b,0xe3,0xac,0x10,0xfd,0x3,0xf6,0xd1,0x9a,0x33,0xf,0xac,0xcd,0xa0,0xfe,0x2c,0xd7,0xbf,0x17,0xae,0xd8,0xf4,0xba,0x5,0xbb,0xed,0x9,0xd5,0xcb,0xac,0xa8,0xc8,0x29,0x2d,0xd6,0x46,0x4d,0xad,0xfb,0xd0,0xdb,0x6,0x87,0xc8,0x40,0x94,0xc7,0xd6,0xfa,0xee,0xd0,0xd7,0xa,0x6,0xfd,0xde,0xf3,0x9e,0xd4,0xf0,0xee,0x2,0xe6,0x3,0x29,0x3,0x4,0xed,0xb1,0xf8,0xd7,0xb7,0xa9,0xe6,0xca,0xa8,0xd0,0x0,0x2d,0xe6,0xe7,0xa8,0x9a,0xd6,0xde,0xc4,0xb0,0xf3,0x18,0x90,0xfc,0xe0,0xdc,0xc2,0xc3,0xc6,0xb2,0xbb,0xae,0xdd,0xf2,0x29,0xfd,0xc4,0xab,0x22,0xcc,0xfc,0xe6,0xe4,0xf,0xa1,0xcb,0xd7,0xc6,0x19,0x1c,0xc9,0xd5,0xed,0xd2,0x9,0xd4,0x54,0xf4,0xd5,0x3,0xe4,0xe8,0x3,0xdd,0xba,0xd0,0xca,0xb0,0x17,0xba,0xff,0xd4,0x8,0xcd,0xb8,0x7,0x4,0xd7,0xc2,0xe5,0xb0,0xf2,0xbb,0x25,0xde,0x1,0xc6,0xd3,0x15,0xf1,0xb9,0xb9,0xce,0x1e,0xea,0xbc,0xdb,0xcc,0xd1,0xe3,0xe7,0x0,0xe6,0xd0,0xbd,0x43,0xd8,0xd1,0xc0,0xa,0xeb,0xd2,0xc9,0x15,0xa6,0xbf,0xfa,0xf1,0xba,0x0,0xb3,0xa6,0xd7,0xc9,0x1d,0xe7,0x12,0xa,0xe7,0x88,0xf5,0x9e,0xc,0x0,0xb6,0xdf,0xa4,0xbc,0xa,0x1f,0xf8,0xdd,0xda,0xf6,0xde,0x28,0xa9,0xef,0xb8,0x29,0xe7,0x1c,0xea,0x8a,0xb5,0xad,0xef,0xc4,0x9,0xb5,0xf6,0xde,0xd2,0x13,0x9e,0xca,0xe8,0x6,0x17,0xda,0xf2,0xa,0xbb,0xee,0x81,0xd2,0xea,0x30,0xbb,0x11,0x12,0xf4,0x1e,0x7d,0x99,0x2f,0x26,0x37,0x4c,0x14,0x2e,0x40,0x2e,0x29,0x2c,0x26,0xf5,0x5f,0x2,0x7,0x1d,0xf,0x15,0xc8,0x1c,0x52,0x14,0xdd,0xb,0x44,0x2e,0x3,0x42,0xc,0x3b,0xfe,0x2e,0xf1,0x2b,0x1f,0xdf,0x1e,0x3b,0x41,0x49,0xcb,0x3b,0x29,0x47,0xdf,0xfc,0x3b,0x1d,0xa3,0xee,0x4b,0x26,0x29,0xa,0x23,0x19,0xe6,0xd,0x6,0x2e,0x40,0x3c,0x44,0x3c,0x71,0x49,0x57,0xb2,0xc,0xec,0x67,0x14,0x4c,0x3f,0x65,0xed,0x29,0x24,0xed,0x12,0x41,0xe6,0xd8,0x20,0xf2,0x5,0x24,0xcd,0xf,0x69,0x33,0x38,0xf9,0x33,0xc8,0xd2,0x7a,0xff,0x4a,0x2a,0xf0,0x45,0x5a,0x17,0x29,0xe9,0x20,0x46,0x47,0x4,0x38,0x5b,0x53,0x34,0xf9,0x79,0xfc,0x7f,0xd,0x1d,0xda,0x68,0x28,0xf8,0xdf,0xc,0xf3,0xb8,0x5,0xc,0x18,0xa,0x2a,0x44,0x4b,0x7,0x1d,0x42,0xfd,0x27,0x2b,0x10,0xd6,0x0,0xf1,0x27,0xdd,0x2e,0x3f,0xd,0x14,0x14,0xf9,0x4,0x13,0x23,0xb,0x29,0x3b,0x2,0x41,0x41,0x36,0x24,0xf,0xed,0x2c,0xe9,0xe9,0x2e,0x54,0x17,0x1f,0x3a,0xb,0x3b,0x1,0x4f,0x1f,0xf0,0x2d,0x32,0xf6,0xdd,0xf,0x26,0x23,0x1e,0x7,0x1d,0x7,0x35,0x4f,0x0,0x10,0xef,0xdb,0x1b,0x28,0x2c,0x2a,0x2e,0x3f,0xee,0x1c,0xfc,0xf9,0xfe,0x46,0xf4,0xd4,0xf,0x6,0x24,0x16,0x2,0xe,0x24,0x20,0x4e,0xdc,0x13,0x19,0xf5,0x7f,0x2e,0x43,0x21,0x3a,0x6,0x61,0xf0,0x2d,0x19,0xf9,0x28,0xd,0xf2,0x2a,0x28,0x47,0xf,0x38,0x53,0x14,0x15,0x12,0x4,0x14,0x2d,0x16,0x39,0x8,0x30,0x6b,0x81,0xfa,0x1,0x27,0x31,0xc,0x34,0x62,0x26,0x2,0x8,0x2f,0x13,0x5a,0xf7,0xf8,0xc,0xf2,0x18,0xab,0xeb,0x24,0xd,0xf8,0x8,0xa,0x37,0xe,0x24,0x15,0x26,0x1a,0x20,0xf2,0x1e,0x11,0xff,0x2d,0xd9,0x6c,0x31,0x4,0x45,0x21,0x3a,0x35,0xa,0x3f,0x40,0xcd,0x2d,0x39,0x1f,0xe6,0x51,0x41,0xec,0xea,0x2d,0xf5,0x2,0xee,0x4d,0xf5,0x4c,0x1a,0x20,0x24,0xbf,0x18,0x3,0x2b,0x1,0x4a,0x18,0x19,0xf,0x34,0x50,0x8,0xfe,0xb,0x30,0x36,0x2b,0x30,0xfa,0x20,0xdd,0x29,0x62,0x32,0x4b,0x3,0x13,0xf9,0x1b,0x77,0x1f,0x3b,0xed,0x13,0x3c,0x57,0x30,0x53,0x2e,0x14,0x52,0xb,0x32,0x51,0x17,0x4a,0x22,0x1b,0x37,0x5,0x77,0x31,0x1b,0xef,0x50,0xf4,0x34,0xea,0xfa,0x51,0xa8,0x17,0x17,0xd,0x26,0x2f,0xe8,0x42,0x75,0x29,0x2d,0x29,0x28,0x2f,0x6,0xe0,0xe3,0xe,0xe4,0x9c,0xf0,0x22,0x3d,0xc,0xfb,0xff,0x27,0x24,0xf,0xb,0x2f,0xea,0x20,0x3c,0xd5,0x7d,0xfb,0xff,0x2f,0x47,0x1d,0xf7,0x71,0x52,0x5f,0xf2,0x24,0x6f,0x53,0xa5,0xde,0x4d,0x25,0x11,0xfa,0x1c,0x27,0x20,0x36,0x3b,0xd4,0x25,0x35,0x25,0xfe,0x77,0x45,0x4f,0xe8,0x53,0xde,0x4f,0xeb,0x61,0x1,0x2e,0x3a,0x37,0x38,0xee,0x68,0xfc,0xd6,0xbf,0xd3,0x25,0x34,0x9,0xbd,0xfb,0x72,0x38,0x26,0xa9,0x7,0xb9,0xe4,0x61,0xe1,0x4b,0xea,0xdb,0xe3,0x27,0xf9,0x20,0xe5,0xbe,0x59,0x3,0x37,0x1b,0x2e,0x24,0x59,0xe1,0x3c,0xde,0x7f,0xf9,0xf6,0xd,0x78,0xc6,0x0,0x0,0x0,0x0,0x22,0xe2,0xff,0xff,0x4,0x0,0x0,0x0,0x80,0x0,0x0,0x0,0x2c,0x29,0x29,0x25,0x36,0x23,0x18,0x1c,0x29,0x38,0x38,0x13,0x33,0x29,0x2c,0x27,0x34,0x7f,0x3f,0x31,0x50,0x2b,0x41,0x50,0x3a,0x24,0x38,0x34,0x24,0x2b,0x28,0x37,0x35,0x24,0x26,0x3a,0x3d,0x31,0x38,0x3a,0x23,0x2c,0x29,0x27,0x39,0x2a,0x25,0x3c,0x29,0x25,0x30,0x22,0x3b,0x1d,0x33,0x27,0x23,0x39,0x47,0x59,0x24,0x2a,0x3f,0x24,0x23,0x2d,0x38,0x37,0x2c,0x2c,0x33,0x20,0x41,0x29,0x2c,0x39,0x39,0x42,0x3c,0x24,0x31,0x1e,0x24,0x37,0x39,0x31,0x37,0x34,0x4f,0x26,0x35,0x2b,0x35,0x23,0x4a,0x22,0x26,0x26,0x3d,0x1f,0x23,0x24,0x17,0x39,0x3d,0x26,0x30,0x2f,0x26,0x29,0x56,0x22,0x32,0x33,0x40,0x20,0x2d,0x1e,0x34,0x23,0x2e,0x33,0x32,0x38,0x2f,0x2a,0x2d,0x56,0x0,0x0,0x0,0x0,0xb2,0xe2,0xff,0xff,0x4,0x0,0x0,0x0,0x0,0x8,0x0,0x0,0x7a,0x74,0x7e,0x13,0x74,0x75,0x78,0x7a,0x58,0x76,0x6d,0x63,0x7c,0x7e,0x6e,0x7b,0x7a,0x7e,0x7e,0x79,0x7a,0x7e,0x7d,0x7a,0x71,0x78,0x75,0x75,0x7b,0x5d,0x7e,0x7c,0x76,0x7a,0x56,0x7e,0x52,0x76,0x7c,0x6f,0x78,0x7c,0x75,0x7d,0x67,0x70,0x7d,0x7d,0x78,0x7d,0x78,0x7c,0x75,0x7c,0x7a,0x7e,0x76,0x7c,0x7d,0x7b,0x5e,0x72,0x7a,0x64,0x77,0x7d,0x7c,0x73,0x7d,0x6a,0x78,0x77,0x7b,0x75,0x75,0x7c,0x71,0x5f,0x7e,0x59,0x60,0x7b,0x6c,0x66,0x7c,0x71,0x70,0x77,0x79,0x7e,0x73,0x73,0x72,0x73,0x7b,0x7e,0x79,0x7d,0x7a,0x77,0x79,0x73,0x79,0x77,0x6d,0x7d,0x7d,0x15,0x77,0x73,0x7c,0x77,0x74,0x7f,0x76,0x78,0x77,0x7c,0x79,0x71,0x7d,0x57,0x73,0x7d,0x77,0x76,0x76,0x61,0x7c,0x6e,0x7d,0x7b,0x7a,0x71,0x6b,0x7b,0x79,0x71,0x7e,0x77,0x75,0x7d,0x7b,0x7e,0x7c,0x77,0x7e,0x77,0x78,0x69,0x78,0x5c,0x6c,0x7d,0x72,0x7b,0x7b,0x7b,0x7b,0x73,0x63,0x7d,0x73,0x7b,0x7c,0x74,0x78,0x7c,0x7e,0x7a,0x76,0x78,0x6f,0x7e,0x7d,0x6e,0x7c,0x72,0x74,0x66,0x7a,0x74,0x7c,0x77,0x79,0x7f,0x79,0x7c,0x7b,0x7a,0x7c,0x78,0x6c,0x75,0x78,0x7b,0x6f,0x79,0x77,0x7b,0x77,0x6e,0x77,0x7e,0x7d,0x6a,0x78,0x79,0x75,0x7c,0x7d,0x79,0x7b,0x7e,0x74,0x7c,0x75,0x74,0x7d,0x70,0x6f,0x6c,0x6d,0x73,0x56,0x73,0x7a,0x7d,0x7d,0x7a,0x63,0x60,0x77,0x66,0x7a,0x75,0x77,0x7e,0x70,0x7e,0x66,0x7c,0x5a,0x7d,0x78,0x7a,0x7b,0x7b,0x7e,0x7d,0x7e,0x7b,0x7e,0x7c,0x74,0x78,0x69,0x76,0x7d,0x7d,0x7d,0x73,0x7e,0x61,0x72,0x7b,0x65,0x6e,0x7b,0x7c,0x7a,0x7b,0x60,0x68,0x71,0x77,0x71,0x73,0x7e,0x72,0x78,0x11,0x7b,0x7b,0x75,0x7a,0x6a,0x7a,0x78,0x77,0x76,0x7c,0x77,0x70,0x79,0x68,0x7d,0x74,0x7b,0x79,0x7d,0x7a,0x77,0x7c,0x2f,0x7c,0x76,0x7c,0x6e,0x78,0x69,0x7d,0x7e,0x77,0x7d,0x52,0x79,0x7d,0x7c,0x74,0x7c,0x6a,0x7c,0x7a,0x7d,0x7b,0x7e,0x7c,0x7d,0x75,0x77,0x7b,0x78,0x78,0x7e,0x6d,0x78,0x7a,0x77,0x7b,0x7c,0x76,0x63,0x75,0x73,0x7e,0x7c,0x7a,0x7c,0x70,0x74,0x76,0x7d,0x79,0x75,0x75,0x79,0x7d,0x72,0x7c,0x79,0x74,0x77,0x76,0x78,0x7a,0x76,0x66,0x78,0x71,0x7c,0x7c,0x40,0x7d,0x67,0x6f,0x7b,0x79,0x7c,0x79,0x72,0x6f,0x7c,0x54,0x73,0x79,0x6a,0x7d,0x75,0x66,0x6f,0x6a,0x71,0x5f,0x7c,0x78,0x78,0x66,0x5d,0x77,0x7d,0x7b,0x7c,0x6d,0x6f,0x76,0x70,0x5f,0x4d,0x71,0x7d,0x7b,0x6d,0x7c,0x79,0x4f,0x7b,0x7e,0x7d,0x78,0x7a,0x6d,0x78,0x7c,0x7b,0x7c,0x7e,0x7e,0x64,0x7e,0x3a,0x6c,0x7c,0x6f,0x7c,0x7d,0x78,0x78,0x70,0x53,0x7c,0x7c,0x76,0x78,0x7a,0x7b,0x7d,0x79,0x7a,0x7a,0x7d,0x7c,0x7b,0x7e,0x77,0x7c,0x75,0x7d,0x7b,0x77,0x6f,0x66,0x6c,0x7c,0x49,0x76,0x7c,0x7e,0x64,0x7c,0x7d,0x79,0x68,0x7e,0x79,0x77,0x6d,0x7b,0x7a,0x7a,0x74,0x79,0x73,0x6d,0x79,0x79,0x77,0xdf,0x7d,0x7e,0x7c,0x6e,0x7d,0x7d,0x60,0x7b,0x7c,0x74,0x7d,0x76,0x7f,0x7c,0x76,0x7b,0x7d,0x6d,0x77,0x79,0x7a,0x75,0x6f,0x70,0x67,0x7e,0x72,0x77,0x7e,0x7e,0x72,0x65,0x55,0x7b,0x71,0x6e,0x4f,0x7a,0x7e,0x7b,0x72,0x7e,0x7b,0x72,0x7d,0x7b,0x77,0x76,0x63,0x72,0x6f,0x7d,0x73,0x5b,0x7b,0x7d,0x7d,0x72,0x66,0x7d,0x7e,0x6b,0x6f,0x6e,0x7d,0x76,0x7c,0x7d,0x55,0x71,0x7c,0x73,0x77,0x77,0x7b,0x77,0x5c,0x66,0x76,0x7e,0x6c,0x69,0x7b,0x79,0x7d,0x75,0x76,0x72,0x7e,0x78,0x7c,0x2c,0x7b,0x67,0x7b,0x7e,0x7c,0x7b,0x77,0x78,0x56,0x78,0x7e,0x66,0x58,0x73,0x7a,0x73,0x6b,0x6f,0x7c,0x78,0x7a,0x7a,0x7c,0x7d,0x7b,0x7d,0x7b,0x7d,0x7c,0x7d,0x70,0x73,0x75,0x7e,0x7b,0x63,0x76,0x43,0x73,0x74,0x79,0x74,0x7e,0x7a,0x78,0x76,0x74,0x79,0x75,0x7c,0x7e,0x78,0x7a,0x75,0x7b,0x7b,0x69,0x7c,0x7b,0x78,0x7b,0x71,0x7e,0x7d,0x71,0x7b,0x78,0x7c,0x7c,0x79,0x7d,0x74,0x7b,0x7a,0x78,0x7c,0x7a,0x74,0x72,0x74,0x7b,0x6b,0x70,0x6a,0x6f,0x7f,0x69,0x7d,0x78,0x7a,0x7c,0x78,0x7c,0x73,0x7b,0x7a,0x7a,0x64,0x7f,0x77,0x78,0x6c,0x74,0x7a,0x78,0x73,0x73,0x7c,0x6e,0x7d,0x6b,0x7d,0x6d,0x7d,0x76,0x7c,0x7c,0x79,0x7c,0x7b,0x7c,0x7d,0x75,0x72,0x78,0x79,0x5e,0x7d,0x76,0x7b,0x75,0x78,0x58,0x70,0x76,0x78,0x73,0x72,0x71,0x60,0x79,0x7f,0x79,0x7a,0x69,0x4e,0x77,0x7a,0x72,0x67,0x73,0x56,0x7e,0x7c,0x7b,0x6e,0x77,0x63,0x6c,0x5b,0x7b,0x76,0x7c,0x78,0x7b,0x6d,0x77,0x66,0x78,0x7c,0x7a,0x72,0x65,0x78,0x7c,0x70,0x7d,0x7d,0x70,0x7a,0x69,0x79,0x79,0x75,0x6f,0x7a,0x71,0x7a,0x75,0x6d,0x7a,0x5d,0x7c,0x7a,0x7d,0x7d,0x76,0x76,0x78,0x64,0x7a,0x78,0x7e,0x75,0x7b,0x79,0x7b,0x7c,0x79,0x6c,0x7d,0x7e,0x7e,0x78,0x7d,0x77,0x67,0x7c,0x78,0x7d,0x68,0x7c,0x76,0x7c,0x70,0x7a,0x62,0x6b,0x7a,0x7d,0x77,0x74,0x68,0x74,0x78,0x7e,0x75,0x7b,0x7c,0x7c,0x7e,0x7d,0x7d,0x7b,0x79,0x7e,0x7c,0x7a,0x78,0x77,0x77,0x7d,0x78,0x7b,0x72,0x7c,0x78,0x6d,0x7a,0x7b,0x77,0x66,0x71,0x7c,0x77,0x78,0x7e,0x78,0x7c,0x7c,0x7e,0x79,0x79,0x7e,0x7a,0x64,0x76,0x7d,0x78,0x78,0x75,0x74,0x7a,0x78,0x74,0x71,0x70,0x65,0x7c,0x78,0x7a,0x65,0x74,0x7a,0x7c,0x7c,0x6b,0x68,0x6f,0x7c,0x7d,0x7d,0x6d,0x79,0x7d,0x77,0x7e,0x77,0x7b,0x78,0x7a,0x7a,0x72,0x7c,0x7c,0x72,0x73,0x7c,0x7d,0x7b,0x70,0x7c,0x74,0x7f,0x75,0x64,0x7a,0x73,0x7a,0x72,0x7b,0x7c,0x78,0x5f,0x7c,0x5e,0x7e,0x5d,0x74,0x70,0x7a,0x74,0x7c,0x76,0x77,0x77,0x76,0x7b,0x7e,0x7d,0x76,0x7e,0x71,0x7a,0x7d,0x73,0x76,0x6f,0x6f,0x76,0x77,0x74,0x75,0x79,0x79,0x73,0x7b,0x78,0x7c,0x7e,0x76,0x7a,0x7b,0x7d,0x7d,0x74,0x7e,0x78,0x79,0x7a,0x67,0x7d,0x6c,0x70,0x5f,0x6f,0x7a,0x7b,0x74,0x79,0x76,0x78,0x79,0x75,0x6c,0x76,0x7d,0x6e,0x7d,0x63,0x7b,0x78,0x7e,0x71,0x7e,0x73,0x78,0x7c,0x6d,0x7a,0x6b,0x7a,0x7e,0x7c,0x61,0x79,0x75,0x7d,0x71,0x7d,0x76,0x74,0x6c,0x6d,0x75,0x79,0x6d,0x74,0x79,0x6a,0x78,0x45,0x6b,0x7a,0x7d,0x7d,0x7a,0x72,0x6e,0x69,0x7c,0x7c,0x79,0x79,0x6f,0x78,0x7e,0x74,0x6b,0x7e,0x7b,0x79,0x7d,0x78,0x78,0x7b,0x7a,0x71,0x79,0x7b,0x7d,0x7c,0x78,0x7d,0x7b,0x7b,0x70,0x75,0x7c,0x78,0x78,0x7c,0x72,0x7a,0x74,0x76,0x67,0x7b,0x53,0x72,0x7a,0x74,0x76,0x7b,0x72,0x7c,0x7b,0x74,0x5e,0x7e,0x67,0x7c,0x7e,0x75,0x6f,0x76,0x79,0x7d,0x79,0x78,0x77,0x75,0x76,0x78,0x7d,0x63,0x79,0x7a,0x64,0x76,0x71,0x7a,0x6e,0x79,0x75,0x7c,0x79,0x7a,0x7c,0x79,0x7b,0x7d,0x7c,0x79,0x7a,0x6f,0x72,0x69,0x79,0x7c,0x7c,0x72,0x6f,0x79,0x71,0x7d,0x7c,0x7b,0x7a,0x7d,0x76,0x7d,0x7a,0x66,0x7d,0x73,0x7c,0x73,0x73,0x75,0x7b,0x7a,0x4c,0x72,0x79,0x79,0x74,0x7a,0x7b,0x4e,0x77,0x52,0x77,0x7b,0x76,0x61,0x71,0x79,0x7c,0x78,0x79,0x7a,0x7b,0x77,0x78,0x79,0x7e,0x7b,0x7c,0x78,0x7c,0x7c,0x6b,0x78,0x7c,0x7b,0x7c,0x75,0x78,0x74,0x76,0x65,0x78,0x7c,0x66,0x71,0x71,0x7b,0x72,0x7e,0x6e,0x7d,0x78,0x79,0x6f,0x5a,0x71,0x7a,0x51,0x3b,0x75,0x68,0x7d,0x3e,0x7b,0x7d,0x76,0x78,0x79,0x7b,0x7b,0x78,0x6f,0x78,0x76,0x73,0x78,0x6d,0x7b,0x7c,0x75,0x74,0x74,0x7a,0x7e,0x7c,0x7a,0x67,0x71,0x7d,0x7a,0x7c,0x79,0x74,0x72,0x7b,0x5c,0x7c,0x7b,0x7e,0x7e,0x70,0x7c,0x7c,0x78,0x7c,0x79,0x7c,0x7c,0x7c,0x7d,0x75,0x6c,0x7a,0x7c,0x7d,0x7d,0x7b,0x79,0x6d,0x72,0x7a,0x7d,0x7b,0x6a,0x7c,0x77,0x7a,0x7b,0x7a,0x75,0x76,0x7e,0x76,0x71,0x7d,0x6f,0x58,0x72,0x76,0x7d,0x7c,0x6c,0x78,0x75,0x6b,0x77,0x7b,0x77,0x76,0x75,0x55,0x7d,0x74,0x7c,0x7a,0x7b,0x7b,0x7c,0x75,0x79,0x76,0x7d,0x71,0x73,0x7c,0x52,0x7c,0x7a,0x7d,0x60,0x7f,0x7d,0x77,0x60,0x6f,0x79,0x7e,0x7c,0x6d,0x76,0x6e,0x74,0x6f,0x7c,0x7e,0x74,0x75,0x78,0x7d,0x7d,0x78,0x73,0x7c,0x7c,0x7c,0x6e,0x79,0x7c,0x7b,0x7b,0x71,0x6d,0x7b,0x78,0x7b,0x6e,0x77,0x67,0x7c,0x73,0x67,0x7c,0x7e,0x77,0x74,0x76,0x7b,0x73,0x7a,0x66,0x6d,0x64,0x75,0x7c,0x73,0x6c,0x78,0x72,0x52,0x69,0x7d,0x6d,0x7c,0x7e,0x7b,0x6a,0x7c,0x77,0x78,0x7c,0x6c,0x7a,0x78,0x5c,0x7c,0x7e,0x7a,0x7e,0x7b,0x72,0x7d,0x7e,0x57,0x78,0x7e,0x6c,0x65,0x78,0x76,0x7d,0x79,0x7b,0x7c,0x75,0x74,0x7d,0x79,0x78,0x78,0x7c,0x7b,0x70,0x7d,0x54,0x7b,0x7b,0x77,0x79,0x7c,0x68,0x7e,0x76,0x75,0x7d,0x79,0x79,0x7d,0x7b,0x6d,0x79,0x57,0x7c,0x77,0x79,0x58,0x7e,0x77,0x7a,0x76,0x7b,0x76,0x74,0x7e,0x77,0x79,0x70,0x7c,0x76,0x77,0x40,0x79,0x78,0x78,0x7d,0x6c,0x6c,0x6d,0x74,0x73,0x7b,0x78,0x7c,0x7d,0x7c,0x7a,0x7e,0x7a,0x77,0x7a,0x7a,0x77,0x79,0x6f,0x77,0x7c,0x7c,0x7b,0x77,0x7d,0x7a,0x75,0x7e,0x68,0x7c,0x7c,0x72,0x7c,0x7b,0x67,0x6f,0x7c,0x77,0x6c,0x7a,0x7d,0x7d,0x7a,0x3b,0x7d,0x71,0x67,0x77,0x7c,0x7a,0x7a,0x7c,0x7d,0x7c,0x7c,0x75,0x64,0x7c,0x70,0x78,0x74,0x7a,0x68,0x79,0x7b,0x7c,0x78,0x7f,0x6f,0x75,0x7d,0x7d,0x7b,0x7c,0x7e,0x7d,0x7d,0x6d,0x78,0x76,0x6b,0x7e,0x6b,0x7a,0x7d,0x7c,0x7e,0x7b,0x7d,0x72,0x78,0x69,0x7e,0x7a,0x75,0x6f,0x7d,0x75,0x74,0x76,0x7d,0x7d,0x69,0x79,0x7d,0x4b,0x7d,0x7c,0x75,0x7a,0x78,0x79,0x77,0x76,0x7a,0x6e,0x79,0x7c,0x7e,0x7d,0x7a,0x79,0x7d,0x69,0x7e,0x75,0x7b,0x7c,0x78,0x7b,0x76,0x7e,0x7b,0x74,0x7b,0x75,0x7c,0x7a,0x77,0x72,0x70,0x75,0x77,0x6e,0x7a,0x71,0x7a,0x70,0x7c,0x74,0x73,0x7b,0x7c,0x7d,0x30,0x75,0x74,0x7d,0x7b,0x7c,0x6f,0x7e,0x7c,0x77,0x7c,0x7c,0x6e,0x75,0x7c,0x78,0x5a,0x79,0x7c,0x78,0x7e,0x7b,0x6c,0x7e,0x7b,0x70,0x78,0x72,0x78,0x78,0x73,0x7c,0x7d,0x73,0x71,0x7d,0x7b,0x78,0x75,0x75,0x76,0x7c,0x7d,0x7c,0x7b,0x7d,0x77,0x7b,0x61,0x77,0x7b,0x72,0x72,0x7d,0x71,0x74,0x7c,0x77,0x75,0x7c,0x71,0x7a,0x75,0x7c,0x7b,0x7c,0x7e,0x75,0x7c,0x7d,0x79,0x76,0x78,0x7d,0x77,0x7c,0x7a,0x7a,0x7b,0x75,0x7d,0x6b,0x7e,0x7a,0x7a,0x7e,0x7a,0x79,0x7d,0x7a,0x6c,0x7d,0x72,0x71,0x7b,0x7c,0x7b,0x58,0x6a,0x7e,0x7d,0x6f,0x11,0x68,0x78,0x78,0x78,0x76,0x67,0x5f,0x6d,0x7b,0x74,0xd6,0x69,0x70,0x76,0x79,0x70,0x69,0x7a,0x70,0x7b,0x7e,0x71,0x4c,0x7c,0x7a,0x66,0x79,0x64,0x79,0x6b,0x7e,0x79,0x78,0x74,0x7b,0x7c,0x7b,0x78,0x7e,0x6e,0x6f,0x70,0x76,0x7d,0x75,0x7c,0x7d,0x74,0x7b,0x77,0x79,0x5c,0x7d,0x79,0x76,0x7c,0x7c,0x71,0x68,0x7b,0x4f,0x73,0x75,0x78,0x7d,0x73,0x71,0x7c,0x66,0x74,0x7b,0x79,0x73,0x67,0x69,0x77,0x6e,0x7c,0x6b,0x75,0x7b,0x7b,0x6f,0x6c,0x7a,0x7e,0x7a,0x2c,0x7a,0x6c,0x49,0x7a,0x7d,0x7e,0x7c,0x70,0x69,0x71,0x7a,0x73,0x7c,0x7e,0x6b,0x79,0x72,0x7e,0x7c,0x74,0x74,0x7e,0x7b,0x6e,0x5d,0x7d,0x6d,0x7b,0x72,0x7a,0x7c,0x7e,0x7a,0x7a,0x61,0x76,0x7a,0x6a,0x7d,0x78,0x7c,0x6e,0x7b,0x7b,0x7b,0x7b,0x77,0x7f,0x80,0x7c,0x6f,0x7e,0x6f,0x7e,0x75,0x7e,0x7d,0x6f,0x78,0x69,0x77,0x77,0x79,0x7a,0x7a,0x7d,0x76,0x75,0x7b,0x7d,0x7c,0x7b,0x74,0x6e,0x76,0x7c,0x7b,0x7a,0x7e,0x61,0x79,0x7e,0x77,0x78,0x7d,0x78,0x5d,0x6e,0x7a,0x75,0x7e,0x71,0x78,0x75,0x77,0x7c,0x6c,0x7e,0x7a,0x68,0x71,0x7e,0x7c,0x7b,0x73,0x7b,0x7d,0x69,0x77,0x46,0x7d,0x7c,0x7e,0x79,0x7b,0x7d,0x7a,0x7a,0x60,0x74,0x7a,0x78,0x7e,0x79,0x78,0x65,0x77,0x73,0x7b,0x79,0x56,0x74,0x72,0x79,0x7e,0x7b,0x64,0x73,0x7d,0x5f,0x7c,0x6b,0x7b,0x77,0x71,0x7c,0x73,0x7e,0x79,0x6d,0x7a,0x73,0x76,0x79,0x7c,0x68,0x7c,0x76,0x7c,0x7e,0x7c,0x6a,0x7b,0x7e,0x74,0x7d,0x7b,0x6b,0x77,0x75,0x64,0x73,0x75,0x7b,0x7e,0x7b,0x78,0x6e,0x6d,0x7a,0x79,0x7b,0x7b,0x5f,0x7e,0x7c,0x4b,0x7d,0x7c,0x79,0x7b,0x7a,0x7c,0x79,0x79,0x59,0x6f,0x79,0x71,0x7a,0x7d,0x7e,0x7b,0x70,0x78,0x6b,0x70,0x7c,0x7b,0x7e,0x59,0x72,0x5e,0x72,0x7e,0x75,0x76,0x71,0x7d,0x69,0x79,0x76,0x77,0x59,0x7b,0x7a,0x7d,0x7b,0x7c,0x7a,0x6a,0x7e,0x71,0x7b,0x62,0x77,0x74,0x7d,0x74,0x7b,0x71,0x78,0x6c,0x7c,0x77,0x78,0x75,0x7b,0x7c,0x77,0x73,0x7b,0x76,0x7c,0x74,0x71,0x74,0x6b,0x0,0x0,0x0,0x0,0xc2,0xea,0xff,0xff,0x4,0x0,0x0,0x0,0x4,0x0,0x0,0x0,0x2,0x0,0x0,0x0,0xd2,0xea,0xff,0xff,0x4,0x0,0x0,0x0,0xc,0x0,0x0,0x0,0x1,0x0,0x0,0x0,0x80,0x0,0x0,0x0,0x1,0x0,0x0,0x0,0x0,0x0,0x0,0x0,0x0,0x0,0x0,0x0,0xf2,0xea,0xff,0xff,0x4,0x0,0x0,0x0,0x0,0x8,0x0,0x0,0x33,0x2e,0x27,0x6,0xd7,0x1f,0x1a,0x0,0x47,0x4f,0x1e,0xf0,0x53,0xee,0x3e,0x1f,0x4e,0x0,0xf9,0x9,0xdd,0xe,0x8,0x34,0x2f,0x2,0x15,0x18,0x1d,0xd,0x21,0xe6,0x16,0xea,0x10,0xe9,0x24,0xe,0x13,0x24,0xd,0x1a,0x2b,0x55,0x36,0xf9,0x27,0x2d,0x2b,0xf1,0x2b,0x4e,0x20,0x6,0x35,0xff,0x1b,0xa,0x50,0x18,0xf0,0x17,0x1f,0x36,0x28,0x1e,0x26,0x33,0x2d,0x4f,0x2e,0x12,0x25,0x11,0xe9,0x12,0x13,0x51,0x62,0xe,0xf,0x19,0xe6,0xfc,0xa,0x4b,0x22,0x7,0x2e,0x5,0x9,0x51,0xe2,0x17,0x2f,0x3,0x3b,0x38,0x7,0xed,0xb,0x7f,0xfc,0xb,0x7,0x26,0x7,0x52,0x1e,0x3e,0x15,0x16,0x10,0x3b,0xfc,0x42,0x5a,0x5d,0x32,0x16,0x2a,0xe2,0x1d,0x28,0xfb,0xa,0x17,0xf0,0xfb,0x4,0x11,0xdf,0xff,0x10,0x14,0xc8,0xcd,0xd,0x28,0xff,0x81,0xe6,0xcb,0xeb,0xb7,0xe9,0xf2,0x21,0x2f,0xf9,0xb1,0xe4,0x3,0xe5,0xde,0x1f,0x12,0x22,0xe9,0xf9,0xba,0xdd,0x1f,0x28,0xec,0xe8,0xc8,0x1,0xff,0x6,0xe9,0xe2,0xff,0xf8,0xf,0xe9,0xac,0xb,0xd2,0x90,0xfb,0xf2,0xc5,0xf0,0x25,0x5,0xe2,0xd9,0xd2,0xd4,0x18,0x6,0x17,0x15,0xef,0xce,0xfc,0xa4,0xaf,0xc1,0x8,0xc8,0xde,0xa7,0x2a,0x9e,0x95,0x26,0x7,0x25,0x18,0xb9,0xe7,0xa3,0xfe,0x1,0x25,0x29,0xaa,0xe,0xd2,0x2,0x8c,0xe7,0xb4,0xac,0x32,0x67,0xd9,0xc3,0x1e,0xd2,0x2f,0xd5,0xd,0xe8,0xb,0xe,0xb9,0xff,0xee,0x11,0xbe,0xdc,0xfa,0x2,0xf2,0xc1,0xbb,0x0,0xc1,0x0,0xe0,0x1a,0x1c,0xe7,0xe5,0xd5,0xc8,0xd3,0xc,0xb5,0xc7,0xf0,0xc0,0xcb,0xc3,0xe4,0x81,0xd4,0xc3,0xdb,0xc4,0xfc,0xd,0xd1,0xde,0xbf,0xc2,0xc8,0xe8,0xd3,0xc6,0xdb,0x2,0xe3,0xdc,0xe0,0xbd,0x8,0xe,0x1e,0xc0,0xff,0xeb,0xda,0xdf,0xff,0xb8,0xbf,0xca,0x15,0xb6,0xa8,0x9b,0x3,0xfa,0x9f,0xf5,0xc,0xb7,0xf2,0xda,0xb5,0xdf,0xd4,0xe3,0xdb,0xed,0xe9,0x1,0xe6,0xdc,0xea,0xeb,0xd2,0x9d,0x1,0xba,0xc5,0xdb,0xc8,0xa,0xad,0xc2,0xbf,0xcc,0xd8,0xec,0xd2,0xff,0xba,0xe1,0xde,0xfb,0xe7,0xb1,0xc3,0xfb,0xe2,0xd7,0xfd,0x9e,0xff,0x5,0x42,0xea,0x82,0xe3,0x95,0x17,0xc1,0xe0,0xaa,0xb2,0xea,0xfa,0xe1,0xc7,0xcf,0xfa,0xd7,0xc4,0xde,0xb1,0xe9,0xfc,0xcd,0xd7,0xfd,0xe0,0xda,0x7,0xf2,0x32,0x16,0xdc,0x12,0xd,0x1d,0x15,0x3b,0x3c,0x2c,0xfa,0xc2,0x7f,0x1f,0xd,0x2a,0x53,0x28,0x27,0x30,0x6,0x2,0x30,0x10,0x29,0x4c,0x35,0xfa,0x28,0x18,0xf9,0xd,0x2c,0xf2,0xa,0xd1,0x51,0xa,0xea,0x17,0xe7,0x22,0x35,0x43,0x4a,0xa4,0x3f,0x38,0x4c,0xf6,0x20,0x26,0x8,0xc4,0x65,0x25,0xdf,0x3,0x4b,0xf7,0xd8,0xee,0x17,0x2f,0x1f,0x11,0x5,0x1d,0x49,0x60,0x60,0x34,0x7,0x3a,0xc,0x35,0xfd,0x53,0x2a,0xde,0xeb,0x2f,0xe0,0x40,0xca,0x56,0x17,0xe8,0x36,0x0,0x46,0x55,0x12,0x1e,0x67,0x27,0x6d,0x38,0x22,0xcd,0xf6,0x5b,0x1f,0x2c,0xf8,0xd,0xd4,0x45,0x25,0x28,0x47,0xe3,0x39,0x2b,0x5,0x37,0x4f,0x36,0x3d,0x24,0x1a,0xeb,0x3a,0xfd,0x11,0x13,0xfc,0x2,0x2a,0x4e,0xf5,0x21,0xb3,0x7,0xde,0xef,0xb,0xe9,0xcf,0xf2,0x1e,0x1c,0xf1,0x29,0x5e,0x2,0xfd,0xdd,0xe0,0x5a,0x1f,0x18,0xd2,0x46,0x1c,0x29,0x23,0x3e,0xe0,0x44,0x46,0xdc,0x26,0xf7,0x2c,0x1e,0x34,0x1b,0xd1,0x4f,0x41,0xfd,0x50,0x1f,0x49,0x2f,0x7a,0xc,0x48,0x5d,0x3d,0xe8,0x7a,0xa,0x20,0x56,0x5e,0x3a,0xe,0xd7,0xf1,0x27,0x2b,0x43,0x48,0xf2,0xf6,0x7f,0x61,0x4a,0x3e,0x64,0x1c,0x2c,0xdc,0x3b,0x52,0x1a,0x4d,0x1,0x3,0x2e,0xdb,0x55,0x2f,0xdf,0xde,0x27,0x18,0xeb,0x1c,0xef,0x78,0xf6,0x7c,0x14,0xa,0xca,0xec,0x2b,0xe9,0x60,0xc,0xf3,0xd3,0x5b,0x48,0x55,0x36,0x24,0xec,0x39,0x2f,0x19,0x53,0x10,0x1b,0x26,0x71,0xea,0x1c,0x3d,0xfe,0xf7,0x2b,0x3b,0x1c,0x2c,0x19,0x18,0x5,0x1a,0x1f,0x1f,0x43,0xb,0xff,0xf9,0x7f,0xa,0xf6,0x3f,0x69,0x0,0xff,0x1e,0xeb,0x10,0x1f,0x22,0xe1,0x8,0x1,0x1e,0xfb,0x1b,0x42,0xef,0x42,0x26,0xff,0x4,0x3a,0x2c,0xe,0x59,0x20,0x3,0x1d,0x4,0x4e,0xc,0x35,0x29,0x51,0xf4,0x35,0x23,0x12,0xf0,0x42,0xe2,0xb,0x13,0x49,0xe3,0xf7,0xfc,0x6,0x32,0x24,0x0,0x22,0x10,0x1c,0x2a,0x40,0x32,0x42,0x27,0x1e,0x23,0xf5,0x1d,0x44,0xf,0xf7,0x1a,0xe4,0xd,0xdd,0x5d,0x1e,0x7,0x3,0xfa,0x3b,0x55,0xe6,0x6,0x56,0xf4,0x6a,0x2e,0x35,0xbf,0xe,0x53,0x24,0x1a,0xf1,0x26,0xef,0x26,0xc,0x2b,0x52,0x25,0x8,0x37,0x31,0x4b,0x28,0x37,0x24,0x37,0x3f,0x14,0x1a,0x33,0x1b,0x16,0x5,0x24,0x37,0x24,0x19,0x27,0x6,0x16,0x12,0x1f,0x30,0x3e,0xe,0xf1,0x5f,0x2c,0x21,0x2c,0x2e,0xf0,0xf0,0xf3,0x15,0x19,0x10,0xc,0x27,0x42,0xa,0x28,0x7,0xfc,0x19,0xee,0x41,0x1e,0xeb,0x11,0x1d,0x23,0x18,0x4b,0x7,0x26,0x17,0x15,0x17,0xdc,0x1d,0x53,0x17,0xf4,0x36,0x46,0x26,0xf3,0x30,0x1d,0xf5,0x35,0x42,0x14,0x1f,0xfe,0xa,0x18,0x28,0x1c,0xc,0xe,0x7,0x4a,0x40,0x31,0x43,0x1c,0x31,0x11,0xd4,0x45,0x61,0x26,0x4,0x1b,0x4,0x19,0xeb,0x4a,0xf2,0x25,0x4a,0x6,0x3d,0x43,0x2,0x2,0x43,0x1f,0x56,0x51,0x12,0xbf,0x35,0x7f,0x30,0x32,0xfe,0x3d,0x20,0x30,0x33,0x39,0x21,0xfa,0x1c,0x3b,0x1b,0x2b,0x42,0x2d,0x1e,0x47,0x32,0xb,0x3a,0x15,0x11,0x1c,0xff,0x27,0xe,0xfa,0xe9,0xc3,0xe2,0x7,0xc6,0x17,0xf,0xa,0xa,0xa2,0x0,0x7,0xfb,0xf4,0x48,0xc6,0xc,0x17,0x2,0xf8,0xbf,0xf8,0xfb,0x15,0xf5,0xd8,0x6,0x16,0xee,0xfa,0xf4,0xf5,0xe1,0xf1,0x21,0xfc,0xfd,0xef,0x6,0x2,0x2,0x4,0xb,0xc2,0xe3,0xf6,0x29,0x6,0xfa,0xd0,0x4,0xd4,0x5,0xda,0xf4,0x7,0x12,0xfd,0xfa,0xe3,0xf,0x1e,0xf2,0xf1,0xe8,0xb9,0xa,0x2a,0x22,0xe9,0x21,0xe7,0x24,0xf4,0x9e,0xff,0xed,0xd2,0x44,0xfa,0x1c,0xd7,0xb7,0x39,0xa,0x31,0x1f,0x1,0x15,0x24,0x81,0x4,0x16,0xe9,0x1e,0x1f,0xde,0xfb,0x6,0x24,0x11,0x8,0xa6,0x7,0x13,0x24,0x25,0x16,0x1,0x18,0xe5,0xcf,0x1e,0x14,0x4b,0xb,0x35,0xff,0xb6,0x2,0xfb,0xff,0xee,0xdf,0xc6,0xec,0x18,0xe9,0x0,0xd8,0xc,0xf9,0xea,0xe7,0x96,0xbe,0xe4,0xf4,0xd2,0xd8,0xcb,0xeb,0xad,0x15,0xbe,0x3,0xdd,0xc3,0xe9,0xc6,0xf1,0x8e,0xd9,0x2a,0xd7,0xd6,0xc2,0xdc,0xf7,0x16,0xf6,0xe8,0xac,0xee,0xe6,0xe1,0xf9,0xdd,0xe3,0xb4,0xd7,0x5b,0xd2,0xb0,0xd9,0xe4,0xcb,0xd1,0xe5,0xf7,0xbc,0xd7,0xe2,0xf8,0xf1,0xe6,0x33,0xfb,0xbc,0xaa,0x14,0xe6,0xe7,0xb7,0xb7,0xa4,0xdc,0xe9,0xc2,0xb2,0x13,0xa3,0x6,0xca,0xe0,0xf5,0xfe,0xf9,0x18,0xc3,0x19,0xae,0xd2,0xa,0xc3,0x1f,0xa2,0xee,0xf8,0xd3,0x86,0xe0,0xb4,0x99,0xcb,0x69,0x1c,0x81,0xd2,0xc8,0xfa,0xf3,0xff,0xdd,0x3,0xda,0xe5,0xf2,0xf1,0xb8,0xe6,0xb3,0x8e,0xe6,0xad,0xff,0xce,0xe6,0xd5,0xc2,0xff,0xf4,0x10,0x6,0xf0,0xf2,0xf1,0xc9,0xf3,0xcb,0x3,0x14,0x81,0xd6,0x1e,0x26,0x93,0xd8,0xcc,0xcd,0xd5,0xa,0x25,0xf7,0x24,0xd3,0xd9,0xd1,0xe5,0xad,0xc9,0x1b,0x36,0x19,0xda,0x3,0xdd,0x6,0xf4,0x3b,0xca,0xe4,0xed,0xe9,0x30,0x9,0xcd,0xe7,0xcc,0xfc,0xf3,0xbf,0xba,0xdd,0xe3,0xde,0xe4,0x29,0xba,0xf8,0xfc,0xdc,0xdf,0xee,0x6,0xf3,0xe6,0xae,0xdc,0xe3,0xc1,0x11,0xc1,0xb7,0xcc,0xdc,0xe7,0xc8,0xa,0xc1,0x2f,0xcb,0xc8,0xc,0xcf,0xfd,0xeb,0xff,0x3d,0x95,0x13,0xee,0xd4,0xd7,0xb7,0xad,0xf8,0x18,0xc5,0xd2,0xa6,0xf3,0xfb,0x71,0xe6,0x84,0xd5,0xd4,0x7,0xe3,0x1d,0xb8,0xd,0xdd,0xb2,0x6,0xc,0xee,0x8,0xd6,0xae,0xc0,0xf9,0xdb,0x27,0x0,0xcb,0x16,0x21,0x11,0x26,0x10,0xff,0xec,0xfb,0xbc,0x2d,0xde,0xea,0xe8,0x95,0xd4,0x6,0xe9,0xc4,0xe4,0xbb,0x1c,0xef,0x35,0xc6,0xfb,0xcf,0x3,0xdb,0xbc,0x29,0x8,0xf7,0xf0,0x16,0xe1,0xd4,0xe6,0xe7,0x2,0x4,0x13,0xe3,0xc4,0xe0,0xf0,0x17,0xc2,0xf2,0xd1,0xcd,0xfc,0xf9,0xc8,0xe5,0xf1,0xca,0x81,0xc0,0xd,0x91,0xc9,0xd7,0xf5,0xa8,0xf8,0x0,0x2c,0xe8,0xb6,0xc4,0x1,0x0,0xe4,0xe2,0xd7,0xab,0xd6,0xb2,0xd6,0x7,0xa3,0xb,0xc1,0xe4,0xc7,0xe5,0xba,0xe4,0xe8,0x36,0xb0,0xe5,0xf6,0xf0,0xdd,0xd2,0xc3,0xe,0xfc,0x8a,0x1c,0xfc,0xa,0xf8,0x7f,0xd4,0xa7,0x1c,0xe8,0x38,0xe9,0xf4,0xde,0xbe,0xd9,0xe5,0xce,0xd8,0xf9,0xc2,0xd8,0xf2,0xc2,0xe9,0x1c,0xfa,0xd4,0xc7,0xc,0xc,0x12,0xd1,0xf8,0xd,0xc,0xf9,0x4,0x20,0xff,0xed,0xe0,0x9b,0x3,0xd9,0x2,0xaf,0xc8,0xe2,0xf8,0xa7,0x1b,0xfa,0x12,0xc7,0x17,0x9e,0xcf,0xd6,0xdc,0xc4,0x2d,0xd0,0xcb,0xb8,0x10,0xc8,0x1b,0x31,0xe4,0xd6,0xd6,0xe5,0xdc,0xd0,0xd4,0xff,0xfc,0xe3,0x1,0xae,0xb6,0xd2,0x13,0xed,0x95,0xfe,0xfc,0x95,0x16,0xe3,0xc7,0xfd,0xcf,0xe7,0xf6,0xfa,0xa1,0x7,0xd0,0xd2,0xeb,0xf6,0xe1,0xab,0xc9,0x9f,0xff,0xda,0xb8,0x7,0x81,0xd0,0xfa,0xf4,0xb2,0xf9,0xde,0x1f,0xbe,0xd9,0xd9,0x9,0x5,0xa8,0xee,0xea,0x17,0xb9,0xef,0xc5,0xb8,0xf2,0x23,0xff,0x8e,0xdc,0xbb,0x13,0xcd,0x1,0xd0,0xf3,0xc1,0xa3,0xda,0xf2,0xfb,0x28,0x11,0xba,0xde,0xcf,0xc4,0x10,0xf6,0xf3,0xc0,0x1f,0x18,0xea,0xf0,0x14,0xe7,0x17,0xa,0xf7,0x21,0x2e,0x5,0x55,0x4a,0x23,0xfd,0x2e,0x1a,0x2d,0x1a,0x3d,0x24,0xde,0xe8,0x9,0x28,0x3c,0x47,0x1c,0x2d,0x39,0x16,0x3b,0xf,0x25,0xe,0x2c,0x2f,0xe9,0x21,0x40,0x30,0x36,0x2b,0xfc,0x1e,0x44,0x20,0x4b,0xfa,0x8,0x3f,0x4b,0xfc,0x25,0x59,0x26,0x12,0x20,0x9,0xff,0xc,0x39,0xf8,0x17,0xff,0x8,0x33,0x1f,0x3e,0x38,0x9,0x1c,0x27,0x3f,0x31,0x5b,0x1b,0x12,0x21,0xed,0x52,0x36,0xf7,0x23,0x2b,0x20,0x1a,0xd1,0x78,0xef,0x2f,0x38,0xfb,0xc,0x27,0xe4,0xe5,0x57,0x0,0x35,0x26,0x5b,0xaa,0x23,0x7f,0x12,0x13,0xe3,0x2c,0xeb,0x61,0x27,0x29,0x44,0x28,0xc,0x38,0x6,0x21,0x44,0x55,0x18,0xe,0x8,0x22,0x20,0xa,0xf8,0xeb,0x46,0x2c,0xee,0xe6,0x42,0x24,0xf6,0xfe,0x3d,0xb,0x30,0x35,0xcf,0xec,0x4d,0x15,0x21,0x25,0x1a,0x6,0xb,0xfd,0x2,0x45,0x34,0x22,0xf0,0x37,0x30,0x2a,0xec,0xf0,0x8,0x13,0x2f,0x41,0xe6,0xfa,0x8,0x1,0xd,0x0,0x28,0x14,0x39,0x26,0x48,0x16,0xf9,0x5c,0x2a,0x32,0xf,0x6c,0x47,0xc,0x4e,0x24,0x35,0x51,0x38,0xef,0x2b,0x10,0xd,0x2c,0x2d,0xf6,0x42,0xf9,0xf9,0x7f,0x46,0xed,0x11,0x18,0x24,0x53,0xd0,0x5f,0x5f,0x2c,0xff,0x2c,0x2a,0x26,0x4,0x27,0x1c,0x2,0x4a,0xee,0x38,0x5a,0xf9,0x1c,0x7b,0x2f,0x22,0x38,0xdc,0xce,0x3,0x3c,0x2d,0x0,0xe8,0x20,0xe7,0x75,0xd,0x7,0x3c,0xf3,0x5,0x1b,0x4c,0x9,0x4f,0x16,0x1f,0x33,0x40,0x25,0x44,0x19,0xe8,0xd,0xb,0xe8,0x13,0x4,0xf1,0xed,0x3,0x48,0x3d,0x14,0x76,0x4a,0xf8,0xeb,0x57,0xb,0x33,0x7,0x7f,0xdc,0xf6,0xf3,0x1,0x30,0x2f,0x5c,0xe,0x15,0x40,0x0,0xe9,0x27,0x50,0xf9,0x17,0xe6,0x4,0x6,0x1e,0xfc,0xe,0x21,0x8,0x24,0x4d,0x57,0x3f,0x0,0x23,0x28,0x53,0xf0,0x32,0x3f,0x4c,0x17,0x5f,0xe4,0x2c,0x2c,0x3d,0xeb,0xea,0x11,0xf4,0x27,0x38,0x10,0x38,0x1,0x12,0x6f,0x4f,0x6,0x3d,0x4f,0x2d,0x32,0x1,0x23,0x61,0x15,0x2b,0xf8,0xe6,0x31,0xd4,0x57,0x13,0xf,0x48,0x23,0x4c,0x54,0x11,0xe7,0x39,0xff,0x41,0x32,0x23,0xd9,0x25,0x4a,0x14,0x14,0xdf,0x18,0xfc,0x6d,0x16,0x46,0x37,0xc,0x21,0x20,0x0,0x45,0x6f,0x37,0x44,0xa,0x9,0x19,0x37,0x20,0x6,0xf8,0xf9,0x1b,0x22,0x12,0x15,0x1,0xde,0xf,0xa,0x3,0x67,0x44,0x1a,0xfe,0x52,0xc,0x3f,0x15,0x30,0xdc,0xf5,0x2f,0x1a,0x2e,0x17,0xef,0x1e,0x23,0x37,0xf2,0x24,0x7,0x2b,0x15,0x4b,0x1e,0x10,0x10,0x23,0x34,0xea,0xfd,0x29,0xb,0x52,0x4b,0x7,0xb7,0x9,0x70,0x1b,0xf8,0x16,0x77,0x32,0xd4,0x58,0xc,0x1a,0x21,0x46,0xf4,0x15,0xe5,0xea,0x1,0xff,0x49,0x59,0x1c,0x3b,0x7f,0x16,0x40,0x28,0xeb,0x30,0x4f,0xd7,0x42,0x6f,0x2c,0x29,0x45,0xd,0x2d,0xfd,0x76,0x21,0xf,0xff,0xe8,0xf5,0xe,0x20,0x12,0x76,0xf9,0x2e,0x36,0x1a,0xd8,0xec,0x55,0x24,0x36,0xf7,0xd,0xcd,0x29,0x36,0x17,0x4b,0x2e,0x7,0x12,0xc7,0xf5,0x4c,0x6d,0x34,0x25,0xf,0x1,0x46,0x21,0x34,0xf5,0x16,0xf,0x0,0x0,0x0,0x0,0x2,0xf3,0xff,0xff,0x4,0x0,0x0,0x0,0x0,0x4,0x0,0x0,0xe,0x30,0xdc,0xfc,0x5e,0xf7,0xfc,0xf7,0xdd,0xc3,0x27,0xfb,0xe3,0x18,0xd0,0xff,0x1f,0xe5,0x47,0xdd,0x2f,0x15,0xdb,0x24,0xff,0x40,0xf3,0x1b,0xd7,0xdb,0xc0,0xf4,0x11,0xe5,0xcc,0xf7,0x4,0xe,0x29,0x14,0x4,0xdf,0xd0,0x42,0xdf,0xb,0x81,0xe5,0xde,0xb,0xc6,0x18,0xca,0xd3,0xbd,0x1e,0xff,0xec,0xf4,0xc,0xeb,0xd6,0xe8,0xd2,0xfd,0x8,0xe8,0xbe,0xfc,0x5c,0x4b,0xd7,0xd8,0x1e,0xd0,0xe3,0x36,0xcc,0xcf,0xf5,0x3f,0x17,0x7,0xef,0x0,0xda,0x17,0x0,0x4,0xd7,0xe3,0xe6,0xb6,0x3,0x31,0xe3,0xc,0xe9,0xe5,0xb9,0xf7,0x3a,0x17,0xdc,0xb,0x9,0xf8,0x0,0xde,0x19,0x78,0xfd,0xee,0x13,0x8,0xf9,0xe3,0xe,0xed,0xfa,0xcd,0xcf,0xef,0x20,0xce,0x24,0xf8,0xe5,0xed,0xb,0xec,0x2c,0x31,0xe3,0x2b,0xeb,0xd5,0xc2,0xb3,0xfa,0xfa,0x1,0x17,0xa7,0xec,0x3d,0xe4,0x4a,0xf5,0xb,0xdb,0xe3,0xf5,0xe0,0xbe,0xe0,0x16,0x2f,0xdb,0x2c,0x2,0x27,0x2b,0xe3,0x59,0x1,0xb6,0xe3,0x23,0xbc,0xf6,0xd4,0xdd,0xff,0x2e,0xcf,0x43,0xeb,0x1d,0x59,0xfa,0x6,0xc,0x1,0x11,0xf8,0xc,0xed,0x1a,0xa,0xc3,0xe4,0xd,0xcf,0x59,0xd,0xdf,0xb8,0x9f,0xc5,0x25,0xf9,0xe9,0x8,0xc6,0x42,0x12,0xb1,0xc4,0xea,0xf5,0xf4,0x43,0xd3,0x17,0xee,0xe2,0x11,0xfb,0x1f,0x4d,0xfd,0xb6,0xd7,0xf0,0xb,0xf0,0x20,0xd1,0x81,0xd8,0x34,0x29,0xdc,0xec,0x29,0x8,0xcc,0xfa,0xf7,0x5c,0xfb,0xfe,0xdd,0xd6,0xf8,0xfc,0xf8,0x1e,0xcb,0x1c,0xfb,0xed,0xfe,0x1b,0xd8,0x1e,0x9,0x2e,0x3f,0x6,0x1d,0xbf,0x13,0x11,0x5,0xfd,0xdf,0x27,0x19,0xf6,0x1b,0x38,0x15,0x15,0xef,0x1b,0xfe,0xbd,0xf0,0xe1,0xf4,0xdc,0xe7,0xf3,0x1a,0xd7,0x0,0xf1,0xed,0x34,0x34,0xcb,0x13,0x11,0x2c,0xc,0xfb,0xe7,0x46,0xde,0x7,0xb1,0x1c,0xaa,0x1e,0xfc,0xf3,0xe5,0xf,0xe4,0xfc,0x20,0xe,0xed,0xf8,0x2c,0x8,0x0,0xef,0xe4,0xf3,0xe,0x17,0x7,0x26,0x45,0x3a,0xdf,0xed,0x13,0xc4,0x28,0x1,0xdc,0xf7,0x1,0xff,0x2d,0xd0,0x6,0xfa,0x7,0xc6,0xb,0xe5,0xef,0x23,0x1d,0x8,0x3e,0xee,0x27,0x37,0x13,0xf0,0x7,0x7,0x9,0xbd,0xc2,0xe0,0xa,0x11,0xfe,0x31,0x7f,0x16,0xc7,0xd3,0x8,0x20,0xf8,0xfb,0xe4,0x8,0xd5,0xa,0x2b,0xcf,0x1f,0xf2,0xf8,0xd4,0x17,0xc,0xfe,0x15,0x26,0x35,0x1f,0x3b,0xff,0xcb,0xf7,0x50,0xc0,0x18,0x5,0x2,0x18,0xeb,0xd5,0xe3,0xe3,0x8,0x22,0x7f,0xf1,0xef,0x1f,0xe,0x3,0x10,0xe8,0xe2,0xe6,0xf3,0x21,0xf,0xfc,0x8,0xed,0xe0,0xa,0xd6,0x1a,0xbe,0xd9,0x2,0xbb,0x3b,0xd9,0xf9,0xe7,0x21,0xda,0x38,0x29,0xd9,0x3,0xd9,0x16,0x9,0x9,0x1c,0xee,0x17,0x4e,0x6,0x39,0xec,0xf9,0xdb,0xde,0x16,0xec,0x6,0xe2,0xbe,0xe3,0xe6,0xf5,0xa,0xf2,0x1f,0x1c,0x47,0x30,0xdd,0x5,0x25,0xd,0x1,0xe7,0xd6,0xee,0x31,0xca,0x40,0xb4,0xf5,0xfc,0x3,0xff,0x7,0xed,0xfa,0x31,0xf6,0xe6,0xe6,0xda,0x3,0x44,0x2a,0xc8,0x49,0xed,0xfe,0xf4,0xf9,0xd4,0xf7,0x2e,0x16,0xf5,0x2e,0xf8,0xfd,0x17,0x6,0x16,0x2f,0x7,0xbd,0x3a,0xd7,0xe6,0xe8,0x31,0xc,0x29,0x1f,0x0,0xfd,0xff,0x2,0x30,0x81,0x2b,0x10,0x1,0x16,0xe5,0x2d,0x4,0x17,0xe9,0x24,0xb4,0xc5,0xdc,0x6,0xf9,0xc4,0x95,0x1a,0xe1,0xc2,0xe3,0xba,0x9,0xf0,0x17,0x17,0x3b,0xe,0xbe,0xea,0x82,0x4,0xc8,0xac,0xc0,0xc9,0xc3,0x38,0xdc,0xc7,0xc4,0xe3,0x17,0xd0,0xf4,0xdd,0xca,0xf3,0xb,0xa1,0x1b,0x4c,0x5a,0xce,0x45,0x1b,0xda,0xc8,0x26,0x89,0x1c,0xb2,0xeb,0xc8,0x24,0x26,0xfd,0xe7,0xe0,0xc,0x38,0xd7,0x28,0xbe,0xa6,0xfb,0x1b,0xea,0x20,0xc,0x2,0xce,0x2b,0x1a,0xe6,0x9d,0x0,0x7,0x1,0xd5,0xcb,0xba,0x1c,0xef,0x93,0x10,0xff,0xdb,0xd5,0xb,0xd1,0xc8,0xaf,0xf4,0xbd,0x4c,0x29,0xfa,0xf5,0xfa,0xec,0xbb,0xcf,0x11,0x50,0xe7,0xee,0xe8,0xbb,0xb9,0xd8,0xe,0x1d,0xfb,0x12,0xbb,0xbf,0xbb,0x2f,0x47,0x6e,0xc2,0x3f,0x21,0x1c,0xca,0x1b,0x2d,0xb8,0xb0,0x1,0xd4,0xe3,0xf3,0xe3,0x95,0xfb,0xfa,0x2c,0x95,0x19,0xf,0xea,0xdf,0xdd,0x81,0x74,0xd0,0x20,0x8,0xf,0xea,0xcc,0x59,0xb9,0x21,0x7,0x30,0xb5,0x1c,0xf7,0xd3,0x16,0xf4,0xe5,0x36,0xf1,0xdc,0xe6,0x20,0x2,0xa5,0x4b,0xde,0xc5,0x44,0x94,0x4d,0x5f,0xe9,0xb8,0xcd,0x92,0xd5,0x1e,0xe8,0xcc,0x25,0xdf,0xed,0xdf,0xba,0x27,0x13,0xda,0xe3,0xad,0xaa,0x5,0xb1,0xeb,0xcc,0xb6,0xeb,0xcd,0x10,0x8,0xc3,0xa9,0x93,0x22,0xf2,0x1d,0xf0,0x1,0xdd,0xfe,0x1c,0x2a,0x9d,0xbe,0xdb,0xdc,0x11,0xb,0x49,0xe5,0x45,0x5,0x64,0xd9,0x1d,0xac,0x3d,0x13,0x4c,0xe2,0xe7,0x1d,0x61,0xfa,0x6,0x3d,0x2a,0x2e,0x2d,0xd2,0xeb,0x7,0x26,0x2d,0x2,0xcd,0x1e,0x71,0x4a,0x34,0x27,0x4d,0x22,0x3d,0x10,0x3b,0x33,0xcf,0xed,0x5c,0x7f,0x50,0x45,0xeb,0xfe,0x1e,0xd7,0xf,0x2d,0xee,0xce,0x1c,0xda,0xde,0xd4,0x3b,0xf7,0x2b,0x39,0xf4,0x37,0x16,0x2f,0x22,0x27,0xe3,0xce,0x24,0xc1,0xc7,0x54,0xfb,0x64,0xc6,0xce,0xc,0xb4,0xac,0xd5,0xf7,0x35,0x5,0x2b,0x4a,0xdf,0xe7,0x6d,0xd4,0x23,0x35,0x27,0x37,0xf4,0xbc,0xd3,0x12,0x3f,0x4b,0xa9,0x19,0xe5,0x2a,0x8,0x31,0xfe,0x20,0xf7,0x65,0xf0,0x21,0x31,0xda,0xf6,0x23,0xee,0x16,0x5b,0x54,0x53,0x2a,0x40,0x17,0xf5,0x1f,0x45,0x38,0xb1,0xf8,0x2b,0xef,0x33,0xff,0xb5,0xf,0x1e,0x52,0xf,0xcc,0xd9,0xe0,0xb5,0xdc,0xec,0xd7,0xd8,0xce,0x4,0xfd,0x1f,0xd,0xee,0x9,0x2f,0x23,0xe2,0x19,0x1f,0x3a,0x4,0x14,0xe2,0xf2,0xdc,0x37,0x16,0xe6,0x17,0xff,0xcd,0x6,0x1f,0xe8,0xec,0x29,0x1d,0xaa,0x10,0x9b,0xe4,0xef,0x38,0xdb,0x58,0x15,0xf6,0x9,0xc7,0x21,0xeb,0x14,0x2e,0xf3,0x23,0xf8,0x5,0x1e,0x1b,0xc,0xd4,0xf3,0xdd,0x16,0x1d,0xec,0x8b,0xcb,0xc5,0xba,0xf5,0xf3,0xe8,0x28,0xff,0x4d,0x23,0x12,0xf7,0xc,0xe5,0xfb,0xe3,0x2f,0x40,0xb7,0xa,0xf5,0xf4,0x2,0x7f,0x1e,0xd7,0xd5,0xf1,0x37,0xfa,0x25,0xdb,0xf0,0x3,0x4f,0xec,0xe6,0xea,0x1,0xd6,0x3,0xc0,0xf2,0xdc,0x24,0x13,0xdc,0xe5,0xf8,0x2f,0xf5,0x7,0x0,0x0,0x0,0x0,0x12,0xf7,0xff,0xff,0x4,0x0,0x0,0x0,0x0,0x4,0x0,0x0,0x9,0x38,0x21,0x81,0xe6,0xaa,0xfa,0xe3,0x29,0xf6,0x58,0x7,0x7f,0xaf,0x3b,0xf1,0x81,0xe,0x61,0x21,0xbc,0x5,0x6f,0x49,0x34,0x7f,0x15,0x71,0xb9,0x9a,0x2c,0xd3,0x96,0x1f,0xa5,0x4d,0x32,0x20,0x2b,0x7f,0x18,0x35,0x7f,0x35,0x55,0xbe,0xac,0xf6,0x7f,0xa6,0xef,0x95,0x77,0xca,0xd2,0x19,0xf8,0x81,0xf2,0x21,0x7d,0x5a,0x31,0x9b,0xf2,0xd5,0x71,0x11,0xe7,0x7f,0xcf,0x3,0x81,0xde,0xb8,0xce,0x54,0x28,0x3c,0x9a,0x7f,0x93,0x3f,0x2,0x9f,0xe2,0x57,0xad,0xa1,0x40,0xb5,0x94,0x81,0xed,0xad,0x1b,0xa3,0x1c,0x9a,0xd,0x5a,0x7f,0xb5,0x42,0x32,0x35,0xcc,0x81,0x30,0xb1,0xba,0x4a,0x25,0x56,0x7f,0x6d,0x71,0x59,0xa6,0x8c,0x28,0xfa,0xd2,0x55,0x5d,0x7f,0x21,0x27,0x61,0xd4,0x6,0xfd,0x7f,0xde,0x39,0x1f,0x76,0x49,0x81,0xbd,0x39,0x6e,0xe,0x64,0xfa,0xd4,0xf9,0xb8,0x81,0x25,0x64,0x8f,0x7f,0xb9,0x19,0x25,0xdc,0x30,0x20,0x2,0xa2,0xeb,0x81,0xc1,0x2b,0x57,0x37,0x49,0xdf,0xb9,0xa1,0x57,0xd9,0x7f,0x8f,0xb2,0x48,0x81,0x1c,0xe9,0x23,0xa0,0x78,0xc8,0xe4,0xc3,0xfb,0x7f,0x5e,0x73,0x1,0x82,0xcc,0xb8,0x40,0xa,0x99,0x81,0x29,0xad,0x9,0xf,0x17,0x0,0x12,0x6d,0xe7,0x7f,0xc6,0x92,0x1b,0x26,0x81,0xbe,0x47,0x61,0x94,0x81,0xdd,0xe3,0xf1,0x9a,0x45,0x84,0x14,0x91,0xe5,0xaf,0x40,0x9a,0x21,0x7f,0x3b,0x66,0x7,0xf5,0x7,0xc5,0x81,0x8f,0x93,0xef,0x8,0x7f,0x1c,0xb7,0xcf,0xce,0x9d,0x8,0xc9,0x29,0x45,0x3d,0x81,0xaa,0xee,0x6a,0x59,0xf9,0x23,0x74,0x4c,0x7f,0xa2,0x30,0xaa,0x3f,0x81,0x9c,0xaa,0xdf,0x1a,0x20,0x66,0xf5,0x7f,0xc6,0xf1,0xf6,0x56,0x36,0xe3,0x18,0xe,0x24,0x0,0x7f,0x30,0x4a,0xb4,0x7f,0xc4,0x13,0x34,0x21,0xea,0xe9,0x56,0x81,0xd5,0xb7,0x22,0xb6,0xe1,0x22,0x1a,0x73,0x97,0xc7,0x7,0x81,0xcb,0x1b,0xe1,0x81,0x6,0x64,0x6,0xe0,0x8a,0xd6,0xce,0xf9,0xd,0x6b,0x7f,0xf1,0x7f,0x67,0xed,0xcf,0xeb,0x15,0x2a,0x54,0x27,0xc5,0x63,0x7f,0x5d,0x7e,0x5b,0x65,0xd3,0xbd,0x7f,0x20,0xca,0xa7,0xdd,0x5f,0x81,0x40,0x84,0xad,0x98,0x5a,0x9,0xa1,0xf7,0x85,0x6f,0x81,0x59,0x8d,0xf8,0x95,0x32,0x81,0x66,0xf6,0x87,0xa1,0x53,0xf0,0xe8,0x46,0x0,0xf5,0x81,0x10,0xa,0xc3,0xd0,0x9c,0xcd,0x98,0x7f,0xd5,0xf7,0xb1,0xf0,0x4f,0x20,0x2b,0x34,0x51,0xf,0x7f,0x8,0xaa,0xcc,0xda,0xe8,0xbb,0x81,0x50,0xdf,0x81,0xa3,0xa5,0x33,0x19,0xfb,0xf3,0x81,0x25,0xd7,0xa0,0x91,0x3d,0x29,0x9a,0x53,0x7f,0x58,0xa,0x57,0xce,0x17,0xd6,0x2f,0x27,0xe1,0x2b,0x1d,0x7f,0xc4,0x38,0x81,0x37,0x9c,0x9a,0xb5,0x60,0xe6,0x8f,0x71,0x56,0x7,0x5f,0x7f,0x5f,0x45,0x7b,0x23,0x81,0xb1,0xbd,0xce,0x0,0x65,0x95,0x4b,0xe1,0x91,0xdc,0x50,0x6f,0x81,0x60,0x82,0x99,0xb6,0x0,0xb5,0xd1,0x7f,0xf1,0x7,0x25,0x67,0x5e,0xd8,0x2b,0xe8,0x7f,0x24,0x7a,0x85,0xd4,0xb2,0x54,0x7f,0xc,0xa9,0x20,0xff,0xb5,0xab,0xc9,0x5c,0x81,0xc,0x20,0xef,0xb2,0x33,0x2e,0x81,0x9,0xf8,0xf2,0x7f,0x9,0xef,0x43,0x31,0x2a,0xc8,0xa8,0xcd,0x81,0x34,0xea,0xc3,0xf1,0xc6,0xe9,0x48,0x6,0xb4,0x81,0x34,0xfe,0x3a,0x0,0x51,0xc,0xc6,0x81,0x26,0xe1,0xf7,0xd8,0x21,0x95,0xd,0x73,0x44,0x7f,0x7f,0x9f,0x67,0xb3,0x40,0xf9,0xf6,0xf0,0x3a,0xa1,0x5a,0x41,0x7f,0x6,0xc0,0xbb,0x81,0x63,0xf,0xbb,0xad,0xa3,0xf2,0x6c,0xfe,0x81,0xf5,0xa8,0xd0,0xaa,0x24,0xd1,0x48,0x96,0x7f,0x29,0xe6,0xcb,0xc6,0x89,0x3a,0x1,0x7f,0x61,0x82,0x60,0xd8,0xa8,0x89,0xf1,0x81,0xe6,0x7a,0x50,0x52,0x4e,0xa9,0x7f,0x66,0xd4,0xe6,0x76,0x94,0x27,0x22,0x7f,0x54,0x61,0xc3,0x84,0xf1,0x56,0xe1,0x1c,0x5,0x87,0x94,0xc6,0x19,0x81,0xda,0x81,0x43,0xb2,0x45,0xb9,0xed,0x3e,0x5b,0xfb,0xdf,0x4,0x7f,0xca,0x5d,0x8f,0x1a,0x81,0x63,0x3d,0x25,0xa7,0x55,0x1c,0x18,0xc3,0xe4,0x7f,0xd5,0x93,0x95,0x5e,0x62,0x8b,0x8c,0x79,0x7d,0x5b,0x5c,0x81,0x38,0x68,0x7c,0xba,0x16,0x1f,0x81,0x6e,0x59,0xed,0x28,0xb7,0x79,0x8e,0x81,0x82,0x15,0x27,0xe5,0x44,0x81,0x95,0xe0,0xf2,0x8f,0x7f,0xf9,0xf2,0x83,0xfc,0x1e,0x9,0xb6,0x7f,0xf2,0xa9,0xc0,0x9a,0x48,0xe5,0xc0,0x7f,0x89,0xcc,0x4c,0x1f,0x49,0x51,0xdd,0x99,0x87,0xe4,0xf2,0x57,0x13,0x7f,0xd6,0xa0,0xa9,0x68,0xcc,0x96,0x7f,0xc9,0x7f,0x88,0x17,0xbf,0x2b,0x9c,0x3f,0x9,0x7f,0xb6,0x35,0x81,0xc1,0x87,0x35,0x81,0xe9,0x16,0x8a,0x34,0x7f,0xf3,0xd8,0x47,0xd,0xc7,0xfc,0xf7,0x24,0x0,0x7f,0xb4,0x8b,0x60,0xbe,0x21,0x81,0xb3,0x9e,0x98,0xc6,0xae,0x54,0x4d,0x7f,0x1b,0xc,0x9f,0x12,0x8a,0x42,0x17,0x5,0x81,0x69,0x68,0x1d,0x9d,0x0,0x31,0x20,0x81,0xda,0xa7,0xd3,0xd,0xd7,0x88,0x81,0xe1,0x5a,0xa2,0xb5,0xad,0x19,0xd6,0x30,0x19,0x4a,0x7f,0xca,0x7f,0x43,0xcc,0xa2,0x63,0x33,0x9e,0x81,0x4,0xcd,0xc1,0xc8,0xc5,0x4c,0x84,0x18,0x20,0xd9,0x7f,0x9d,0xb2,0x5d,0x1a,0x9d,0xf9,0x18,0x2b,0x91,0x81,0x2a,0x8b,0xd1,0x7f,0xc5,0xc9,0x13,0x1f,0xf6,0x6,0x7f,0xb6,0x3e,0xdc,0x49,0x2b,0x0,0x67,0x81,0x7,0x2e,0x28,0x5b,0x2d,0x23,0x8f,0xa5,0x7c,0x7f,0x9c,0x68,0x11,0xad,0x20,0x96,0xbd,0x5,0xe0,0x1f,0x7f,0x0,0x6d,0x74,0x3,0xc3,0x10,0xce,0x81,0x27,0xaf,0x48,0x9,0xab,0xf2,0x58,0x7f,0x4c,0xf1,0xc6,0x33,0x81,0xc8,0x51,0xa7,0xd8,0x3b,0x8b,0x38,0x81,0x58,0xeb,0x1,0x59,0xdb,0x4f,0xaa,0xf9,0xc0,0x7f,0xee,0x30,0x23,0x58,0x7c,0xfc,0xba,0x89,0x2e,0xd,0x81,0xdf,0x68,0xd3,0xb4,0x27,0xa6,0x7b,0x7f,0x97,0x3b,0xfb,0xd8,0xf5,0x4c,0xe5,0x81,0x73,0xae,0xe3,0x22,0x47,0xe4,0x7f,0x99,0x31,0x81,0xf5,0xa5,0xca,0x10,0x8b,0x1b,0x3d,0xd4,0x4c,0x3d,0x2d,0x6,0x99,0x7f,0xdd,0x81,0x79,0xe1,0x1b,0x28,0x3d,0xa9,0x4f,0x4f,0x55,0x6,0x93,0xc4,0x98,0x7f,0x81,0xbc,0x95,0x83,0x91,0x52,0xf9,0x99,0x2e,0x7,0x7e,0x61,0x81,0x30,0xc3,0x8d,0xa3,0xc5,0xbe,0xaa,0x7f,0x6a,0xcd,0x22,0x22,0xf6,0xd8,0x11,0x81,0x45,0x3d,0x97,0x0,0x0,0x0,0x0,0x98,0xf1,0xff,0xff,0x1,0x0,0x0,0x0,0x10,0x0,0x0,0x0,0xc,0x0,0x14,0x0,0x4,0x0,0x8,0x0,0xc,0x0,0x10,0x0,0xc,0x0,0x0,0x0,0xfc,0x3,0x0,0x0,0xec,0x3,0x0,0x0,0xdc,0x3,0x0,0x0,0x4,0x0,0x0,0x0,0x12,0x0,0x0,0x0,0x90,0x3,0x0,0x0,0x48,0x3,0x0,0x0,0x0,0x3,0x0,0x0,0xbc,0x2,0x0,0x0,0x94,0x2,0x0,0x0,0x60,0x2,0x0,0x0,0x2c,0x2,0x0,0x0,0xf8,0x1,0x0,0x0,0xc8,0x1,0x0,0x0,0x94,0x1,0x0,0x0,0x70,0x1,0x0,0x0,0x3c,0x1,0x0,0x0,0x8,0x1,0x0,0x0,0xd4,0x0,0x0,0x0,0xa0,0x0,0x0,0x0,0x6c,0x0,0x0,0x0,0x38,0x0,0x0,0x0,0x4,0x0,0x0,0x0,0x12,0xfe,0xff,0xff,0x0,0x0,0x0,0xb,0x4,0x0,0x0,0x0,0x18,0x0,0x0,0x0,0xc,0x0,0x0,0x0,0x4,0x0,0x0,0x0,0x28,0xf2,0xff,0xff,0x1,0x0,0x0,0x0,0x19,0x0,0x0,0x0,0x2,0x0,0x0,0x0,0x17,0x0,0x0,0x0,0x18,0x0,0x0,0x0,0x42,0xfe,0xff,0xff,0x0,0x0,0x0,0x15,0x2,0x0,0x0,0x0,0x18,0x0,0x0,0x0,0xc,0x0,0x0,0x0,0x4,0x0,0x0,0x0,0x58,0xf2,0xff,0xff,0x1,0x0,0x0,0x0,0x18,0x0,0x0,0x0,0x2,0x0,0x0,0x0,0x0,0x0,0x0,0x0,0x8,0x0,0x0,0x0,0x72,0xfe,0xff,0xff,0x0,0x0,0x0,0x1b,0x5,0x0,0x0,0x0,0x18,0x0,0x0,0x0,0xc,0x0,0x0,0x0,0x4,0x0,0x0,0x0,0x88,0xf2,0xff,0xff,0x1,0x0,0x0,0x0,0x17,0x0,0x0,0x0,0x2,0x0,0x0,0x0,0x16,0x0,0x0,0x0,0x6,0x0,0x0,0x0,0xa2,0xfe,0xff,0xff,0x0,0x0,0x0,0x15,0x2,0x0,0x0,0x0,0x18,0x0,0x0,0x0,0xc,0x0,0x0,0x0,0x4,0x0,0x0,0x0,0xb8,0xf2,0xff,0xff,0x1,0x0,0x0,0x0,0x16,0x0,0x0,0x0,0x2,0x0,0x0,0x0,0x15,0x0,0x0,0x0,0xb,0x0,0x0,0x0,0xd2,0xfe,0xff,0xff,0x0,0x0,0x0,0xb,0x4,0x0,0x0,0x0,0x18,0x0,0x0,0x0,0xc,0x0,0x0,0x0,0x4,0x0,0x0,0x0,0xe8,0xf2,0xff,0xff,0x1,0x0,0x0,0x0,0x15,0x0,0x0,0x0,0x2,0x0,0x0,0x0,0x13,0x0,0x0,0x0,0x14,0x0,0x0,0x0,0x2,0xff,0xff,0xff,0x0,0x0,0x0,0x15,0x2,0x0,0x0,0x0,0x18,0x0,0x0,0x0,0xc,0x0,0x0,0x0,0x4,0x0,0x0,0x0,0x18,0xf3,0xff,0xff,0x1,0x0,0x0,0x0,0x14,0x0,0x0,0x0,0x2,0x0,0x0,0x0,0x12,0x0,0x0,0x0,0xe,0x0,0x0,0x0,0x32,0xff,0xff,0xff,0x0,0x0,0x0,0x15,0x2,0x0,0x0,0x0,0x18,0x0,0x0,0x0,0xc,0x0,0x0,0x0,0x4,0x0,0x0,0x0,0x48,0xf3,0xff,0xff,0x1,0x0,0x0,0x0,0x13,0x0,0x0,0x0,0x2,0x0,0x0,0x0,0x1b,0x0,0x0,0x0,0x1,0x0,0x0,0x0,0xfe,0xfe,0xff,0xff,0x7,0x0,0x0,0x0,0x10,0x0,0x0,0x0,0x4,0x0,0x0,0x0,0x1,0x0,0x0,0x0,0x1b,0x0,0x0,0x0,0x1,0x0,0x0,0x0,0x11,0x0,0x0,0x0,0x82,0xff,0xff,0xff,0x0,0x0,0x0,0x15,0x2,0x0,0x0,0x0,0x18,0x0,0x0,0x0,0xc,0x0,0x0,0x0,0x4,0x0,0x0,0x0,0x98,0xf3,0xff,0xff,0x1,0x0,0x0,0x0,0x12,0x0,0x0,0x0,0x2,0x0,0x0,0x0,0xf,0x0,0x0,0x0,0xa,0x0,0x0,0x0,0xb2,0xff,0xff,0xff,0x0,0x0,0x0,0x21,0x3,0x0,0x0,0x0,0x18,0x0,0x0,0x0,0xc,0x0,0x0,0x0,0x4,0x0,0x0,0x0,0xc8,0xf3,0xff,0xff,0x1,0x0,0x0,0x0,0x11,0x0,0x0,0x0,0x1,0x0,0x0,0x0,0x1a,0x0,0x0,0x0,0x7a,0xff,0xff,0xff,0x6,0x0,0x0,0x0,0x10,0x0,0x0,0x0,0x4,0x0,0x0,0x0,0x1,0x0,0x0,0x0,0x1a,0x0,0x0,0x0,0x1,0x0,0x0,0x0,0x10,0x0,0x0,0x0,0x0,0x0,0xe,0x0,0x18,0x0,0x8,0x0,0xc,0x0,0x10,0x0,0x7,0x0,0x14,0x0,0xe,0x0,0x0,0x0,0x0,0x0,0x0,0x15,0x2,0x0,0x0,0x0,0x18,0x0,0x0,0x0,0xc,0x0,0x0,0x0,0x4,0x0,0x0,0x0,0x24,0xf4,0xff,0xff,0x1,0x0,0x0,0x0,0x10,0x0,0x0,0x0,0x2,0x0,0x0,0x0,0xf,0x0,0x0,0x0,0x7,0x0,0x0,0x0,0xda,0xff,0xff,0xff,0x1,0x0,0x0,0x0,0x10,0x0,0x0,0x0,0x4,0x0,0x0,0x0,0x1,0x0,0x0,0x0,0xf,0x0,0x0,0x0,0x2,0x0,0x0,0x0,0xd,0x0,0x0,0x0,0x5,0x0,0x0,0x0,0x0,0x0,0xa,0x0,0x10,0x0,0x4,0x0,0x8,0x0,0xc,0x0,0xa,0x0,0x0,0x0,0x1,0x0,0x0,0x0,0x10,0x0,0x0,0x0,0x4,0x0,0x0,0x0,0x1,0x0,0x0,0x0,0xe,0x0,0x0,0x0,0x2,0x0,0x0,0x0,0x0,0x0,0x0,0x0,0x5,0x0,0x0,0x0,0x46,0xff,0xff,0xff,0x0,0x0,0x0,0x8,0x28,0x0,0x0,0x0,0x1c,0x0,0x0,0x0,0x10,0x0,0x0,0x0,0x0,0x0,0xa,0x0,0x8,0x0,0x6,0x0,0x0,0x0,0x7,0x0,0xa,0x0,0x0,0x0,0x0,0x0,0x1,0x1,0x1,0x0,0x0,0x0,0xd,0x0,0x0,0x0,0x3,0x0,0x0,0x0,0xc,0x0,0x0,0x0,0x2,0x0,0x0,0x0,0xff,0xff,0xff,0xff,0xca,0xff,0xff,0xff,0x0,0x0,0x0,0x8,0x1c,0x0,0x0,0x0,0x10,0x0,0x0,0x0,0x4,0x0,0x0,0x0,0x76,0xff,0xff,0xff,0x0,0x0,0x0,0x1,0x1,0x0,0x0,0x0,0xc,0x0,0x0,0x0,0x3,0x0,0x0,0x0,0x0,0x0,0x0,0x0,0x3,0x0,0x0,0x0,0xff,0xff,0xff,0xff,0x0,0x0,0xe,0x0,0x14,0x0,0x0,0x0,0x8,0x0,0xc,0x0,0x7,0x0,0x10,0x0,0xe,0x0,0x0,0x0,0x0,0x0,0x0,0x8,0x1c,0x0,0x0,0x0,0x10,0x0,0x0,0x0,0x4,0x0,0x0,0x0,0xba,0xff,0xff,0xff,0x0,0x0,0x0,0x1,0x1,0x0,0x0,0x0,0xb,0x0,0x0,0x0,0x3,0x0,0x0,0x0,0x0,0x0,0x0,0x0,0x4,0x0,0x0,0x0,0xff,0xff,0xff,0xff,0x0,0x0,0xe,0x0,0x16,0x0,0x0,0x0,0x8,0x0,0xc,0x0,0x7,0x0,0x10,0x0,0xe,0x0,0x0,0x0,0x0,0x0,0x0,0x8,0x28,0x0,0x0,0x0,0x1c,0x0,0x0,0x0,0x10,0x0,0x0,0x0,0x0,0x0,0xa,0x0,0x8,0x0,0x0,0x0,0x0,0x0,0x7,0x0,0xa,0x0,0x0,0x0,0x0,0x0,0x0,0x1,0x1,0x0,0x0,0x0,0xa,0x0,0x0,0x0,0x3,0x0,0x0,0x0,0x0,0x0,0x0,0x0,0x9,0x0,0x0,0x0,0xff,0xff,0xff,0xff,0x2,0x0,0x0,0x0,0x19,0x0,0x0,0x0,0x15,0x0,0x0,0x0,0x2,0x0,0x0,0x0,0x0,0x0,0x0,0x0,0x1,0x0,0x0,0x0,0x1c,0x0,0x0,0x0,0xb4,0x9,0x0,0x0,0x54,0x9,0x0,0x0,0x14,0x7,0x0,0x0,0x98,0x6,0x0,0x0,0x14,0x6,0x0,0x0,0xf0,0x5,0x0,0x0,0xcc,0x5,0x0,0x0,0x80,0x5,0x0,0x0,0x3c,0x5,0x0,0x0,0xb8,0x4,0x0,0x0,0x78,0x4,0x0,0x0,0x34,0x4,0x0,0x0,0xf0,0x3,0x0,0x0,0xac,0x3,0x0,0x0,0x68,0x3,0x0,0x0,0x24,0x3,0x0,0x0,0xe0,0x2,0x0,0x0,0xb8,0x2,0x0,0x0,0x58,0x2,0x0,0x0,0x14,0x2,0x0,0x0,0xd0,0x1,0x0,0x0,0x8c,0x1,0x0,0x0,0x48,0x1,0x0,0x0,0x4,0x1,0x0,0x0,0xc0,0x0,0x0,0x0,0x7c,0x0,0x0,0x0,0x60,0x0,0x0,0x0,0x14,0x0,0x0,0x0,0x0,0x0,0xe,0x0,0x10,0x0,0x8,0x0,0x7,0x0,0x0,0x0,0x0,0x0,0xc,0x0,0xe,0x0,0x0,0x0,0x0,0x0,0x0,0x9,0x28,0x0,0x0,0x0,0x4,0x0,0x0,0x0,0xcc,0xf6,0xff,0xff,0x14,0x0,0x0,0x0,0x4,0x0,0x0,0x0,0x1,0x0,0x0,0x0,0x80,0xff,0xff,0xff,0xff,0xff,0xff,0xff,0x1,0x0,0x0,0x0,0x1f,0x84,0x80,0x3b,0x3,0x0,0x0,0x0,0x1,0x0,0x0,0x0,0x80,0x0,0x0,0x0,0x10,0x0,0x0,0x0,0x0,0x0,0x6,0x0,0x8,0x0,0x4,0x0,0x6,0x0,0x0,0x0,0x4,0x0,0x0,0x0,0x3,0x0,0x0,0x0,0x1,0x0,0x0,0x0,0x80,0x0,0x0,0x0,0x10,0x0,0x0,0x0,0x42,0xf7,0xff,0xff,0x0,0x0,0x9,0x1,0x2c,0x0,0x0,0x0,0x4,0x0,0x0,0x0,0x2c,0xf7,0xff,0xff,0x18,0x0,0x0,0x0,0x4,0x0,0x0,0x0,0x1,0x0,0x0,0x0,0x80,0xff,0xff,0xff,0xff,0xff,0xff,0xff,0x0,0x0,0x0,0x0,0x1,0x0,0x0,0x0,0x4d,0xf4,0x99,0x3d,0x2,0x0,0x0,0x0,0x1,0x0,0x0,0x0,0x80,0x0,0x0,0x0,0x82,0xf7,0xff,0xff,0x0,0x0,0x9,0x1,0x2c,0x0,0x0,0x0,0x4,0x0,0x0,0x0,0x6c,0xf7,0xff,0xff,0x18,0x0,0x0,0x0,0x4,0x0,0x0,0x0,0x1,0x0,0x0,0x0,0x80,0xff,0xff,0xff,0xff,0xff,0xff,0xff,0x0,0x0,0x0,0x0,0x1,0x0,0x0,0x0,0xc7,0x9f,0xa8,0x3b,0x2,0x0,0x0,0x0,0x1,0x0,0x0,0x0,0x80,0x0,0x0,0x0,0xc2,0xf7,0xff,0xff,0x0,0x0,0x9,0x1,0x2c,0x0,0x0,0x0,0x4,0x0,0x0,0x0,0xac,0xf7,0xff,0xff,0x18,0x0,0x0,0x0,0x4,0x0,0x0,0x0,0x1,0x0,0x0,0x0,0x80,0xff,0xff,0xff,0xff,0xff,0xff,0xff,0x0,0x0,0x0,0x0,0x1,0x0,0x0,0x0,0xcb,0x47,0x92,0x3d,0x2,0x0,0x0,0x0,0x1,0x0,0x0,0x0,0x80,0x0,0x0,0x0,0x2,0xf8,0xff,0xff,0x0,0x0,0x9,0x1,0x28,0x0,0x0,0x0,0x4,0x0,0x0,0x0,0xec,0xf7,0xff,0xff,0x14,0x0,0x0,0x0,0x4,0x0,0x0,0x0,0x1,0x0,0x0,0x0,0x81,0xff,0xff,0xff,0xff,0xff,0xff,0xff,0x1,0x0,0x0,0x0,0x6c,0x5b,0x14,0x3c,0x3,0x0,0x0,0x0,0x1,0x0,0x0,0x0,0x80,0x0,0x0,0x0,0x10,0x0,0x0,0x0,0x42,0xf8,0xff,0xff,0x0,0x0,0x9,0x1,0x28,0x0,0x0,0x0,0x4,0x0,0x0,0x0,0x2c,0xf8,0xff,0xff,0x14,0x0,0x0,0x0,0x4,0x0,0x0,0x0,0x1,0x0,0x0,0x0,0xf3,0xff,0xff,0xff,0xff,0xff,0xff,0xff,0x1,0x0,0x0,0x0,0x5e,0x9c,0xf8,0x3b,0x3,0x0,0x0,0x0,0x1,0x0,0x0,0x0,0x80,0x0,0x0,0x0,0x10,0x0,0x0,0x0,0x82,0xf8,0xff,0xff,0x0,0x0,0x9,0x1,0x28,0x0,0x0,0x0,0x4,0x0,0x0,0x0,0x6c,0xf8,0xff,0xff,0x14,0x0,0x0,0x0,0x4,0x0,0x0,0x0,0x1,0x0,0x0,0x0,0xf3,0xff,0xff,0xff,0xff,0xff,0xff,0xff,0x1,0x0,0x0,0x0,0x5e,0x9c,0xf8,0x3b,0x3,0x0,0x0,0x0,0x1,0x0,0x0,0x0,0x80,0x0,0x0,0x0,0x10,0x0,0x0,0x0,0xc2,0xf8,0xff,0xff,0x0,0x0,0x9,0x1,0x28,0x0,0x0,0x0,0x4,0x0,0x0,0x0,0xac,0xf8,0xff,0xff,0x14,0x0,0x0,0x0,0x4,0x0,0x0,0x0,0x1,0x0,0x0,0x0,0x80,0xff,0xff,0xff,0xff,0xff,0xff,0xff,0x1,0x0,0x0,0x0,0x0,0x0,0x0,0x0,0x3,0x0,0x0,0x0,0x1,0x0,0x0,0x0,0x80,0x0,0x0,0x0,0x10,0x0,0x0,0x0,0x2,0xf9,0xff,0xff,0x0,0x0,0x9,0x1,0x2c,0x0,0x0,0x0,0x4,0x0,0x0,0x0,0xec,0xf8,0xff,0xff,0x18,0x0,0x0,0x0,0x4,0x0,0x0,0x0,0x1,0x0,0x0,0x0,0xf3,0xff,0xff,0xff,0xff,0xff,0xff,0xff,0x0,0x0,0x0,0x0,0x1,0x0,0x0,0x0,0xe5,0x97,0x41,0x3c,0x3,0x0,0x0,0x0,0x1,0x0,0x0,0x0,0x80,0x0,0x0,0x0,0x10,0x0,0x0,0x0,0x0,0x0,0x16,0x0,0x10,0x0,0x8,0x0,0x0,0x0,0x0,0x0,0x0,0x0,0xc,0x0,0x0,0x0,0x0,0x0,0x0,0x0,0x7,0x0,0x16,0x0,0x0,0x0,0x0,0x0,0x0,0x1,0xc,0x0,0x0,0x0,0x4,0x0,0x0,0x0,0xc0,0xf8,0xff,0xff,0x3,0x0,0x0,0x0,0x1,0x0,0x0,0x0,0x80,0x0,0x0,0x0,0x10,0x0,0x0,0x0,0x82,0xf9,0xff,0xff,0x0,0x0,0x9,0x1,0x28,0x0,0x0,0x0,0x4,0x0,0x0,0x0,0x6c,0xf9,0xff,0xff,0x14,0x0,0x0,0x0,0x4,0x0,0x0,0x0,0x1,0x0,0x0,0x0,0x7f,0x0,0x0,0x0,0x0,0x0,0x0,0x0,0x1,0x0,0x0,0x0,0x78,0x9,0x4e,0x3d,0x3,0x0,0x0,0x0,0x1,0x0,0x0,0x0,0x80,0x0,0x0,0x0,0x10,0x0,0x0,0x0,0xc2,0xf9,0xff,0xff,0x0,0x0,0x9,0x1,0x28,0x0,0x0,0x0,0x4,0x0,0x0,0x0,0xac,0xf9,0xff,0xff,0x14,0x0,0x0,0x0,0x4,0x0,0x0,0x0,0x1,0x0,0x0,0x0,0x80,0xff,0xff,0xff,0xff,0xff,0xff,0xff,0x1,0x0,0x0,0x0,0x76,0xc5,0x8c,0x3b,0x3,0x0,0x0,0x0,0x1,0x0,0x0,0x0,0x80,0x0,0x0,0x0,0x1,0x0,0x0,0x0,0x2,0xfa,0xff,0xff,0x0,0x0,0x9,0x1,0x28,0x0,0x0,0x0,0x4,0x0,0x0,0x0,0xec,0xf9,0xff,0xff,0x14,0x0,0x0,0x0,0x4,0x0,0x0,0x0,0x1,0x0,0x0,0x0,0x80,0xff,0xff,0xff,0xff,0xff,0xff,0xff,0x1,0x0,0x0,0x0,0x46,0x8,0x8f,0x3b,0x3,0x0,0x0,0x0,0x1,0x0,0x0,0x0,0x80,0x0,0x0,0x0,0x1,0x0,0x0,0x0,0x42,0xfa,0xff,0xff,0x0,0x0,0x9,0x1,0x2c,0x0,0x0,0x0,0x4,0x0,0x0,0x0,0x2c,0xfa,0xff,0xff,0x18,0x0,0x0,0x0,0x4,0x0,0x0,0x0,0x1,0x0,0x0,0x0,0x80,0xff,0xff,0xff,0xff,0xff,0xff,0xff,0x0,0x0,0x0,0x0,0x1,0x0,0x0,0x0,0x76,0xc5,0x8c,0x3b,0x2,0x0,0x0,0x0,0x1,0x0,0x0,0x0,0x80,0x0,0x0,0x0,0x82,0xfa,0xff,0xff,0x0,0x0,0x9,0x1,0x2c,0x0,0x0,0x0,0x4,0x0,0x0,0x0,0x6c,0xfa,0xff,0xff,0x18,0x0,0x0,0x0,0x4,0x0,0x0,0x0,0x1,0x0,0x0,0x0,0x14,0x0,0x0,0x0,0x0,0x0,0x0,0x0,0x0,0x0,0x0,0x0,0x1,0x0,0x0,0x0,0xd4,0x49,0xb6,0x3b,0x2,0x0,0x0,0x0,0x1,0x0,0x0,0x0,0x8,0x0,0x0,0x0,0xc2,0xfa,0xff,0xff,0x0,0x0,0x9,0x1,0x2c,0x0,0x0,0x0,0x4,0x0,0x0,0x0,0xac,0xfa,0xff,0xff,0x18,0x0,0x0,0x0,0x4,0x0,0x0,0x0,0x1,0x0,0x0,0x0,0xf8,0xff,0xff,0xff,0xff,0xff,0xff,0xff,0x0,0x0,0x0,0x0,0x1,0x0,0x0,0x0,0x56,0x82,0x45,0x3c,0x2,0x0,0x0,0x0,0x1,0x0,0x0,0x0,0x10,0x0,0x0,0x0,0x2,0xfb,0xff,0xff,0x0,0x0,0x9,0x1,0x28,0x0,0x0,0x0,0x4,0x0,0x0,0x0,0xec,0xfa,0xff,0xff,0x14,0x0,0x0,0x0,0x4,0x0,0x0,0x0,0x1,0x0,0x0,0x0,0xf2,0xff,0xff,0xff,0xff,0xff,0xff,0xff,0x1,0x0,0x0,0x0,0xbe,0xdd,0x12,0x3c,0x2,0x0,0x0,0x0,0x1,0x0,0x0,0x0,0x10,0x0,0x0,0x0,0xd6,0xfd,0xff,0xff,0x0,0x0,0x9,0x1,0x6c,0x0,0x0,0x0,0x8,0x0,0x0,0x0,0x4,0x0,0x0,0x0,0x2c,0xfb,0xff,0xff,0x18,0x0,0x0,0x0,0x4,0x0,0x0,0x0,0x1,0x0,0x0,0x0,0x0,0x0,0x0,0x0,0x0,0x0,0x0,0x0,0x0,0x0,0x0,0x0,0x10,0x0,0x0,0x0,0x9c,0xdc,0xef,0x3a,0xcc,0x26,0xc0,0x3a,0xe,0xbb,0xef,0x3a,0x11,0x8d,0xee,0x3a,0x75,0xc8,0xcd,0x3a,0x8d,0x27,0x2,0x3b,0xcd,0xc9,0xb,0x3b,0x3b,0xc7,0x0,0x3b,0x46,0x7e,0xfd,0x3a,0x55,0x6a,0xf6,0x3a,0x4,0x70,0xb3,0x3a,0xfb,0xb0,0xde,0x3a,0xde,0xe7,0xf8,0x3a,0x9,0x54,0xff,0x3a,0xe0,0x2d,0x10,0x3b,0x4c,0xa8,0xe0,0x3a,0x2,0x0,0x0,0x0,0x10,0x0,0x0,0x0,0x80,0x0,0x0,0x0,0x56,0xfe,0xff,0xff,0x0,0x0,0x9,0x1,0x2c,0x0,0x0,0x0,0x7,0x0,0x0,0x0,0x4,0x0,0x0,0x0,0xac,0xfb,0xff,0xff,0x14,0x0,0x0,0x0,0x4,0x0,0x0,0x0,0x1,0x0,0x0,0x0,0x80,0xff,0xff,0xff,0xff,0xff,0xff,0xff,0x1,0x0,0x0,0x0,0x75,0x75,0xc7,0x3b,0x2,0x0,0x0,0x0,0x1,0x0,0x0,0x0,0x80,0x0,0x0,0x0,0x96,0xfe,0xff,0xff,0x0,0x0,0x9,0x1,0x30,0x0,0x0,0x0,0x6,0x0,0x0,0x0,0x4,0x0,0x0,0x0,0xec,0xfb,0xff,0xff,0x18,0x0,0x0,0x0,0x4,0x0,0x0,0x0,0x1,0x0,0x0,0x0,0x7f,0x0,0x0,0x0,0x0,0x0,0x0,0x0,0x0,0x0,0x0,0x0,0x1,0x0,0x0,0x0,0x7b,0x49,0x23,0x3e,0x3,0x0,0x0,0x0,0x1,0x0,0x0,0x0,0x80,0x0,0x0,0x0,0x10,0x0,0x0,0x0,0xde,0xfe,0xff,0xff,0x0,0x0,0x2,0x1,0x10,0x0,0x0,0x0,0x5,0x0,0x0,0x0,0x4,0x0,0x0,0x0,0xac,0xfb,0xff,0xff,0x1,0x0,0x0,0x0,0x1,0x0,0x0,0x0,0xfe,0xfe,0xff,0xff,0x0,0x0,0x2,0x1,0x10,0x0,0x0,0x0,0x4,0x0,0x0,0x0,0x4,0x0,0x0,0x0,0xcc,0xfb,0xff,0xff,0x1,0x0,0x0,0x0,0x3,0x0,0x0,0x0,0x1e,0xff,0xff,0xff,0x0,0x0,0x9,0x1,0x6c,0x0,0x0,0x0,0x3,0x0,0x0,0x0,0x4,0x0,0x0,0x0,0x74,0xfc,0xff,0xff,0x18,0x0,0x0,0x0,0x4,0x0,0x0,0x0,0x1,0x0,0x0,0x0,0x0,0x0,0x0,0x0,0x0,0x0,0x0,0x0,0x0,0x0,0x0,0x0,0x10,0x0,0x0,0x0,0x83,0xc2,0x20,0x3b,0xc6,0xfc,0xdc,0x3a,0x39,0x9b,0xe,0x3b,0xa8,0xa7,0xf,0x3b,0x29,0xb2,0xd6,0x3a,0xee,0xed,0x16,0x3b,0x65,0x53,0x2e,0x3b,0x7,0x42,0x32,0x3b,0x46,0x41,0xf0,0x3a,0xbd,0x0,0xfb,0x3a,0x1f,0x6a,0xdb,0x3a,0x8a,0x1e,0xf8,0x3a,0x86,0x57,0x12,0x3b,0x5f,0xb2,0xf1,0x3a,0x69,0xab,0x12,0x3b,0x8d,0x27,0x2,0x3b,0x2,0x0,0x0,0x0,0x10,0x0,0x0,0x0,0x80,0x0,0x0,0x0,0x9e,0xff,0xff,0xff,0x0,0x0,0x9,0x1,0x4c,0x0,0x0,0x0,0x2,0x0,0x0,0x0,0x4,0x0,0x0,0x0,0xf4,0xfc,0xff,0xff,0x18,0x0,0x0,0x0,0x4,0x0,0x0,0x0,0x1,0x0,0x0,0x0,0x0,0x0,0x0,0x0,0x0,0x0,0x0,0x0,0x0,0x0,0x0,0x0,0x8,0x0,0x0,0x0,0xc3,0x44,0x3,0x3b,0xf,0x98,0x7,0x3b,0x1b,0x2c,0x1c,0x3b,0x7d,0x5b,0x30,0x3b,0x5f,0xef,0xfe,0x3a,0xd3,0x16,0xd7,0x3a,0x88,0x49,0xb8,0x3a,0x8e,0xcd,0xe,0x3b,0x2,0x0,0x0,0x0,0x8,0x0,0x0,0x0,0x80,0x0,0x0,0x0,0x0,0x0,0x16,0x0,0x14,0x0,0x8,0x0,0x6,0x0,0xc,0x0,0x0,0x0,0x10,0x0,0x0,0x0,0x0,0x0,0x0,0x0,0x7,0x0,0x16,0x0,0x0,0x0,0x0,0x0,0x9,0x1,0x28,0x2,0x0,0x0,0x1,0x0,0x0,0x0,0x4,0x0,0x0,0x0,0x6c,0xfd,0xff,0xff,0x14,0x0,0x0,0x0,0x4,0x0,0x0,0x0,0x1,0x0,0x0,0x0,0x0,0x0,0x0,0x0,0x0,0x0,0x0,0x0,0x80,0x0,0x0,0x0,0xda,0xc6,0x1f,0x3b,0x14,0x3f,0x46,0x3b,0x81,0xb3,0x14,0x3b,0x1e,0xa4,0x27,0x3b,0x28,0x29,0x30,0x3b,0x85,0x77,0x39,0x3b,0x7e,0x51,0x82,0x3b,0x4b,0x1f,0x3a,0x3b,0xc,0xac,0x63,0x3b,0xbb,0xb4,0x61,0x3b,0x43,0x3,0x31,0x3b,0xa9,0x13,0x50,0x3b,0x3a,0x7,0x4f,0x3b,0xf7,0x92,0x46,0x3b,0x7c,0xf2,0x30,0x3b,0x1f,0x4d,0x75,0x3b,0xd9,0x40,0x3a,0x3b,0x23,0x65,0xb,0x3b,0x9c,0xa3,0x8e,0x3b,0x3,0x7,0x34,0x3b,0xdc,0x9f,0x8b,0x3b,0xc9,0x91,0x4e,0x3b,0xab,0x26,0x88,0x3b,0x8e,0x59,0x76,0x3b,0x2f,0xa2,0x6d,0x3b,0x7d,0x78,0x16,0x3b,0x15,0xa8,0x45,0x3b,0x52,0xb5,0x5d,0x3b,0x2f,0x36,0x2d,0x3b,0x1e,0x87,0x41,0x3b,0x8c,0x84,0x36,0x3b,0xe3,0xc5,0x42,0x3b,0xf4,0xc0,0x47,0x3b,0xb9,0xdf,0x21,0x3b,0x8d,0xd,0x5d,0x3b,0xf8,0x38,0x53,0x3b,0xe,0xbb,0x6f,0x3b,0x9e,0x5f,0x14,0x3b,0xf8,0x38,0x53,0x3b,0x86,0x0,0x60,0x3b,0x6e,0x32,0x2a,0x3b,0x6c,0x43,0x45,0x3b,0x82,0x1c,0x14,0x3b,0x5f,0xef,0x7e,0x3b,0x6,0xd9,0x32,0x3b,0xe5,0xf1,0x34,0x3b,0x94,0x83,0x59,0x3b,0xcd,0xaf,0x66,0x3b,0xe5,0xd4,0x4e,0x3b,0x55,0x67,0x35,0x3b,0x6d,0x6f,0x37,0x3b,0x19,0x20,0x51,0x3b,0x23,0x68,0x4c,0x3b,0xcd,0x72,0x59,0x3b,0xc0,0xec,0x9e,0x3b,0x33,0x17,0x38,0x3b,0x4c,0xe2,0x2c,0x3b,0xd9,0x23,0x54,0x3b,0xef,0x56,0x16,0x3b,0xf0,0xbf,0x95,0x3b,0x20,0xd0,0x19,0x3b,0x21,0x76,0x26,0x3b,0xa,0xba,0x3d,0x3b,0x1c,0xef,0xe,0x3b,0x82,0xa8,0xfb,0x3a,0x6,0xbc,0x4c,0x3b,0x10,0x21,0x2e,0x3b,0xc1,0x1b,0x52,0x3b,0x24,0xb4,0x65,0x3b,0x15,0x2,0x39,0x3b,0xf9,0x64,0x45,0x3b,0x20,0xb3,0x33,0x3b,0x3f,0xab,0x4c,0x3b,0xaa,0xd6,0x42,0x3b,0x3d,0x9c,0x40,0x3b,0xaf,0x5a,0x19,0x3b,0x5b,0xce,0x25,0x3b,0x86,0x3a,0x2c,0x3b,0xe9,0xd2,0x3f,0x3b,0xd1,0x4,0xa,0x3b,0x5d,0xa3,0x65,0x3b,0xc6,0xbf,0x4f,0x3b,0x4a,0x96,0x13,0x3b,0xb2,0xf,0x32,0x3b,0xa8,0xa7,0xf,0x3b,0x2e,0x90,0x20,0x3b,0x71,0xe7,0x42,0x3b,0xdf,0xa7,0x2a,0x3b,0x7e,0x8e,0x8f,0x3b,0xde,0x3e,0x2b,0x3b,0x89,0xb2,0x37,0x3b,0xca,0x17,0x34,0x3b,0x19,0x1d,0x10,0x3b,0xfa,0xed,0xeb,0x3a,0x9e,0xeb,0x7b,0x3b,0xba,0x85,0x2e,0x3b,0x61,0x55,0x3d,0x3b,0x0,0x52,0x1b,0x3b,0xb1,0xc3,0x18,0x3b,0xef,0xff,0x63,0x3b,0xe9,0xd2,0x3f,0x3b,0xed,0x2a,0x24,0x3b,0xd0,0x7e,0x24,0x3b,0x83,0x88,0x54,0x3b,0x61,0xde,0x63,0x3b,0x55,0x67,0x35,0x3b,0xb7,0xd,0xa3,0x3b,0x90,0xa2,0x4e,0x3b,0xa3,0x40,0x1f,0x3b,0x23,0xa2,0x18,0x3b,0x2c,0x47,0x48,0x3b,0x3,0x7,0x34,0x3b,0xb9,0xc2,0x3b,0x3b,0x55,0x67,0x35,0x3b,0xc8,0xce,0x5b,0x3b,0xef,0xff,0x63,0x3b,0xc2,0xbe,0x1d,0x3b,0x7f,0x6a,0x3c,0x3b,0x59,0xfc,0x26,0x3b,0x88,0x49,0x38,0x3b,0xec,0xa4,0x3e,0x3b,0x4c,0xa5,0x1f,0x3b,0xb1,0xa6,0x32,0x3b,0x55,0xc1,0x28,0x3b,0xf,0x9b,0x48,0x3b,0x3c,0x33,0x41,0x3b,0xc8,0x45,0x35,0x3b,0x3e,0x3f,0x8c,0x3b,0x2,0x0,0x0,0x0,0x80,0x0,0x0,0x0,0x8,0x0,0x0,0x0,0xba,0xff,0xff,0xff,0x0,0x0,0x9,0x1,0x2c,0x0,0x0,0x0,0x4,0x0,0x0,0x0,0xa4,0xff,0xff,0xff,0x18,0x0,0x0,0x0,0x4,0x0,0x0,0x0,0x1,0x0,0x0,0x0,0x80,0xff,0xff,0xff,0xff,0xff,0xff,0xff,0x0,0x0,0x0,0x0,0x1,0x0,0x0,0x0,0x0,0x0,0x0,0x0,0x3,0x0,0x0,0x0,0x1,0x0,0x0,0x0,0x80,0x0,0x0,0x0,0x10,0x0,0x0,0x0,0x0,0x0,0x16,0x0,0x10,0x0,0x8,0x0,0x6,0x0,0x0,0x0,0x0,0x0,0xc,0x0,0x0,0x0,0x0,0x0,0x0,0x0,0x7,0x0,0x16,0x0,0x0,0x0,0x0,0x0,0x9,0x1,0x38,0x0,0x0,0x0,0x10,0x0,0x0,0x0,0xc,0x0,0xc,0x0,0x0,0x0,0x0,0x0,0x4,0x0,0x8,0x0,0xc,0x0,0x0,0x0,0x18,0x0,0x0,0x0,0x4,0x0,0x0,0x0,0x1,0x0,0x0,0x0,0x80,0xff,0xff,0xff,0xff,0xff,0xff,0xff,0x0,0x0,0x0,0x0,0x1,0x0,0x0,0x0,0x46,0x8,0x8f,0x3b,0x2,0x0,0x0,0x0,0x1,0x0,0x0,0x0,0x80,0x0,0x0,0x0,0x8,0x0,0x0,0x0,0x8c,0x0,0x0,0x0,0x70,0x0,0x0,0x0,0x54,0x0,0x0,0x0,0x44,0x0,0x0,0x0,0x3c,0x0,0x0,0x0,0x28,0x0,0x0,0x0,0x1c,0x0,0x0,0x0,0x4,0x0,0x0,0x0,0xf8,0xff,0xff,0xff,0x72,0x0,0x0,0x0,0xc,0x0,0x8,0x0,0x0,0x0,0x0,0x0,0x0,0x0,0x4,0x0,0xc,0x0,0x0,0x0,0x6,0x0,0x0,0x0,0xd4,0xff,0xff,0xff,0x0,0x0,0x0,0x4a,0x4a,0x0,0x0,0x0,0x4,0x0,0x4,0x0,0x4,0x0,0x0,0x0,0xe8,0xff,0xff,0xff,0x0,0x0,0x0,0x2f,0x2f,0x0,0x0,0x0,0xf4,0xff,0xff,0xff,0x0,0x0,0x0,0x12,0x12,0x0,0x0,0x0,0xc,0x0,0xc,0x0,0x7,0x0,0x0,0x0,0x0,0x0,0x8,0x0,0xc,0x0,0x0,0x0,0x0,0x0,0x0,0x16,0x16,0x0,0x0,0x0,0xc,0x0,0x10,0x0,0x7,0x0,0x0,0x0,0x8,0x0,0xc,0x0,0xc,0x0,0x0,0x0,0x0,0x0,0x0,0x9,0x5,0x0,0x0,0x0,0x9,0x0,0x0,0x0};
