#include <cstdint>

#include "model_int8_model_data.h"

alignas(16) const unsigned char g_model_int8_model_data[] = {0x20,0x0,0x0,0x0,0x54,0x46,0x4c,0x33,0x0,0x0,0x0,0x0,0x14,0x0,0x20,0x0,0x1c,0x0,0x18,0x0,0x14,0x0,0x10,0x0,0xc,0x0,0x0,0x0,0x8,0x0,0x4,0x0,0x14,0x0,0x0,0x0,0x1c,0x0,0x0,0x0,0x84,0x0,0x0,0x0,0xe0,0x0,0x0,0x0,0xd4,0x22,0x0,0x0,0xe4,0x22,0x0,0x0,0x68,0x35,0x0,0x0,0x3,0x0,0x0,0x0,0x1,0x0,0x0,0x0,0x4,0x0,0x0,0x0,0x6a,0xdb,0xff,0xff,0xc,0x0,0x0,0x0,0x1c,0x0,0x0,0x0,0x3c,0x0,0x0,0x0,0xf,0x0,0x0,0x0,0x73,0x65,0x72,0x76,0x69,0x6e,0x67,0x5f,0x64,0x65,0x66,0x61,0x75,0x6c,0x74,0x0,0x1,0x0,0x0,0x0,0x4,0x0,0x0,0x0,0x94,0xff,0xff,0xff,0x16,0x0,0x0,0x0,0x4,0x0,0x0,0x0,0x8,0x0,0x0,0x0,0x6f,0x75,0x74,0x70,0x75,0x74,0x5f,0x30,0x0,0x0,0x0,0x0,0x1,0x0,0x0,0x0,0x4,0x0,0x0,0x0,0x2a,0xdf,0xff,0xff,0x4,0x0,0x0,0x0,0x6,0x0,0x0,0x0,0x61,0x72,0x67,0x73,0x5f,0x30,0x0,0x0,0x2,0x0,0x0,0x0,0x38,0x0,0x0,0x0,0x4,0x0,0x0,0x0,0xd8,0xff,0xff,0xff,0xd,0x0,0x0,0x0,0x4,0x0,0x0,0x0,0x17,0x0,0x0,0x0,0x6b,0x65,0x65,0x70,0x5f,0x73,0x74,0x61,0x62,0x6c,0x65,0x68,0x6c,0x6f,0x5f,0x63,0x6f,0x6e,0x73,0x74,0x61,0x6e,0x74,0x0,0x8,0x0,0xc,0x0,0x8,0x0,0x4,0x0,0x8,0x0,0x0,0x0,0xc,0x0,0x0,0x0,0x4,0x0,0x0,0x0,0x13,0x0,0x0,0x0,0x6d,0x69,0x6e,0x5f,0x72,0x75,0x6e,0x74,0x69,0x6d,0x65,0x5f,0x76,0x65,0x72,0x73,0x69,0x6f,0x6e,0x0,0xe,0x0,0x0,0x0,0xf0,0x21,0x0,0x0,0x60,0x20,0x0,0x0,0x48,0x10,0x0,0x0,0xf8,0x1,0x0,0x0,0xe4,0x1,0x0,0x0,0xcc,0x1,0x0,0x0,0xbc,0x0,0x0,0x0,0xa8,0x0,0x0,0x0,0x88,0x0,0x0,0x0,0x6c,0x0,0x0,0x0,0x50,0x0,0x0,0x0,0x38,0x0,0x0,0x0,0x18,0x0,0x0,0x0,0x4,0x0,0x0,0x0,0xda,0xdf,0xff,0xff,0x4,0x0,0x0,0x0,0x4,0x0,0x0,0x0,0x74,0x72,0x75,0x65,0xea,0xdf,0xff,0xff,0x4,0x0,0x0,0x0,0x10,0x0,0x0,0x0,0x32,0x2e,0x30,0x2e,0x30,0x0,0x0,0x0,0x0,0x0,0x0,0x0,0x0,0x0,0x0,0x0,0x6,0xe0,0xff,0xff,0x4,0x0,0x0,0x0,0x8,0x0,0x0,0x0,0x3,0x0,0x0,0x0,0x2,0x0,0x0,0x0,0x1a,0xe0,0xff,0xff,0x4,0x0,0x0,0x0,0xc,0x0,0x0,0x0,0x1,0x0,0x0,0x0,0xa,0x0,0x0,0x0,0x40,0x0,0x0,0x0,0x32,0xe0,0xff,0xff,0x4,0x0,0x0,0x0,0xc,0x0,0x0,0x0,0x0,0x0,0x0,0x0,0x2,0x0,0x0,0x0,0x1,0x0,0x0,0x0,0x4a,0xe0,0xff,0xff,0x4,0x0,0x0,0x0,0x10,0x0,0x0,0x0,0x1,0x0,0x0,0x0,0x40,0x0,0x0,0x0,0x1,0x0,0x0,0x0,0xa,0x0,0x0,0x0,0x66,0xe0,0xff,0xff,0x4,0x0,0x0,0x0,0x4,0x0,0x0,0x0,0x40,0x0,0x0,0x0,0x76,0xe0,0xff,0xff,0x4,0x0,0x0,0x0,0x0,0x1,0x0,0x0,0x0,0x0,0x0,0x0,0x1,0x0,0x0,0x0,0x2,0x0,0x0,0x0,0x3,0x0,0x0,0x0,0x4,0x0,0x0,0x0,0x5,0x0,0x0,0x0,0x6,0x0,0x0,0x0,0x7,0x0,0x0,0x0,0x8,0x0,0x0,0x0,0x9,0x0,0x0,0x0,0xa,0x0,0x0,0x0,0xb,0x0,0x0,0x0,0xc,0x0,0x0,0x0,0xd,0x0,0x0,0x0,0xe,0x0,0x0,0x0,0xf,0x0,0x0,0x0,0x10,0x0,0x0,0x0,0x11,0x0,0x0,0x0,0x12,0x0,0x0,0x0,0x13,0x0,0x0,0x0,0x14,0x0,0x0,0x0,0x15,0x0,0x0,0x0,0x16,0x0,0x0,0x0,0x17,0x0,0x0,0x0,0x18,0x0,0x0,0x0,0x19,0x0,0x0,0x0,0x1a,0x0,0x0,0x0,0x1b,0x0,0x0,0x0,0x1c,0x0,0x0,0x0,0x1d,0x0,0x0,0x0,0x1e,0x0,0x0,0x0,0x1f,0x0,0x0,0x0,0x20,0x0,0x0,0x0,0x21,0x0,0x0,0x0,0x22,0x0,0x0,0x0,0x23,0x0,0x0,0x0,0x24,0x0,0x0,0x0,0x25,0x0,0x0,0x0,0x26,0x0,0x0,0x0,0x27,0x0,0x0,0x0,0x28,0x0,0x0,0x0,0x29,0x0,0x0,0x0,0x2a,0x0,0x0,0x0,0x2b,0x0,0x0,0x0,0x2c,0x0,0x0,0x0,0x2d,0x0,0x0,0x0,0x2e,0x0,0x0,0x0,0x2f,0x0,0x0,0x0,0x30,0x0,0x0,0x0,0x31,0x0,0x0,0x0,0x32,0x0,0x0,0x0,0x33,0x0,0x0,0x0,0x34,0x0,0x0,0x0,0x35,0x0,0x0,0x0,0x36,0x0,0x0,0x0,0x37,0x0,0x0,0x0,0x38,0x0,0x0,0x0,0x39,0x0,0x0,0x0,0x3a,0x0,0x0,0x0,0x3b,0x0,0x0,0x0,0x3c,0x0,0x0,0x0,0x3d,0x0,0x0,0x0,0x3e,0x0,0x0,0x0,0x3f,0x0,0x0,0x0,0x82,0xe1,0xff,0xff,0x4,0x0,0x0,0x0,0x8,0x0,0x0,0x0,0x1,0x0,0x0,0x0,0x40,0x0,0x0,0x0,0x96,0xe1,0xff,0xff,0x4,0x0,0x0,0x0,0x4,0x0,0x0,0x0,0xcd,0xcc,0xcc,0x3d,0xa6,0xe1,0xff,0xff,0x4,0x0,0x0,0x0,0x40,0xe,0x0,0x0,0x9c,0xd4,0xf0,0x28,0xc8,0x10,0xbe,0x43,0xf9,0x81,0xf6,0xfe,0x1a,0x4d,0x1f,0x7,0xc5,0x17,0x38,0x3b,0xf9,0x4f,0xfb,0x1e,0x1c,0xdc,0xc8,0xf5,0x25,0x9a,0x21,0x17,0xa0,0xb3,0xc,0xf6,0xbb,0x31,0xec,0xff,0x68,0xd5,0xe9,0xb0,0xb9,0x8a,0xf8,0xf0,0x1b,0x48,0xf,0x1,0x3e,0xd1,0xab,0x47,0x7d,0x3,0x6,0x26,0xea,0xde,0xc9,0xed,0xe2,0xb5,0xb4,0xeb,0xff,0xd7,0xb2,0x1b,0xd7,0x30,0x1a,0x2c,0x20,0x2b,0xf2,0x8,0xc4,0x22,0x5,0x1d,0xea,0x2f,0xec,0xf,0x52,0xcf,0x27,0xf7,0x62,0x2f,0x25,0x15,0x1f,0xaf,0x54,0x4d,0xca,0x3b,0xee,0xd1,0xaa,0xff,0xd3,0x67,0x31,0xa5,0x32,0xfa,0xd,0x81,0x25,0xe0,0x1f,0x3,0x43,0x0,0x28,0xcb,0xc3,0x16,0x2,0x5e,0xe,0x22,0x3,0xfe,0xca,0x2d,0x19,0x2c,0xfa,0xf3,0xd2,0xb,0x3e,0x14,0x2e,0xa5,0xeb,0x7,0x2,0xbf,0x64,0x20,0x3,0xbc,0xf3,0xee,0xa,0xee,0xd6,0x11,0xd0,0x13,0xe3,0xfb,0x7f,0x2a,0xeb,0xec,0xd2,0xb6,0x11,0x39,0x2c,0xcf,0xc,0x4b,0xe,0xd4,0xca,0xdc,0x2f,0xfe,0x32,0x17,0xae,0x2e,0xa9,0xf1,0xf6,0x49,0xcd,0x11,0xe7,0x2a,0x15,0x8,0xd2,0xc9,0xd2,0xc7,0xba,0x1b,0x57,0xe5,0x17,0xd,0x13,0xa1,0xf7,0x36,0x10,0x40,0x15,0x40,0xdd,0xee,0xb,0xef,0xb4,0xfb,0x60,0x81,0xb1,0xe8,0xea,0x20,0x15,0xae,0xff,0x4,0x52,0xba,0x1d,0x33,0x18,0xe1,0xdc,0xf4,0x3f,0x42,0xc1,0xbc,0xcc,0x1d,0x20,0xd6,0x1d,0xd8,0x36,0x36,0x3b,0x19,0xe1,0x15,0xd1,0xe4,0xd9,0xf9,0xfa,0x16,0xfb,0x1b,0x8,0x28,0xbb,0xda,0xe2,0xf6,0xfc,0x1b,0xe1,0xc,0xb1,0x33,0x8,0x1d,0xf0,0x5f,0xab,0xc8,0xec,0x4,0x38,0x4b,0x9d,0x3c,0xfd,0xe5,0x81,0x96,0xd1,0x46,0x45,0x2d,0xcb,0xda,0xe9,0x15,0xe7,0x3d,0x36,0xec,0x16,0x0,0x28,0xdb,0x10,0xdb,0xe4,0xae,0xf5,0x1f,0xe7,0x45,0xd5,0x4f,0xaa,0xef,0xd4,0xf6,0xbd,0x50,0x16,0x2d,0xbb,0x0,0x24,0xb7,0xe,0x38,0xb4,0x10,0x17,0xd2,0xfe,0x7d,0x1c,0x36,0x3b,0xa4,0x99,0x7f,0x9e,0x27,0xd2,0x69,0x83,0x5,0x3f,0xda,0x39,0xcc,0x32,0xad,0x3,0x74,0x9e,0x23,0xc,0x39,0x95,0x79,0x3b,0xf2,0xa7,0x30,0x15,0x34,0x47,0x39,0x34,0x37,0x4,0xf0,0xb8,0x33,0xf1,0xe7,0x5c,0x18,0x26,0xd1,0x31,0xed,0xb2,0xb3,0xd,0x9e,0xc6,0x6,0x37,0x94,0x6f,0x1,0x36,0x4a,0x9b,0x81,0x1f,0x15,0xf2,0xee,0xf8,0x1a,0x7f,0x25,0x10,0x9d,0x43,0xc3,0x2b,0x4,0xa7,0xd2,0xf8,0x12,0x34,0x17,0x1c,0x26,0x1c,0xeb,0x25,0x50,0x3b,0x1d,0x98,0xfa,0x8b,0xae,0x47,0x11,0xf7,0xdd,0xf,0xbf,0xdf,0x12,0x26,0x2a,0x4c,0xc3,0xe8,0xe7,0x2b,0xe2,0xe9,0xdc,0x6c,0xeb,0x16,0xf3,0xf5,0xc0,0xc5,0xe1,0x32,0xc9,0xef,0xb5,0x3c,0xf1,0xeb,0x1e,0xd5,0x19,0x2c,0x3e,0xe4,0xc7,0x5b,0x81,0x42,0x34,0x2c,0xfa,0xe7,0x12,0x4,0x2d,0xd6,0xb1,0xdd,0xc8,0xda,0xf5,0xc2,0x45,0x49,0xe3,0x17,0x3,0x3,0x49,0x4,0x12,0x48,0xbd,0x3c,0xec,0x6,0xb,0x24,0xc6,0xf8,0xc1,0x8b,0xa3,0x13,0xf8,0x3,0x10,0xbd,0x17,0xeb,0xfa,0xc1,0x60,0x21,0xe8,0xd4,0x4e,0xb7,0xdb,0x47,0xbd,0x59,0xc,0x62,0x17,0x91,0xf7,0xaf,0x1e,0xa,0xd7,0x2a,0xc9,0xbf,0xe2,0x40,0x22,0x29,0x5,0x19,0x53,0x13,0xfc,0xdd,0xfe,0xc6,0xd,0xe9,0xef,0x3,0xf4,0xa1,0x9c,0x0,0x56,0x14,0xdc,0x43,0xb3,0xf4,0x20,0x8b,0x7f,0x5a,0xd0,0x40,0x46,0x15,0xc0,0xd4,0xd6,0x26,0x3,0x20,0x2b,0xf0,0xb3,0x2b,0x14,0xcf,0xf,0xc2,0x2a,0xa8,0xc,0xe0,0x3a,0xf7,0xa,0x1,0xf2,0x19,0x40,0x3d,0x11,0x1e,0xb9,0x1e,0xc,0x24,0xe,0x43,0xcf,0xda,0xe1,0xad,0x12,0xda,0x12,0x47,0xca,0x1a,0x24,0xd2,0xe4,0x66,0x5c,0xe5,0x2b,0x98,0xa6,0x7b,0xa4,0xcd,0xb4,0x7f,0xea,0x31,0x44,0xcc,0x1e,0xd7,0x37,0xc9,0x36,0xd5,0xcc,0xf,0x3,0x3b,0x15,0xe2,0xe3,0x23,0xd3,0x14,0x63,0xe2,0xdc,0xd,0xdc,0xc4,0x23,0x12,0x1a,0xd0,0xcd,0xe6,0xb,0x1f,0xdd,0xdf,0xcb,0x3a,0xf4,0x27,0x11,0x6,0x38,0xf7,0x21,0x68,0xfa,0x38,0xc3,0xc1,0x1d,0xbc,0x81,0x12,0xdb,0x4a,0x96,0x55,0x7f,0xb0,0xae,0xf9,0x35,0xdd,0x7,0xcf,0x4,0xe4,0xc5,0x1b,0x22,0x47,0xe2,0x3e,0x31,0x47,0xde,0xdd,0x2c,0xe3,0xc0,0x1a,0xb1,0xcd,0xf,0xfe,0xa8,0xb2,0x4a,0xa6,0x2a,0xfe,0xff,0xe,0x17,0x2b,0xf8,0xbf,0x20,0xfb,0xdf,0xe5,0x72,0xb8,0xbf,0xe2,0xb2,0x7,0x2b,0x8d,0x3d,0x26,0x40,0xac,0x4a,0x5a,0xaf,0xec,0x19,0xa,0x3e,0x31,0x11,0xde,0xe5,0xa0,0xf2,0xf9,0x33,0xf5,0x5,0xbd,0x10,0xd3,0xf7,0xf4,0x1e,0x11,0xcf,0xe2,0xf8,0x3f,0x1b,0xd9,0x1c,0x33,0xb8,0x30,0x2e,0x50,0x21,0xd4,0x55,0x7,0x19,0x44,0xdb,0xf2,0xd1,0xcf,0x81,0x88,0xd7,0xff,0x62,0xd,0x90,0xde,0x29,0xe4,0xf5,0xa,0x59,0xc0,0xd9,0xff,0x2c,0xe,0x42,0x6,0xbd,0x30,0xb3,0x3,0xe6,0x3e,0x44,0x34,0xdd,0x26,0x12,0x27,0x36,0xf5,0xb9,0xbe,0xa5,0xcb,0xfa,0x31,0xef,0xcf,0xf0,0xea,0x18,0x2e,0x2,0xe0,0x0,0x38,0xdf,0xfc,0x1,0xee,0xfc,0x23,0xec,0x81,0xc3,0xc,0x6,0xe6,0xee,0x2,0xca,0xf5,0x1f,0xe1,0xc4,0x98,0x37,0xef,0xd9,0x9,0xe1,0x2c,0x45,0x6,0x2b,0x21,0xcb,0x25,0x2e,0xc8,0xbf,0xdb,0x2b,0xe8,0xc6,0x1b,0x36,0x8,0xc4,0x1d,0x18,0xf5,0x43,0xce,0x1d,0xc5,0xf8,0x11,0x3f,0xf3,0xe0,0x7,0x3a,0x31,0x64,0xfa,0x8,0xcf,0x4,0xa6,0x37,0xeb,0xc8,0x1,0xff,0xdd,0xf4,0x81,0xbb,0x2c,0x4c,0xc0,0xb2,0xee,0x2,0x12,0xea,0x7,0xf6,0xe4,0xc9,0x4,0x93,0x8b,0x2d,0x33,0x5d,0x1b,0x36,0xb,0xbd,0x68,0x7a,0x56,0x2a,0xae,0xda,0xd7,0x5e,0xff,0x93,0xb4,0xe3,0x9e,0x25,0xf2,0x69,0x2,0xfe,0xf7,0x30,0x78,0x13,0x30,0xde,0x3f,0xbc,0x15,0xa4,0x26,0x6f,0x22,0xa5,0x22,0x9b,0x81,0xc3,0x2a,0xb7,0xe1,0xf7,0xdd,0xf8,0xd3,0xb,0x27,0xe4,0x92,0x46,0xe9,0xe0,0x12,0x3b,0x29,0x21,0xd,0xf9,0x26,0x1f,0xf2,0x4e,0x2a,0xde,0x26,0xb6,0xf0,0xc4,0xc6,0xf4,0x5,0xf8,0xf2,0x8,0x44,0xe6,0xea,0x67,0xef,0x78,0xde,0xca,0xe7,0xa,0x81,0xd3,0xf6,0xe1,0x4a,0xd6,0xc5,0x5,0xb6,0xe5,0x38,0x7b,0xfb,0xc3,0xfe,0xf0,0x48,0xd4,0xd4,0x2,0xc,0xd5,0xea,0x0,0x1e,0x1a,0x5,0xdf,0xe7,0xae,0x16,0xf3,0xc6,0xc3,0xe7,0xb,0xd8,0x46,0x3b,0x32,0xf7,0xdd,0xf5,0x15,0x11,0x2b,0x20,0xc9,0xf,0x1f,0x43,0x1d,0x7f,0xb5,0xc1,0xf0,0x1c,0x90,0xe2,0x3a,0xdf,0x30,0xba,0x13,0x56,0xd1,0xbc,0x1b,0x77,0xe6,0x13,0xa1,0xdd,0xa1,0x27,0xd6,0xec,0xf,0xf5,0x7e,0xc0,0xc7,0x49,0x7b,0x13,0x3e,0x9d,0x65,0xe1,0x29,0xbc,0x19,0xe7,0xae,0xd0,0xd7,0x56,0x29,0x82,0x1f,0x66,0x81,0xf0,0xdf,0xea,0x64,0x3c,0x29,0x8,0xf4,0xf4,0x3a,0x86,0xf2,0xcb,0xc9,0x91,0xcd,0xf,0xb,0x6e,0x99,0xaf,0xe6,0x63,0x1a,0xe2,0x47,0xee,0x23,0xe4,0x6,0xcd,0x26,0xc6,0xb5,0xb2,0x3d,0xe,0xa,0x37,0x9,0xcf,0x2b,0x4c,0x2,0xe,0xe2,0xd0,0x1b,0xf0,0x8a,0x1e,0x38,0xd1,0xc0,0xdc,0xc,0x8,0xba,0x3e,0x5e,0x5b,0x8,0x1,0x32,0xaa,0x30,0xe2,0xd2,0x24,0x3,0x1d,0xd1,0x26,0xde,0x4c,0xea,0xb5,0x4d,0xd2,0xf9,0x81,0x49,0x68,0xed,0xd4,0xfa,0x1d,0xe6,0x26,0xc0,0xe0,0xb6,0xe8,0xb8,0x24,0xd,0xa,0xfe,0x1f,0x13,0x6,0x22,0x4c,0xed,0xd3,0x8,0x1,0xd1,0xe1,0xcd,0xf5,0xb3,0x13,0x2,0xb,0x3b,0x58,0x2e,0xb,0x13,0x34,0x81,0x55,0x18,0x39,0x3,0x9,0xe3,0xbe,0x2c,0xb1,0xde,0x43,0x97,0x66,0xd4,0x38,0xd3,0x37,0x1a,0x3,0xa9,0x2,0x13,0xec,0x61,0xeb,0xa6,0xaa,0xe8,0xdf,0xe5,0x7f,0x4f,0x32,0x3a,0x30,0x20,0x2e,0x52,0xff,0xef,0xad,0xb5,0x10,0xf7,0xe8,0xe8,0xbe,0x52,0xba,0x9,0xe,0x3b,0xed,0x4f,0xf9,0x10,0xc3,0x6c,0xe8,0xf3,0x2b,0xf9,0xb5,0xb6,0xff,0xca,0x1c,0x13,0x9d,0x9,0xaa,0x54,0xcf,0xa,0xe3,0x19,0xa8,0xb7,0xf9,0xbf,0x2c,0x11,0x3f,0xb4,0x63,0xc4,0xd,0xb5,0x7f,0xd2,0x6,0x48,0xdf,0x2d,0xf8,0x30,0x2d,0xd6,0x2,0xaa,0xd3,0xe1,0x19,0xc5,0x11,0x3f,0xd3,0x22,0x4a,0x35,0x2e,0xb7,0x44,0xde,0x7,0xca,0x19,0x59,0xec,0x40,0xf7,0x7c,0xf1,0xab,0xe9,0x4f,0x4c,0xfb,0xe8,0x96,0x55,0xfe,0x25,0xd1,0xae,0x3a,0x25,0xc7,0xb4,0xe2,0xbf,0x7f,0x0,0xd9,0xef,0x64,0xd2,0x2b,0xb5,0xff,0xca,0xfa,0xc0,0x26,0x3d,0xf5,0x2b,0x7,0x5,0x4,0x22,0xd5,0xff,0xcd,0x1e,0xc8,0xf,0x3d,0xeb,0xdb,0x1,0x22,0x22,0x18,0xf,0x3b,0x54,0xfa,0x1d,0x94,0xba,0xcf,0x9f,0xcd,0xda,0x2a,0x86,0x25,0x5,0x95,0xf4,0xee,0x5,0x17,0xc,0xf5,0xb2,0x37,0x81,0x14,0xf1,0xfe,0xbd,0x2a,0xf1,0x34,0xf,0x14,0x28,0xce,0x5,0xb3,0x26,0x1f,0x67,0xfa,0x1d,0x21,0x3,0xac,0xfd,0x1a,0x23,0x2b,0xf1,0x5b,0x1d,0xe3,0x2c,0xd5,0xb,0x3,0xbd,0x88,0xe5,0xdc,0x2f,0x1b,0x5b,0xe,0xfd,0xe3,0x31,0x40,0xfb,0xf,0xeb,0xe0,0xce,0xca,0xf0,0xf4,0x52,0x99,0xde,0xea,0xbe,0x4b,0x4a,0x25,0xe,0x3a,0x4b,0xe2,0x56,0xf0,0x6d,0x5,0xcd,0x9,0xb6,0x5b,0x34,0xde,0xdd,0xd8,0x96,0x21,0x6,0x55,0xf2,0xdf,0xd,0x53,0x79,0xe7,0xeb,0xd5,0xe0,0xc3,0xfa,0xa6,0xd,0x7f,0xd2,0xd8,0xd,0x16,0x94,0x17,0x59,0xc,0x6,0xec,0xeb,0xed,0xd4,0xdf,0x25,0xcd,0xd7,0xf6,0xfc,0x2f,0xde,0xed,0xf9,0xe1,0x1c,0x6,0xe3,0x51,0x50,0xcd,0xcb,0xd6,0xf6,0x24,0xd0,0x38,0xcb,0x2a,0x7,0x1,0xe0,0x33,0xe9,0xdd,0x7,0xd1,0xdd,0x95,0xb,0xf4,0x2c,0xe8,0x7f,0x3d,0x3e,0xc,0xa3,0x1f,0x1,0xb7,0x34,0xfb,0x56,0x9c,0xfc,0xfe,0x42,0x34,0xf8,0x9,0xef,0xb5,0xdd,0x5c,0xbd,0x7f,0xe1,0x18,0x8,0x5c,0x22,0x23,0xcf,0xe8,0xce,0xe5,0xfd,0x27,0x9,0xe4,0x2a,0xa1,0xf2,0xeb,0xc,0xd9,0x1,0x8,0x23,0xd9,0xed,0xd4,0x9d,0x5,0xe1,0x19,0xfd,0x5,0x1e,0x3a,0x2a,0x67,0x3e,0xc9,0xf6,0xab,0x1f,0x41,0xdb,0x18,0xe5,0xd4,0x9f,0xfb,0xf9,0x22,0x20,0xda,0xe3,0x38,0xc9,0xf6,0x1a,0x3b,0xe1,0xee,0xb,0x0,0xbb,0x2,0x27,0xbe,0xf6,0xfd,0xfb,0x16,0x42,0x25,0x2f,0x0,0xd,0x5,0x0,0x2c,0xf9,0x19,0xe3,0xa4,0xb,0x25,0xec,0x39,0xce,0xbe,0xce,0x1c,0x9c,0x1e,0x2d,0xfa,0x14,0x7,0xe5,0x1a,0xcc,0xde,0xef,0x7f,0x22,0x1d,0xb7,0xd8,0x2,0xcc,0x1d,0xfc,0xd,0xec,0xcd,0xd2,0xca,0xe2,0x64,0xd3,0x46,0xf3,0x4f,0xd5,0xb2,0xb,0x11,0x1a,0xc1,0xad,0xaf,0x3e,0x35,0x0,0xe0,0x3c,0x9a,0x33,0xfd,0x3e,0x36,0x1d,0xde,0xa,0xa8,0x19,0xb,0x2f,0xb,0x28,0x89,0x81,0x24,0x29,0x41,0x29,0xfc,0x61,0xd5,0x1c,0xc8,0x8,0xad,0x5d,0xfa,0x0,0xb2,0x1d,0xed,0xd2,0x2c,0x42,0x33,0xd,0x21,0x3,0xd9,0xbd,0x37,0xe7,0x1e,0x1f,0x10,0x3d,0x18,0x25,0x3e,0x56,0x9a,0xd6,0x6f,0xde,0xbb,0x64,0x21,0x2,0xbd,0xe0,0xae,0x14,0xd0,0x8,0xc6,0x27,0x2f,0xfc,0xd8,0x73,0x26,0xe3,0x50,0x9,0xd2,0x7f,0xed,0x9,0xb7,0x44,0xce,0x9d,0x5,0xee,0x37,0xfb,0x2,0x12,0xd,0xfc,0x2,0x28,0x2c,0x32,0xa6,0xdd,0xd6,0xab,0x4,0x12,0xaa,0xe9,0xc4,0xfa,0x4,0x72,0x42,0x1c,0x1d,0x0,0x26,0xce,0x6b,0xd7,0x8,0xa9,0xaf,0xe8,0xea,0x10,0x4f,0xd3,0xba,0x32,0xca,0xb2,0x6d,0x66,0x37,0x47,0xe9,0x21,0x7f,0x11,0x47,0xba,0x1b,0x59,0x4c,0xc4,0xc4,0xcd,0xb6,0x3a,0x16,0xd6,0x34,0x37,0xc1,0x2b,0xaf,0x2,0x14,0xe5,0x24,0x52,0x8,0xe9,0xbf,0xcf,0x1f,0x19,0xe5,0xbf,0x2e,0xf4,0x1b,0xe6,0x35,0xb6,0x34,0xf2,0xa,0x5c,0xd,0x27,0xd9,0x8f,0x0,0x48,0xb,0xd5,0x7f,0xd,0x1,0xb9,0xa1,0x1c,0x6f,0xdd,0xff,0x2,0x2e,0x8c,0x1c,0x7e,0x39,0xc6,0x13,0x16,0xe0,0xdd,0x2,0x44,0xe9,0xdd,0x0,0xef,0x2b,0xd6,0x4b,0xf2,0xd6,0xec,0x19,0x1d,0x26,0xb9,0x3c,0xf4,0xf1,0xef,0xcb,0xee,0x1,0x3a,0xe4,0xf4,0xcd,0xcc,0xec,0xc1,0x5,0xe6,0xf6,0x44,0xdc,0x22,0x29,0x73,0xb7,0x22,0xa,0xdf,0x40,0x58,0xf3,0x4d,0x18,0x1e,0x81,0x21,0x5d,0xc6,0xda,0x4,0xcd,0x24,0x4d,0xc0,0xc4,0xcc,0xc5,0xff,0xe5,0x5c,0x9,0x4a,0xe7,0xf8,0x26,0x26,0xc2,0xf6,0xc5,0x8,0x10,0xd,0xf8,0xf1,0xb2,0xf1,0xf,0xee,0xdf,0x13,0xf5,0xe7,0x1b,0x3e,0xc2,0xcc,0x35,0xd,0x7,0xe3,0x6a,0x81,0xbb,0xb,0xf2,0x66,0x10,0xef,0x1b,0xfd,0x23,0x9a,0xff,0x58,0xa4,0x2,0x15,0x18,0xdb,0x56,0xda,0x17,0x52,0x81,0x10,0x6,0x7,0xdf,0xcc,0x97,0x35,0x0,0xb6,0xab,0xc,0xd7,0xeb,0x55,0xff,0x5d,0x16,0x10,0x36,0x1a,0xfe,0x1b,0x2b,0xe4,0xe2,0xcc,0x52,0xda,0xf6,0x1f,0xce,0xdc,0x1d,0xc9,0xa4,0x9e,0xeb,0xb0,0x75,0x69,0xd,0x21,0x27,0x9,0x16,0x4f,0x45,0xe,0xb5,0xec,0x2b,0xc0,0xef,0xb9,0x81,0xce,0xec,0x1e,0x46,0x5a,0x37,0xf2,0x2e,0x43,0x25,0x2a,0x62,0xd3,0xc4,0xd9,0x9b,0x37,0xe1,0xb0,0xe9,0xfd,0x33,0xd8,0xb4,0x6,0xda,0xff,0x34,0x43,0x14,0x1d,0x34,0x44,0xc2,0xd6,0x58,0xed,0x14,0xd,0x7,0xeb,0xac,0xb5,0xaa,0xb5,0x34,0xe5,0x45,0x23,0xb3,0xc2,0xc3,0x1c,0x2e,0x18,0x2f,0x81,0xf4,0x83,0x2e,0x43,0x42,0xe9,0xe7,0xd5,0x41,0xf3,0x54,0x3d,0x46,0xda,0xdf,0xc3,0xe7,0xe,0x49,0xc3,0xe1,0x27,0xc8,0x2d,0x20,0x64,0xf5,0x24,0x2,0x4a,0xd8,0x46,0xcf,0xe0,0x11,0xc4,0xb3,0xa1,0xdd,0x25,0x47,0x41,0xc7,0x2,0xa3,0x43,0x0,0xcc,0xee,0xf7,0xe6,0xea,0x29,0xbf,0xec,0x3f,0xfa,0x27,0xdb,0x2c,0xc5,0x16,0x95,0xa,0xc2,0x30,0xd,0x3d,0xe8,0xa,0x17,0xc0,0x2c,0x1d,0x42,0x4b,0x39,0x3,0x25,0x14,0x48,0xc,0x23,0xe5,0x8,0x11,0x1b,0x4a,0x15,0x25,0x8,0x0,0x81,0xd8,0x8e,0xdf,0x4e,0xe,0x30,0xfe,0xef,0xd1,0xc0,0x43,0x39,0xd1,0xf0,0x38,0x1e,0xd0,0xf4,0x4,0xcc,0x46,0x78,0xf2,0x7f,0x5c,0xef,0x3,0xe,0x93,0xb9,0xd8,0xc1,0xc0,0xc6,0xef,0x11,0x70,0xf,0xda,0x35,0x44,0xc3,0xfc,0x56,0x26,0xd9,0xf8,0x29,0xcb,0x1e,0xcb,0x50,0xed,0xd2,0xc8,0x2a,0x97,0xdb,0x28,0xd5,0xc0,0xfe,0xc,0x17,0xee,0x26,0x43,0x5e,0xc1,0xd2,0xf6,0x35,0x29,0x32,0xf9,0xd3,0x3a,0xcc,0x8,0xbf,0x2e,0xe3,0x27,0x18,0xe4,0xda,0x24,0xd4,0xea,0xe4,0x33,0xee,0xf8,0x3a,0xee,0x16,0xfb,0x32,0x11,0xec,0xf6,0x31,0xeb,0xe,0xc6,0xc9,0x30,0x4,0x10,0xf2,0xf2,0xd9,0xf7,0xa8,0x13,0x21,0xd1,0xe,0xf0,0xdd,0x5c,0xd3,0xf4,0xe6,0x7f,0xcb,0xb,0x9b,0xb,0x18,0xe,0x8,0x2e,0x23,0xc9,0xe5,0xdc,0x22,0xea,0x2f,0xe0,0xa,0xed,0xf3,0x10,0xfc,0xf1,0xf8,0xeb,0xf6,0xed,0xbd,0x5e,0xf9,0x0,0xd0,0x44,0x86,0x41,0xd5,0xdd,0xe1,0x2e,0x68,0x31,0x56,0xfb,0xdb,0xa5,0x9,0xdd,0xb5,0x81,0x11,0x7,0x17,0x3b,0xfc,0xb1,0xf,0xf8,0x5a,0xb6,0xa2,0x33,0x53,0xf5,0x31,0xd7,0x9,0xf8,0x17,0x15,0xfd,0x25,0x2f,0xcd,0xbe,0x11,0x6,0xe6,0xfe,0xc4,0xd2,0xf5,0x49,0x5,0xfa,0x3,0x35,0x6,0xfd,0x24,0x28,0x28,0xd,0x16,0x12,0xbc,0xeb,0x36,0x22,0x50,0xaa,0xbf,0xd5,0xe0,0xe7,0x4,0x2e,0xca,0x42,0x12,0xcb,0x14,0xe3,0x5,0xd0,0x7f,0xd8,0x7,0x8,0x49,0x3e,0xef,0xff,0xfd,0xea,0x83,0x5d,0x9a,0x41,0x47,0xc,0xef,0xc1,0xee,0x23,0xdf,0xd,0x15,0xf9,0x17,0xd9,0xd,0x40,0x1a,0x49,0xf8,0xe3,0x1b,0x8d,0xb,0x21,0x16,0x3c,0x29,0x5a,0x3e,0x6,0xf1,0xed,0x94,0xc0,0x2d,0x81,0xd2,0xdb,0xba,0xfb,0x4b,0x84,0x18,0xc9,0x16,0xd1,0xd2,0xef,0x47,0xb,0xe1,0xff,0xce,0xc,0x1f,0x0,0xe6,0x31,0xc7,0x5,0xa7,0x50,0xfd,0x21,0xd1,0xd8,0x19,0xfb,0xf9,0xd4,0x13,0xfe,0xf,0xc2,0xcc,0x3b,0x30,0x10,0x3,0x11,0xf6,0xcf,0xd8,0xd7,0xd2,0xe1,0x14,0xe3,0x20,0xe,0xf9,0x37,0x7f,0x5a,0x3d,0x1b,0xfc,0xbc,0x23,0xdb,0xff,0x1e,0x6,0xa7,0xb4,0x61,0x4d,0xee,0x33,0xbc,0xb,0xae,0x32,0xd,0x7f,0x35,0x4a,0xa1,0x13,0xb,0x11,0xb3,0x13,0xa3,0xea,0x2b,0x4b,0xd0,0x38,0xf8,0xfb,0x37,0x31,0xe1,0xc0,0x4d,0xc9,0xd0,0xdd,0xf2,0xc6,0xab,0xf6,0x4b,0xe1,0xe4,0xed,0x3a,0xf7,0x72,0xfa,0x3e,0x67,0xd1,0xcb,0x75,0xa4,0xf4,0xb,0x6e,0xb0,0xf5,0x15,0x22,0x1f,0x2b,0x5,0x14,0xf8,0xd,0xe2,0x6b,0xf6,0xe6,0xce,0x5a,0xd4,0x4a,0xf1,0x3a,0xee,0xd2,0xa,0x3a,0x30,0xc1,0x33,0x81,0xeb,0x4,0x1c,0xae,0x36,0xb1,0x29,0x96,0xdc,0xb9,0xcb,0xf1,0xea,0xf5,0xec,0x2b,0xe0,0x42,0x60,0x55,0x3d,0xcd,0x83,0xce,0x4a,0xea,0x10,0x15,0xe0,0xa5,0x81,0x19,0xf4,0x1e,0x2b,0xec,0xf7,0xfe,0x2f,0x4e,0x8,0x3f,0x14,0xa,0xf6,0xeb,0xf7,0x15,0xdd,0x29,0x22,0xe7,0x0,0xec,0x19,0x1b,0x18,0x15,0xfe,0x44,0x13,0x25,0xc8,0x17,0xbc,0xca,0xc5,0x2,0x3f,0xd,0x8b,0x1d,0xdf,0xc7,0xd8,0x4b,0x56,0xe9,0x26,0xc8,0xec,0xf,0xd8,0xc6,0xed,0x2f,0xda,0xdb,0xed,0x1c,0xb7,0x2d,0x16,0xf4,0x40,0xc3,0x31,0x0,0x2,0x15,0xc4,0x2,0xf,0x17,0x16,0x1b,0x1f,0x55,0x31,0x20,0xee,0x11,0x23,0xbf,0x40,0xf9,0x43,0xe6,0xfd,0xc3,0xcf,0x13,0xe2,0xb3,0xfa,0x44,0x7f,0x2,0x9,0xd8,0x18,0xd5,0x2c,0x2e,0xc2,0x55,0xfc,0x31,0x1c,0x81,0x8a,0xc7,0x7e,0xc7,0x99,0x46,0x49,0x1c,0x24,0x1d,0xe3,0xed,0x1e,0x42,0x49,0x11,0x17,0x6,0x96,0x1,0xc5,0xd1,0x2f,0xa6,0xc6,0x8,0x51,0x2c,0x71,0x47,0xe6,0xd,0x14,0x2d,0xc0,0x6e,0xff,0x2d,0xf,0xad,0xc,0xd6,0x3b,0x39,0xbb,0xbf,0xdd,0x7,0xda,0x48,0x43,0xea,0x4c,0x2,0x18,0x1f,0xc0,0x13,0xeb,0x7f,0x2f,0x36,0x8,0xea,0xc,0xd3,0x28,0xc,0x2,0x3d,0xd6,0x6,0x23,0x4,0xbf,0xd5,0xd9,0xcb,0x3a,0x23,0xc8,0xc5,0xd7,0xf7,0x9,0x3d,0x2c,0xf0,0xed,0xea,0xea,0x39,0x1c,0xf,0xd5,0x0,0xf1,0xe6,0xe1,0xf1,0x4,0x1f,0x3d,0x3e,0xe1,0xd0,0x7,0xcc,0x35,0xf7,0xa,0x5b,0xf5,0x7e,0x7f,0xf5,0xf7,0x6d,0x7f,0x12,0xf8,0xe3,0x25,0x6,0x26,0x2a,0xcd,0xcb,0xb0,0x2b,0xef,0x5a,0xdc,0x52,0xf0,0x16,0x2b,0x4,0xa1,0xb1,0xb0,0xa1,0x25,0x94,0x60,0x11,0x34,0x1a,0x5d,0x89,0x39,0xf2,0x31,0x27,0xc4,0xbd,0xf8,0xbb,0x3f,0x2e,0xf3,0x15,0x78,0xfe,0x96,0xd6,0xbb,0x35,0xf3,0x9d,0x44,0x12,0x30,0x86,0x4d,0x2c,0x28,0x36,0x55,0x2c,0x27,0xf3,0x4d,0xcf,0x64,0xc0,0x7e,0x24,0x3,0x8b,0xaf,0xac,0x31,0x2a,0x81,0xdf,0xa4,0xc3,0xbe,0x18,0xed,0x51,0xe,0xd9,0x33,0x12,0xf,0xd9,0xa9,0x10,0xcb,0xc7,0x41,0xf5,0xd8,0xd2,0x20,0xce,0x23,0x58,0xdb,0xdd,0x0,0xdd,0x1c,0xf1,0x3,0x1a,0x28,0x31,0xca,0x25,0x4f,0xdf,0xf0,0xff,0x1d,0x1e,0x5,0xe6,0x81,0xde,0x91,0x1,0x36,0x1,0x35,0xda,0xed,0x1,0xc8,0x33,0xd5,0xeb,0x5,0xde,0x4,0xc2,0x3a,0xf2,0xd4,0xc,0x1b,0xb9,0xda,0x25,0x1f,0xee,0xe5,0x3b,0xe5,0x44,0xfb,0xff,0xb9,0xdc,0xe2,0xb3,0xb9,0xb3,0x0,0x2c,0xa,0xb,0xd2,0xce,0x49,0x38,0x30,0x27,0xd7,0x6,0xe8,0xf4,0xd,0xcb,0xf8,0x8f,0xdf,0xc7,0xf1,0x5e,0x2f,0x7f,0x19,0xf7,0x26,0xc7,0xf,0x3c,0x13,0x11,0xf8,0x94,0xf,0xa,0xd8,0xa2,0xd5,0xa,0xf5,0xd,0xe4,0x50,0xf6,0x26,0xf3,0x15,0xfa,0xd,0x4c,0xfa,0xd0,0x48,0xa8,0x9f,0xe9,0xdf,0x7,0xc3,0xd0,0xcd,0x84,0xf5,0xe9,0x5e,0x5a,0x29,0xbe,0xd4,0x22,0xd6,0xd5,0xab,0x35,0xa6,0x57,0x42,0xf4,0xf3,0x42,0xdc,0x4d,0x2f,0xcd,0x34,0x2a,0xe3,0xd9,0x2d,0xbb,0x27,0xb8,0x22,0xf5,0x38,0xb,0x28,0xe7,0xc2,0xec,0x34,0x1d,0xc8,0x31,0x90,0x33,0x45,0x38,0xed,0x7f,0x11,0xd,0xcf,0x9c,0xd2,0xd9,0xf3,0x3f,0x6,0xdd,0xa9,0x17,0xdf,0x1a,0xee,0x2e,0x13,0xe5,0xd9,0xbc,0x7d,0xd5,0x36,0x95,0xb1,0x1d,0xd8,0xe9,0x7,0x27,0xe9,0x31,0x41,0xf8,0x30,0x1a,0xfc,0x9d,0x0,0xf0,0x17,0x18,0x28,0x16,0x4d,0x4,0xe5,0x16,0xfc,0xbe,0x4b,0xec,0x39,0x19,0x2a,0x4d,0xec,0x7f,0xf0,0x34,0x50,0xf1,0x41,0x7e,0x4b,0x3b,0xad,0x25,0x4f,0x19,0x18,0xff,0x1,0xe2,0xcf,0x12,0x18,0xe2,0x16,0x2c,0x19,0xc9,0xd9,0x11,0x23,0x8,0x25,0xe9,0x32,0x29,0xce,0xbf,0x18,0xfc,0xce,0x2d,0xe8,0x18,0x0,0xcc,0xb,0x31,0x0,0x42,0x40,0xe1,0x21,0xf9,0xb3,0xb,0x2a,0xd0,0x6,0x6,0xf9,0xe,0x3,0xc1,0x1c,0x47,0x81,0x35,0x41,0xb,0xbd,0xd1,0xc2,0x8,0xf8,0x1c,0x30,0x9,0xeb,0xc3,0x26,0xe6,0x24,0x2f,0x23,0x99,0x59,0xe7,0xfa,0xd,0x1,0x17,0xc5,0xf2,0xcd,0x2e,0x1e,0x4,0xc4,0xe3,0x20,0xa,0xa5,0x65,0xd0,0x10,0xb,0x1a,0xeb,0xd5,0xe7,0xe,0x4,0x32,0x48,0xa,0x3b,0x7f,0x49,0x1a,0x29,0xca,0xc3,0x2b,0x3b,0x47,0xd2,0xb4,0x10,0xe3,0xff,0x10,0xda,0x22,0xf0,0xe7,0xf4,0xeb,0x13,0xfa,0x25,0x24,0x41,0xf2,0xe6,0xc5,0x37,0xd8,0x13,0x3b,0xe9,0xff,0xf5,0xcd,0x10,0xf,0xed,0xf9,0x21,0x29,0xcc,0xef,0x11,0x11,0xcc,0x3e,0x39,0x1d,0x27,0x14,0xf9,0xd8,0xef,0x1d,0xc7,0xd8,0xf3,0xf0,0xc6,0xb3,0xd6,0x81,0x5,0x4c,0xdd,0xad,0x89,0x5c,0x12,0x19,0x37,0x3d,0x9,0x2b,0x58,0x38,0x5e,0xf4,0x26,0xd3,0xdd,0xc2,0xdb,0xb8,0xdf,0xd9,0xb,0xbd,0x2e,0xe8,0x4e,0x46,0x29,0xf9,0xda,0xea,0xd4,0x3d,0x23,0x30,0xb,0xd,0xf0,0xfc,0xe4,0x78,0x93,0xb1,0xd2,0xc4,0x81,0x8,0x75,0xf5,0xf4,0xd,0x90,0x48,0xd3,0x1b,0xe2,0x46,0x2e,0x7,0x54,0x5c,0x16,0xf9,0xd0,0xe2,0xe1,0x5f,0xda,0x63,0xe0,0x3,0x81,0x4,0xe7,0x16,0xcc,0xef,0x11,0x15,0xdd,0x20,0x4f,0x11,0x1,0x8d,0xaf,0x29,0x3b,0xae,0x5e,0xf,0x43,0xbe,0x1a,0xf,0xc7,0xf,0xf1,0xdf,0xd7,0x29,0x50,0x3e,0x58,0xe,0xe9,0xae,0x2c,0xdd,0xc2,0x7f,0xfa,0x12,0xb8,0x2,0x38,0xd5,0xe5,0xdb,0x23,0x27,0xf6,0xe9,0xd9,0xe0,0xf9,0x26,0xa,0x41,0xcf,0xd7,0x16,0x3a,0xf6,0x3,0xc8,0x22,0xc3,0xc8,0x19,0xfa,0x3b,0xe7,0xd6,0xc6,0x36,0x2,0xf6,0x11,0x39,0xf5,0x1e,0x39,0xd6,0xf8,0x60,0xd6,0x23,0xef,0xc,0x81,0xac,0xfb,0xd4,0x10,0x56,0xb7,0x8,0x26,0x24,0xd5,0xf2,0xef,0xff,0xff,0x4,0x0,0x0,0x0,0x0,0x10,0x0,0x0,0x2,0xe8,0x3a,0xcb,0x21,0x13,0x2a,0xd4,0xee,0x71,0x2f,0x1f,0xe9,0x9e,0x98,0xd9,0xc1,0xd1,0x11,0xf5,0x16,0x9a,0xa9,0xd4,0x33,0x81,0xc2,0xe1,0x68,0x15,0xce,0x24,0x66,0x4a,0xdb,0xf2,0xa,0xe9,0xb1,0x99,0x2a,0x8,0xb9,0x4d,0x1a,0x1b,0x1,0x7d,0x27,0xf8,0x2f,0x2a,0xbf,0x37,0xeb,0xc8,0x31,0xd7,0x5,0x37,0xe1,0x25,0x68,0xe2,0xf5,0xab,0x2b,0xfa,0x82,0x54,0x12,0xd7,0xf8,0xfb,0x2d,0x5,0xa4,0x96,0xee,0x34,0xcc,0xdb,0x10,0xfd,0xbd,0xa9,0x8a,0x10,0x39,0xe8,0xb8,0x12,0x19,0xc,0x95,0xa,0x74,0xe8,0xeb,0x81,0xb4,0xf0,0xb6,0xee,0x1f,0x26,0xa6,0x59,0xe3,0x10,0xd,0x9,0x37,0xfb,0x3f,0x17,0xda,0x1f,0xba,0xc6,0xd0,0x1f,0x1f,0xfe,0xf4,0x3f,0x69,0xf9,0x21,0xba,0x4b,0x7,0xe8,0x5b,0x43,0xe4,0xbe,0xde,0x60,0xfa,0xa0,0xc4,0xa8,0x1d,0xd4,0xc7,0xe9,0xae,0xd5,0xa3,0xaf,0xf0,0x5e,0xd2,0xc2,0x5,0x44,0xeb,0xb9,0x43,0x37,0xbc,0x1f,0xec,0xdb,0xa,0xb4,0xcd,0xe6,0xeb,0x9a,0x26,0xa,0x1e,0x40,0x46,0x35,0x5,0xc,0xcc,0x81,0xd5,0xd5,0xf6,0x53,0xdd,0xc1,0x44,0xf7,0x3a,0x32,0xb0,0xd6,0xfe,0x2a,0xe3,0xba,0x49,0xf6,0xaf,0x5,0x1e,0x1e,0xbe,0xad,0xd,0xc8,0x1b,0xdc,0xcb,0x4e,0xc9,0xc0,0xda,0xe3,0xc4,0xcc,0xf0,0xc7,0xf9,0xe7,0x16,0xf5,0x24,0x7f,0xe8,0x13,0xc9,0x35,0xaf,0xcb,0x21,0xfd,0x4e,0xe5,0x4e,0xc6,0xfe,0x2a,0xee,0x3f,0x19,0xc,0x1b,0xcd,0xf3,0xda,0xad,0xc3,0xec,0xe,0x2f,0xeb,0x5a,0x35,0xd5,0x49,0x0,0xc2,0xfb,0xc7,0x4f,0x13,0x20,0x8,0xc0,0x24,0xe9,0xc8,0xfe,0x2f,0x7,0x2e,0x51,0x5f,0xb,0x15,0x1c,0x4b,0xf5,0xb9,0x3c,0x7f,0xc8,0xca,0x39,0x2d,0xe3,0xe,0xb2,0xc9,0xfc,0x2,0x3a,0x3c,0x46,0x2,0x31,0xfb,0x9,0xee,0xe9,0xfd,0xb3,0xfa,0x2e,0xed,0xc6,0xb0,0x0,0xe,0x10,0xd2,0x1,0xcc,0x1c,0x2d,0x17,0xf8,0xe4,0x11,0xda,0x3,0xde,0xa3,0x3c,0x19,0xf8,0x3,0xbd,0x5c,0xf9,0xfc,0x1e,0xed,0x2b,0x56,0x36,0x7f,0x5,0xfd,0xdc,0xe0,0xdf,0x7,0xf3,0x2c,0xeb,0xf9,0x31,0xd4,0x0,0xf2,0xc9,0xeb,0xcb,0xd5,0x4,0x12,0xd,0xf6,0x77,0x34,0x65,0xe6,0xf,0x32,0x2,0x62,0x31,0xed,0x1,0xad,0x13,0x23,0x2,0xa8,0xf4,0xf4,0xd5,0x8,0x32,0xd9,0xe3,0x14,0xec,0x19,0xb7,0xa7,0x49,0x6c,0xcb,0x15,0x18,0x66,0xd3,0xd2,0x88,0xa3,0xea,0xa4,0x25,0x60,0xd9,0xc8,0xcd,0x84,0x20,0x15,0x81,0xdf,0x21,0x4c,0x5,0xa1,0x6,0x4b,0xce,0xdc,0xd9,0x12,0xbb,0x88,0x92,0x26,0xf1,0xb7,0x62,0xaf,0x5,0x3b,0x35,0x4d,0xcd,0x14,0x22,0x9d,0x38,0xde,0xee,0xf4,0x1c,0xc8,0xdc,0xb,0x4a,0x3f,0xd0,0x3f,0xff,0xac,0xf9,0x3,0xfa,0xc8,0x2b,0xa,0x86,0xec,0x6,0x6a,0x37,0x52,0xf7,0x60,0x0,0xde,0x2c,0x5e,0x66,0x73,0x1d,0x15,0xf9,0x7f,0x1f,0xe5,0xf8,0x4c,0xe7,0xb6,0x1e,0xed,0x4f,0xb7,0x31,0x42,0xd7,0xf9,0xf0,0x4c,0xb5,0x5,0xf2,0xe4,0xe3,0xb3,0xe0,0xc7,0xae,0x17,0xc3,0x25,0xb,0x4c,0xf,0xf6,0xf5,0x35,0xa7,0xa7,0x32,0x96,0x31,0x37,0xa2,0x5e,0xc7,0x4d,0x1,0x5,0x7f,0xcc,0xef,0x22,0xed,0xab,0xae,0xa0,0xc0,0xce,0xdb,0x31,0x2c,0xf2,0x3f,0x35,0xd1,0xe0,0xf6,0x3d,0xe0,0x38,0xee,0x14,0x4e,0x47,0xe1,0xfd,0xbf,0xa9,0xed,0xc8,0xa5,0xad,0x83,0xb5,0xf7,0x24,0x40,0xbf,0x8,0x23,0x33,0x33,0xb7,0xef,0xf2,0x59,0x39,0x14,0x4,0xc5,0xd1,0x78,0xfd,0xdc,0x1a,0x16,0x6,0x15,0xf7,0x36,0x21,0xce,0xfa,0xe2,0xff,0xf5,0xd1,0xeb,0xe9,0xfb,0xd5,0xa5,0xe6,0x3e,0x43,0x2d,0x3a,0x3b,0xcf,0xef,0x24,0x4c,0xfb,0xf8,0xfb,0xe5,0xf8,0x30,0x1d,0x83,0xc,0x13,0xb8,0xe6,0xc2,0xab,0xa1,0xca,0x44,0x17,0x29,0xd7,0xe9,0xda,0xda,0xe,0xa9,0xe8,0x6,0x7f,0xb,0x16,0x12,0xdd,0xcb,0x30,0xdd,0x1b,0xfa,0xb7,0x6a,0x39,0xa7,0x88,0xd,0x2c,0xe9,0xcd,0xec,0x46,0x44,0x4f,0x22,0x14,0x5,0x2b,0x1,0x38,0xfa,0xc,0xae,0xb,0x39,0xf2,0x21,0xcc,0xf,0xc,0xf2,0xd1,0x33,0x26,0x56,0x7f,0x46,0x22,0x36,0x17,0x53,0x58,0x13,0x49,0xa1,0xec,0xb0,0xe8,0x24,0xe3,0x0,0x52,0x52,0x2f,0xfa,0x93,0xce,0x5,0xb3,0x14,0xf6,0xc5,0x16,0xd8,0xff,0x39,0xf6,0xe,0x22,0x36,0xe3,0xf,0xfd,0x23,0x6,0xc9,0x81,0xf2,0xe6,0x2,0xca,0xbd,0xd2,0xeb,0x2d,0xc7,0x3e,0x1b,0xba,0xd4,0xe8,0x75,0xff,0xe7,0x15,0x44,0x1c,0xed,0x2,0xd6,0xcc,0xb9,0xbb,0xd2,0x98,0xab,0xc5,0xb2,0x5d,0x39,0x54,0xd7,0xed,0xe2,0xee,0xf4,0xbc,0xc9,0xca,0x36,0x22,0xd,0x26,0xf2,0x5,0x21,0x5,0xcf,0xeb,0x3c,0xa7,0xe4,0x32,0x39,0xba,0xe9,0x34,0x6,0xb7,0xc1,0xb0,0x8e,0xd0,0xb2,0xbd,0xed,0xc7,0xf4,0x8,0xd2,0x2e,0xbe,0xec,0xae,0xd0,0x16,0xfd,0x20,0x36,0x7f,0xf7,0x36,0xc4,0x3f,0x9c,0xd9,0x28,0x20,0x12,0xaa,0xf,0x8f,0x8,0x2d,0xfb,0x3,0xde,0x3f,0x38,0xbb,0xcc,0xb0,0x91,0xba,0x1d,0xe1,0x40,0xb2,0x14,0x34,0xd0,0xc8,0xfe,0x15,0xcd,0x3a,0x3,0x30,0x3c,0xc0,0x2b,0xda,0x35,0x32,0xd0,0xef,0xce,0x10,0xe2,0x96,0xc9,0x2f,0x18,0x28,0x2d,0x4a,0xae,0xb6,0x1e,0x75,0xd9,0xce,0xf4,0xb9,0x2,0xf6,0xe3,0xb1,0xf6,0xec,0xbb,0xde,0x9b,0xc6,0x81,0xf2,0x50,0x1a,0x3b,0xec,0xdf,0xf2,0x1e,0xe,0xd1,0xcc,0xfc,0x69,0xf2,0x35,0x21,0xe7,0xe9,0x4e,0xd1,0xc9,0x4f,0xe0,0x4e,0x7f,0xa4,0xc2,0x3c,0x29,0x3f,0x81,0x45,0x33,0x37,0xf8,0xf0,0xb7,0xf2,0xe8,0x31,0x2f,0xfa,0x12,0xe0,0x1e,0xfb,0xcc,0x47,0xb2,0x2,0x23,0xd3,0xbd,0x65,0xec,0x6f,0x25,0x4a,0x3b,0xef,0x1a,0x85,0x22,0x3,0x59,0xff,0xb0,0xf5,0x18,0xc6,0xe7,0xc8,0x2b,0x6c,0xf9,0x15,0x47,0xc2,0x11,0x1d,0x25,0xc9,0x33,0x2c,0xff,0x4a,0xe0,0x68,0x78,0xd4,0xd9,0x2a,0x44,0x38,0x81,0x11,0x7d,0x42,0xa,0xf0,0x1d,0x1c,0xf3,0x15,0x36,0xf4,0xf,0xf7,0xef,0xa,0xc6,0x17,0xbd,0x97,0x4b,0xc9,0xc8,0x40,0x8,0x7b,0x38,0x2b,0x6e,0xcb,0xc8,0xb9,0x1f,0x84,0x31,0xb6,0xcb,0xf3,0x98,0xea,0xb0,0xd9,0x36,0x6d,0x24,0x2f,0x40,0xb0,0xef,0xfd,0x1b,0x87,0x9f,0x69,0xc5,0x51,0x7,0x2f,0x5b,0x8d,0xd9,0xe8,0x21,0x7f,0x84,0xea,0x39,0x31,0xd8,0xf3,0xb9,0xee,0xad,0xf4,0xf3,0x2b,0xf5,0xc9,0xf2,0xfd,0xc6,0x3d,0xf5,0xd2,0x7,0xc,0xef,0x60,0x5,0x37,0x1e,0xf7,0x8,0xda,0x17,0xc0,0x7,0xbd,0x19,0xea,0x2,0xd5,0xd0,0xc4,0xda,0xff,0x6f,0x25,0xf7,0xda,0x62,0x1c,0x32,0xe4,0x16,0xd0,0x41,0xee,0xf1,0xdc,0x2b,0xa5,0xd0,0x45,0x54,0x2e,0xd1,0x86,0x68,0xcc,0xa8,0xa2,0x25,0xf4,0x21,0x10,0x3,0xbe,0x4,0x1,0xd9,0x3c,0xeb,0xc9,0x62,0x20,0x2b,0xf8,0xc5,0xea,0xf5,0xab,0xba,0xa0,0x92,0x1f,0xe5,0xf4,0x1,0x13,0xea,0xd9,0xe8,0x3d,0x49,0x5e,0x2d,0x21,0xb,0xe1,0x81,0x9c,0xdc,0x14,0x0,0x26,0xce,0xfa,0xdb,0xb,0xb,0xaf,0x1,0x4a,0xec,0xf8,0x7f,0xca,0xfa,0x18,0xf6,0x4a,0xbd,0xed,0xf,0x39,0xe,0xc7,0xd9,0xd3,0xff,0x27,0x15,0xf,0xfd,0xca,0x2,0x2,0xdb,0xdf,0xe3,0xdd,0x1f,0x16,0xe8,0x6c,0x1c,0x39,0x75,0xfc,0x20,0xc4,0x1c,0xda,0x8,0xc5,0xff,0xda,0xd9,0x8,0xa3,0xcd,0xf1,0xb,0x4e,0x1f,0x23,0x1b,0x28,0x23,0xa,0xf,0xea,0xdf,0xe5,0xd,0x11,0xc,0xf5,0x10,0x43,0xc6,0xdf,0x19,0x3f,0xfc,0xa5,0xc9,0x4c,0x6b,0x1c,0xec,0x2e,0x7,0xe8,0x1d,0x28,0x0,0x56,0x4,0xf9,0x3f,0x29,0xd1,0xea,0xe6,0x5e,0xb7,0xae,0x20,0x26,0x50,0x7f,0xf7,0x61,0x1d,0xca,0x1d,0x26,0xcf,0xef,0xa8,0xc2,0xe7,0xbb,0x18,0xfa,0x2c,0x58,0xee,0x22,0x29,0xd7,0xd1,0xcc,0xcf,0xe3,0xc4,0xd1,0x44,0x1,0x42,0xe8,0x4c,0x36,0xcc,0xf2,0xe5,0x1f,0x14,0xde,0xb,0xfc,0x3c,0x25,0xff,0xd8,0xd,0x18,0x20,0x12,0x5,0x8,0xbe,0xb5,0x56,0x1,0xe6,0xb1,0xee,0x8,0xe4,0xf7,0x22,0xee,0x40,0x7f,0xf6,0x1c,0x46,0x9,0x6,0x20,0x1e,0x29,0x9a,0xd0,0xa9,0xdf,0x1d,0x1e,0x23,0x46,0x1a,0xe,0xe4,0xa8,0xef,0x11,0xf2,0xe7,0x0,0xb9,0x1d,0x10,0x18,0xde,0x3,0x5b,0xe,0x15,0x50,0xdd,0xdf,0xb,0xf1,0x28,0xd,0xfa,0xef,0x13,0xc,0x8b,0xee,0x11,0x20,0x25,0x41,0x14,0xc,0xea,0x29,0x3c,0xc4,0xf5,0xf0,0xc6,0x22,0x5,0x3a,0xb2,0x4b,0xef,0xb7,0x3,0x9e,0xea,0x87,0x3,0x45,0xda,0x28,0xd9,0xda,0xf7,0x0,0x3e,0xd6,0xe5,0x2e,0x7f,0xe8,0x3,0xe7,0x6,0xb4,0xff,0xf1,0xe9,0x1b,0x1,0xf2,0x6e,0xbf,0xc8,0x21,0xb,0x44,0xa4,0x1a,0x26,0x5,0xef,0xb9,0xc0,0xda,0xad,0x0,0x24,0x5c,0xff,0x2a,0xe9,0x28,0xc9,0x11,0xeb,0xcb,0x31,0x5,0xea,0x7f,0x32,0x1a,0x44,0x4,0x1f,0xb,0xde,0xc6,0xf6,0xba,0x4,0xf5,0xd5,0xf4,0xa2,0xcf,0xe7,0x1c,0x64,0xfd,0xf4,0x4,0x45,0x12,0x45,0xb,0xfe,0xbb,0x26,0x2e,0xb,0x26,0xc5,0x2b,0xfe,0xa9,0xc7,0xdc,0x3e,0xf2,0xbc,0xeb,0x13,0x33,0x1a,0x1c,0x21,0x11,0x1b,0x15,0xf9,0x4,0x2c,0xf2,0xbc,0x43,0x30,0xd3,0x90,0xdd,0x1a,0xff,0xa,0x2b,0xf4,0x25,0x42,0xd2,0x40,0x62,0xe,0x4d,0x38,0xff,0x32,0xcd,0xd9,0xd0,0xdc,0x5,0x4,0xfd,0x2f,0x4,0x2e,0xe4,0x81,0x3,0x2,0xd4,0xf0,0xce,0xcd,0x1c,0x2f,0xbf,0x16,0xee,0xca,0x48,0x26,0xd6,0xe5,0x7,0x2a,0xd6,0xd4,0xe3,0xe1,0x10,0x25,0x46,0x7d,0x16,0xee,0xae,0xa5,0xf8,0xb7,0xed,0x9,0xc1,0xda,0x2d,0xea,0x28,0x28,0xa4,0xca,0xc8,0x43,0xdd,0xed,0x1a,0xfb,0x6c,0x19,0x66,0xf8,0xe6,0x33,0xe5,0x31,0x33,0x1,0x1,0xb2,0x18,0x1,0x0,0x81,0x2,0xda,0x1e,0x12,0x61,0xb,0xef,0xed,0x1f,0xfc,0x26,0x6c,0xa9,0xda,0x11,0xe9,0x5d,0xa5,0xec,0x1c,0x42,0xf5,0xd6,0xfa,0xc1,0xca,0xdf,0x2b,0x38,0xf,0xf0,0x13,0x31,0xd2,0x16,0xdd,0xc4,0x2c,0xea,0xd2,0x7f,0x2f,0x18,0x4e,0xf1,0x23,0xe3,0xfb,0x88,0xda,0xc5,0x11,0xca,0xcd,0xe8,0xa1,0xb,0xe9,0x26,0x5a,0x27,0xb,0xf0,0x1e,0xf7,0x21,0xe4,0x18,0xa5,0x20,0xf5,0xf0,0xb9,0x30,0xa8,0xea,0x2b,0x2e,0x2,0xb6,0xce,0x61,0xcd,0xe4,0x99,0xe7,0xc8,0x31,0xf6,0xd8,0x6,0xf7,0x33,0x0,0x6a,0x3c,0xf5,0x20,0xe6,0x5d,0xfe,0xd7,0x1a,0x43,0xcf,0x19,0x98,0x81,0xff,0xeb,0xfa,0xf0,0xbf,0xa5,0xe9,0xbf,0x36,0x1f,0xd,0x15,0x20,0x1d,0x10,0xa8,0xbd,0xd1,0xc5,0x55,0x32,0xf5,0x3e,0xf1,0x37,0x2b,0xe5,0xd9,0x2c,0x37,0xeb,0x53,0xf9,0x5,0xfd,0xeb,0x1d,0xc8,0x15,0x27,0xe1,0xdc,0xed,0xce,0xbe,0x88,0xde,0xff,0x3f,0x2e,0x30,0x13,0xd1,0xe6,0x1e,0x2e,0xdb,0x21,0xe5,0xdd,0x41,0x31,0x12,0xd8,0xf,0xd4,0xdc,0xd7,0x81,0xbe,0xab,0xf3,0x28,0x2,0xfc,0xb3,0xe,0x6,0x7,0x13,0xe8,0xe9,0x26,0x79,0x21,0x3a,0x2b,0xfd,0xbe,0x3c,0x23,0xfd,0xac,0x22,0xec,0x7,0x7f,0x53,0xeb,0x1d,0xf7,0x60,0xea,0xf7,0xc2,0xf5,0xda,0x10,0xe4,0x8,0xef,0x16,0xaa,0xae,0x1a,0x47,0xb1,0xbb,0xee,0x3b,0x0,0xfc,0x3b,0x18,0xd0,0xdb,0xc1,0xbe,0x19,0x82,0xe8,0x2b,0x42,0xd1,0xb,0xce,0x4d,0x16,0x33,0xec,0xe6,0x24,0xf5,0xd5,0x1f,0x15,0xdb,0x25,0xf3,0xdd,0x15,0x14,0x48,0x23,0xfa,0xc1,0x48,0x20,0x38,0x54,0xbc,0xf9,0xf1,0xea,0x2b,0xa2,0x14,0x2,0x1d,0x1c,0xe5,0xa5,0xb3,0xed,0x3,0x3c,0x2c,0xc4,0xfc,0xe3,0xdb,0xa2,0xfa,0x7,0xd0,0x4f,0xd9,0xcb,0x7f,0x35,0x54,0x37,0xd0,0x3,0xd5,0xea,0xdc,0x21,0xa5,0xf,0x11,0xe0,0xf7,0x99,0xfb,0x6,0x10,0x61,0x2a,0xd3,0xe2,0x45,0x4,0x12,0xd,0xdf,0xd8,0xf7,0x26,0x2a,0x44,0xb2,0x38,0x5b,0xc4,0xd3,0x4d,0x3d,0xa,0xa1,0x3c,0x5c,0x3e,0xa,0xde,0xfe,0xeb,0x9e,0x4a,0x8,0x41,0x59,0xfe,0x1e,0x3c,0x19,0x22,0xa3,0x0,0x37,0xf5,0xae,0x34,0x30,0x68,0x1f,0x7f,0x20,0xe4,0xf1,0xbd,0x7,0xdc,0x50,0x2,0xdd,0xf8,0xb5,0xfe,0x0,0xdb,0x37,0x1f,0x3f,0x47,0x2e,0xeb,0x5c,0xcc,0x1b,0xb7,0xb3,0x32,0xbd,0x32,0xd6,0x7,0x5d,0x9a,0xba,0x5,0x35,0x6c,0x81,0xf7,0x28,0x2b,0x3c,0xa6,0xd9,0xe3,0xa0,0x1d,0xe,0x36,0x46,0x8,0xd0,0x12,0xf9,0x26,0x10,0xd1,0x6b,0xcb,0xbe,0x3e,0x3a,0x65,0x3c,0xff,0x19,0x6,0x14,0xd1,0xfb,0xc2,0xf8,0xc5,0xf5,0xbb,0xb2,0xf4,0xbd,0x36,0x5d,0xe,0xe2,0xe1,0x21,0x18,0x26,0xff,0xed,0x9b,0xe,0x17,0x44,0xe7,0xd1,0xf2,0xb3,0xd5,0xc5,0x38,0x2e,0x90,0xeb,0x4,0x3,0x5a,0x46,0x59,0x4b,0x4c,0x48,0xd,0xe7,0x2,0x25,0x17,0xef,0x18,0x7f,0xce,0xc0,0x17,0xf8,0xf4,0xc8,0xc8,0x3,0x23,0xf7,0x51,0x6e,0x3b,0xd2,0x54,0x58,0x40,0xf,0x7,0xf0,0xd5,0x1c,0x1c,0xa,0xd5,0xe9,0xe2,0x2d,0x19,0x9b,0x14,0xe4,0xd1,0x20,0xa,0xc2,0x31,0x5d,0x7,0x97,0x55,0x59,0xbb,0xeb,0x7a,0xfa,0xb7,0xbd,0x23,0x6b,0x3,0x7f,0xf2,0x67,0x3d,0xec,0x32,0x22,0x3a,0x2e,0xe3,0x2a,0x3d,0x6f,0x33,0xe2,0xba,0x4c,0xbe,0xaf,0x2f,0xd8,0x50,0x9,0x5c,0x5d,0x6,0x10,0xc2,0x2b,0xc2,0x57,0xc9,0xb7,0xcd,0xd8,0x2d,0x92,0xe4,0x60,0x20,0x4e,0x69,0x6a,0x17,0xdf,0xb2,0x1c,0xdc,0xf0,0x48,0xe5,0xb9,0x22,0xc6,0xe6,0x55,0x7,0xed,0x6,0xba,0x51,0xf6,0xc4,0x81,0xc,0xfe,0xda,0xff,0x36,0xe6,0xc7,0xd2,0xef,0x2e,0xe,0x97,0xeb,0x19,0x2b,0x1c,0xf5,0x19,0x4b,0xd4,0xde,0x4,0xa2,0x2,0x81,0x98,0xf7,0x30,0xd7,0xf,0xbc,0x45,0x40,0x6a,0x30,0xeb,0x34,0x17,0xe3,0xf2,0xd0,0xec,0x33,0x1b,0xce,0xe,0x9,0x39,0xff,0xdd,0xfd,0xde,0xf0,0x4,0xd6,0x3,0xf3,0xe1,0x5,0x8,0xf0,0xfc,0x4,0x2d,0xf4,0x2d,0x7,0x6,0x52,0xfb,0xf2,0xed,0xec,0xc7,0xd2,0x39,0x15,0xee,0xbe,0x32,0xfa,0xef,0x2a,0xe9,0xde,0xee,0x53,0x5,0x17,0x4b,0xc,0x52,0x27,0x4c,0x26,0xce,0x4,0xcb,0x2f,0xfd,0x28,0xf9,0xfc,0x2b,0x2,0xd,0x81,0xde,0x4,0x2,0xb,0x34,0xb9,0x4,0x1e,0x24,0xb1,0xfb,0x40,0xff,0xf8,0x50,0xf8,0xd2,0xe9,0xf5,0x57,0x1c,0x5b,0xe2,0x7f,0x27,0x91,0x26,0x46,0x69,0x57,0x5e,0xfe,0xf,0x47,0x2,0x1,0xcb,0x32,0x9,0xc6,0xfc,0xb,0x37,0xad,0x4d,0x55,0xe9,0xcf,0x98,0x17,0x8b,0xda,0x20,0xda,0xe9,0xb2,0x18,0xb2,0xcd,0xe,0xe2,0x13,0x12,0x44,0x1a,0xfb,0x6,0xf3,0xa6,0xc9,0xff,0x3d,0xd9,0xb,0xfd,0xc5,0x69,0x66,0x3a,0xc3,0x8f,0x51,0x0,0xae,0xa8,0x1c,0x28,0x1f,0x5,0x32,0xd8,0x20,0xa4,0xed,0x9,0x3e,0xe8,0x1c,0xd4,0x14,0xa,0xf,0x1c,0x47,0x81,0x20,0xc0,0xb6,0x2e,0xaf,0xd5,0xc8,0x4a,0xc5,0x7,0xff,0x49,0x53,0x47,0xf2,0xf0,0xdb,0xc9,0xb4,0xb4,0x0,0xd7,0xf1,0xdd,0x9f,0x32,0x2,0x3f,0xd8,0xc3,0xeb,0xb,0x1,0xaa,0xd8,0x32,0x47,0x35,0xdb,0xba,0x49,0xd1,0xb9,0x87,0xc8,0xe7,0x6f,0xea,0xea,0xb9,0x10,0x0,0xcf,0x31,0xef,0xe1,0x15,0xe6,0x71,0xfe,0x4,0x39,0x46,0xd7,0xc6,0x93,0x91,0xec,0x8,0xd3,0xc3,0xf3,0xa1,0xe2,0xee,0x34,0x4b,0x19,0x1b,0x3b,0x1,0xf5,0x9b,0x81,0xe3,0xa,0x6d,0x3e,0x1e,0x6,0xfe,0xe3,0x58,0xf0,0x37,0x28,0xe5,0x3b,0xfc,0xc5,0x5,0x3e,0x1c,0xcf,0xd7,0xfb,0xfc,0x4d,0x2f,0x35,0x7f,0x1c,0xff,0x36,0xfa,0x4b,0x46,0x14,0xe4,0x18,0x29,0xfe,0xe2,0xe7,0x3e,0xc4,0x9b,0xe2,0xf,0xf9,0xe9,0x22,0x50,0x2f,0xde,0x29,0x2f,0xbf,0x9,0xed,0xa,0xb8,0xd1,0x23,0xe4,0xca,0x47,0xd4,0x3c,0x46,0xdd,0xd5,0xd,0xc7,0x1,0xb5,0xc3,0xf9,0xef,0x92,0x59,0xc5,0x92,0x65,0x2a,0xb7,0xeb,0xee,0x59,0xf,0xbd,0x81,0xef,0x13,0xe6,0xde,0x3d,0xc4,0xe4,0xe2,0xd6,0x1e,0xe8,0xe5,0xcf,0x1d,0x45,0x2,0xf1,0x35,0x26,0xc9,0xd1,0x88,0xd4,0xd0,0xec,0xe7,0x20,0x47,0xa3,0x5c,0xb2,0x41,0x53,0x17,0xb,0x13,0x2f,0x34,0x93,0xdb,0xd9,0xb8,0x1e,0xf4,0xc5,0x3e,0xd6,0x56,0x27,0x94,0xf9,0x3a,0x12,0x21,0x7f,0xef,0xe4,0x5,0xfc,0x22,0x9d,0x22,0x49,0x28,0x25,0xc7,0xc8,0xd3,0xc4,0x9,0x29,0x4,0xa,0xf8,0x1f,0xfc,0xce,0xe8,0x10,0xee,0x25,0xd9,0xde,0x70,0xc,0x4f,0x50,0x24,0xe1,0xf4,0x17,0xc3,0x8,0xcc,0x10,0xec,0x2,0x4,0xbd,0xd2,0xc9,0x8,0x6a,0x2f,0xfc,0xea,0x43,0x1,0x26,0x4,0x1f,0xed,0x5,0x3c,0x16,0xf4,0x52,0xab,0xc0,0x68,0x50,0xc3,0xd3,0x2c,0x7f,0xd9,0xa2,0x9a,0xba,0xdf,0xf1,0xca,0xd9,0x6,0xc1,0x16,0x9c,0xfd,0xf1,0xf1,0xf3,0x27,0xe,0xfc,0xc4,0x4e,0x6c,0xaa,0xd5,0xba,0xcd,0xf4,0xc1,0x0,0x16,0x1e,0xee,0x31,0xeb,0x4a,0x28,0x14,0x3c,0x8,0x15,0x3,0xb8,0xec,0xc6,0xb4,0x57,0xed,0x1,0xfb,0x11,0x31,0x71,0xbf,0x15,0x29,0xd7,0x52,0x3d,0xbd,0xa8,0x0,0x4d,0xe7,0xeb,0xd0,0xfe,0x7f,0x48,0xff,0x28,0x29,0x2c,0x11,0x2f,0xe8,0xc,0xcd,0xf0,0x2e,0x2c,0xe0,0xe8,0x1e,0x3a,0xd2,0x2,0xf5,0xea,0x30,0x70,0x6,0x0,0x7,0x2d,0x6,0x39,0xfa,0x31,0xce,0xf4,0xe2,0xb2,0xda,0xd3,0x9,0x39,0x37,0x15,0xf6,0x9d,0xc5,0xd2,0xea,0xe4,0xca,0xde,0x52,0xcc,0x4f,0xd2,0x27,0x4b,0x8e,0xcf,0xfa,0x30,0x4e,0xc4,0xd4,0x16,0x6e,0x2f,0xc8,0x43,0xfa,0xb7,0x0,0x1b,0x6b,0x42,0x24,0xbb,0x2c,0x23,0x1b,0xd9,0xc1,0x77,0xd5,0xe3,0x3c,0xfd,0x3f,0x60,0xe4,0x4d,0x5b,0xd9,0xcc,0x47,0x81,0x12,0x99,0xc3,0xa3,0x9d,0xbe,0xfb,0x40,0x21,0xe5,0xe5,0x4,0xb,0x9,0x2f,0x1d,0xe8,0x96,0xb0,0x35,0xf8,0x53,0xb2,0x2a,0x7f,0xb9,0xd7,0xd2,0xfd,0x37,0xb6,0x2,0x43,0x67,0xff,0xed,0x18,0xf3,0xb,0x2e,0x2c,0x1,0x26,0x12,0xc9,0x47,0xe2,0xd2,0xd1,0xdf,0x2d,0xfb,0xda,0x6f,0x17,0x56,0x75,0xe1,0x38,0x23,0x1f,0xd5,0x3f,0x5,0x19,0xb7,0x12,0xd6,0xbf,0x2,0xf7,0x36,0x4a,0xfb,0x16,0xee,0xcf,0x18,0x14,0xd3,0x8,0xc6,0xc7,0x52,0x3d,0x1d,0xd6,0x10,0x81,0x15,0xf3,0x2c,0xf2,0xae,0x3b,0x2a,0xd5,0xf,0x2d,0x43,0x49,0x12,0x62,0x36,0xec,0xb,0x3,0xec,0xd9,0x2c,0x28,0x23,0xbc,0x4b,0xbe,0xf7,0x9,0xd5,0xef,0xba,0x18,0x46,0x69,0x5d,0xf4,0x42,0xf9,0x67,0x10,0x2b,0xf0,0xeb,0x59,0xef,0xf2,0xc0,0xbc,0xda,0xa,0xfb,0xe0,0xdc,0xfe,0x18,0x16,0x4e,0x0,0x23,0x2c,0x2e,0xd0,0x79,0x7f,0xb4,0xe6,0xf,0x3a,0x39,0x97,0x27,0x69,0x47,0x44,0x3,0xe0,0xf4,0xd5,0x3f,0x2a,0x1b,0x28,0x9d,0x5d,0xf0,0xc5,0xb,0x17,0x13,0x2d,0xa2,0x8b,0x5f,0x37,0x40,0x40,0x6a,0x53,0xd5,0xf0,0xf7,0x39,0xfc,0x3a,0xc8,0xc4,0xbc,0xc5,0xeb,0xfe,0xd5,0x76,0x5a,0x1f,0x50,0x44,0xe6,0x36,0xec,0x26,0xe0,0xb4,0x39,0xf8,0xbf,0x73,0xe3,0xf3,0x2f,0x26,0xa,0xe9,0x4a,0x37,0x22,0x1e,0x8e,0xad,0x31,0xab,0xd2,0xbd,0xc7,0xe9,0xf1,0xf0,0xb0,0x7f,0x91,0x88,0x41,0x6,0x16,0x83,0xe9,0x1,0xd,0xe5,0xfa,0xa0,0x16,0x93,0xab,0xfc,0xe2,0xdd,0xe8,0x12,0x18,0x2a,0x75,0x28,0xdb,0xf2,0xc1,0xc4,0x2b,0xd2,0xf4,0x55,0xcd,0x16,0x35,0xf7,0x38,0x51,0xea,0xd1,0xb1,0x3f,0xcb,0xdf,0x2c,0x5a,0xba,0xd6,0xb,0x31,0xe5,0x95,0xde,0xea,0xe2,0xac,0xca,0x1a,0xcf,0xba,0xcd,0xa0,0x37,0xd4,0xf9,0xc1,0xc8,0x59,0x20,0xc9,0x42,0x6b,0xf2,0xe2,0x9c,0xfe,0x81,0xec,0xef,0x29,0xfd,0xcc,0x43,0xd5,0x32,0x48,0x4c,0xf2,0xd5,0x49,0x1e,0xcb,0xc6,0xd9,0xb6,0x7,0x20,0xf4,0x4,0xb3,0x28,0x3c,0xf6,0x6,0x10,0x22,0xc,0x1f,0xc3,0x25,0x41,0x0,0xed,0xfe,0x1e,0xe,0xdb,0x7,0xfb,0x28,0xd0,0xab,0xf2,0x11,0x5f,0x5a,0x25,0x33,0x13,0x27,0x3e,0xc,0xb8,0x1d,0xff,0x92,0xf,0x23,0x30,0xb4,0x44,0x16,0xd5,0xd2,0x81,0xc6,0xa4,0xe9,0xef,0xf0,0xef,0xcf,0xfe,0xc0,0x9,0x45,0xd0,0x18,0xf0,0x78,0xea,0x36,0x0,0xf6,0xb4,0x1c,0x20,0x1b,0xfb,0xcd,0xf6,0xf4,0x0,0xd7,0xe8,0x2f,0xa9,0x1f,0x24,0x12,0x59,0x2d,0x48,0x67,0x56,0x37,0x8,0x1c,0xda,0x39,0xdd,0xcf,0x48,0x5d,0xeb,0xb5,0xec,0x3c,0xc9,0xe0,0xc9,0xdb,0xe9,0x65,0xe,0x64,0x7f,0x1b,0x44,0x59,0x33,0x29,0x3,0xf,0xa5,0x17,0xf1,0xf7,0xca,0xe8,0xfe,0x25,0x4,0x8c,0x21,0x15,0xfa,0x11,0xe7,0xcf,0xa,0x38,0xa8,0xb,0x4,0xbe,0x30,0xe9,0xdd,0xdf,0xb1,0x3c,0x9,0xb1,0x19,0x4,0x47,0x29,0x19,0x7d,0xfb,0xbb,0xaf,0xee,0xdf,0xfb,0x18,0x1a,0xcf,0xd4,0x18,0xc3,0x5,0x51,0xd3,0xc9,0xda,0x29,0x6,0xf5,0xd,0xf8,0x5f,0xf4,0x50,0xd,0xf4,0x1b,0x27,0x4b,0xf,0x5,0xce,0xa5,0x14,0x26,0x12,0x81,0x6,0x0,0x13,0xe2,0x31,0xf8,0xdb,0xbf,0x4b,0xf5,0x2e,0x37,0x87,0xe1,0x11,0x4,0x17,0xea,0x9,0xc,0xa,0x3e,0xc4,0xe1,0xed,0xa7,0xe7,0xa,0x67,0x65,0x41,0xb,0xb,0x5,0x18,0xff,0xc2,0x49,0x17,0xbf,0x5e,0x30,0x2c,0x2c,0xdc,0x31,0xff,0xf5,0x81,0xe,0x9f,0xdd,0xcb,0xeb,0xc7,0xd3,0x1,0xf8,0x17,0x48,0xe,0x14,0x14,0x20,0x25,0x61,0x19,0xe1,0x8b,0x25,0x2f,0xe3,0xc,0x17,0xe5,0x5e,0xc,0xf5,0x14,0xf,0xf,0x4,0x24,0x21,0xf6,0xe8,0xc7,0x8,0xc7,0xac,0xf3,0x1a,0x35,0x1f,0x1c,0x51,0xc8,0xfa,0x37,0x5b,0xc1,0x9,0xef,0xd6,0x2f,0x14,0x3a,0xba,0x9,0x3,0xc9,0xf6,0x8d,0xda,0x8c,0xee,0x34,0xdd,0x11,0xd6,0xe7,0xd1,0xf3,0x18,0xd7,0xe,0x31,0x7f,0xe3,0x20,0x25,0x20,0xc7,0x35,0x9,0xc3,0x1e,0x1b,0x22,0x37,0xbe,0xf0,0xf,0x3,0x29,0xac,0x4,0x4e,0xd,0x1d,0xf2,0xbb,0xb5,0x81,0xf2,0x0,0x4b,0x3,0x2,0x58,0xd3,0x9e,0xfc,0x5,0xb5,0xf0,0xd9,0xdb,0x5f,0x4,0x56,0xf6,0x1c,0xd7,0x98,0xd1,0xa4,0xe7,0xc7,0xf7,0xf2,0x0,0xd,0x6,0xd9,0xe0,0xeb,0x26,0xef,0xdf,0xed,0x64,0xde,0x4a,0xd,0xfc,0xf0,0x29,0xa,0xbb,0x13,0xe,0xb7,0xe4,0xed,0x2,0xa9,0x13,0x71,0xf5,0xd,0xef,0xca,0xcb,0xca,0xb9,0xd4,0x14,0xf4,0xc8,0xca,0x9d,0x15,0xc6,0x24,0xd6,0xeb,0x29,0x7,0xe,0x32,0x41,0x36,0x1e,0xcc,0x7a,0x81,0xb4,0x3c,0x24,0xe8,0xfc,0x32,0x3,0xa,0x15,0x4,0xe6,0x10,0x1e,0x63,0x17,0x29,0xff,0xa8,0xf8,0x21,0xf,0xf2,0xc9,0x1f,0x26,0xe6,0xef,0x24,0xec,0x25,0x75,0xdc,0xd3,0xf1,0x16,0x5d,0x98,0x7,0x2c,0x30,0xf3,0xa6,0xba,0xc7,0xaf,0xe8,0xf,0x33,0x2d,0xfa,0xe0,0x32,0xf7,0x19,0xc5,0xb0,0x46,0xe2,0xf,0x69,0x44,0x60,0x7f,0xa1,0x45,0x30,0xfd,0xdb,0xe8,0x9c,0x19,0xb5,0xca,0xc3,0xc5,0xbe,0xc,0x22,0x35,0xed,0xfc,0xea,0x4,0xf4,0x3e,0xda,0xdd,0xab,0xde,0x27,0x25,0xfb,0xfa,0x13,0xdf,0xf7,0x12,0xe0,0xd7,0x21,0x35,0xfb,0xcb,0xd2,0xe3,0xeb,0xf0,0x1e,0x59,0xe,0xae,0xbc,0xac,0x13,0xd0,0x18,0x1d,0xf5,0xb8,0x1a,0xb9,0x2d,0x7c,0xc2,0xeb,0xbe,0x5e,0x9c,0xcd,0x5d,0xff,0x21,0xf8,0x7f,0xfa,0x17,0x28,0xf0,0x58,0x13,0x26,0x19,0xe4,0xe4,0xc9,0xb3,0xc7,0x2c,0xf8,0xdc,0x1a,0x18,0x6,0xf6,0x1c,0xcb,0x47,0xb9,0x81,0x4c,0x40,0xcd,0xd6,0x13,0x61,0xfa,0x9f,0xd8,0xb3,0xf6,0xfa,0xe9,0x4d,0x8,0xd0,0xb9,0xe1,0x17,0x25,0xb3,0xf2,0x2b,0x0,0x3a,0xc0,0x7,0x71,0xc9,0xfc,0x95,0xbf,0xda,0xf9,0x3a,0x32,0x4d,0xdd,0x63,0xfd,0x33,0x9,0xf9,0x48,0xf2,0x3c,0x25,0xd9,0xe5,0xd0,0xbc,0xe,0x2,0xfc,0xff,0x15,0x75,0x4e,0x1,0xd4,0xd4,0x31,0xd5,0xfd,0x2d,0x4,0x0,0x13,0x2f,0xf0,0x9,0xe0,0x9d,0xcc,0xf8,0xa5,0xb3,0xa0,0xca,0xe4,0xd9,0xb3,0xc,0x5f,0xcf,0xc5,0x37,0x4d,0xf9,0xa7,0x1f,0x1e,0x48,0x1d,0xee,0xe0,0x22,0x8f,0xbd,0x36,0xb1,0xef,0x0,0x35,0x47,0x1e,0x40,0x37,0xd,0x32,0x6,0x0,0xf1,0x1b,0xe9,0x7f,0xd2,0xfd,0xe7,0x2d,0x4,0x1f,0xc9,0xe2,0x1a,0x1c,0x28,0x29,0xfc,0xe8,0x25,0xf7,0xe,0xbf,0x26,0x3a,0xe5,0x11,0xc0,0x11,0xf7,0x9e,0x13,0x36,0x53,0x32,0xf7,0x2b,0xe7,0xf7,0x35,0x3b,0xc6,0xf2,0x16,0xa7,0x53,0x19,0x32,0xb9,0x21,0xb,0xb6,0xe4,0x8a,0xc6,0x90,0xe3,0x1b,0xf0,0x1a,0xf4,0xe1,0xcc,0xc,0x3b,0x1a,0xee,0x10,0x7f,0xf8,0x1c,0xf,0x11,0xc5,0x16,0x22,0xe9,0x35,0xb,0x17,0x5f,0xed,0x40,0x3,0xc9,0x3,0xa,0xf4,0x33,0xc8,0x4,0xd9,0xf4,0xc4,0xaf,0x9,0x2b,0x56,0xe4,0x18,0x24,0xc5,0xc6,0x35,0x60,0xd5,0xa,0x2,0xd8,0x27,0xed,0xef,0x85,0x10,0xae,0xad,0x10,0x82,0xa3,0x91,0x9,0x22,0x0,0x43,0xfd,0xff,0xf0,0xe7,0x2f,0xea,0xf,0x17,0x7f,0x21,0xf,0x24,0xe9,0xe8,0x59,0xdd,0x3a,0xd9,0x2c,0xf7,0xd2,0x4d,0x34,0x4,0xd3,0xcc,0x69,0x1d,0xd7,0xa2,0xe4,0x10,0x44,0x23,0x3c,0xc,0xf5,0xd0,0xd6,0x3,0x28,0xe7,0x3f,0xd8,0x4f,0xfa,0xde,0x18,0xc,0x92,0xe,0xe8,0x81,0x29,0xed,0xac,0xb,0x1c,0x1b,0x22,0xe,0x2b,0x37,0x54,0x33,0x30,0x8,0xbe,0xb7,0xce,0x9,0x25,0x26,0xdf,0xd2,0x1e,0x1a,0xb,0xf6,0xd4,0x0,0x0,0x6,0x0,0x8,0x0,0x4,0x0,0x6,0x0,0x0,0x0,0x4,0x0,0x0,0x0,0x80,0x1,0x0,0x0,0x34,0x32,0x18,0x32,0xe6,0x36,0x2a,0xbd,0xd0,0x81,0x1e,0xec,0x8,0xa1,0xfc,0xef,0xf9,0xea,0xf3,0xd1,0x1b,0xa8,0xcb,0x6,0x41,0xcd,0xcb,0xcd,0x9,0xf6,0xd8,0xc1,0xfa,0xd6,0x10,0x75,0xad,0x5,0xc8,0xdc,0x19,0xe5,0x14,0xf8,0xcd,0xfd,0x13,0xa,0x26,0x11,0xa6,0xf9,0x2d,0xce,0x9c,0xde,0x24,0xf3,0x4b,0x2a,0x2c,0x9e,0x9d,0xf9,0x2e,0x1b,0x34,0xe3,0xed,0x13,0x30,0x2,0xf3,0x68,0xca,0x33,0xed,0x7f,0xe2,0xe9,0xdf,0x4d,0xe0,0xc8,0xbb,0x54,0xcc,0xc5,0xf2,0xc6,0x45,0x1e,0x30,0xed,0xdf,0xc4,0xe7,0x8,0x38,0x9a,0x17,0x3e,0x49,0xf1,0x27,0xe6,0x23,0xc0,0xc3,0xd6,0xf6,0x0,0x34,0x2,0x30,0xb6,0xf8,0xe0,0x52,0x24,0xc7,0xda,0xd6,0xd,0x3c,0x40,0x58,0x48,0x41,0x46,0x2c,0x52,0xcc,0xed,0x4c,0xb5,0x3f,0x37,0x9b,0x4f,0x7f,0x48,0x9e,0xaf,0xec,0x56,0xeb,0xc1,0xe6,0xe7,0xed,0xe4,0x38,0xde,0x69,0x1c,0x26,0x5,0xac,0xde,0xaf,0x9d,0x36,0xd0,0xe8,0x29,0x5c,0xc7,0x57,0xb8,0x53,0xaf,0xf1,0xf7,0xc4,0xa9,0x9,0x76,0xe1,0xa4,0xf2,0xfd,0xd7,0xd4,0x7e,0xd,0x57,0x3b,0x23,0xbd,0x21,0xfd,0xee,0xb1,0xe2,0xef,0x2c,0x18,0x5,0x22,0xd7,0xb2,0x43,0x0,0xfd,0xc5,0xdc,0x32,0xea,0xc8,0x5c,0x5a,0x48,0x11,0xdf,0x4a,0x1d,0xf0,0xc2,0xdc,0xf0,0x1b,0xe4,0x25,0x26,0x2b,0x14,0x32,0x46,0x18,0xdd,0x3d,0xc5,0x33,0xaf,0x45,0x3f,0x5f,0xdc,0x3a,0x81,0xe1,0xd7,0x10,0xea,0xe8,0xc7,0xca,0xec,0x2e,0xd7,0xab,0xc3,0xb2,0x8e,0xdf,0xc4,0xde,0xc9,0xd4,0x58,0x5b,0xc3,0x3d,0xbc,0xd7,0x1c,0xe6,0xe1,0xba,0xd9,0x9,0xac,0x33,0xbe,0xd,0x3a,0xfb,0xbf,0x51,0x2c,0xc1,0xf4,0xcc,0xa8,0xc2,0xee,0xc9,0x54,0x37,0xd5,0x3c,0x5a,0xc,0x19,0x45,0xe7,0x9c,0xe9,0xf8,0x2a,0x19,0x4f,0xb,0x9c,0xc4,0x2c,0x48,0x15,0x17,0xa0,0x81,0xbf,0xf7,0x1e,0xee,0xc3,0x9b,0x9e,0xf7,0x7,0xe0,0xe7,0xe4,0xb4,0x8a,0xde,0x12,0x15,0x35,0x16,0xa,0xfb,0x3d,0x24,0x34,0x68,0xbe,0x54,0x17,0x2b,0x3b,0x71,0x18,0xa7,0x69,0xdf,0x42,0xc7,0x4c,0x4,0x53,0xe6,0x1e,0xe4,0xc7,0x2d,0xc1,0xe5,0xa,0xd2,0x4f,0xdf,0xfc,0x38,0x32,0xcc,0x38,0x7,0xda,0x62,0xd9,0xa4,0x67,0x38,0x7f,0x1,0x45,0xe0,0xd6,0x1b,0x65,0x52,0x96,0x94,0xed,0xff,0xff,0xf,0x0,0x0,0x0,0x4d,0x4c,0x49,0x52,0x20,0x43,0x6f,0x6e,0x76,0x65,0x72,0x74,0x65,0x64,0x2e,0x0,0x1,0x0,0x0,0x0,0x14,0x0,0x0,0x0,0x0,0x0,0xe,0x0,0x18,0x0,0x14,0x0,0x10,0x0,0xc,0x0,0x8,0x0,0x4,0x0,0xe,0x0,0x0,0x0,0x14,0x0,0x0,0x0,0x1c,0x0,0x0,0x0,0x60,0x2,0x0,0x0,0x64,0x2,0x0,0x0,0x68,0x2,0x0,0x0,0x4,0x0,0x0,0x0,0x6d,0x61,0x69,0x6e,0x0,0x0,0x0,0x0,0xb,0x0,0x0,0x0,0x14,0x2,0x0,0x0,0xc0,0x1,0x0,0x0,0x88,0x1,0x0,0x0,0x54,0x1,0x0,0x0,0x2c,0x1,0x0,0x0,0xf8,0x0,0x0,0x0,0xb4,0x0,0x0,0x0,0x8c,0x0,0x0,0x0,0x64,0x0,0x0,0x0,0x3c,0x0,0x0,0x0,0x4,0x0,0x0,0x0,0x26,0xfe,0xff,0xff,0x10,0x0,0x0,0x0,0x0,0x0,0x0,0x8,0x10,0x0,0x0,0x0,0x14,0x0,0x0,0x0,0x66,0xfe,0xff,0xff,0x0,0x0,0x0,0x1,0x1,0x0,0x0,0x0,0x16,0x0,0x0,0x0,0x3,0x0,0x0,0x0,0x15,0x0,0x0,0x0,0x1,0x0,0x0,0x0,0xff,0xff,0xff,0xff,0xda,0xfe,0xff,0xff,0xc,0x0,0x0,0x0,0x10,0x0,0x0,0x0,0x1,0x0,0x0,0x0,0x1,0x0,0x0,0x0,0x15,0x0,0x0,0x0,0x2,0x0,0x0,0x0,0x14,0x0,0x0,0x0,0x5,0x0,0x0,0x0,0xfe,0xfe,0xff,0xff,0xc,0x0,0x0,0x0,0x10,0x0,0x0,0x0,0x5,0x0,0x0,0x0,0x1,0x0,0x0,0x0,0x14,0x0,0x0,0x0,0x2,0x0,0x0,0x0,0x13,0x0,0x0,0x0,0x6,0x0,0x0,0x0,0x22,0xff,0xff,0xff,0xc,0x0,0x0,0x0,0x10,0x0,0x0,0x0,0x1,0x0,0x0,0x0,0x1,0x0,0x0,0x0,0x13,0x0,0x0,0x0,0x2,0x0,0x0,0x0,0x12,0x0,0x0,0x0,0x7,0x0,0x0,0x0,0xce,0xff,0xff,0xff,0x14,0x0,0x0,0x0,0x0,0x0,0x0,0x15,0x10,0x0,0x0,0x0,0x14,0x0,0x0,0x0,0x4,0x0,0x0,0x0,0xd0,0xee,0xff,0xff,0x1,0x0,0x0,0x0,0x12,0x0,0x0,0x0,0x2,0x0,0x0,0x0,0x11,0x0,0x0,0x0,0x4,0x0,0x0,0x0,0x0,0x0,0xe,0x0,0x18,0x0,0x14,0x0,0x10,0x0,0xc,0x0,0xb,0x0,0x4,0x0,0xe,0x0,0x0,0x0,0x14,0x0,0x0,0x0,0x0,0x0,0x0,0x1b,0x10,0x0,0x0,0x0,0x14,0x0,0x0,0x0,0x3,0x0,0x0,0x0,0x10,0xef,0xff,0xff,0x1,0x0,0x0,0x0,0x11,0x0,0x0,0x0,0x2,0x0,0x0,0x0,0x10,0x0,0x0,0x0,0xb,0x0,0x0,0x0,0xb6,0xff,0xff,0xff,0xc,0x0,0x0,0x0,0x10,0x0,0x0,0x0,0x1,0x0,0x0,0x0,0x1,0x0,0x0,0x0,0x10,0x0,0x0,0x0,0x2,0x0,0x0,0x0,0xf,0x0,0x0,0x0,0x8,0x0,0x0,0x0,0xda,0xff,0xff,0xff,0xc,0x0,0x0,0x0,0x10,0x0,0x0,0x0,0x2,0x0,0x0,0x0,0x1,0x0,0x0,0x0,0xf,0x0,0x0,0x0,0x2,0x0,0x0,0x0,0xe,0x0,0x0,0x0,0x9,0x0,0x0,0x0,0x0,0x0,0xa,0x0,0x10,0x0,0xc,0x0,0x8,0x0,0x4,0x0,0xa,0x0,0x0,0x0,0xc,0x0,0x0,0x0,0x10,0x0,0x0,0x0,0x1,0x0,0x0,0x0,0x1,0x0,0x0,0x0,0xe,0x0,0x0,0x0,0x2,0x0,0x0,0x0,0xd,0x0,0x0,0x0,0xa,0x0,0x0,0x0,0x0,0x0,0xe,0x0,0x16,0x0,0x0,0x0,0x10,0x0,0xc,0x0,0xb,0x0,0x4,0x0,0xe,0x0,0x0,0x0,0x1c,0x0,0x0,0x0,0x0,0x0,0x0,0x8,0x1c,0x0,0x0,0x0,0x20,0x0,0x0,0x0,0x0,0x0,0xa,0x0,0x8,0x0,0x0,0x0,0x0,0x0,0x7,0x0,0xa,0x0,0x0,0x0,0x0,0x0,0x0,0x1,0x1,0x0,0x0,0x0,0xd,0x0,0x0,0x0,0x3,0x0,0x0,0x0,0xc,0x0,0x0,0x0,0x2,0x0,0x0,0x0,0xff,0xff,0xff,0xff,0x0,0x0,0xe,0x0,0x14,0x0,0x0,0x0,0x10,0x0,0xc,0x0,0xb,0x0,0x4,0x0,0xe,0x0,0x0,0x0,0x10,0x0,0x0,0x0,0x0,0x0,0x0,0x8,0xc,0x0,0x0,0x0,0x10,0x0,0x0,0x0,0x14,0xf0,0xff,0xff,0x1,0x0,0x0,0x0,0xc,0x0,0x0,0x0,0x3,0x0,0x0,0x0,0x0,0x0,0x0,0x0,0x3,0x0,0x0,0x0,0xff,0xff,0xff,0xff,0x1,0x0,0x0,0x0,0x16,0x0,0x0,0x0,0x1,0x0,0x0,0x0,0x0,0x0,0x0,0x0,0x17,0x0,0x0,0x0,0xa8,0xf,0x0,0x0,0xb4,0xe,0x0,0x0,0x3c,0xb,0x0,0x0,0xb0,0x7,0x0,0x0,0x3c,0x7,0x0,0x0,0xd8,0x6,0x0,0x0,0x4c,0x6,0x0,0x0,0xd0,0x5,0x0,0x0,0x54,0x5,0x0,0x0,0x8,0x5,0x0,0x0,0xc8,0x4,0x0,0x0,0x4c,0x4,0x0,0x0,0xdc,0x3,0x0,0x0,0x94,0x3,0x0,0x0,0x48,0x3,0x0,0x0,0xfc,0x2,0x0,0x0,0x7c,0x2,0x0,0x0,0x4,0x2,0x0,0x0,0x8c,0x1,0x0,0x0,0x18,0x1,0x0,0x0,0x98,0x0,0x0,0x0,0x50,0x0,0x0,0x0,0x4,0x0,0x0,0x0,0xca,0xf0,0xff,0xff,0x0,0x0,0x0,0x1,0xc,0x0,0x0,0x0,0xc,0x0,0x0,0x0,0x2c,0x0,0x0,0x0,0xb4,0xf0,0xff,0xff,0x1f,0x0,0x0,0x0,0x73,0x65,0x72,0x76,0x69,0x6e,0x67,0x5f,0x64,0x65,0x66,0x61,0x75,0x6c,0x74,0x5f,0x6f,0x75,0x74,0x70,0x75,0x74,0x5f,0x30,0x5f,0x6f,0x75,0x74,0x70,0x75,0x74,0x0,0x2,0x0,0x0,0x0,0x1,0x0,0x0,0x0,0x6,0x0,0x0,0x0,0x12,0xf1,0xff,0xff,0x0,0x0,0x0,0x1,0xc,0x0,0x0,0x0,0xc,0x0,0x0,0x0,0x28,0x0,0x0,0x0,0xfc,0xf0,0xff,0xff,0x1a,0x0,0x0,0x0,0x6d,0x6f,0x64,0x65,0x6c,0x73,0x5f,0x6c,0x69,0x6e,0x65,0x61,0x72,0x2e,0x54,0x69,0x6e,0x79,0x4c,0x69,0x6e,0x65,0x61,0x72,0x3b,0x36,0x0,0x0,0x2,0x0,0x0,0x0,0x1,0x0,0x0,0x0,0x40,0x0,0x0,0x0,0x56,0xf1,0xff,0xff,0x0,0x0,0x0,0x1,0xc,0x0,0x0,0x0,0xc,0x0,0x0,0x0,0x58,0x0,0x0,0x0,0x40,0xf1,0xff,0xff,0x4a,0x0,0x0,0x0,0x6d,0x6f,0x64,0x65,0x6c,0x73,0x5f,0x6c,0x69,0x6e,0x65,0x61,0x72,0x2e,0x54,0x69,0x6e,0x79,0x4c,0x69,0x6e,0x65,0x61,0x72,0x2f,0x74,0x6f,0x72,0x63,0x68,0x2e,0x6e,0x6e,0x2e,0x6d,0x6f,0x64,0x75,0x6c,0x65,0x73,0x2e,0x70,0x6f,0x6f,0x6c,0x69,0x6e,0x67,0x2e,0x41,0x64,0x61,0x70,0x74,0x69,0x76,0x65,0x41,0x76,0x67,0x50,0x6f,0x6f,0x6c,0x31,0x64,0x5f,0x70,0x6f,0x6f,0x6c,0x3b,0x39,0x0,0x0,0x4,0x0,0x0,0x0,0x1,0x0,0x0,0x0,0x40,0x0,0x0,0x0,0x1,0x0,0x0,0x0,0x1,0x0,0x0,0x0,0xd2,0xf1,0xff,0xff,0x0,0x0,0x0,0x1,0xc,0x0,0x0,0x0,0xc,0x0,0x0,0x0,0x58,0x0,0x0,0x0,0xbc,0xf1,0xff,0xff,0x4a,0x0,0x0,0x0,0x6d,0x6f,0x64,0x65,0x6c,0x73,0x5f,0x6c,0x69,0x6e,0x65,0x61,0x72,0x2e,0x54,0x69,0x6e,0x79,0x4c,0x69,0x6e,0x65,0x61,0x72,0x2f,0x74,0x6f,0x72,0x63,0x68,0x2e,0x6e,0x6e,0x2e,0x6d,0x6f,0x64,0x75,0x6c,0x65,0x73,0x2e,0x70,0x6f,0x6f,0x6c,0x69,0x6e,0x67,0x2e,0x41,0x64,0x61,0x70,0x74,0x69,0x76,0x65,0x41,0x76,0x67,0x50,0x6f,0x6f,0x6c,0x31,0x64,0x5f,0x70,0x6f,0x6f,0x6c,0x3b,0x38,0x0,0x0,0x1,0x0,0x0,0x0,0x40,0x0,0x0,0x0,0x42,0xf2,0xff,0xff,0x0,0x0,0x0,0x1,0xc,0x0,0x0,0x0,0xc,0x0,0x0,0x0,0x58,0x0,0x0,0x0,0x2c,0xf2,0xff,0xff,0x4a,0x0,0x0,0x0,0x6d,0x6f,0x64,0x65,0x6c,0x73,0x5f,0x6c,0x69,0x6e,0x65,0x61,0x72,0x2e,0x54,0x69,0x6e,0x79,0x4c,0x69,0x6e,0x65,0x61,0x72,0x2f,0x74,0x6f,0x72,0x63,0x68,0x2e,0x6e,0x6e,0x2e,0x6d,0x6f,0x64,0x75,0x6c,0x65,0x73,0x2e,0x70,0x6f,0x6f,0x6c,0x69,0x6e,0x67,0x2e,0x41,0x64,0x61,0x70,0x74,0x69,0x76,0x65,0x41,0x76,0x67,0x50,0x6f,0x6f,0x6c,0x31,0x64,0x5f,0x70,0x6f,0x6f,0x6c,0x3b,0x37,0x0,0x0,0x2,0x0,0x0,0x0,0x1,0x0,0x0,0x0,0x40,0x0,0x0,0x0,0xb6,0xf2,0xff,0xff,0x0,0x0,0x0,0x1,0xc,0x0,0x0,0x0,0xc,0x0,0x0,0x0,0x58,0x0,0x0,0x0,0xa0,0xf2,0xff,0xff,0x4a,0x0,0x0,0x0,0x6d,0x6f,0x64,0x65,0x6c,0x73,0x5f,0x6c,0x69,0x6e,0x65,0x61,0x72,0x2e,0x54,0x69,0x6e,0x79,0x4c,0x69,0x6e,0x65,0x61,0x72,0x2f,0x74,0x6f,0x72,0x63,0x68,0x2e,0x6e,0x6e,0x2e,0x6d,0x6f,0x64,0x75,0x6c,0x65,0x73,0x2e,0x70,0x6f,0x6f,0x6c,0x69,0x6e,0x67,0x2e,0x41,0x64,0x61,0x70,0x74,0x69,0x76,0x65,0x41,0x76,0x67,0x50,0x6f,0x6f,0x6c,0x31,0x64,0x5f,0x70,0x6f,0x6f,0x6c,0x3b,0x36,0x0,0x0,0x2,0x0,0x0,0x0,0x1,0x0,0x0,0x0,0x40,0x0,0x0,0x0,0x2a,0xf3,0xff,0xff,0x0,0x0,0x0,0x1,0xc,0x0,0x0,0x0,0xc,0x0,0x0,0x0,0x58,0x0,0x0,0x0,0x14,0xf3,0xff,0xff,0x4a,0x0,0x0,0x0,0x6d,0x6f,0x64,0x65,0x6c,0x73,0x5f,0x6c,0x69,0x6e,0x65,0x61,0x72,0x2e,0x54,0x69,0x6e,0x79,0x4c,0x69,0x6e,0x65,0x61,0x72,0x2f,0x74,0x6f,0x72,0x63,0x68,0x2e,0x6e,0x6e,0x2e,0x6d,0x6f,0x64,0x75,0x6c,0x65,0x73,0x2e,0x70,0x6f,0x6f,0x6c,0x69,0x6e,0x67,0x2e,0x41,0x64,0x61,0x70,0x74,0x69,0x76,0x65,0x41,0x76,0x67,0x50,0x6f,0x6f,0x6c,0x31,0x64,0x5f,0x70,0x6f,0x6f,0x6c,0x3b,0x35,0x0,0x0,0x4,0x0,0x0,0x0,0x1,0x0,0x0,0x0,0x40,0x0,0x0,0x0,0x1,0x0,0x0,0x0,0xa,0x0,0x0,0x0,0xa6,0xf3,0xff,0xff,0x0,0x0,0x0,0x1,0xc,0x0,0x0,0x0,0xc,0x0,0x0,0x0,0x28,0x0,0x0,0x0,0x90,0xf3,0xff,0xff,0x1a,0x0,0x0,0x0,0x6d,0x6f,0x64,0x65,0x6c,0x73,0x5f,0x6c,0x69,0x6e,0x65,0x61,0x72,0x2e,0x54,0x69,0x6e,0x79,0x4c,0x69,0x6e,0x65,0x61,0x72,0x3b,0x35,0x0,0x0,0x3,0x0,0x0,0x0,0x1,0x0,0x0,0x0,0x40,0x0,0x0,0x0,0xa,0x0,0x0,0x0,0xee,0xf3,0xff,0xff,0x0,0x0,0x0,0x1,0xc,0x0,0x0,0x0,0xc,0x0,0x0,0x0,0x28,0x0,0x0,0x0,0xd8,0xf3,0xff,0xff,0x1a,0x0,0x0,0x0,0x6d,0x6f,0x64,0x65,0x6c,0x73,0x5f,0x6c,0x69,0x6e,0x65,0x61,0x72,0x2e,0x54,0x69,0x6e,0x79,0x4c,0x69,0x6e,0x65,0x61,0x72,0x3b,0x34,0x0,0x0,0x3,0x0,0x0,0x0,0x1,0x0,0x0,0x0,0xa,0x0,0x0,0x0,0x40,0x0,0x0,0x0,0x36,0xf4,0xff,0xff,0x0,0x0,0x0,0x1,0xc,0x0,0x0,0x0,0xc,0x0,0x0,0x0,0x28,0x0,0x0,0x0,0x20,0xf4,0xff,0xff,0x1a,0x0,0x0,0x0,0x6d,0x6f,0x64,0x65,0x6c,0x73,0x5f,0x6c,0x69,0x6e,0x65,0x61,0x72,0x2e,0x54,0x69,0x6e,0x79,0x4c,0x69,0x6e,0x65,0x61,0x72,0x3b,0x33,0x0,0x0,0x2,0x0,0x0,0x0,0xa,0x0,0x0,0x0,0x40,0x0,0x0,0x0,0x7a,0xf4,0xff,0xff,0x0,0x0,0x0,0x1,0xc,0x0,0x0,0x0,0xc,0x0,0x0,0x0,0x50,0x0,0x0,0x0,0x64,0xf4,0xff,0xff,0x43,0x0,0x0,0x0,0x6d,0x6f,0x64,0x65,0x6c,0x73,0x5f,0x6c,0x69,0x6e,0x65,0x61,0x72,0x2e,0x54,0x69,0x6e,0x79,0x4c,0x69,0x6e,0x65,0x61,0x72,0x2f,0x74,0x6f,0x72,0x63,0x68,0x2e,0x6e,0x6e,0x2e,0x6d,0x6f,0x64,0x75,0x6c,0x65,0x73,0x2e,0x6c,0x69,0x6e,0x65,0x61,0x72,0x2e,0x4c,0x69,0x6e,0x65,0x61,0x72,0x5f,0x6c,0x69,0x6e,0x65,0x61,0x72,0x5f,0x69,0x6e,0x3b,0x31,0x0,0x2,0x0,0x0,0x0,0xa,0x0,0x0,0x0,0x40,0x0,0x0,0x0,0xd6,0xf5,0xff,0xff,0x0,0x0,0x0,0x1,0x14,0x0,0x0,0x0,0x14,0x0,0x0,0x0,0xb,0x0,0x0,0x0,0x0,0x0,0x0,0x2,0x58,0x0,0x0,0x0,0xd8,0xf4,0xff,0xff,0x4a,0x0,0x0,0x0,0x6d,0x6f,0x64,0x65,0x6c,0x73,0x5f,0x6c,0x69,0x6e,0x65,0x61,0x72,0x2e,0x54,0x69,0x6e,0x79,0x4c,0x69,0x6e,0x65,0x61,0x72,0x2f,0x74,0x6f,0x72,0x63,0x68,0x2e,0x6e,0x6e,0x2e,0x6d,0x6f,0x64,0x75,0x6c,0x65,0x73,0x2e,0x70,0x6f,0x6f,0x6c,0x69,0x6e,0x67,0x2e,0x41,0x64,0x61,0x70,0x74,0x69,0x76,0x65,0x41,0x76,0x67,0x50,0x6f,0x6f,0x6c,0x31,0x64,0x5f,0x70,0x6f,0x6f,0x6c,0x3b,0x34,0x0,0x0,0x1,0x0,0x0,0x0,0x2,0x0,0x0,0x0,0x4e,0xf6,0xff,0xff,0x0,0x0,0x0,0x1,0x14,0x0,0x0,0x0,0x14,0x0,0x0,0x0,0xa,0x0,0x0,0x0,0x0,0x0,0x0,0x2,0x1c,0x0,0x0,0x0,0x50,0xf5,0xff,0xff,0xe,0x0,0x0,0x0,0x61,0x72,0x69,0x74,0x68,0x2e,0x63,0x6f,0x6e,0x73,0x74,0x61,0x6e,0x74,0x0,0x0,0x1,0x0,0x0,0x0,0x3,0x0,0x0,0x0,0x8a,0xf6,0xff,0xff,0x0,0x0,0x0,0x1,0x14,0x0,0x0,0x0,0x14,0x0,0x0,0x0,0x9,0x0,0x0,0x0,0x0,0x0,0x0,0x2,0x28,0x0,0x0,0x0,0x8c,0xf5,0xff,0xff,0x1a,0x0,0x0,0x0,0x6d,0x6f,0x64,0x65,0x6c,0x73,0x5f,0x6c,0x69,0x6e,0x65,0x61,0x72,0x2e,0x54,0x69,0x6e,0x79,0x4c,0x69,0x6e,0x65,0x61,0x72,0x3b,0x32,0x0,0x0,0x1,0x0,0x0,0x0,0x3,0x0,0x0,0x0,0xd2,0xf6,0xff,0xff,0x0,0x0,0x0,0x1,0x14,0x0,0x0,0x0,0x14,0x0,0x0,0x0,0x8,0x0,0x0,0x0,0x0,0x0,0x0,0x2,0x58,0x0,0x0,0x0,0xd4,0xf5,0xff,0xff,0x4a,0x0,0x0,0x0,0x6d,0x6f,0x64,0x65,0x6c,0x73,0x5f,0x6c,0x69,0x6e,0x65,0x61,0x72,0x2e,0x54,0x69,0x6e,0x79,0x4c,0x69,0x6e,0x65,0x61,0x72,0x2f,0x74,0x6f,0x72,0x63,0x68,0x2e,0x6e,0x6e,0x2e,0x6d,0x6f,0x64,0x75,0x6c,0x65,0x73,0x2e,0x70,0x6f,0x6f,0x6c,0x69,0x6e,0x67,0x2e,0x41,0x64,0x61,0x70,0x74,0x69,0x76,0x65,0x41,0x76,0x67,0x50,0x6f,0x6f,0x6c,0x31,0x64,0x5f,0x70,0x6f,0x6f,0x6c,0x3b,0x33,0x0,0x0,0x1,0x0,0x0,0x0,0x4,0x0,0x0,0x0,0x4a,0xf7,0xff,0xff,0x0,0x0,0x0,0x1,0x14,0x0,0x0,0x0,0x14,0x0,0x0,0x0,0x7,0x0,0x0,0x0,0x0,0x0,0x0,0x2,0x58,0x0,0x0,0x0,0x4c,0xf6,0xff,0xff,0x4a,0x0,0x0,0x0,0x6d,0x6f,0x64,0x65,0x6c,0x73,0x5f,0x6c,0x69,0x6e,0x65,0x61,0x72,0x2e,0x54,0x69,0x6e,0x79,0x4c,0x69,0x6e,0x65,0x61,0x72,0x2f,0x74,0x6f,0x72,0x63,0x68,0x2e,0x6e,0x6e,0x2e,0x6d,0x6f,0x64,0x75,0x6c,0x65,0x73,0x2e,0x70,0x6f,0x6f,0x6c,0x69,0x6e,0x67,0x2e,0x41,0x64,0x61,0x70,0x74,0x69,0x76,0x65,0x41,0x76,0x67,0x50,0x6f,0x6f,0x6c,0x31,0x64,0x5f,0x70,0x6f,0x6f,0x6c,0x3b,0x32,0x0,0x0,0x1,0x0,0x0,0x0,0x1,0x0,0x0,0x0,0xc2,0xf7,0xff,0xff,0x0,0x0,0x0,0x1,0x14,0x0,0x0,0x0,0x14,0x0,0x0,0x0,0x6,0x0,0x0,0x0,0x0,0x0,0x0,0x2,0x58,0x0,0x0,0x0,0xc4,0xf6,0xff,0xff,0x4a,0x0,0x0,0x0,0x6d,0x6f,0x64,0x65,0x6c,0x73,0x5f,0x6c,0x69,0x6e,0x65,0x61,0x72,0x2e,0x54,0x69,0x6e,0x79,0x4c,0x69,0x6e,0x65,0x61,0x72,0x2f,0x74,0x6f,0x72,0x63,0x68,0x2e,0x6e,0x6e,0x2e,0x6d,0x6f,0x64,0x75,0x6c,0x65,0x73,0x2e,0x70,0x6f,0x6f,0x6c,0x69,0x6e,0x67,0x2e,0x41,0x64,0x61,0x70,0x74,0x69,0x76,0x65,0x41,0x76,0x67,0x50,0x6f,0x6f,0x6c,0x31,0x64,0x5f,0x70,0x6f,0x6f,0x6c,0x3b,0x31,0x0,0x0,0x5,0x0,0x0,0x0,0x1,0x0,0x0,0x0,0x40,0x0,0x0,0x0,0x1,0x0,0x0,0x0,0x1,0x0,0x0,0x0,0x1,0x0,0x0,0x0,0x4a,0xf8,0xff,0xff,0x0,0x0,0x0,0x1,0x14,0x0,0x0,0x0,0x14,0x0,0x0,0x0,0x5,0x0,0x0,0x0,0x0,0x0,0x0,0x2,0x28,0x0,0x0,0x0,0x4c,0xf7,0xff,0xff,0x1a,0x0,0x0,0x0,0x6d,0x6f,0x64,0x65,0x6c,0x73,0x5f,0x6c,0x69,0x6e,0x65,0x61,0x72,0x2e,0x54,0x69,0x6e,0x79,0x4c,0x69,0x6e,0x65,0x61,0x72,0x3b,0x31,0x0,0x0,0x1,0x0,0x0,0x0,0x2,0x0,0x0,0x0,0x0,0x0,0x16,0x0,0x18,0x0,0x14,0x0,0x0,0x0,0x10,0x0,0xc,0x0,0x8,0x0,0x0,0x0,0x0,0x0,0x0,0x0,0x7,0x0,0x16,0x0,0x0,0x0,0x0,0x0,0x0,0x1,0x10,0x0,0x0,0x0,0x10,0x0,0x0,0x0,0x4,0x0,0x0,0x0,0x58,0x0,0x0,0x0,0xa8,0xf7,0xff,0xff,0x49,0x0,0x0,0x0,0x6d,0x6f,0x64,0x65,0x6c,0x73,0x5f,0x6c,0x69,0x6e,0x65,0x61,0x72,0x2e,0x54,0x69,0x6e,0x79,0x4c,0x69,0x6e,0x65,0x61,0x72,0x2f,0x74,0x6f,0x72,0x63,0x68,0x2e,0x6e,0x6e,0x2e,0x6d,0x6f,0x64,0x75,0x6c,0x65,0x73,0x2e,0x70,0x6f,0x6f,0x6c,0x69,0x6e,0x67,0x2e,0x41,0x64,0x61,0x70,0x74,0x69,0x76,0x65,0x41,0x76,0x67,0x50,0x6f,0x6f,0x6c,0x31,0x64,0x5f,0x70,0x6f,0x6f,0x6c,0x3b,0x0,0x0,0x0,0x0,0x0,0x0,0x0,0x1a,0xf9,0xff,0xff,0x0,0x0,0x0,0x1,0x14,0x0,0x0,0x0,0x28,0x3,0x0,0x0,0x3,0x0,0x0,0x0,0x0,0x0,0x0,0x9,0x64,0x3,0x0,0x0,0x4,0xf9,0xff,0xff,0x8,0x0,0x0,0x0,0xc,0x2,0x0,0x0,0x40,0x0,0x0,0x0,0x0,0x0,0x0,0x0,0x0,0x0,0x0,0x0,0x0,0x0,0x0,0x0,0x0,0x0,0x0,0x0,0x0,0x0,0x0,0x0,0x0,0x0,0x0,0x0,0x0,0x0,0x0,0x0,0x0,0x0,0x0,0x0,0x0,0x0,0x0,0x0,0x0,0x0,0x0,0x0,0x0,0x0,0x0,0x0,0x0,0x0,0x0,0x0,0x0,0x0,0x0,0x0,0x0,0x0,0x0,0x0,0x0,0x0,0x0,0x0,0x0,0x0,0x0,0x0,0x0,0x0,0x0,0x0,0x0,0x0,0x0,0x0,0x0,0x0,0x0,0x0,0x0,0x0,0x0,0x0,0x0,0x0,0x0,0x0,0x0,0x0,0x0,0x0,0x0,0x0,0x0,0x0,0x0,0x0,0x0,0x0,0x0,0x0,0x0,0x0,0x0,0x0,0x0,0x0,0x0,0x0,0x0,0x0,0x0,0x0,0x0,0x0,0x0,0x0,0x0,0x0,0x0,0x0,0x0,0x0,0x0,0x0,0x0,0x0,0x0,0x0,0x0,0x0,0x0,0x0,0x0,0x0,0x0,0x0,0x0,0x0,0x0,0x0,0x0,0x0,0x0,0x0,0x0,0x0,0x0,0x0,0x0,0x0,0x0,0x0,0x0,0x0,0x0,0x0,0x0,0x0,0x0,0x0,0x0,0x0,0x0,0x0,0x0,0x0,0x0,0x0,0x0,0x0,0x0,0x0,0x0,0x0,0x0,0x0,0x0,0x0,0x0,0x0,0x0,0x0,0x0,0x0,0x0,0x0,0x0,0x0,0x0,0x0,0x0,0x0,0x0,0x0,0x0,0x0,0x0,0x0,0x0,0x0,0x0,0x0,0x0,0x0,0x0,0x0,0x0,0x0,0x0,0x0,0x0,0x0,0x0,0x0,0x0,0x0,0x0,0x0,0x0,0x0,0x0,0x0,0x0,0x0,0x0,0x0,0x0,0x0,0x0,0x0,0x0,0x0,0x0,0x0,0x0,0x0,0x0,0x0,0x0,0x0,0x0,0x0,0x0,0x0,0x0,0x0,0x0,0x0,0x0,0x0,0x0,0x0,0x0,0x0,0x0,0x0,0x0,0x0,0x0,0x0,0x0,0x0,0x0,0x0,0x0,0x0,0x0,0x0,0x0,0x0,0x0,0x0,0x0,0x0,0x0,0x0,0x0,0x0,0x0,0x0,0x0,0x0,0x0,0x0,0x0,0x0,0x0,0x0,0x0,0x0,0x0,0x0,0x0,0x0,0x0,0x0,0x0,0x0,0x0,0x0,0x0,0x0,0x0,0x0,0x0,0x0,0x0,0x0,0x0,0x0,0x0,0x0,0x0,0x0,0x0,0x0,0x0,0x0,0x0,0x0,0x0,0x0,0x0,0x0,0x0,0x0,0x0,0x0,0x0,0x0,0x0,0x0,0x0,0x0,0x0,0x0,0x0,0x0,0x0,0x0,0x0,0x0,0x0,0x0,0x0,0x0,0x0,0x0,0x0,0x0,0x0,0x0,0x0,0x0,0x0,0x0,0x0,0x0,0x0,0x0,0x0,0x0,0x0,0x0,0x0,0x0,0x0,0x0,0x0,0x0,0x0,0x0,0x0,0x0,0x0,0x0,0x0,0x0,0x0,0x0,0x0,0x0,0x0,0x0,0x0,0x0,0x0,0x0,0x0,0x0,0x0,0x0,0x0,0x0,0x0,0x0,0x0,0x0,0x0,0x0,0x0,0x0,0x0,0x0,0x0,0x0,0x0,0x0,0x0,0x0,0x0,0x0,0x0,0x0,0x0,0x0,0x0,0x0,0x0,0x0,0x0,0x0,0x0,0x0,0x0,0x0,0x0,0x0,0x0,0x0,0x0,0x0,0x0,0x0,0x0,0x0,0x0,0x0,0x0,0x0,0x0,0x0,0x0,0x0,0x0,0x0,0x0,0x0,0x0,0x0,0x0,0x0,0x0,0x0,0x0,0x0,0x0,0x0,0x0,0x0,0x0,0x0,0x0,0x0,0x0,0x0,0x0,0x0,0x0,0x0,0x0,0x0,0x0,0x0,0x0,0x0,0x0,0x0,0x0,0x0,0x0,0x0,0x0,0x0,0x0,0x0,0x0,0x0,0x0,0x0,0x0,0x0,0x0,0x0,0x0,0x0,0x0,0x0,0x0,0x0,0x0,0x0,0x0,0x0,0x0,0x0,0x0,0x0,0x0,0x0,0x0,0x0,0x0,0x0,0x0,0x0,0x0,0x0,0x40,0x0,0x0,0x0,0xf,0xc4,0xf3,0x3a,0xc4,0xcc,0x3,0x3b,0x7,0x5d,0x26,0x3b,0xbc,0x92,0x15,0x3b,0x4f,0xf5,0x26,0x3b,0x21,0x6a,0xe,0x3b,0x15,0x10,0xcc,0x3a,0xd6,0xc5,0xfd,0x3a,0xb8,0xe4,0xb,0x3b,0x67,0x23,0xdc,0x3a,0xa1,0x2c,0x15,0x3b,0xf6,0x54,0x14,0x3b,0xe2,0x51,0xc,0x3b,0xa2,0x7a,0x1f,0x3b,0xbf,0x8a,0xf,0x3b,0xa0,0x73,0xa,0x3b,0xe0,0xe7,0xdb,0x3a,0x87,0x1,0xf3,0x3a,0x12,0x9a,0x14,0x3b,0xfa,0xe5,0xc2,0x3a,0xf9,0x68,0xfc,0x3a,0x3,0x16,0x8,0x3b,0x21,0xbe,0xf7,0x3a,0x72,0x13,0xfa,0x3a,0x82,0x9d,0x5,0x3b,0x33,0x5a,0x9,0x3b,0xec,0xca,0x2,0x3b,0xe4,0xfd,0xd,0x3b,0x49,0x5,0x23,0x3b,0x72,0x50,0x5,0x3b,0x74,0xb0,0xb,0x3b,0xe5,0x69,0xf7,0x3a,0x86,0xea,0xb,0x3b,0x4,0x8f,0xf7,0x3a,0xc5,0xa5,0xf8,0x3a,0x94,0x41,0x8,0x3b,0x66,0x69,0x12,0x3b,0x15,0x39,0x0,0x3b,0x6b,0xc5,0x5,0x3b,0x1,0x55,0x15,0x3b,0x0,0x88,0xd3,0x3a,0xe5,0x1c,0x30,0x3b,0xd2,0x14,0x14,0x3b,0xd9,0x35,0x25,0x3b,0xa1,0xb3,0xa,0x3b,0xe4,0xcd,0x25,0x3b,0x18,0x72,0xdc,0x3a,0x4b,0x2,0x0,0x3b,0xd1,0x5d,0x11,0x3b,0xe6,0xe8,0xde,0x3a,0xe8,0xc7,0xc,0x3b,0xd1,0xdc,0xf,0x3b,0x35,0x74,0xdc,0x3a,0xdd,0x7c,0xf2,0x3a,0x4b,0xa,0x1b,0x3b,0xb2,0x40,0xc,0x3b,0xda,0xea,0xfa,0x3a,0x8f,0xd6,0xf8,0x3a,0x83,0xda,0x13,0x3b,0xf9,0xec,0x6,0x3b,0x8c,0x76,0x1e,0x3b,0xb3,0xa4,0xf0,0x3a,0x11,0xe4,0xe0,0x3a,0x70,0xfa,0x15,0x3b,0x42,0x0,0x0,0x0,0x6d,0x6f,0x64,0x65,0x6c,0x73,0x5f,0x6c,0x69,0x6e,0x65,0x61,0x72,0x2e,0x54,0x69,0x6e,0x79,0x4c,0x69,0x6e,0x65,0x61,0x72,0x2f,0x74,0x6f,0x72,0x63,0x68,0x2e,0x6e,0x6e,0x2e,0x6d,0x6f,0x64,0x75,0x6c,0x65,0x73,0x2e,0x6c,0x69,0x6e,0x65,0x61,0x72,0x2e,0x4c,0x69,0x6e,0x65,0x61,0x72,0x5f,0x6c,0x69,0x6e,0x65,0x61,0x72,0x5f,0x69,0x6e,0x3b,0x0,0x0,0x2,0x0,0x0,0x0,0x40,0x0,0x0,0x0,0x39,0x0,0x0,0x0,0xa2,0xfc,0xff,0xff,0x0,0x0,0x0,0x1,0x14,0x0,0x0,0x0,0x24,0x3,0x0,0x0,0x2,0x0,0x0,0x0,0x0,0x0,0x0,0x9,0x38,0x3,0x0,0x0,0x8c,0xfc,0xff,0xff,0x8,0x0,0x0,0x0,0x8,0x2,0x0,0x0,0x40,0x0,0x0,0x0,0x0,0x0,0x0,0x0,0x0,0x0,0x0,0x0,0x0,0x0,0x0,0x0,0x0,0x0,0x0,0x0,0x0,0x0,0x0,0x0,0x0,0x0,0x0,0x0,0x0,0x0,0x0,0x0,0x0,0x0,0x0,0x0,0x0,0x0,0x0,0x0,0x0,0x0,0x0,0x0,0x0,0x0,0x0,0x0,0x0,0x0,0x0,0x0,0x0,0x0,0x0,0x0,0x0,0x0,0x0,0x0,0x0,0x0,0x0,0x0,0x0,0x0,0x0,0x0,0x0,0x0,0x0,0x0,0x0,0x0,0x0,0x0,0x0,0x0,0x0,0x0,0x0,0x0,0x0,0x0,0x0,0x0,0x0,0x0,0x0,0x0,0x0,0x0,0x0,0x0,0x0,0x0,0x0,0x0,0x0,0x0,0x0,0x0,0x0,0x0,0x0,0x0,0x0,0x0,0x0,0x0,0x0,0x0,0x0,0x0,0x0,0x0,0x0,0x0,0x0,0x0,0x0,0x0,0x0,0x0,0x0,0x0,0x0,0x0,0x0,0x0,0x0,0x0,0x0,0x0,0x0,0x0,0x0,0x0,0x0,0x0,0x0,0x0,0x0,0x0,0x0,0x0,0x0,0x0,0x0,0x0,0x0,0x0,0x0,0x0,0x0,0x0,0x0,0x0,0x0,0x0,0x0,0x0,0x0,0x0,0x0,0x0,0x0,0x0,0x0,0x0,0x0,0x0,0x0,0x0,0x0,0x0,0x0,0x0,0x0,0x0,0x0,0x0,0x0,0x0,0x0,0x0,0x0,0x0,0x0,0x0,0x0,0x0,0x0,0x0,0x0,0x0,0x0,0x0,0x0,0x0,0x0,0x0,0x0,0x0,0x0,0x0,0x0,0x0,0x0,0x0,0x0,0x0,0x0,0x0,0x0,0x0,0x0,0x0,0x0,0x0,0x0,0x0,0x0,0x0,0x0,0x0,0x0,0x0,0x0,0x0,0x0,0x0,0x0,0x0,0x0,0x0,0x0,0x0,0x0,0x0,0x0,0x0,0x0,0x0,0x0,0x0,0x0,0x0,0x0,0x0,0x0,0x0,0x0,0x0,0x0,0x0,0x0,0x0,0x0,0x0,0x0,0x0,0x0,0x0,0x0,0x0,0x0,0x0,0x0,0x0,0x0,0x0,0x0,0x0,0x0,0x0,0x0,0x0,0x0,0x0,0x0,0x0,0x0,0x0,0x0,0x0,0x0,0x0,0x0,0x0,0x0,0x0,0x0,0x0,0x0,0x0,0x0,0x0,0x0,0x0,0x0,0x0,0x0,0x0,0x0,0x0,0x0,0x0,0x0,0x0,0x0,0x0,0x0,0x0,0x0,0x0,0x0,0x0,0x0,0x0,0x0,0x0,0x0,0x0,0x0,0x0,0x0,0x0,0x0,0x0,0x0,0x0,0x0,0x0,0x0,0x0,0x0,0x0,0x0,0x0,0x0,0x0,0x0,0x0,0x0,0x0,0x0,0x0,0x0,0x0,0x0,0x0,0x0,0x0,0x0,0x0,0x0,0x0,0x0,0x0,0x0,0x0,0x0,0x0,0x0,0x0,0x0,0x0,0x0,0x0,0x0,0x0,0x0,0x0,0x0,0x0,0x0,0x0,0x0,0x0,0x0,0x0,0x0,0x0,0x0,0x0,0x0,0x0,0x0,0x0,0x0,0x0,0x0,0x0,0x0,0x0,0x0,0x0,0x0,0x0,0x0,0x0,0x0,0x0,0x0,0x0,0x0,0x0,0x0,0x0,0x0,0x0,0x0,0x0,0x0,0x0,0x0,0x0,0x0,0x0,0x0,0x0,0x0,0x0,0x0,0x0,0x0,0x0,0x0,0x0,0x0,0x0,0x0,0x0,0x0,0x0,0x0,0x0,0x0,0x0,0x0,0x0,0x0,0x0,0x0,0x0,0x0,0x0,0x0,0x0,0x0,0x0,0x0,0x0,0x0,0x0,0x0,0x0,0x0,0x0,0x0,0x0,0x0,0x0,0x0,0x0,0x0,0x0,0x0,0x0,0x0,0x0,0x0,0x0,0x0,0x0,0x0,0x0,0x0,0x0,0x0,0x0,0x0,0x0,0x0,0x0,0x0,0x0,0x0,0x0,0x0,0x0,0x0,0x0,0x0,0x0,0x0,0x0,0x0,0x0,0x0,0x0,0x0,0x0,0x0,0x0,0x0,0x0,0x0,0x0,0x0,0x0,0x0,0x0,0x0,0x0,0x40,0x0,0x0,0x0,0x12,0xa0,0x22,0x3b,0xea,0xe7,0x2d,0x3b,0x1a,0x15,0xf,0x3b,0xbf,0xd0,0x47,0x3b,0x19,0x5c,0x40,0x3b,0x30,0x1e,0x51,0x3b,0x7a,0x1,0xa,0x3b,0xea,0xa0,0x31,0x3b,0x5f,0xec,0x28,0x3b,0xab,0xcd,0x6c,0x3b,0xa9,0x88,0x40,0x3b,0x9,0xdc,0x38,0x3b,0x1b,0x3a,0x29,0x3b,0xfb,0x66,0x49,0x3b,0x8c,0x6e,0x1e,0x3b,0xab,0x11,0x10,0x3b,0x47,0x6a,0x3f,0x3b,0x1e,0x44,0x25,0x3b,0xdd,0x0,0x56,0x3b,0x52,0xa5,0x33,0x3b,0x26,0x0,0x60,0x3b,0xe2,0x7f,0x60,0x3b,0x18,0xac,0x75,0x3b,0x7a,0x35,0x75,0x3b,0x2f,0xd,0x63,0x3b,0xa,0xa,0x65,0x3b,0x24,0x2e,0x4b,0x3b,0x77,0x9d,0x64,0x3b,0xe2,0xa2,0x35,0x3b,0xe0,0xf8,0x37,0x3b,0x21,0x11,0x26,0x3b,0x19,0x5b,0x5c,0x3b,0x17,0x5e,0x3e,0x3b,0xf1,0xcf,0x23,0x3b,0xd6,0x43,0x1d,0x3b,0x61,0xb2,0x93,0x3b,0xbb,0x7c,0x56,0x3b,0x8b,0x1f,0x20,0x3b,0x1,0xcc,0x26,0x3b,0xd5,0xcc,0x41,0x3b,0xa4,0xe1,0x24,0x3b,0xbf,0xae,0x5b,0x3b,0xf,0xa3,0x34,0x3b,0x72,0x75,0x2f,0x3b,0x30,0x19,0x43,0x3b,0x65,0xcb,0x3f,0x3b,0xa4,0x33,0x2a,0x3b,0xfb,0x64,0x20,0x3b,0x24,0x35,0x2e,0x3b,0xf1,0xb3,0x48,0x3b,0x6e,0x7a,0x69,0x3b,0x1c,0xbf,0x38,0x3b,0x35,0x62,0x4d,0x3b,0x61,0xd0,0x40,0x3b,0x86,0x44,0x81,0x3b,0x4e,0x7e,0x42,0x3b,0x73,0x4e,0x37,0x3b,0x89,0x6d,0x4f,0x3b,0x7a,0xec,0x2d,0x3b,0x1,0x9c,0x3a,0x3b,0xae,0x90,0x3c,0x3b,0xab,0xb6,0x78,0x3b,0xb8,0xa4,0x4f,0x3b,0xa3,0x8b,0x55,0x3b,0x19,0x0,0x0,0x0,0x6d,0x6f,0x64,0x65,0x6c,0x73,0x5f,0x6c,0x69,0x6e,0x65,0x61,0x72,0x2e,0x54,0x69,0x6e,0x79,0x4c,0x69,0x6e,0x65,0x61,0x72,0x3b,0x0,0x0,0x0,0x2,0x0,0x0,0x0,0x40,0x0,0x0,0x0,0x40,0x0,0x0,0x0,0x0,0x0,0x16,0x0,0x1c,0x0,0x18,0x0,0x17,0x0,0x10,0x0,0xc,0x0,0x8,0x0,0x0,0x0,0x0,0x0,0x0,0x0,0x7,0x0,0x16,0x0,0x0,0x0,0x0,0x0,0x0,0x1,0x20,0x0,0x0,0x0,0x78,0x0,0x0,0x0,0x1,0x0,0x0,0x0,0x0,0x0,0x0,0x9,0xb4,0x0,0x0,0x0,0xc,0x0,0xc,0x0,0x0,0x0,0x0,0x0,0x8,0x0,0x4,0x0,0xc,0x0,0x0,0x0,0x8,0x0,0x0,0x0,0x38,0x0,0x0,0x0,0x6,0x0,0x0,0x0,0x0,0x0,0x0,0x0,0x0,0x0,0x0,0x0,0x0,0x0,0x0,0x0,0x0,0x0,0x0,0x0,0x0,0x0,0x0,0x0,0x0,0x0,0x0,0x0,0x0,0x0,0x0,0x0,0x0,0x0,0x0,0x0,0x0,0x0,0x0,0x0,0x0,0x0,0x0,0x0,0x0,0x0,0x0,0x0,0x0,0x0,0x0,0x0,0x6,0x0,0x0,0x0,0x32,0xfd,0x80,0x3b,0x5e,0x48,0x8b,0x3b,0x93,0x8,0x55,0x3b,0x3a,0xfb,0x14,0x3b,0x70,0x36,0x1b,0x3b,0x69,0xbc,0x7e,0x3b,0x43,0x0,0x0,0x0,0x6d,0x6f,0x64,0x65,0x6c,0x73,0x5f,0x6c,0x69,0x6e,0x65,0x61,0x72,0x2e,0x54,0x69,0x6e,0x79,0x4c,0x69,0x6e,0x65,0x61,0x72,0x2f,0x74,0x6f,0x72,0x63,0x68,0x2e,0x6e,0x6e,0x2e,0x6d,0x6f,0x64,0x75,0x6c,0x65,0x73,0x2e,0x6c,0x69,0x6e,0x65,0x61,0x72,0x2e,0x4c,0x69,0x6e,0x65,0x61,0x72,0x5f,0x63,0x6c,0x61,0x73,0x73,0x69,0x66,0x69,0x65,0x72,0x3b,0x0,0x2,0x0,0x0,0x0,0x6,0x0,0x0,0x0,0x40,0x0,0x0,0x0,0x0,0x0,0x16,0x0,0x14,0x0,0x10,0x0,0x0,0x0,0x0,0x0,0xc,0x0,0x8,0x0,0x0,0x0,0x0,0x0,0x0,0x0,0x7,0x0,0x16,0x0,0x0,0x0,0x0,0x0,0x0,0x1,0x10,0x0,0x0,0x0,0x10,0x0,0x0,0x0,0x28,0x0,0x0,0x0,0x4,0x0,0x4,0x0,0x4,0x0,0x0,0x0,0x16,0x0,0x0,0x0,0x73,0x65,0x72,0x76,0x69,0x6e,0x67,0x5f,0x64,0x65,0x66,0x61,0x75,0x6c,0x74,0x5f,0x61,0x72,0x67,0x73,0x5f,0x30,0x0,0x0,0x3,0x0,0x0,0x0,0x1,0x0,0x0,0x0,0xa,0x0,0x0,0x0,0x39,0x0,0x0,0x0,0x6,0x0,0x0,0x0,0x6c,0x0,0x0,0x0,0x50,0x0,0x0,0x0,0x34,0x0,0x0,0x0,0x24,0x0,0x0,0x0,0x14,0x0,0x0,0x0,0x4,0x0,0x0,0x0,0xd0,0xff,0xff,0xff,0x6b,0x0,0x0,0x0,0x0,0x0,0x0,0x6b,0xdc,0xff,0xff,0xff,0x12,0x0,0x0,0x0,0x0,0x0,0x0,0x12,0xe8,0xff,0xff,0xff,0x4a,0x0,0x0,0x0,0x0,0x0,0x0,0x4a,0xf4,0xff,0xff,0xff,0x27,0x0,0x0,0x0,0x0,0x0,0x0,0x27,0xc,0x0,0xc,0x0,0xb,0x0,0x0,0x0,0x0,0x0,0x4,0x0,0xc,0x0,0x0,0x0,0x16,0x0,0x0,0x0,0x0,0x0,0x0,0x16,0xc,0x0,0x10,0x0,0xf,0x0,0x0,0x0,0x8,0x0,0x4,0x0,0xc,0x0,0x0,0x0,0x9,0x0,0x0,0x0,0x5,0x0,0x0,0x0,0x0,0x0,0x0,0x9};
